[PAD]
[UNK]
[CLS]
[SEP]
[MASK]
!
"
#
$
%
&
'
(
)
*
+
,
-
.
/
0
1
2
3
4
5
6
7
8
9
:
;
<
=
>
?
@
[
\
]
^
_
`
a
b
c
d
e
f
g
h
i
j
k
l
m
n
o
p
q
r
s
t
u
v
w
x
y
z
{
|
}
~
¡
¤
§
¨
°
²
³
´
·
¿
×
÷
˚
π
ω
ᄀ
ᄁ
ᄂ
ᄃ
ᄄ
ᄅ
ᄆ
ᄇ
ᄈ
ᄉ
ᄊ
ᄋ
ᄌ
ᄍ
ᄎ
ᄏ
ᄐ
ᄑ
ᄒ
ᅡ
ᅢ
ᅣ
ᅤ
ᅥ
ᅦ
ᅧ
ᅨ
ᅩ
ᅪ
ᅫ
ᅬ
ᅭ
ᅮ
ᅯ
ᅰ
ᅱ
ᅲ
ᅳ
ᅴ
ᅵ
ᆨ
ᆩ
ᆪ
ᆫ
ᆬ
ᆭ
ᆮ
ᆯ
ᆰ
ᆱ
ᆲ
ᆳ
ᆴ
ᆵ
ᆶ
ᆷ
ᆸ
ᆹ
ᆺ
ᆻ
ᆼ
ᆽ
ᆾ
ᆿ
ᇀ
ᇁ
ᇂ
‘
’
“
”
‥
…
※
ⁿ
₂
ⅰ
ⅱ
ⅲ
←
↑
→
↓
↗
↘
∀
∇
∼
≤
≥
⊙
⌒
②
⑦
⑹
ⓒ
ⓛ
ⓞ
─
━
┏
■
□
△
▶
▷
▼
▽
◀
◁
◆
○
◎
●
◐
◑
★
☆
☜
☞
☻
♡
♤
♥
♧
♩
♪
♫
♬
、
。
《
》
「
」
『
』
【
】
い
う
え
お
か
き
け
こ
し
す
せ
そ
た
っ
つ
て
と
な
に
ね
の
は
ひ
ほ
ま
む
も
ゃ
よ
ら
り
る
れ
ろ
わ
を
ん
イ
ウ
エ
カ
ク
コ
シ
ス
タ
チ
ッ
テ
ト
ニ
ハ
ヒ
ヘ
マ
ム
メ
ョ
ヨ
リ
ル
ロ
ワ
ン
ㄱ
ㄲ
ㄳ
ㄴ
ㄵ
ㄶ
ㄷ
ㄸ
ㄹ
ㄺ
ㄻ
ㅀ
ㅁ
ㅂ
ㅃ
ㅄ
ㅅ
ㅆ
ㅇ
ㅈ
ㅉ
ㅊ
ㅋ
ㅌ
ㅍ
ㅎ
ㅏ
ㅐ
ㅑ
ㅒ
ㅓ
ㅔ
ㅕ
ㅖ
ㅗ
ㅘ
ㅛ
ㅜ
ㅝ
ㅞ
ㅟ
ㅠ
ㅡ
ㅢ
ㅣ
ㅤ
ㆀ
ㆍ
一
三
上
下
不
中
乃
也
亞
亡
人
低
佑
作
侖
信
候
倭
傑
僞
先
典
凸
出
刻
前
力
助
北
友
反
古
史
名
吐
味
品
善
喜
型
塵
外
大
天
失
女
好
孝
完
定
害
家
小
山
岡
峰
峽
希
師
年
幸
式
張
彩
彼
待
律
後
復
必
忍
念
急
性
情
惡
愛
感
慄
慶
憎
戰
手
故
敵
新
旋
日
映
曲
最
會
月
有
望
期
木
末
本
林
柱
様
檢
歌
死
氣
求
江
法
派
流
淇
湖
漁
演
濡
火
無
王
生
用
田
甲
申
男
画
異
白
的
皿
益
盧
直
看
眞
眠
祖
神
禪
禮
秀
立
笑
糞
紅
紐
紙
終
結
綠
緣
美
老
者
腸
自
臭
舒
色
苦
英
葉
蒼
藝
蜀
蟲
要
見
觸
言
記
論
謝
讐
車
道
部
都
里
野
鈴
鋒
錢
間
集
離
難
電
霆
非
面
韓
頑
香
驛
高
！
，
？
＼
＾
｀
ｘ
～
￣
##ᅩ
##ᄅ
##ᄋ
##ᅵ
##ᄒ
##ᅢ
##ᄃ
##ᄇ
##ᅧ
##ᄌ
##ᅮ
##ᄂ
##ᆯ
##ᅪ
##ᆻ
##ᅥ
##ᅳ
##ᄐ
##ᅦ
##ᆫ
##ᅬ
##ᆷ
##f
##ᄆ
##ᅡ
##ᄄ
##ᆨ
##ᄀ
##ᇀ
##1
##ᅲ
##♥
##ᄍ
##ᆼ
##ᆺ
##ᅭ
##ᄉ
##ᅱ
##ᅴ
##ᆾ
##ᄎ
##ᇂ
##ᆩ
##ㅋ
##ᅨ
##0
##ᄁ
##ᅣ
##ᄊ
##ᆸ
##ᆹ
##ᅫ
##ᄏ
##ᆮ
##ᅯ
##ᄑ
##2
##ㅌ
##ㅊ
##ㅡ
##ㄷ
##ㄹ
##ᆽ
##ᇁ
##ᄈ
##o
##d
##l
##8
##ᆰ
##ᅤ
##ㅇ
##ᆭ
##5
##ᆿ
##t
##b
##c
##ᆲ
##ㅎ
##ㅅ
##v
##ㅜ
##g
##ㅠ
##i
##n
##s
##★
##m
##9
##7
##ᆶ
##ᆪ
##4
##3
##ᆱ
##ᅰ
##p
##e
##a
##u
##6
##ㅈ
##q
##r
##y
##h
##w
##ㅣ
##→
##↗
##ㅕ
##ㄴ
##ㅘ
##ㄻ
##ㅏ
##x
##ㅗ
##ㅂ
##♡
##k
##ㅉ
##j
##ㅓ
##ᆬ
##チ
##ョ
##ッ
##ハ
##リ
##の
##エ
##ロ
##ᆴ
##━
##ㄱ
##ㅁ
##ㅆ
##ㄲ
##ㅐ
##ン
##ト
##ⓞ
##ⓛ
##ᆵ
##²
##○
##↓
##ㆍ
##イ
##テ
##ㅒ
##ㅔ
##z
##◆
##ㅑ
##ㅛ
##☆
##∼
##ㅃ
##ㅄ
##ㅍ
##×
##←
##∇
##｀
##ω
##´
##ⅱ
##ⅲ
##↘
##ㅝ
##ク
##ワ
##ヨ
##ル
##シ
##ム
##ヒ
##し
##ま
##す
##ㄸ
##¨
##♬
##☜
##☞
##こ
##と
##か
##て
##き
##な
##い
##♩
##♪
##ⁿ
##⌒
##ㅀ
##ㅟ
##る
##ㄶ
##ᆳ
##わ
##は
##ㄺ
##─
##ㄳ
##れ
##ら
##つ
##も
##ヘ
##↑
##っ
##た
##よ
##け
##＾
##☻
##■
##⊙
##ㅢ
##ㅞ
##▼
##ね
##∀
##≤
##◐
##◑
##￣
##ㆀ
##÷
##◀
##り
##え
##◎
##●
##▷
##◁
##▽
##△
##□
##ㅤ
##ひ
##ほ
##ろ
##ゃ
##₂
##ん
##う
##に
##タ
##カ
##ㅖ
##이
##ᅳᆫ
##ᅡᆫ
##다
##ᅳᆯ
##는
##ᅧᆼ
##고
##지
##가
이
##화
##도
##ᅧᆼ화
##ᅥᆫ
##하
##ᅧᆫ
##어
##ᅡᆯ
##ᅡᆼ
##에
##ᅳᄅ
영화
##저
##서
##기
##게
##요
##ᅮᆫ
##리
아
##의
##니
##아
##ᅳᆷ
##시
##은
##나
##미
##을
보
##라
##한
어
##만
##ᅡᆨ
##들
##해
가
##ᅮᆯ
##보
##거
지
##로
재
조
##데
##인
##ᆻ다
저
시
나
##면
재미
##스
##네
##점
##ㅋㅋ
##무
##주
##를
##영화
##음
그
##마
##ᅢᆼ
##ᆻ는
모
##까
다
너
##말
정
##우
##구
##려
##자
하
##대
##ᅩᆨ
마
##니다
##여
##ᆻ어
##ᅩᆼ
사
##야
기
주
##ᆸ니다
여
좋
##드
##없
##ᅳ로
없
내
너무
진
##수
##오
##ᆨ이
감
봐
연
##과
##러
##작
##장
##으로
최
##상
그ᄅ
##짜
##지만
한
##하고
정말
##ᅧᆯ
##치
##네요
##간
안
##사
거
##ᆻ는데
##되
만
##와
##전
##정
##ᅢᆨ
##냐
##ᅯᆫ
스
##ᆷ이
대
감도
##에서
##히
##건
##재
평
##적
전
진짜
오
##던
##운
우
무
수
##하는
##진
##ᅥᆯ
##내
연기
##ᅩ리
##부
미
##것
##디
이ᄅ
##ᆼ이
##ᅳ라
자
소
##연
##랑
##ᅥᆼ
생
더
잘
##봐
스ᄐ
##ᅳᆼ
최고
##때
##조
##ᅪᆫ
##각
##ᅢ우
##제
제
##루
도
##터
아니
##ᅵᆯ
왜
차
않
평점
개
##분
##세
이런
##성
해
인
##국
노
##생
##습니다
##비
말
##할
##ᆻ음
##으
##하다
##ᅳ라마
##버
##용
##신
##르
##그
좋아
##래
##ᆻ어요
##같
##ᆻ던
##일
비
유
##ᆸ다
##워
##중
스토리
##함
##들이
##람
되
구
##감
##더
같
##금
남
느
##바
##든
바
못
##하게
뭐
생각
##듯
알
##ㅋㅋㅋㅋ
##ᅳ레
본
##모
##년
##냥
일
##물
별
볼
##ᇂ게
보고
##본
부
##끼
##까지
##ᆻ을
##안
##푸
##노
##차
##ᆻ습니다
##편
장
머
##겨
##실
지루
것
##임
드라마
##준
##ᆻ게
##개
##션
처
##ᅳᇀ
그냥
작
많
##보다
배우
고
##걸
재미이
##ᅳ러
##유
##소
추
##번
##이다
##체
##트
감동
중
##름
##타
10
공
##력
##ᅵᆫ
역
완
##ᅳ레기
##막
예
애
나오
##ᅦ이
##면서
아까
##난
##악
##들어
##ᆻ고
끝
요
화
##ᅢᆫ
##ᆻ지만
보는
좀
##라고
##해서
재미없
##머
##심
##문
##적인
쓰레기
##티
참
##ᆻ으
##ᆫ다
사랑
##류
반
##선
##단
웃
##져
ㅋㅋ
##공
결
##포
명
사람
에
##ᆯ이
영화를
##동
다시
##출
##는데
시간
신
##직
좋은
##적이
##품
상
##명
##망
눈
영
##지막
##ᅢᆨ션
##보고
실
##른
감독
싶
이거
##원
내용
그리
##ᅥᆷ
##두
느끼
##위
##재미
세
코
이건
마지막
원
불
##반
영화가
##렇게
##ᆯ리
영화는
##추
난
##들의
내가
완전
##처
##ᅣᆼ
##ᅳ리
##속
##었다
의
##질
살
##족
##지는
와
##영
##ㅠㅠ
매
##ᆯ라
봤는데
액션
최고의
없는
기대
##줄
##하지
##ᅳᆨ
##라는
없다
ㅋㅋㅋ
할
##ᆻ네요
##싶
있는
넘
##스러
성
하나
##울
##호
후
##코
##회
##ᅳᆺ
##즈
##ᅵᆨ
##에게
처음
지금
##당
##ᅫᆫ
허
짜
##현
##며
초
그러
##야기
##경
때
##슨
##한다
##혀
##쉬
##억
김
한국
##긴
##길
##청
현
##애
##란
이게
##세요
##발
##테
##없는
##했다
##군
##엔
그래
또
강
위
괜
##관
만들어
##같은
이렇게
1점
##인데
10점
하는
##박
##님
##들은
##린
별로
극
##좋
##너
##ᆻ네
##입니다
로
##계
모르
돈
##적으로
연출
있어
##ᆻ으면
##않
##식
멋
이해
##찮
##대로
작품
과
관
배
야
##씨
##다가
역시
분
그리고
##부터
음
두
##인공
캐
##설
따
##민
히
심
동
우리
##녀
##프
##나오
뭔
##ᆸ고
명작
##판
##록
재밌게
평점이
##키
##교
##ᆸ게
##급
포
이야기
##증
아이
당
죽
들
##움
이영화
많이
##겠다
##되는
##남
괜찮
어ᄄ
##천
여자
##정도
##절
##합니다
서
잔
##름다
##날
##학
##oo
##된
##느
그런
장면
엄
##피
##지도
##레
##주는
발
아쉬
아름다
##았다
##슴
최악
막
호
##이라
##연기
꼭
만든
##문에
보여
ㅠㅠ
##방
있다
귀
ㅎㅎ
##맨
마음
##ᆨ한
단
버
##잼
##ᅳ릴
##예
##ᆺ다
박
일본
공포
코미
##행
슬
##있는
설
##후
##못
특
##메
같은
아무
유치
##파
무슨
울
##ᆯ입
존
아닌
##ᅵᆯ요
##만에
줄
##론
##것도
##극
##배우
오래
결말
표
##살
##습
망
현실
##어서
느ᄁ
누
##아서
아깝다
볼만
##쳐
나와
소재
리
##가는
재밌어
몰입
##ᆻ지
기억
짱
##없이
없고
##ᆻ나
다른
##없다
##하나
가장
##형
##먹
메
##목
이상
##하기
##술
##글
흥
남자
보면
##였다
##친
만들
반전
점
##인가
보기
원작
스릴
##는다
##릭
뻔
##드라마
절
속
말이
빠
가슴
솔
##럼
##ㅋㅋㅋㅋㅋㅋㅋㅋ
##평
##ᆨ지
##ᅥᆯ어
얼
이제
애니
눈물
##ᆷ에
20
선
ㅡㅡ
##리는
##드는
##니까
##나는
##딩
주인공
##하면
##크
영화다
##역
##벼
무서
##구나
긴
##인지
낮
##색
근
방
힘
계
맞
인생
##받
##잔
정도
며
충
영상
느낌
##봉
짜증
라
치
인간
대한
높
##매
새
##용이
봤다
피
##쁘
전개
##죠
안되
##봐도
##씬
##빠
##이나
##너무
솔직
##카
##시간
##사람
굿
##릭터
몇
##지마
걸
극장
많은
##스ᄐ
##는거
하지만
##격
타
##볼
##알
##좀
집
파
간
##따
어ᄍ
적
순
아주
##아요
모든
아직
##는게
재밌다
##더라
##순
건
##력이
##지고
한번
억지
##등
필요
##근
##나서
##ᆺ어
##ᆻ을까
##료
##에는
##지않
##아니
끝까지
##하지만
졸
##태
하고
듯
##감도
##아까
##복
##려고
좋다
##처럼
문
없어
언
##줘
솔직히
##투
##픈
##즘
##큼
음악
외
##희
수준
##성이
어떠
편
##케
##ᆩ에
뭔가
##릴
##팅
느껴
찾
게
##0년
##쾌
##ㅋㅋㅋ
전혀
##훈
배우들
##새
봐도
##그ᄅ
##께
행
##퍼
잼이
추천
##람이
여운
모두
딱
##산
받
어디
욕
드
보다
##달
##스터
##중에
웃기
##능
##집
##배
##셔
캐릭터
코미디
##메이
대박
##잘
경
같다
내용이
찍
##언
##뿐
실망
귀여
긴장
그래도
##했던
##거리
##리즈
##통
##놓
엄청
돌
어려
독
##최
##들을
##나라
가족
매력
##런
갈
출
##꺼
##ᅯᆯ
##보는
##주고
싸
이걸
##짱
##불
근데
##탄
베
##기도
최악의
떠
##ᅵᆯ리
##장면
달
대단
어떻게
##접
##진짜
열
재미있게
##쟁
푸
손
##ㅎㅎ
계속
엉
교
믿
준
영화의
재미없다
##건지
##늘
잔잔
##결
뒤
대사
친
##있어
까
먹
개봉
감동적이
제목
물
알아
꼬
약
흥미
어이
##잡
내내
함
영화에
토
##토
##수록
##때문에
##하네요
잼
표현
괴
감독이
##엇
##했는데
##없고
##있다
악
모르게
카
##에도
않고
쓰
##웃
##수가
아니라
즐
등
##ᆫ데
##뜻
##이고
##써
##내내
##다니
개인
##ᆷ을
요즘
모습
##별
삶
스릴러
조금
##승
##소리
그렇
##양
##점이
##봤는데
나오는
##석
떨어
##한테
진심
잊
여주
앞
연기가
티
##감이
기분
##품이
않은
막장
들어
##맞
##하네
연기력
##같다
##각이
아니다
##영화는
##ᅳ를
내용도
##기에
##악이
##전에
##라도
재미도
레
천
##리고
니
연기도
##종
제대로
오랜
나는
아름다운
꾸
홍
담
중간
봐야
##라리
##보면
##ᆸ이
알바
##송
자체
특히
##해요
보다가
제작
스토리가
##큐
##ᅵᆯ링
##초
##표
##만큼
제일
##ᆻ는지
##기는
부족
디
노래
##륭
나름
정신
##하면서
##들도
이유
##리오
데
너무나
만드는
보게
1편
아까운
##스트
##진다
차라리
##인듯
##생각
##외
##강
살아
##ᅮᆯ륭
국
##난다
##타임
oo
삼
각
어설
##ᆸ답
언제
##대체
작가
형
##기가
##영화가
##이어
공감
절대
날
##ᆻ을때
싶다
##돼
목
시작
##좋아
##싶다
##병
##범
재미있어
##딴
##정이
ㅋㅋㅋㅋ
##꾸
##치는
미국
##으면
글
##얼
왜이
좋아하는
##만한
아니고
시간이
로맨
##0년대
##ㅡㅡ
복
훌륭
##st
##락
##00
나도
스토리도
때문에
##객
사람이
시리즈
않는
세상
##커
영화라고
##마다
여운이
출연
뻔한
아직도
##ᅱ어
도대체
엔
따뜻
통
##황
##할수
찌
##ᆺ는데
희
##슬
##ᅡᆯ리
그저
##쁜
##해도
##넘
수작
의미
##군요
##뭐
##이상
될
영화로
황
않아
싶은
##ᆯ로
장난
##혼
##브
##이는
영화여
##련
##허
##블
보면서
##많
감동이
무엇
##밖에
빼
##ᆺ이
##에요
##나고
걍
##ㅜㅜ
알게
괜찮은
##업
어린
##치고
뭘
신선
##창
올
재밌어요
##베
##야지
##준다
##억이
잠
##나리오
만화
얼마
질
친구
##찬
영화입니다
##기를
##던데
강추
cg
##로운
##으로도
##법
감독의
##권
##이지
##더니
마지막에
산
시청
##스러운
좋았다
겨
주는
변
오랜만에
##최고
##향
느낌이
사실
점수
ooo
판
싫
개인적으로
##ᆸ지
##림
남는
##담
답답
확
##굴
##인이
##패
한다
생각이
초반
되는
용
우리나라
나온
##짐
##것이
허접
채
있
##죽
웃음
헐
##리가
멋진
##영화를
##ᆻ으나
훨
이해가
시나리오
##타까
##메이션
##즌
오늘
써
재밋
##들에게
##빙
재미가
##없음
작품이
킬링
##튼
##ᅳᆯ어
전쟁
##나게
자신
##싶은
1점도
청
부분
배우들의
더러
보는내내
배경
##갈
없음
##꼬
양
지나
tv
지루하고
봤습니다
어색
낚
된
완벼
영화관
소름
어떤
총
좋고
##뻔
최고다
되어
옛
슬프
##된다
지루한
학
깊
결국
##스토리
##규
##이랑
봤던
유쾌
깨
다큐
##성도
인상
##참
둘
왠
궁
ㅜㅜ
이딴
안타까
분위
##룡
##그래
태
시대
##스팅
##욱
러
##효
##쓰
임
##쌍
##부분
없이
아무리
문제
커
진정
팬
##디오
스타
환
몰라
찾아
식
##공이
범
##플
##동안
재미없어
##이가
##지가
놀라
클
졸작
##점은
##잖
당시
어릴
관객
보아
포스터
##구만
진부
예술
제발
재밌는
역사
##입
함께
지루함
##감독
##켜
큰
##왜
몰입도
빠져
즐거
##해야
갑
##보게
못한
##뻐
##만들어
종
##짝
##견
얼마나
애니메이션
킬링타임
뿐
##하는데
백
은
보세요
민
##봤다
##라면
##ᆺ한
암
##시길
##없어
후회
공포영화
주연
휴
##이라는
##독
##나와
혼
패
##ᅡᆼ비
##존
##보니
##구요
##건가
지루하다
꽤
##페
##덕
영화도
여러
연기는
투
기억에
##다고
##나마
##보단
개연
##한데
길
긴장감
##클
돌아
##렸다
그렇게
##춘
##점대
좋게
##끝
##되어
입
보지마
##한거
얘
키
##정말
##인공이
##험
##끔
##합
안되는
엔딩
b급
##혜
##함이
##느끼
##돌
엄마
##♥♥
주제
터
보지
어느
##낸
쉬
매우
##놔
##웠다
싶어
잔인
주고
##째
좋아요
폭
##하며
최악이
##놈
##텐데
##나요
##했음
##짓
같이
한국영화
옛날
병
##약
##놓고
##찍
충분
극장에서
군
##ᅳ려
행복
##귀
감정
##채
##들과
##ᆻ었는데
##왕
것이
궁금
##ᆸ네요
##당히
코믹
##사랑
말도
하나도
순수
먼
추억
##누
영화라
##적이고
##인줄
블
웨
있고
##같이
알고
꺼
##려는
불쌍
그래서
##봄
여기
2편
따라
광
##자기
##완
미친
모르겠다
##환
##죄
돼
##빈
##ㅠㅠㅠㅠ
##찌
##닥
##굿
##온
##내용
뛰어
##하시
##마디
ㅋㅋㅋㅋㅋ
##ᆻ냐
봤어요
캐스팅
ost
풀
##랄
##ᆯ까
##월
내용은
##주의
마음이
하지
않는다
굳
탄
##ᆼ장
##가지
잡
색
감사
약간
##휴
##한영화
대체
그만
##길래
위해
설정
누가
엉성
네이
##ᆨ스
이정도
##쓰레기
그나마
영화네요
##만든
상상
후반
프로
##백
재밌음
##캐
헤
흘
##ᅳ랑
##함을
철
##됨
중국
실화
왕
소리
ㅉㅉ
##것같
##다는
##광
더빙
비스
첨
##이야
영화중
감동도
영상미
이러
##ᅳ래
##해지는
##점을
이쁘
이름
머리
##이라고
볼수
위한
가슴이
똥
##0분
##ㄷㄷ
있을
##기만
죽이
걸작
얼굴
돋
##성을
눈물이
첫
끝나
잘봐
##워서
19
##ᆺ음
##깊
##맛
##콩
갈수록
##이네
읽
기억이
##될
##충
훨씬
흔
다음
##말이
##침
숨
죄
##거지
##자가
##감동
##듯한
##했지만
전체
존나
회
재미없음
##멘
##택
##득
충격
##먼
##찰
네이버
##드리
테
##김
연기를
##척
네
똑
##ood
결말이
##ᆺ어요
##개도
발연기
집중
##그러
씨
##닝
##스럽다
##픔
##것을
##이란
##시키
다들
비교
##틱
번
없었다
단순
티비
##가서
##자체
##열
오글
##이네요
바ᄁ
한마디
비디오
재미있다
어설픈
책
케
##ᆫ가
##이지만
시즌
간만에
송
쪼
사람들이
이미
재밌고
##스가
했다
##타지
나올
200
굉장
몸
안나오
##싸
밖에
재밌
##버린
##돈
갖
사람들
##잼이
인물
##등학
##변
##눈
##ᆷ마
아쉽다
혹
##괴
##10
것도
##라니
##폭
느낄
##지지
##대한
여배우
보여주는
3류
##er
##아이
##말고
영화관에서
배우들이
##쯤
##ᆺ을
놓
##졌다
##짜리
교훈
취
##ᅮᆨ
good
딸
이것
##작품
화려
잔잔한
훈
것을
쓰레기영화
##츠
##거나
사회
##르게
웃겨
등장
진정한
스토리는
괜찮아
풍
장르
애들
멍
쓸
이후
별점
##하하
##수준
감동적인
줘
흐
##ᅮᆯ잼
##본다
##머니
존재
##있고
영화였다
##립
바로
좋은데
##아깝다
삼류
로맨스
킬링타임용
##해라
##보기
마이
##버지
##이야기
맘에
##륜
독트
크
##인의
다운
##전개
##또
전부
해서
당신
##되고
했는데
##할때
생각보다
여주인공
끄
##거같
직
재미는
평가
않다
생각을
크리
##삼
잘못
같아요
가벼
윤
##싶어
아님
뭐지
매력이
두번
##론가
힘들
##깐
##필요
거의
##건데
##평점
있을까
##웅
##연히
지루해
재미있는
상당히
##인생
뭐야
##년이
허무
중간에
항
##끄러
보니
##라이
각본
##령
##레이
##시절
##한번
##주세요
##영화다
대해
그러나
하게
##워요
영화임
노잼
세계
##ᆻ더니
##킨
이번
##라서
그대로
##칠
감동을
예상
높은
sf
슈
ㅋㅋㅋㅋㅋㅋㅋㅋㅋ
##지루
어른
어울
생각해
##곤
된다
받아
2점
안보
실제
초딩
같은데
정도로
##잖아
빵
케이
영화인데
##리지
##거야
하다
자연
##윤
##정도로
몇번
##욕
##밀
##수를
드러
빨리
##가고
##활
나의
자기
않을
##널
나이
##노잼
성룡
맨
흑
##ᆺ글
##간다
밑
어쩌
##팬
재밌네요
##영화의
주인공이
재미있어요
##좋은
이영화를
말아
준다
에로
보여주
기다
나와서
혼자
##는지
제가
흠
##액션
##철
##하냐
##스타
멜로
##낭비
##이팅
바라
##ᅮᆼ
그때
완벽
있지만
##하자
##심이
좀비
갑자기
착
##에서도
##르는
흐ᄅ
##고는
저런
봐서
멋지
그녀
울어
원작을
방송
##받아
으
##려서
봤지만
권
이런영화
##년도
##보다는
어디서
질질
묘
##듬
##ᆸ시
잃
##린다
평점을
슬픈
목소리
굉장히
##혹
##탈
##스ᄅ
##분들
구성
일단
벌
##ᆺ고
##만들
꿈
시청류
##틀
있게
##저히
본다
마음에
새로운
쳐
##지를
놀
줄거리
##하여
뭐냐
누구
판타지
이어
저는
소설
##때마다
장면이
##예요
201
낮은
프랑
평범
끝내
상영
라는
확실
##다른
100
##으면서
##이라도
없을
뭐가
극장판
##인다
화면
재미없는
상황
있어서
믿고
풀어
##에선
더욱
예쁘
의도
훌륭한
압
만드
##에서는
평론가
##코미
루
##였음
생각하게
##나오는
볼만한
쩌
##ᅪᆯ
##씩
##시대
##여서
##사가
빛
항상
운
전형
역대
예고
불편
##쓸
##ᆮ고
너무너무
못하는
성우
##ᅳᆫ다
##했
가치
봐라
개그
처음부터
드리
##픽
##님이
빈
살인
##탕
##ᆸ네
##스럽고
##ᅳ루
##리를
##무서
##흐
##하니
중요
물론
자체가
한심
헐리
충분히
탄탄
##징
##유의
##답
봤음
금
##ᆸ지만
가지고
있었다
##옥
##도록
영화보다
##일이
##중간
한마디로
있는데
##우드
감독님
점점
##책
##들아
##했어
비해
나온다
사람은
##느낌
사이
없어서
##진진
##봐서
##르고
좋은영화
향
겁
##땜에
##조건
참고
그런지
찍어
어릴때
프랑스
##떠
나에게
##주인공
한편
아까움
관람
##메디
끌
##필
댓글
해도
##속에
대단한
홍콩
짝
##곡
##기고
젊
감성
감독은
##하지않
흥행
순간
편집
##뒤
##식이
##을수
##재미이
ㅎㅎㅎ
황당
식상
좋네요
##그런
뮤
##만이
그게
합니다
맛
##하지도
이영화는
돋보
훈훈
것은
빨
쏘
창
##ᆸ습니다
##빼
재밌는데
분위기
도저히
과거
안된다
능
봄
##보면서
##야할
만족
##것같다
##풍
##ᆯ린
혀
##량
참신
원래
불륜
##ᆯ리티
돈주고
어쩔
##취
승
##딩이
##조차
평점은
더럽게
섬
##행이
##거다
수가
미안
##ᆻ을텐데
짜증나
좋겠다
엉망
카메
이것도
다시봐도
슬퍼
전개가
맥
##ᆻ구나
##컬
소중
보는데
지금까지
아닌가
망작
##알아
##리의
##싫
##만으로도
지겨
##자의
##히려
무조건
유명
짧
##던가
##멋
흥미진진
필
자극
##저씨
여전
이래
##높
흥미로
범죄
##만의
##영화중
엄청난
개연성
깔
샤
##그리
##기대
흘러
##스를
##지게
넘어
아쉬운
재밌었다
무섭
##ᅪᆯ영
##뷰
좋을
##사람이
돈이
##따위
##코미디
가는
##스의
검
오히려
##신이
##년전
역겨
th
##묘
아빠
없네
배우가
액션도
괜히
죽음
얘기
견
##깨
##팔
급
##움이
진지
온
사랑을
모르고
그닥
최근
결혼
##하긴
낫다
##스마
##사회
사람들은
분명
후반부
페
##하는거
평점에
##ᆨ시
##국이
##렬
봤네요
비추
##적이다
##벌
이리
미화
자꾸
앞으로
희망
끼
빌
##여자
##버려
남아
인간의
학교
0점
##는것
##했어요
##없네
만점
설명
유치한
싫어
완벽한
있음
영화인
아버지
##했고
##줌
내인생
같아
예전에
아까워
ㅠㅠㅠ
##수이
전편
##하다고
많아
전형적인
예고편
##bs
가능
진행
##치게
힘든
독립
복수
감상
알려
별루
따뜻한
##시는
##나면
##했습니다
무서운
##지마라
##스런
##쿠
##in
입니다
시절
몰
사라
##셈
느끼게
지금도
현재
억지로
##균
##엄
##낮
##한게
나쁜
##민국
##ᅳ린
3점
뜬
##어로
그려
그럴
그런데
아무것도
##벽
워
##랴
##보세요
넣
없네요
##내고
완성도
깜
##인물
다이
##양이
##빛
바보
##스로
##프로
##는건
##ᆻ다고
저도
나쁘
##숙
##친구
9점
꿀잼
이런거
알았다
##빵
좋음
전문
##협
연출이
동화
이야기를
어렸을때
##헤
##어도
대작
##율
기대하고
아이들이
##웨
##쇼
##나이
##대의
진실
우연히
묻
이런걸
인정
좋았어요
초등학
듯한
먹먹
##이런
##돋
##영화로
하면
스ᄏ
##하는게
덕
##봐라
중반
영원
##현실
메세
잊혀
스타일
2시간
쓴
팔
##ᆻ죠
저질
전기
신기
선택
천재
어설프
비슷한
12
##춰
전작
##내는
##ᆻ으니
##님의
연출력
서로
대한민국
로맨틱
멍청
촬영
너무재미
말고
것이다
처음으로
허술
멋이
청춘
##었던
아오
요소
코메디
적당
##으려
##이었다
##함과
부모
화이팅
늘
응
틀
유머
관계
이연
졸라
나라
다르
##상을
##념
##방송
15
##무리
##올
밀
모르는
특유의
##평가
돌려
글ᄊ
류
핵
잘만들어
##봐야
##일까
재미있고
시간낭비
##예산
부족한
탈
퍼
##ᆺ는
##착
##끈
##ᆻ어야
##장이
우울
노력
##ᆻ던데
##심을
법
##틴
영화에서
아마
##보는데
그의
거지
##안되는
##놀
##콤
##같은데
뭔지
왜이리
알았는데
쇼
##ᆫ스
##그라
##기엔
##보이
##중이
##드가
##수도
##럭
않았다
##그냥
##더군요
##당시
##이라면
속편
##랄까
3편
##ㅇㅇ
##생겨
재미없고
촌
리메이
병맛
시청률
##다시
##겠지
노출
또한
유치하고
이상한
왠지
최악이다
##어나
##시켜
##안하고
뜨
지난
조연
##ᆻ다는
마치
##세가
##면서도
90년대
게이
플
##쪽
##껴
##었음
나만
여성
##오는
그럼
만큼
그림
성장
명작이다
장면은
반전이
떠오
ooo기
##어울
나머
해피
말하고
##육
예전
죽는
누군
이젠
새로
##많은
전체적으로
화려한
뽀
정치
있다는
진부한
면
##이코
사건
않음
놈
고마
만들지
어찌
무엇보다
잘봤습니다
##시고
##시리즈
올리
보고나서
짱짱
경찰
귀여운
모습이
뜬금
찬
##ᆻ더라
##였는데
바람
4점
낫
##하는지
##든다
##년에
##소한
중에
##앙
##닿
안봐
대충
##것이다
##좋게
아니지만
드라마를
##한다는
여자가
마음을
소재는
##빨
##쁨
##이거
##나가
다만
##자를
하는데
##짜증
##정을
전설
미래
좋았습니다
영웅
##애니
귀신
재밌었어요
##아니고
대단하다
##떨어
##펑
##리에
##을때
##자는
##자들
해야
스토리에
그래픽
그렇고
##쩌
짐
##인거
아닐까
남주
듣
손발
웬
밑에
어두
아니면
드라마가
##막장
지금봐도
힘들어
너무나도
##폐
이뻐
##암
접
생각한다
애들이
눈이
##처음
##몇
##하면서도
멀
월
##랙
아는
하루
##과는
안맞
이런게
좋았고
##놓은
##별로
케이블
리메이크
80년대
ㅅㅂ
##한듯
##해주
##인은
##였습니다
못하고
보고싶은
##찾
##걸까
웃긴
별로다
##아닌
##껏
먼저
##vd
##수있는
심리
제작비
환상
감사합니다
##ᆸ시다
##화가
##하셔
다소
스케
자유
##져서
이야기가
이영화가
메시
삶을
영화였습니다
##어가
##거리는
같습니다
역시나
심심
라고
증
한계
##감을
##ᆻ을듯
##심히
보여준
피해
ㄷㄷ
##or
##하던
보내
감정이
##것은
##터리
늙
##명작
그런가
##먹고
##ㅋㅋㅋㅋㅋㅋㅋㅋㅋㅋㅋㅋㅋㅋㅋㅋ
허접한
자신의
군대
##완전
##딱
아놔
##만하면
질리
논
성공
##좋고
##이라니
어이없는
중간중간
인상깊
확실히
트
있나
##해주는
저예산
시도
##였던
전달
잘만든
##분에
했던
만들었다
음악이
세상에
깊은
글쎄
##한건
##해보
##웠던
##모습
8점
##골
영화보고
영화중에
##만으로
가끔
나를
##마저
##대박
봤어
만나
연기력이
##봤어요
결론
##스럽게
매력적인
##많이
##드라
##인을
그다
##려면
연애
안돼
했지만
눈을
내용을
게임
##새끼
비슷
카메라
dvd
효
##끌
이기
##하려는
거기
않게
##세계
좋았는데
보고싶
있었던
외국
어색한
철학
젊은
7점
##홍
##지못
##스테
##영화에
##친다
##힌
미소
되게
같네요
이건뭐
액션은
모습을
어린이
보지마세요
낭비
씬
아프
좋았음
스토리와
##격이
##실망
화가
의외
액션이
##순간
제작진
딴
##헌
영화이다
다가
##지도않
왜이렇게
##그램
를
##ᅯᆯ리티
##지컬
보이는
##했으면
가까
볼때마다
고민
돈아까
리얼
순수한
##풀
##있는데
##ᅥᆫ다
영화지만
아저씨
얻
내생
붙
사랑이
사람을
겁나
폐
##흥
##닫
기본
감탄
와닿
##절한
호러
특별
수준이
어이가
슈퍼
5점
##아아
보이
##들만
조폭
##우는
##사는
올라
연기에
##성애
보고싶다
##보다가
실패
설레
망쳐
##하기만
독특
끊
##탁
##몽
##로서
##구려
평생
해주는
##더만
굿굿
느껴지는
찍은
부분이
독특한
여전히
##씀
##ᅢᆼ이
오락
##내요
드라마는
##번째
##트가
나오고
아름답다
떨어지는
##응
##ᆺ네
봤었는데
더이상
유일
역할
처음이다
든다
레이
##턴
보시
##버렸다
스토리를
골
보는게
난다
슬픔
아닌데
##을듯
##만드는
저렇게
##스는
##없어서
해준
##으니
##안되
섹시
살짝
리뷰
어째
이유가
슬프다
유쾌한
는
##뜨
##슈
##ou
##로는
그들의
모자
마라
재미있음
##소년
끝나고
##영상
과연
있다면
소재를
추천합니다
소름끼
블랙
평범한
에이
##하세요
##저럭
##말로
전에
##북
해주
##으며
공감이
사랑하는
##명이
##추천
기대를
##증이
라이
귀엽고
혹시
던
##얘
##ᆸ을
##ᆸ니까
##ᆸ쓸
##니아
시선
나서
그걸
##숨
연예
정말로
미쳐
생각나
##모르게
예쁜
##하지마
죽어
##스토
풋
괴물
종교
안하고
##넣
분노
##움을
아름답고
몰입이
##지않는
감동적이고
굳이
깔끔
이연걸
##끄
이하
어제
##해지
나가
##센
시간아까
##위해
난해
##콘
##좋다
주인공의
시원
##힘
고전
##나올
재밌었는데
안되고
##사람들
뒷
통해
녹
##익
##갑
##리게
가진
무거
연기와
##손
사랑에
처음엔
헛
##나온다
막판
맞는
잼있게
다큐멘
뮤지컬
##뜩
##ᆨ저럭
##이건
##동이
##음악
겉
##되지
젤
밝
사랑과
에휴
##식으로
동물
보기엔
음악도
떠나
그렇다
희생
##최고의
용서
어릴적
##깔
##싱
##시아
남는다
후속
##씨가
##킹
##남자
이정도면
##ᅳ래기
3d
펑
##들고
##ᅢᆼ겨
사기
##일뿐
##끼리
##개봉
##한다면
우리가
##학교
무서워
짜증나는
안됨
##지않은
행동
the
을
##보여
무지
##디어
자막
소녀
##분이
늦
##원이
불쾌
현대
##엔딩
죽여
말이필요
드는
십
##스티
##죽이
##러가
##와서
일상
##공포
##즈니
싸이코
열심히
##웃음
진심으로
쓸데
짠
칼
##an
##곳
##아가
재미를
재밌습니다
##려다
스포
북한
상처
하나하나
그럭저럭
티비에서
압권
##이게
나타
정서
##사를
말로
되고
같음
##듯이
감동과
재미없네
로보
멋져
포장
현실을
톰
추억의
늘어
##했을
재난
졸리
##인간
되었다
생각합니다
부터
##특
10년
##학생
아닌듯
나왔으면
반전도
봤다가
신선한
재밋게
전기세가
##지의
영화냐
##서야
보시길
##까진
##구하고
합
예뻐
다시보고
##알바
몸매
##뚱
##껄
##프리
##엘
##아쉬
징
##무비
그지
다니
##였어요
봤
##장에서
##으로서
##와르
오그라
개판
지루해서
배우의
축
아깝
포기
무섭다
이유는
형편
깊이
크게
흐름
꽈
퀄리티
##ᆨ오
##쏘
##가요
##십
나중에
하면서
기회
##ᆷ이다
##ᅳ라이
소장
스티
##젤
##티비
##재밌게
##따라
올해
썩
쉽게
등장인물
몇번을
그다지
체
##햐
##ᆺ지만
##었습니다
##기의
##리다
##앞
##들에
가져
##럽
뭉
##하다는
비주
고생
##나온
볼만함
##불가
기분이
채널
11
30
덜
##둘
있지
몽
##대가
오버
##졸
##같음
남겨
남녀
본방
##ㅠㅠㅠ
##콜
만들어진
동생
소재가
##더라도
폭력
##찝
컨
##느라
##가가
##거냐
##ᆻ어도
감명
##에서의
부끄러
연출도
침
국민
퇴
##뽕
아련
가서
지구
하네요
##대는
전투
사람의
필요한
긴장감이
삶의
바뀌
##염
##역이
말할
볼수록
지루하지
반성
신경
강렬
두고
##줘서
제목이
스케일
##ᆺ던
##킬
재밌네
##마지막
마무리
봤으면
##히는
수도
이루
##랜
생각나는
김기
##파이
행보
디즈니
출연진
산만
##돌아
가볍게
독립영화
이때
##확
##한것
좋습니다
없지만
##수는
좋았던
남을
##ㅋㅋㅋㅋㅋ
춤
심각
표정
##지않고
언제나
통쾌
격
슬프고
쓰래기
##똥
##기로
조잡
답
일부
##안에
재미있네요
##소재
활
##명의
지금은
선생
필요없는
필요없다
어렸을
싸구려
씁쓸
봐야할
러닝
엉성한
##트리
##ᆺ게
##ᆺ미
##bb
맡
사는
##와는
무시
무언
못했다
일어
다시한번
인생을
까지
##효과
뇌
농
##샤
아나
재밋다
다ᄅ
거짓
무협
##까지는
끝나는
##축
결말은
배우들도
딱히
##최악
찡
광고
끔
##이면
##시킨
##네이
그것
##마음
사극
##수의
##ᆨ이나
연기자
인터
말을
못해
##류의
눈빛
##속에서
의문
오랫
결말도
소재로
##더라구요
게다가
소름돋
몰라도
30분
##있게
##긴다
##해준
##오빠
움
##버리고
좋아서
밥
할말
할말이
힘이
존경
만들고
방금
둘다
헐리우드
끌어
뉴
떼
##뢰
##뇌
##ad
##지말
이쁜
하이
##ᆻ었다
없나
평이
##성은
좀더
액션영화
##렌
일본영화
높아
점수를
암튼
여기서
섬세
좌
##덜
##ᆻ군
##총
##99
##있네
있습니다
시사회
##온다
그린
##할까
##중의
10분
시간을
의심
##관계
아이들
##하기도
이제야
건지
##퉁
웃기고
##표현
싫다
펑펑
18
##녕
##ᆷ버
##on
##화를
##도없고
나은
##자단
##ᆨ임
##ᅳ레이
##ᅳ레디
##른다
##에겐
##란다
긴장감도
꼴
홍보
상상력
드럽게
풋푸
##딸
영화라는
##롱
마세요
##성에
##그인
일반
##두고
와우
##스러워
어려운
##ㅉㅉ
영화보는
아픔
억
어머니
봣는데
쵝오
##사의
##으나
##하다가
볼거리
지루할
##좋아요
단지
##독교
쫌
00
닥
뜻
뿌
##븐
##땅
##at
##엉
##아님
##구니
##사이
##던지
개ᄈ
##버리
섹스
불구하고
살다
성인
남자가
꽃
그렇다고
산으로
뛰어난
##10점
마이너
be
쌍
##이냐
##이에요
##하신
##었어요
##에만
재밋어
##드의
생애
##봐요
알수
사랑스러운
##한다고
이해할
발전
보여줘
단연
재밌었음
눈물을
낮아서
외계
##장면이
##있어서
잊을
작가가
오글거리
견자단
13
##아주
##영화임
연결
진짜재미
##봣는데
좋아할
벗어
##사람은
정신병
시대를
개연성이
쩝
명화
ㅇㅇ
##큰
##4년
있어요
이따위
시걸
##작가
##상이
대표
우주
밋미
해리
인도
남편
이거보고
아쉬움
새벽
악역
찝
태어
프로그램
죄다
비주얼
쪽
##의미
##만점
##했는지
싱
시시
##영화도
닮
스스로
생생
이런영화가
처럼
고통
##반전
때문
과장
##연기가
표절
현실적인
느낌을
##꼽
맨날
기다려
멋지다
벌써
0점은
##ᆷ새
##ᆺ네요
##ie
##하라
##설이
보니까
##ᆻ다가
##영화라고
다행이
##굳
##자고
기독교
봤을때
##내용이
##르노
되지
살고
##식을
##나옴
##학년
만든다
높다
푹
무엇을
##귀여
##하시는
흔한
묘사
헐리웃
##향이
냉
쿠
##례
##떄
##ᆸ기
##임이
##지네요
아류
가득
주변
##물을
많다
##걸로
나옴
##폰
시간가는
##혁
누구나
뻔하고
집에서
모든게
아직까지
##아니라
재미없어요
##ᆫ장
##있
보았다
##봤음
##봤던
앤
에피
상업
몰입해서
달라
뒤로
안타깝다
은근
옛날에
단순한
전문가
힐링
##옹
##잉
##이해
##이유
##가능
##도가
##하구
##아내
##만드
지켜
##네여
한데
아니어
못할
못하게
로그인
발로
설마
베스트
바꿔
##ᆺ습니다
어휴
##야말로
안보고
전반
##같아
생각없이
느낀
하는지
##감독이
외모
잔잔하고
깨닫
패러
취향
##드로
##괜
##이하
##이여
##가를
##하려고
##리ᄌ
##해져
##으로써
갠
같아서
고등학
불러
##배우들
##먹는
귀여워
떠나서
국내
초반에
##자체가
##ing
특이
찝찝
1시간
##꿀잼
##ov
익
##거같다
잭
생겨
##함에
공부
끝난
영국
##영이
기대안하고
위대한
멋있다
특수
##받고
##받아서
재미있었다
청소년
즐겁게
마이클
꿀
##쥬
##ᆺ으면
##스릴
##지어
##해진
##보아
연속
인내
##밥
싶네요
##줄알아
작품을
울고
##결말
레전
흐르
덕분에
데이
아들
##아니다
##한지
##인들
그거
##ᆻ는가
우와
최고입니다
않지만
보고나면
발견
아쉬워
믿을
대사가
먹고
유쾌하고
흉
##나와서
탄탄한
틀어
##꼭
##리도
##니깐
보길
시트
##점도
다양
줌
##과의
생각하고
부러
아깝지
사랑의
##계의
##인가요
인생의
##받은
영화에요
빡
쩐다
##뭔
##ar
있네요
왜케
못봐
##물이
##처구니
##호가
분들
##씬은
문화
연기력도
겨울
즐거운
이후로
힘들다
##ᆺ지
##퓨
##가지고
##어야
##리스마
##시에
##거임
조선
##무슨
##전쟁
무비
미치
##연출
제로
느와르
볼게
추억이
10자
코난
##했다는
히어로
아이가
섞
아줌마
음악과
떡
앞으로도
꿈을
빼고
이쁘고
멍청한
007
7점대
휘
##ll
아래
없는데
미스
비극
작은
결과
박진
울었다
볼만하다
속에
치밀
편견
##있었다
잔인한
의외로
##이후
##없네요
내려
##오글
미모
돌리
본영화
없다는
##날때
##따구
##지않아
##불어
모르겠고
##략
초등학생
에피소
픽
##쥐
##ᆷ의
##ᆼ미
##쓴
##있어요
아역
아침
##만화
기술
##되서
스페
대부분
자살
스테
노답
##극이
비현실
쓰레기다
반복
명품
##스러움
죽은
죽을
##남는
아쉽네요
타임
재미있었어요
##벤
검색
##맹
##질이
있으면
영화인듯
##절이
##리아
##했네
가면
시각
안무서
우정
말하는
지루했다
신파
눈에
영화였어요
웃음이
##ㅠㅠㅠㅠㅠㅠㅠㅠ
학교에서
손발이
뭉클
##드러
##om
##도안
##하진
어처구니
##해진다
재밌을
##정신
오로
오바
##하다니
##ᅳ레스
보고싶어
##트맨
사랑은
느끼는
할까
동안
##먹은
원작의
인간이
달달
따뜻해지는
작품이다
유명한
시키
주성
##와의
##재밌어
완전히
하나의
가슴아
신선하고
더러운
헤어
읽어
##시키는
다운받아
다큐멘터리
런
##팩
##다운
보인다
기가
여태
내게
봤더니
거슬
평점보고
뭐라
나오면
살려
허세
김민
남자의
##시간이
##시간에
흥미로운
빼고는
투자
##그리고
스크린
옥
으리
##직이
##시다
##미가
조용
##우고
좋지만
##작이
더불어
젠장
##용으로
지루하게
척
영혼
짜리
##관이
극치
##씨의
아쉽
##언니
모르겠지만
알바들
복잡
학생
민망
감정을
직접
역대급
챙겨
컴
탁
##흘
##ᆺ나
##컨
##석이
아파
##거면
##로도
##대사
옆
##사수
##정은
스파이
##내가
##본영화
고양이
쓰레기같은
에서
##테일
로버
우리는
장면에서
박수를
유치하다
유치함
한번쯤
없었던
카리스마
올려
왠만하면
##드립니다
크리스마
빌려
패러디
콩
##즐
##칸
##하려
어우
##궁
##자나
제이
좋았지만
##준것
##체가
엑
포르노
전개도
웃김
매력적이
악당
삶에
##왜이
이쁘다
능력
필름
김기덕
행복한
8점대
##흑
##지금
##엄마
영화보면서
##해줘
짓
낳
정의
##대를
여행
##간의
##봤습니다
인기
##버림
좋았을
됨
못보
##몬
끝이
기대했는데
김수
##ᆻ나요
타이
좋겠어요
본다면
무섭지도
깜짝
잊혀지지
전설의
이도
이정
이소
영화들
영화제
##시작
##ᅡᆨ제
거부
도전
##할듯
##버리는
##버스터
좋았으나
비판
일이
신고
보여주고
원작이
탐
##근데
감동적이다
레알
의미를
주성치
##ᆯ수
##en
##값
##항
##아버지
보긴
##라기
##만을
##주기도
모를
##올리
##적은
##함은
못한다
생각하는
##유치
감동의
화끈
할머니
뱀
우리의
##살다
##쳐서
멘
이유를
지나치게
진부하고
뿐이다
시즌2
킬링타임용으로
초등학교
응원
다룬
##ᆺ에
##bc
##하던데
##요일
##ᆻ다면
납
재미와
않나
세련
##스럽
##긴한데
이해하기
가슴에
몇몇
재밌다고
느껴진다
잠깐
뛰어넘
##그렇
류승
맹
ㄷㄷㄷ
##드를
##젼
##멸
##ᆸ은
##팍
##♡♡
이용
아기
##아나
봉
보며
어지
##거라
감히
좋아해서
볼때
많고
사람들의
영어
##당한
한국영화는
강력
당연
보여준다
##먹어
짜증난다
간다
갈등
싶은데
인상적이
러브
범인
그녀의
드립니다
어쩔수
레전드
c급
술
##쩡
##꾼
이것이
##섯
##로만
##데이
사고
##냐고
대화
##부족
##성의
##비디오
##그대로
##들이랑
재미없게
참으로
사랑이야기
반개도
웃고
##애들
##연기도
욕망
웃기지도
표현한
악마
괜찮은데
tv에서
커플
말도안되는
199
않을까
착한
쥐
##re
보통
##만은
##롯
##영화라
그건
주말
##렁
제시
제임
해결
##바이
못보게
재미있
공짜
아까울
##명을
따로
들었다
점수가
맞아
##는거야
잼있다
잼있어
모두가
교육
##벨
##스타일
6점
ebs
##맥
##끌어
##이자
##는걸
있던
##링
보려고
##우가
한참
대해서
##부작
개막장
빅
스토리의
바다
##몰라
할리
10점을
하는거
관한
심하게
폴
이제서야
몇년
잼있어요
캐릭터가
꼽
좋아하는데
겨우
변태
똑같은
느낄수
장르가
시간가는줄
##괜찮
40
브루
페이
##ᆯ기
##기억
##했네요
그당시
##자들이
##야한다
안본
##ᆼ이다
자주
구성이
##감은
못함
##보다도
##트의
##동생
##재밌다
넘치는
짜임
##토록
부족하다
보지마라
풍경
죽는줄
0점이
##브라
##이의
##있음
아동
##나다
##로써
재밌던데
그것도
하여
기발
최강
거기에
##되었다
미드
잘생
##머리
싶을
##재미없다
##속의
관심
아이돌
##이라서
벗
외로
받을
##셔서
작가님
##놈들
죽이고
한심한
이래서
개뿔
you
죠
킬
##휘
##혈
##드려
이민
##기지
나아
다르게
없지
내면
##됩니다
##되네요
대본
##힐
미스터
##셉
##더러
부자
##포터
신비
내가본
##식의
작품은
버려
##씬이
##사람들이
잊지
노래도
자신이
관객을
##캐릭터
##지도않고
21
70년대
년
##ᆽ어
##ᆰ은
##5년
##는건지
##가족
##에대한
##요소
보자
##검
##인들이
대중
##운영화
무술
수고
잠이
이런영화를
육
작위
##소설
있는지
있었지만
동성애
##느니
정도의
없어요
둘이
시트콤
##측
##기다
##게요
아픈
##스키
다루
하늘
##없게
생각함
##솔
##문제
다시는
또보고
아름다움
##사람들은
탑
왜이래
##000
세상을
답답한
##갈수록
보았습니다
이럴
짝퉁
훈훈한
영원히
##ᆻ더라면
막판에
깨닫게
no
##트를
##ᆫ지
##ᆨ을
##황이
##도는
아예
가고
조니
##인것
하아
하네
여름
최민
무리
인해
인디
##밖
##설정
ㅎㅎㅎㅎ
치고
잼나
##웃겨
있구나
자신을
낚시
깨달
블록
ㅋㅋㅋㅋㅋㅋ
테러
중요한
쏟
##첨
##지말고
##기분
##기에는
업
##들게
##했나
##주가
##음이
맛이
최초
안가
우려
##하는영화
최고였다
도망
##생각이
##놈이
##노래
멈
배우를
##원의
위해서
명작입니다
단편
설득
##파이어
맞추
보다는
##장면은
떨어진다
님
디테일
어린시절
낚여
문제가
클레
개연성도
숨겨
크리스
해피엔딩
감명깊
제임스
##이션
영화이
조합
그만큼
사진
##약한
##드시
##장을
정말이지
대놓고
오빠
##붙
최고임
않네요
##신분
바꾸
장애
##ᆻ으며
기대이상
야구
칭
##알고
수준의
등등
##컥
찌질
분위기가
색다른
드림
##싫어
##얘기
m창
##뿌
##었는데
##ᅳ르
##ᅳ랜
영화네
##리기
##아라
##인과
없게
##ᆨ이다
만한
##운드
연기잘
해라
##비가
##비스
유지
남은
생각하면
##율이
##력을
애들은
나오지
할수
위로
작품성
분들은
두려
심오
명작이
##느껴
오래된
주인공은
방영
억지스러운
깎
그렇지
오랜만
그저그런
여러가지
##것같아요
비디오로
가치가
짝이
뽑
짜임새
14
넌
뛰
쥬
캬
##탈리
##지다
##보네
##주게
##연이
왤
생각나서
결정
윌리
있었는데
심지어
반전은
##받는
집에
엔딩이
의미가
답답하고
낚였다
안타까운
##쓰고
2편은
느리
##ᆻ니
##트로
##퀴
##tv
##ver
##어리
앉
##압
##보자
##인도
##넷
##영화인데
##려다가
##건만
스트레스
##버그
재미있습니다
결코
하나같이
만들어도
돈을
##나오고
리어
만들다니
가슴을
##역시
새끼
##지마세요
극장가서
여운을
듣고
경험
##통령
재미도없고
노래가
알겠는데
갖고
실제로
놀래
본방사수
22
##저도
##기전에
다행
##였지만
##없을
없습니다
##하고자
안볼
무한
##부를
잘하고
잘생겨
제니
제외
비하면
재미없었다
상관
##했다고
연출과
이해안
이야기는
잔뜩
아무런
결말을
만들면
속에서
높게
언니
모르겠음
##ᆸ입
##만큼은
국가
클라
몰입도가
시청률이
소중한
##ᆺ하고
##ut
봅니다
##만다
조작
##하는건
최고로
아니야
아닙니다
##세포
뭐하나
##모로
북
##편이
장국
10대
한국의
##애가
##없는영화
별로임
있어야
##씨는
잔혹
나왔다
##형래
##는거지
적당히
느꼈다
##색이
떨어지
겪
지나도
길게
약간의
시즌1
##눈물
##빼고
최근에
로봇
런닝
50
낭
택
##앤
##1점
##쪼
##층
##났다
##미네이
##인트
##스에
##무지
기준
안습
##ᅳ라고
소소한
##같고
##몰
##년의
부실
##소녀
야한
몰입감
영상이
매력을
달리
##쟁이
여주가
앞뒤
막장드라마
##종일
소름이
둘째
##부분이
ㅉㅉㅉ
##멘타
책을
참신한
나머지
끔찍
##스릴러
블록버스터
to
끈
펼
##ᆫ의
##it
##zz
이드라마
영화화
##서는
아내
##해주세요
그야말로
정체
맘
기자
##붕
잘어울
평점조
남기
##심으로
##둑
##둥이
##줄이야
또다른
서부
소재도
원작에
##평점이
낮아
##볼수
어쩜
##복을
##켓
들어가
##맞추
데리고
먼가
엉성하고
##캐스팅
잘봤어요
혹은
당신은
##레이션
예쁘고
##팔이
of
쩔어
##덩
##빌
##ᆿㅋㅋㅋ
##섭
##보내
낯
##영화입니다
하다가
##였고
##야겠다
##과서
##상에
수많은
##때문
##세기
##신은
뭐니
별반
##번은
마지막까지
처음에는
##관람
10점주는
##좋음
현실적이
20분
낮네
충실
많은데
열정
잼나게
담배
##생각없이
무엇인지
cg가
놀랍다
첨엔
첫사랑
잃어
식상한
나쁘지
살다살다
##es
##해주고
조카
시리ᄌ
그자체
엿
##득한
##상의
##상은
한명
무척
##하는것
이런건
해석
됩니다
##든지
배우들은
사람들에게
살면서
##피스
##후의
울컥
##배우가
빠진
선동
느낌의
##빠져
##룡이
##아닌가
훌륭하다
시리즈중
친구가
##꽃
웰
탄생
오글거
질리지
연예인
낙
##답답
##나니
##봅니다
##보니까
##까요
##잡고
사투
주기도
봐줄
##되면
유아
##들이나
본게
##모르
##편은
애기
시간아깝다
그립다
매일
넘게
따위
명작을
##키는
##ooo
짜증만
손에
살아가는
형사
##얼굴
러시아
##♥♥♥
집중해서
놓고
스티븐
태어나서
갠적으로
다양한
브루스
5분
테이
프리
##똑
##이를
이라는
##돌이
##어이
하시
주기
##사건
묵
자식
이런영화는
했으면
##빙이
##신을
남네요
생각했는데
본거
첩
감동은
감독을
##재밌음
의리
##즈의
김혜
##인데도
하는게
멋있어
심형래
아쉽지만
만든영화
##극장
이상하게
주인공들
##역사
낮게
맞춰
많은걸
집착
베드
쓰고
즐겨
연기력은
왜이러
빼면
역사를
돌아가
어느정도
잡아
바랍니다
한편의
짧은
##깨워
효과
거짓말
아류작
##미네이터
1위
메이
쩔
##ᆷ비
##ᆿㅋㅋ
##이니
##있나
##가락
##돌리
##하군
영화인가
##라가
가지
가르
시끄러
다크
정작
주지
봤네
##장난
##치가
##셀
##성과
##그만
##티즌
##동차
##재밌어요
봤는데도
한국인
당연히
괜찮다
여자의
보기에는
근래
##ㅎㅎㅎ
꼬마
##강추
##커플
부분도
양심
이딴걸
놀라운
꽤나
##느낌이
주제를
볼수있는
교훈을
소설을
특별한
쓸데없이
##퓨터
##베이
##ᆻ구요
##거든
나랑
##스페
모험
다를
주윤
봤을
연극
한숨
무료
##함의
못미
##논
##타임이
참나
신의
##속으로
처음에
짜증이
따분
##형님
남자주인공
타고
한번도
##줘야
웃기다
교과서
여주인공이
담겨
자체는
시리즈는
잠시
시청자
임팩
포스터가
엄마가
보지말
궁금하다
ㅋㅋㅋㅋㅋㅋㅋ
유일하게
##스팅이
일부러
에피소드
주윤발
44
객
뚜
떨
##브리
##ᆻ구만
##케이
##시즌
##만하다
재밋어요
정우
사무
##작품이
안에
##왔다
진짜로
우뢰
않아서
비행
##바로
생각으로
배우는
배우도
곳
감동적
반드시
시간만
만들었는지
들고
장면도
호구
20대
충격이
짜증나서
나름대로
##치곤
좋겠네요
##누나
ost도
씹
##거같아요
가벼운
두번째
##묘한
어설프고
뜨거
말하고자
폐지
움직이
해리포터
제니퍼
##12
있네
##하길
영화만
영화와
영화인지
아버
##아치
답이
##대해
봤을까
##으로는
##치노
##땐
##덤
##ㅋㅋㅋㅋㅋㅋ
일깨워
부르
##개는
곧
아까웠다
재미없어서
##스럽지
짜집
때려
1점은
별로고
야동
당황
여자친구
아름답게
있다니
낮다
낮지
봐도봐도
##능력
떨어지고
홍상
몰랐다
클래
##ᅳ래곤
어울리는
나에겐
누군가
결론은
로버트
클레멘타
30년
mbc
깡
##뷔
##ᆻ슴
##틈
##털
##ᆨ트
##페이
##ᆿㅋ
##이로
##이트
이병
이끌어
##도를
##해지고
##했을때
##스와
##주면
하하하
##부가
##봤네요
늑
바래
중학교
10년이
애매
화장
##선을
##직한
내용과
지금의
이게뭐
위험
##계속
연출은
이해를
배트맨
아이들과
##스틴
받은
##짱짱
벤
디워
##좋아하는
출연한
따뜻하고
수작이다
터미네이터
##년도에
케이블에서
혹시나
러닝타임
조니데
벌어
으로
쯧
틈
##ᆫ이
##ᆷ오
##ᆺ가
##is
##이제
##이며
##지면
이은
이따구
##어라
아들이
##했지
저급
그동안
하하
만남
만약
수입
##것같은
아니지
아니라고
개나
비밀
유덕
본지
추격
##악한
##문화
반가
웃으면서
다시보니
영향
##둥
괜찮았다
여자는
여자들
아쉬움이
일본은
##살아
소재와
이상의
이상하고
반전을
방법
적절
모든걸
어렵다
제목만
1편이
1편은
1편보다
뭘까
여러분
실화를
단순히
희망을
끼워
부모님
내생에
강렬한
특수효과
스텝
3번
##ᆻ기에
이다
이수
영화자체
아우
##나네
보던
##겁니다
##점에서
##우의
염
너무도
걸리
##정화
대통령
##것만
##생활
생각할
머리가
##객이
##라곤
사랑해
엘
마지막회
살린
허허
김지
로코
장면을
일본의
재밌어서
20년
영상과
집중이
팝
파워
보다니
##뿐이다
독일
싸움
니콜
##강호
##0000
##슬프
##감독의
여러번
똑같
##전개가
흑인
ㅠㅠㅠㅠ
묻어
잊혀지
##으려고
고등학교
흐르는
제이슨
뱀파이어
숨겨진
쉐
##cg
이토록
##아는
##낙
보러
##햇다
##해야지
##주연
##주일
##음을
정보
하길래
##상황
##정의
무너
자세
소피
##제로
아닐
##법이
##함도
뭥미
생각도
많아서
중에서
애국
사람도
에효
마지막이
##긴하지만
##박한
이해할수
배신
##부터가
괜찮음
##능이
인생에
##배경
괴로
확인
팬이
##잖아요
##건가요
초딩때
빵점
빵터
빵빵
지겹다
핵노잼
유일한
꽝
새벽에
우뢰매
1인
mov
ㅎㄷㄷ
##다큐
##도아니고
영화같
##겠네
##리네
아냐
아놀
##보영
##인건
##면에서
기타
##오래
감안
안봐도
##냈다
잘하는
##때매
뭐하자
아깝고
난잡
최고의영화
##라는게
한국에서
강한
위대
10점이
극단
##좋았다
배급
##연기는
있다고
공포물
울리는
##배우들의
힘내
추천하고
귀엽다
달려
아까운영화
언제봐도
##컷
점수는
##죽는
어색하고
주제가
싶어요
예쁘다
다르다
후속작
무언가
마이너스
컴퓨터
장국영
bad
re
옹
져
##ᆻ든
##ᆻ따
##ᆽ게
##지나
영환데
##기위해
##한국
갑니다
나네요
재미로
마약
길이
줍니다
내돈
진리
##으로만
자랑
##봤지만
##빗
바이
##안돼
장진
##임을
추리
##출연
싶지
하나로
##홀
멋지고
동양
죽고
마음으로
##못해
빠른
적어도
없었음
편안
받고
##잡을
형님
##없어요
한국영화의
##찡
죽이는
케빈
흡
잘못된
어른이
##떡
돋보이는
밀려
크리스마스
컬
ㅠㅜ
##뮤
##쯧
##다면
##가리
이보다
##겠지만
##미는
보러가
##주인공이
##영화보다
몬
##사와
##부지
같고
못하다
중2
사랑하고
##에게는
##엔딩이
로빈
서양
##렉
설정이
보기에
짜증남
잼있음
가족이
모르겠네요
쓰는
잊고
담아
희대의
불쌍한
불편한
##흡
##하지않고
##취향
쓸데없는
할리우드
6점대
래
프레
헌
##ᆻ군요
##뽀
##od
##이렇게
##집니다
이성
##하더라
##어진
##리스
##은데
##보지
##보는게
조절
저평가
나레이션
다보고
다섯
다세포
##려나
하정
여친
##드만
없나요
안간다
##전을
##히고
오브
잤다
##월이
##모두
##차별
엘리
실력
매니아
땜에
멋있는
##민이
망친
현실이
현실과
##쳤다
기억나는
##형제
스릴도
인간은
샘
봤다면
좋다고
재미없다고
떨어짐
장난하냐
시나리오가
재밋음
전쟁의
##뻔한
##그래도
즐거워
##거같음
혁
넣어
탈출
왤케
든
띄
땅
##ᅪᆼ
##ck
##as
##있습니다
##하거나
##나네요
##만해
##했으나
나무
다신
걱
평소
평균
오프
온가
숙
##부로
자본
생활
더빙이
도무지
이런류의
했음
인형
유발
뭣
알겠다
##몰입
사랑해요
반대
시간에
##줄은
##애들이
10점만점
두근
명작은
서울
##후반
망한
현실성
링
선물
짜증나고
높아서
##불허
니코
판단
책이
민폐
##끝까지
영화라니
불쌍하다
케릭터
##싸움
괜찮았는데
안보는게
루즈
사이코
이뻐서
movie
쭉
##퇴
##크로
##7년
이준
##서도
##했었는데
##뎀
나이가
##맛이
##자로
기존
한방
##사에
##전이
##진심
##부는
##세여
##성기
##버릴
부탁
##선생
콘
한국판
##식은
배역
분들이
아무튼
망가
##빠진
##희가
찍고
싸우는
제목을
떨어져
작가의
세상이
##혼자
작품입니다
폭발
폭풍
궁금해서
영상미가
죄송
네티즌
자극적인
늦게
오랫만에
공짜로
25
2번
린
브래
쿵
##으리
##ᆯ때
##멍
##뚝
##잇
##하러
##하디
##어디
아진짜
##았던
##아저씨
##시면
##들끼리
그것이
##구성
##자와
마무
사용
##듣
감각
##장한
최소
최소한
##간에
대신
말자
유럽
밤
뭐여
본듯
##안됨
장동
중독
요새
##ᅢᆫ들
##티노
명복을
실험
액션을
김치
김희
돈내고
연출력이
관련
##남기
어떨
꼭보
박수
볼만합니다
이제는
선정
인생은
##받을
느낌은
##알았다
##메이드
가족의
달콤
잔잔하게
잊을수
미국의
사실을
유쾌하게
빠져들어
##끝나
##또한
어쩌면
꿈꾸
압도
살인마
플롯
짐캐
내생애
##하지마라
겉멋
어우러
it
kbs
굴
평화
##cn
##3년
##지요
##도의
##었고
영화야
어리
##들한테
가득한
##봉이
##보이는
##거같은데
##인게
그것을
##우기
하며
사상
##없었다
##숭이
##칭
##왔는데
우연
자기가
자동차
덤
도데
개똥
되네요
##몸
##개가
첨이
재미있는데
##트는
명장면
명불허
엑스
감독도
내용의
마지막엔
원조
기대없이
##슨이
과대
과학
##oooo
망치
볼만했다
라스트
집어
파괴
열연
삶이
그렇지만
담은
영화였음
무엇인가
배경음악
왠만한
시대에
환경
포스터만
키스
얼굴이
##드림
##ery
흡입
목소리가
믿고보는
빛을
끌고
소중함을
소장하고
전반적으로
리얼리티
##셰
##빨리
##지현
##하균
##ᅳ란
##리며
##들여
##보긴
##로드
##인지도
그들
##마자
정상
정확
##잠
##자들의
##여행
사운드
##오브
감흥
##장의
##으론
##되게
무게
스토
##분은
인종
본건데
##물로
볼거
부정
아깝네
끝날때
##티브
사랑합니다
싶었다
내용인지
세번
세월
없는게
성격
##텔
##같은영화
관심이
꼭보세요
유치해서
##먹을
##딩때
정도면
##쁘고
매력에
조금은
담백
봐야지
시작부터
않았지만
##싶은데
포스터에
블루
이름이
읽고
쫓
##ᅳ루즈
승리
블랙코미디
헛웃음
best
제시카
16
wh
드래곤
##툰
##테이
##떼
##le
##nd
이야
영화인줄
##저리
##라노
##로의
재개봉
점이
##스포
##주기
##없나
없냐
##숙한
안어울
##운이
생긴
아니었다
했어
##래도
##더더
##바ᄁ
##바라
##하겠다
뭐하는
생각난다
##모르고
별하나
붕
부담
##낀
재미있을
공감도
예수
시간때
내용에
액션과
할아버지
김태
##란티노
만들어서
캐스팅이
동시에
호기
단어
소재의
인생이
##촌
글고
뻔한스토리
느낌이다
임창
보았는데
2편이
ost가
전체적인
협
영원한
허술한
보시면
스포츠
##ᅳ레딧
은근히
이도저도
쏟아
객관
짜집기
홍상수
깡패
놔
##ᆻ단
##튀
##뜨리
##쯔
##ow
##는것도
이동
##학이
##리언
##아빠
##시가
##나도
갓
##인들의
##스케
##대고
없으면
한개도
##간히
안나와
##운데
##진이
##부의
생에
좋았을텐데
##웠음
##중에서
밤에
뭐고
알파
일베
볼려고
공간
아깝네요
웃어
상황이
감독과
섹
콜린
불안
매미
##싶네요
아무생각없이
##배우의
무섭고
맞지
영상도
전개와
파격
##지않는다
##아까움
느껴져
듭니다
어이없다
각색
공감할
##ㅜㅜㅜ
친구랑
##갈때
당시에
암걸
킹
##♥♥♥♥
##굿굿
첨부터
이렇
갖다
교훈도
100점
빛나는
탄탄하고
##재미있게
황당한
##싫다
##웨이
메세지
탁월
엑소
이소룡
이병헌
2탄
9점대
ocn
땡
벼
앵
액
##ᆻ기
##쇄
##2년
##am
있으
영화나
영화예요
##시원
어때
##무시
##구가
##였으면
좋네
내일
냄새
진한
##올라
정말재미
안좋아
옷
우스
무간
무난
수면
스태
개노잼
##신의
유행
##중훈
바탕
장ᄅ
드라마의
고어
공중
##력에
예능
나오는데
끝에
재미없을
##위원
센
매끄러
없다고
때마다
##테러
##님들
이해불가
##판이
울면서
##배우들이
절망
정도가
적절한
##께요
요즘은
봐야하는
형제
사람이라면
##허접
배경이
양아치
시대의
##감독님
##놨네
헬
착각
좋을듯
가능한
피해자
라이언
몽환
is
very
규
뚝
트랜
##흔
##띠
##스라
##프레
##있지
##었으면
##아도
##았음
##은영화
##나가는
조화
시켜
##묵
##까지만
##자면
하품
##러스
##되는데
옳
##룩
개콘
노잼이
##으셔
##신분들
빕니다
##더맨
##더빙
뭐임
일어나
것에
##준호
##유리
신하균
##적이지
마지막장면
##ᆯ리는
##질않
##억지
강간
만들었나
극복
여자주인공
##레인
아무도
##습니까
망할
억지감동
찾아서
어디가
캐릭터들이
##기도하고
즐길
데뷔
##법한
##내용도
198
이것보단
의도가
##재미있어요
혐오
12세
뜬금없는
어두운
아프다
가까운
하나하나가
다행이다
흉내내
웰메이드
첩보
도데체
2는
깍
##좌
##잭
##ᆷ뽕
##쩔
##빡
##기억이
##게임
아만다
##의를
##시청
가정
가히
모른다
##오오
한지
안나
오우
자고
소화
최고네요
##제작
##중반
##감과
일으
드라마에
고뇌
애초
나오네
끝나서
할때
##했다면
동네
장면들이
버리고
공포를
반전에
빠지는
피터
##순이
드디어
베리
##ㅎㅎㅎㅎ
알았음
즐기
담긴
재미있었음
러브라
ㅋㅋㅋㅋㅋㅋㅋㅋ
##쓰레기영화
충격적이
오글오글
괜찮았음
쓸쓸
홍콩영화
##높은
역겨운
##졸작
풋풋한
못보겠다
##ᆫ드
##므로
##갱이
##ᆸ지도
##쿡
##하니까
##에이
영화속
##기와
아담
보단
어거지
##들로
##보구
##로로
재수
저러
나ᄂ
##점수
다녀
##려요
##자리
##대단
##였어
##등이
##없지
##장애
##되나
이란
##분들이
##분들은
##성우
##비해
##할뿐
되는데
##년전에
것들이
##타고
반담
##위한
매번
기대가
##회가
##슨의
아이들에게
아이디어
괜찮고
괜찮게
박신
박중훈
절제
##카프리
건가
드네요
감동적이네요
어이없음
##승전
잊지못
기분나
않은데
담담
언제까지
재미있었습니다
만화책
한다는
배경으로
깨알
싶었던
흔들
송강호
밑도
창피
거기다
##뚱맞
하이틴
조니뎁
유덕화
명불허전
르
삐
삭제
##는듯
이종
##도로
##어요
##겠어요
보라
보셔
##만도
##겁
나을듯
그들이
##ᆻ는대
##구의
하도
##였나
##옴
##치의
##삶
##정한
##진않
미녀
했더니
말그대로
##할수가
##으니까
빙
##함께
##모를
일주일
부디
##까지도
드라마다
드라마입니다
##개그
끝도
요리
욕이
상징
##원은
후에
강동
만들어낸
모르지만
있었으면
##민의
##정도가
##렛
아름다워
##못한
현실은
리즈
선사
무섭게
피아
재밌다는
코미디영화
##꺼면
##꺼야
앞에
니가
##이었음
황정
변화
인상적인
빠져서
뛰어나
이름을
풍자
당신이
허무한
흑백
에로영화
역겹다
진지하게
요소가
던져
외계인
화장실
칠
##으러
##ᆿㅋㅋㅋㅋ
##★★
##9년
##al
##가네
##갑니다
##가슴
이승
##에다
영화일
영화평
##기까지
보려
보라고
##라지만
정당
한효
##치를
만난
오는
최고봉
##조현
##분한
##분위
##할만한
비호
비쥬
밖
10번
##라고요
사랑스럽다
반영
##져요
사람들을
##위에
넘넘
##관에서
만들었을까
아이언
##늦게
재밌었던
##목소리
정도는
안될
##희의
받는
캐릭터도
실망이다
싸우
최악의영화
개봉한
알았네
##다니는
##초반
보게된
미국식
장난하나
빼곤
책임
##죽박
총체
깊게
놀랐다
##잖은
보았던
암울
순수하고
머릿
생각해보게
개그맨
아버지의
나머지는
뜬금없이
##찾아
메시지
##끌고
녹아
무거운
선생님
섬세한
오로지
오프닝
알파치노
그로
고리
브라
베이
쌩
##ᅪᆨ
##ᆻ구
##11
##1년
##껀
##크리
##핀
##tt
##ic
##★☆
##고생
이별
##어지는
아끼
아카
##나의
##라에
##인에
시종일
나중
나한테
##여진
엮
##없는데
한가
한순간
##하고는
안본다
스키
전화
우디
연기하는
잠을
##봤
차이
##분의
말투
비록
같았다
##든가
부산
##놀이
지루하기
##임에도
다시금
세월이
불가능
##울뿐
1점준
이영화의
##못하고
##메리
줄수
##살인
보기가
##드라마가
속았다
짜증나게
치유
##쁘다
타란티노
한번더
##줬다
캐릭터를
귀여움
뒤에
##생각을
cg는
키아
엔딩ᄏ
숨은
나올때
다운받아서
당신의
##탈출
##리의리의
사라져
거지같은
감정이입
소름끼치는
격투
밋밋
부자연
평점조절
늑대
니콜라
com
퀴
쿨
##ᆯ런
##트라
##ᆷ한
##떨
##dd
##ig
##가면서
이쁨
##어의
##기법
##닉
##아야
##나간
보겠다
##만족
갔다
##스코
##스크
##주지
##마리
하야
기괴
엽기
##수선
한시간
##치도
및
소통
잘한다
최고최고
말고는
##같아요
##일러
못본
뭐라고
##듯하다
##모든
것인가
첨이다
에라이
싶어서
의상
넘어서
별로였다
들게
섭
공포가
##후에
##후회
##못하는
##멜로
리암
절로
긴박
힘을
건질
##지않다
잼있네요
어디로
품
뒤죽박
대사도
개봉당시
표현할
모습은
삶과
조금만
레옹
천국
디카프리
시작해서
재미있었는데
시리즈의
않았던
올레
##찬란
##패스
전쟁영화
혼란
여러모로
좋겠습니다
보지마셈
##것같네요
오글거리는
##싶어요
ㅋㅋㅋㅋㅋㅋㅋㅋㅋㅋㅋㅋㅋㅋㅋㅋㅋ
2점부터
멋지게
잃은
놀란
영화보다가
뮤직
만점에
워낙
어설프다
낫겠다
늙어
시도는
밝혀
인터넷
억울
김수현
칭찬
둘째치고
스러
찰
##20
##8년
##있을
##있지만
##당이
##달라
##지네
이지
##시의
##믿
##을까
그가
하세요
하다니
마시길
너무좋아
##칙
##전의
스피
우린
소개
##봐야지
##루토
차가
##르소
구성도
일품
##물의
보고나니
것만
고독
중학생
공유
예측
끝을
##멋이
사랑스럽고
##원을
그리워
왔습니다
극중
있었고
관객이
배워
배꼽
음식
따름
심장
재밌게봤어요
호불
##살때
현실성이
핑
극장에
수준을
배우들을
귀여워요
엄청나게
앞서
연기력에
덴
살아있는
날려
글을
장난치
cg도
##쓰는
스타워
민주
##내용인지
##하시고
왕조현
##광고
안나온다
묘한
풀어내
능력이
진지한
15세
아마추
제작비가
독특하고
징그러
축구
맡은
스파이더맨
감명깊게
펼쳐
쯧쯧
걱정
##★☆★☆
시종일관
90분
듬
땐
튀
##ᇀ에
##츄
##싼
##ay
##이름
있으나
##햇
##햇는데
##데레
##인걸
그이상
닿
정화
##드워
##상실
습
우선
최고라고
##제가
##제목
차승
##같아서
부활
##편을
##유발
신이
신인
##보고싶다
불가
불과
##ᆯ리스
살렸다
액션씬
기대하지
##애들은
괜찬
1점이
##님은
작품성이
##씨도
아이유
아이들의
##정도의
##살이
##하기는
절정
영상은
람
##매이션
전개는
파이
음악은
대박이다
가족영화
감동적이에요
잼없다
모르겠네
##석규
1편에
국어
##00원
세상에서
##험이
답답하다
역사에
긴장감을
충격적인
이미지
삼류영화
빈약
향연
##떻게
##쩍
깔끔한
형편없는
##랜드
산만하고
아기자기
하정우
1회
7점이
sh
브로
크로
ㅈㄴ
##둬
##둔
##ᆯ러
##ᆷ시
##쓰러
이나
이겨
##화이팅
##도에
영화지
##아프
##시나
##은거
보이지
가수
가짜
##로우
적이
모니
열라
##장르
##상태
한동안
전도
미션
미국이
잘만들
했습니다
말인가
##일을
남는게
생각만
일을
드라마도
고문
##번에
애잔
보는거
재미없네요
##공감
다시보기
실감
##재미없음
마지막은
원숭이
넘쳐
만들어라
##좋네요
로망
곽
이야기의
당장
##정도는
보여줄
버린
##예진
유치찬란
오래전에
##하나하나
##하기에
절대로
##너무너무
##볼만
졸업
받았다
웃기는
##집어
표현이
있긴
부분은
##꼴
역사상
몰입도도
##존나
##덕에
b급영화
행복하게
영화라서
숨막
티비로
취향이
상황을
빨갱이
능가
흘러가는
그려낸
잘만들었다
해피엔딩이
닥치고
꿀잼이
류승범
페이크
브래드
키아누
락
록
뻐
##튜
##태우
##꿀
##끗
##ed
##다르
##가면
##어린
##겠습니다
##았는데
##시기
##미의
어차
재방
조지
조낸
나음
##스카
##스틱
##주행
모아
마냥
마찬
##여주
주온
엽
감성이
연상
##상영
한석규
안들어
##정쩡
무의미
수록
더더
##제를
왜곡
개성이
했을까
인류
말씀
못생
못생겨
별거
별점이
곰
##티가
##선이
느끼고
##위가
원주
난리
##었다고
의사
##영의
##라는걸
성인이
허나
##경이
##발견
10점은
10점준
10점준다
두시간
##나오네
##연기를
버렸다
박보영
줄이야
##하기엔
##역할
억지스럽고
어디에
실망이
가족애
흥미를
##범죄
보아도
##펜
똑같이
의도는
##시대에
섬뜩
##량이
누군지
##스테리
슈퍼맨
##켓몬
중2병
온갖
바탕으로
애초에
디카프리오
17
8점이
큐
##쟈
##스레
##낄
##im
##있던
##달이
이만한
영화랑
##림이
##아름다
##시오
지니
재앙
났다
##영화네요
##맘에
하기
##야만
여기에
좋으나
##드네요
##드먼
내시간
안녕
우왕
##것같은데
소유
##조아
도와
했으나
말하려는
##버스
##신도
좋아하지만
스토리나
되돌아
일품이
별한
볼까
보고있는데
드라마로
##ᆻ겠지만
##소름
##력도
아까워서
쓰레기는
웃었다
명대사
##재미있어
넘치
성형
하나는
후하게
##콧
초딩이
##관을
극혀
캐리
동영상
들어서
여자를
##느냐
만든거
단체
박찬
공포는
아무나
누나
짱이다
남자는
방해
필요가
졸려
찾는
##새록
드니
캐릭터들
귀엽
가족을
먹는
감동적입니다
팀
들어간
니네
클로
영화라지만
사회적
자연스럽게
성룡의
울었어요
2014년
그럴싸
미소가
난해한
두고두고
정신병자
박진감
어지러
킬러
피아노
비쥬얼
어차피
a급
둔
팍
##ᆨ터
##쩐다
##가며
##하의
##어색
영환
영화적
##기종
아바
##미를
어수선
어정쩡
##해준다
지옥
족
##우스
하기엔
좋지
한거
안보면
대부
대학
평을
오리지
밀라
도둑
##분을
했는지
##할뻔
##으신
생각은
부부
##안된다
##탑
##타쿠
##ᅢᆫ드
##동근
상대
영구
이거보단
##코메디
별로네요
약한
분장
힙
폰
이영화에
아쉬워요
슬래
설경
이상은
주인공들이
꿈이
정신이
찜
의미도
강추합니다
한다고
초반엔
웃음을
지루함을
민족
입장
상상력이
괜찮았던
##하자면
좀비영화
권상
낮은지
한심하다
##빼곤
죽음을
##낮은
로맨틱코미디
숀
그림체
말이필요없다
이루어
조잡한
##준것들
크리스찬
브리
썰
##팡
##id
##이리
##가위
잉
영화란
##미화
##복이
시험
##면이
##구라
하셔
##대에
##ᆻ어여
여신
##사고
옮
오지
오해
덮
##때도
해외
해야지
해준다
비참
##ㅋㅋㅋㅋㅋㅋㅋ
본격
보고난
##안에서
작화
애트
##심에
사랑한다
##선택
신은
신세
상태
상큼
싶습니다
이거보다
센스
##ᆯ링
##첩
##질질
매주
기대이하
##스러웠다
하나가
##즈가
1점을
과정
얄
##부터는
##판을
괜찮네요
막상
재밌었습니다
이상하다
애니는
방황
맞나
##죤
걸까
##는거냐
느껴졌다
##불쌍
제목에
토니
##웃김
아니라면
개인적인
담고
알바가
어설퍼
절대보
##치고는
판타
채워
태국
태어나
빠져들게
돌아보게
쉽지
##쓰레기쓰레기
##시키고
웃겼다
어울리지
완벽하다
완벽하게
미안하다
안맞는
##죽이고
##최악의
오랫동안
풋풋
##학년때
못하겠다
가슴아프
뛰어넘는
ebs에서
테이큰
뒤죽박죽
갱
앙
쾌
퉤
##뉴
##뚜
##뛰
##ᆺ든
##쉐
##il
##있을까
##입이
##고한
##지에
##하실
##하시길
##어떻게
##저것
##겠네요
##리면
##아직
##시지
##보네요
지가
##덴
나고
너희
정사
마법
##없습니다
너무하네
진수
연관
안감
##사실
전율
수는
##내지
잘보고
##조금
해줘
##일의
유승
스토리로
##더군
##더라고요
남성
머야
##개를
그냥저
끝날
명연기
명성에
눈으로
실수
실사
##원에서
원하는
난무
살리지
##하지말
##발이
##발연기
만들어주
극본
로드
있었음
관점
심하다
아이디
##천원
석
그런거
가장한
##였다면
속이
인간들
탓
##따뜻
모든것이
억지스런
##태현
느껴질
잼있는
##장면도
##맞는
니들이
제대로된
부족하고
##됐다
의미있는
올드
점수준것들
결국은
길을
긴장감은
충분한
##왕국
굳굳
놓치
자연스러운
2014
만드네
평론가들
후반부에
알려주는
그럴듯
완성도가
##ㅇㅇㅇㅇ
보고싶은데
러닝타임이
##9999
밋밋한
세련된
기발한
4편
7광
in
쓰러
짤
채우
##명화
##잊
##가에
##가의
##도한
##하길래
##어스
영화볼
##리스트
##나지
##라의
##만듬
##했을까
재능
재탕
##데미
나열
나루토
##ᅢᆼ크
모방
하드
마녀
마블
##엽
사과
주세요
주관
##듭
##없지만
##숭
감이
감수
##작을
##장에
##사도
##ᆻ는데도
옴
연기의
미야
소지
최고에요
##조연
##제발
않습니다
했어요
말은
남의
바라는
바란다
##물에
머냐
드라마중
##ᆻ겠다
처절
곤
곱
완젼
애들도
쓰레기를
참여
##률
반지의
시간도
감독에게
느낀다
의한
##질을
기대된다
처음본다
멋짐
멋있고
과정이
분량
우리에게
포켓몬
아이를
##움과
여자들이
##픽이
현실적이고
나왔던
이상해
만들수
빠질
##감동이
음악을
편하게
게스트
##께서
여운도
어딘가
욕을
##언제
가족과
벨
뒤늦게
##있었던
물어
##톤
##톱
##웃기
레오
니들
##표정
보게되는
언젠가
##이었습니다
문제를
얘기를
터져
##채널
2편도
설정은
##것같아
첨으로
이것은
웃겨서
킬링타임용으로도
풀어낸
쩌는
감성팔이
떠올리
듣기
돈아까워
##스톤
멋져요
기획
고등학생
익숙
데이빗
##덩어리
시리즈를
임팩트
파워레인
##라에몽
호불호가
때우
트리
##조리
##떤
##ᆺ의
##킥
##프라이
이모
##하루
##에다가
##아리
##시네
##미스
##보소
지워
##델
##인지는
시골
나을
##주네
##주는데
모른
##깜
##말을
##우리
감성을
봤고
거장
스필
댄
전지현
오직
무식
##진창
연기로
미치게
##것들
소년
##때부터
도시
아니잖아
개소리
이런것도
##비에
##벅
##일듯
구조
##노답
##실히
골라
보는것
웃을
엠마
에드워
시간은
시간과
##명은
의해
맴
성의
성룡이
짬뽕
때는
때가
김명
윌
음모
심장이
아이고
귀찮
벅
##못함
유치해
##극을
##하기가
원작은
애니매이션
무섭지
낮네요
낮추
방향
새삼
##있다는
##승우
##만큼이나
보게되
##이었는데
##ㅜㅜㅜㅜ
잠들어
허접하고
있냐
더러워
분위기는
##쓰는데
##부분은
커서
찾아볼
엔딩은
쉬운
최악임
군더더
추억을
됐다
색채
영상미도
책으로
안나옴
줘야
##지루함
##스란
꿈과
있겠지만
참고로
##엄청
다이하
동화같은
영웅본
늙은
##ㅋㅋㅋㅋㅋㅋㅋㅋㅋㅋㅋㅋㅋㅋㅋㅋㅋㅋㅋㅋㅋㅋㅋㅋㅋㅋㅋㅋㅋㅋㅋㅋ
상처를
재난영화
컨셉
싱거
미스캐스팅
사투리
아버지가
아놀드
장르를
마찬가지
아바타
1개
8점은
드라
뻥
털
##뇨
##ᇀ은
##100
##ᆺ날
##ᆺ팅
##삭
##ㅠㅜ
##xx
##읽
##다리
##지르
##지라도
##어려
##기나
##의식
##나라는
보석
##라인
지도
##롭고
조아
조차
##주겠다
그외
다름
널
##였지
연습
한줄
##치다
안가는
거품
##되요
대결
전율이
오페
연기만
자아
소소
생존
##제대로
않아요
개념
##성한
##할줄
비정
되면
구경
##감한
뭐랄까
본것
본적이
##년만에
부드러
작가는
고증
나오네요
나올까
보는동안
##틱한
##원에
코스
기대했던
초월
##했다가
강요
위트
이렇게까지
##계를
돈아깝다
##념이
폼
포인트
엄정화
소재만
##하나요
뻔하다
치료
새록
##사람의
걸로
##스트라
간단
찾을
욕나온다
캐릭터는
엉뚱
준비
먹어
##잡는
모습에
##승헌
##맞고
알바생
1편의
목숨
##할수있는
##슬퍼
##뭐야
cgv
재밋고
되었습니다
결국엔
이딴게
##플린
긴장감과
입장에서
##누라
하지원
프로그래
소리가
시즌3
갖게
이것저것
직업
##좋은데
이어지는
##으면서도
식상하다
##그런지
빨간
후반부로
남아있는
전편보다
어설프게
적당한
틀림
나머진
찬양
보낸다
이하도
다니엘
오그라드는
픽션
이정재
낭만
##만해선
10점만점에
김희선
무간도
잊지못할
한효주
아이언맨
니콜라스
80
av
쓰레
찐
혜
##뎌
##ᆯ론
##므
##크루즈
##ᆿㅋㅋㅋㅋㅋㅋㅋㅋ
##et
##♡♥
이탈리
##어를
영화들이
영화찍
##기술
##니가
##낚
보구
보이고
##한편
어중간
##해가는
##보던
##보인다
지극
정주행
마리
였다
여유
없던
없애
내취향
##수없는
봤나
한정
한글
안봄
안봐서
걷
거다
거북
전라도
오인
수사
연기자들
최고인듯
##때는
##ᅵᆯ러
인가
말았다
##범이
##같네
구혜
못했던
##노잼이
지루했음
##ᆻ겠지
많네
##특지
##탐
역작
애가
아깝습니다
참을
웃다가
##포스터
명배우
에바
다시봤는데
신세계
##재밋어
불법
##속을
와서
왔는데
##영은
지금보면
헉
##경을
만들었냐
로마
이해도
작품에
음향
포함
박시
유치원
표정이
몰입하게
기억을
애니를
주인공들의
무서움
인간적으로
높지
##매력
피식
안되네
##사람도
##알게
적은
적나라
없어도
귀여워서
쌓
손가락
##있었는데
먹칠
삶은
스릴러물
노래는
##생각으로
국산
싶다면
시리즈가
개인적으로는
초반에는
용기
##뻔했다
시대가
지루함의
주고싶다
껐다
불쌍해서
돼지
걸작이다
송승헌
여주인공의
빈약한
엉망진창
흥미롭게
영화인것
진실을
면이
심리묘
##하셨습니다
거기서
어쨌든
##공포영화
##프리카
필요한가
심각하게
닮아
과장된
아직까지도
짜릿
옆에
영화제목
화끈한
미스터리
우려먹
멈추
총체적
##데렐라
그냥저냥
곡
노리
찰리
##으라
##ff
##믄
##맹이
##뜸
##컴
##크를
##6년
##가게
##가장
이순
##합이
영화같다
아메리
##앗
##시네요
##시킬
##믿고
##들린
가만
지키
##로그
##롭게
##인영화
시체
##말도
마다
기적
좋더라
내고
최대
정말정말
안다
거듭
평론
자리
##봤네
도라에몽
##센스
이런식으로
했나
인지
말밖에
##신기
##긋
##일본
비해서
유사
되서
##덕이
##덩이
##밤
지루함이
고질
##소가
##첼
공연
공허
완죤
웃으며
눈요
싶음
##위를
##재밌는
액션의
액션만
기대한
초중반
##경찰
##혀서
##텐
만들었으면
1점준것
로멘
돈만
돈과
배울
야하지도
##레기
발음
귀신이
나와야
기억난다
##형이
만들다
점에서
##드라마는
속아
##역을
전개에
파고
외면
편의
느껴지
느껴지지
##달라고
##배는
경악
열받
믿기지
대사와
제목은
앞에서
##넘치는
##뭐냐
영화였는데
tv로
된장
이딴거
커버
커피
재미없었음
당시엔
패션
##돌려
충분하다
캐스팅은
흘려
왕가위
##것같음
영상미와
회상
텐데
##시키지
딸이
##하하하하
sf영화
흠잡을
의도를
훈훈하고
카메론
설명이
진행되는
보고싶네요
##뜨고
십점
30대
할말을
여태까지
팝콘
엑스맨
70
sm
꺄
떄
챙
##15
이중
이태
##하늘
영화같은
##저나
##게하는
##리네요
##리면서
##아지
##아의
##아이가
보지도
##핵
##거라고
지지
지어
지저
지상
재치
##영화제
그에
그나
##마르소
정통
##구는
하니
하던데
마니
마구
##ᆻ어용
기승전
##오늘
봤지
##러니
안쓰러
##왕이
대학생
오마
우는
##낼
잘하네요
개망
핸드
인권
노무
##할순
스토리전개
남고
남친
못따라
##하겠습니다
본인
본듯한
일찍
고작
고소
추구
공주
끝판
쓰레기네
반도
##재미없어
의지
##하지말고
강지
위안
돈은
따스
심한
심사
죽인
죽는다
이영화보고
##남을
여자애
##절대
버무
박정
##평을
느낌도
##너무잘
걸려
많은것을
##스턴
##지않게
##아닌데
##택이
편인데
어디까지
욕심
웃긴다
##집에
감동적임
세상의
##할수도
황금
##많고
감동이다
감동입니다
답답해
우리나라의
재밋는
문제는
커녕
##해야할
싶었는데
잔인하고
웹
꺼져
197
인물들의
여배우의
이것보다
흐지
킬링타임용도
어쩌다
줄거리가
샤론
메세지가
메세지를
팔아
웬만하면
##마저도
가까이
예뻐서
아련한
이따위로
##줄알았는데
러브스토리
비행기
클레멘타인
마무리가
지극히
40분
so
혈
ㅜㅠ
##흠
##낭
##ᆷ과
##싹
##콕
##푼
##삐
##ost
##이기
##가는데
이자
영화보
##은듯
##밀리
어마
##거죠
지경
재방송
나면
재밌지
##묻
##마나
닭
정준
##구리
##자인
##대기
##듣고
감옥
##장센
한예
한쿡
##하고싶은
##칫
##간이
##히히
오유
우승
숲
##것에
생명
##때가
##세상
좋아했던
구지
바닥
본건
일일
보고도
##개의
고인의
##손가
중의
중후반
나오게
화질
##먹한
웃는
신데렐라
##었다는
의견
처음이네
##긴장
##란한
강호
1점준다
돈낭비
있었습니다
##않고
배가
배드
따듯
명작임
##판으로
서정
##연기력
일본에서
줄리아
스릴이
20년전
간간히
적극
졸잼
##아까워
문득
찍는
출발
열광
손색이
손예진
감동적이었다
약하다
##있다면
1편을
각각
##이었던
##슬리
##창시절
초반부터
재밋네요
인상적
시대적
러셀
클리
진부하다
백인
주연의
##끝나고
미친듯이
##ᆺ을까
사회의
##거같아
힘들게
바라보는
##시대의
승부
슬퍼요
흥미진진한
##프로그램
힘들었다
환상적인
이기적인
부끄러운
아픔을
김민종
한숨만
영향을
소피마르소
장동건
##ᅢᆫ들러
임창정
엑소시
ocn에서
공중파
트랜스포
아마추어
에드워드
녀
뼈
탕
##셜
##ᆽ고
##ce
##이걸
##있네요
##이였다
##이뻐
이라
이를
이전
##었지만
영화내내
##요미
보일
##보려고
지는
나빠
##구를
##자꾸
하긴
##득이
연인
한수
##하고싶다
안보는
거야
만으로도
전설이
수십
##내서
미술
미치는
미장센
##것인가
##것처럼
자위
잘해
잘안
차태현
개꿀잼
##으세요
##버전
좋아하시는
##일에
##바람
##바닥
생각했던
것과
드라마라고
첨에
##번을
중년
10년전
공룡
애로
애써
끝남
결과는
사람에게
사람마다
신화
상어
##명한
눈치
##보고싶
##재밋음
기대안
있는가
지금이나
허탈
10점짜리
돈으로
##녀의
명작이라고
##급영화
들이
들지
##겠다고
##남아
##방에서
##방식
일본이
흥분
원작과
빠르
솔까
##는거다
순진
##아까운
달리는
어이없고
연기력과
담아내
자체도
살아야
통해서
될듯
만화가
만화를
##죽여
##참고
분위기를
태권
임청
예술영화
##감독은
쉴
##인줄알아
하지말
19금
장르의
##팬이
더욱더
불륜을
우울한
고맙습니다
한계를
논리
오락영화
##ove
믿을게
스페인
기가막
##즐거
멘탈
강력추천
다크나이
다세포소녀
시간때우기
수면제
스타워즈
람보
엽문
더더욱
영웅본색
흐지부지
트랜스포머
5점이
90
mc
me
on
st
쏴
쥐어
##훨
##농
##ᆯ수가
##삭제
##ct
##ᆲ은
##다음
##곳이
##가니
이라고
##ᅳ류
영화판
##미도
가난
##거에
지브리
##면을
##뭉
그는
그대
그들을
모호
모순
##자도
하지마라
여튼
내리
내세
##광이
##상한
한가지
##하고도
##ᆷ일
##재현
무대
##하는것도
##진실
##것들이
잡고
소품
##연의
생기
개성
노튼
##비추
좋아하게
##같네요
유령
##함으로
##감에
##감정
남기고
못해서
생각나게
본능
##실패
애절
쓰레기가
##졌음
##졌으면
사람과
##적임
##었다면
넘겨
성경
##코드
김선
김윤
##관객
##님을
##녁
발랄
만든건지
박평
공포도
볼만해요
다른건
##하나도
인생에서
피곤
간지
하고싶은
어떠한
찾기
욕만
##언이
믿어
대사는
친일
함부로
카피
##양의
팀버
데미
보게되어
찢어
##넘게
의미없는
oooo
초반부
##들에겐
낚인
슬프네요
학창시절
깨끗
##효진
##부분도
스타뎀
##혜교
주제는
##놈의
##놈은
캐스팅도
설정과
첫번째
##깊은
발연기에
갖춘
여배우가
줘도
##보기엔
슬픈영화
운동
가치도
##흥이
향한
슬펐다
아빠가
분명히
싫어하는
3편은
미래를
##떨어지는
dvd로
모자라
##지말자
겨울왕국
떡밥
검색해
##궁금
설득력
오글거려서
베드신
정우성
이따구로
드래곤볼
탁월한
스킵
스필버그
새록새록
1탄
ch
닌
측
##브로
##늬
##쿵
##이영화
##고싶
##고싶다
##지원
##지효
이외
##하지는
##하였다
##하죠
##하더라도
##에로
영화계
##저기
아치
아프리카
##았지만
가라
지하
조기종
##인해
재밋는데
재미나게
##스도
##스에서
그와
##자들은
하지마
##댓글
마스터
마틴
사망
없으니
연주
##치만
안겨
##왔던
미스테리
최고인
##제일
도움이
아니네요
해요
해야할
노력이
##할게요
남긴
남기는
##안되고
##놀라
장소
많음
배우와
역량
##심한
쓰레기임
반감
다시보게
##재밋게
살리
와이
##스러울
훔
김영
그래픽이
똘
또봐도
##좋아서
연출을
작품의
배려
명작이네요
재밌게봤는데
이야기에
죽기전에
서스페
아름다웠다
일본인
일본영화는
아깝다는
볼만한데
##드라마를
빠지게
맞다
인생영화
필요하다
##지않음
##희는
추천한다
드물
캐릭터의
코미디는
찍을
열자
믿기
잼없음
잼나요
##써요
##허무
어린아이
남는건
답답해서
시나리오도
낚여서
안타깝네요
임수
환장
종합
##덕분에
길다
터지는
쉽
##귄
코믹영화
##찜
색깔
소리만
안나오고
##말고는
이번에
흑흑
##좋은영화
2012
만드냐
쏠
쏘우
##조차도
몰아
깜놀
##올려
법정
그럼에도
떠오르는
##짜증나
##애니메이션
월드
게임을
의외의
얻어
굿굿굿
##최고의영화
##곳에
##특히
퇴보
의문이
영화라는게
아쉬웠지만
납치
##모르겠다
짐캐리
과대평가
매미oo
벽
##ttp
아카데미
덴젤
박찬욱
군더더기
오인혜
구혜선
##손가락
0점을
1등
28
5점대
but
빌리
즉
♥♥
ㅂㅅ
##액
##쩔어
##ion
##잇어
##가다
##가라
##갔다
##하더니
##하구만
##어어
##에대해
##서트
##기보단
##겟다
##아들
##아오
##아냐
##시나리오
##나타
어케
가을
##로보
##로맨
좆
시점
##줍니다
##말까
##웅이
##려니
사로
봤는지
그를
한국이
##치기
##사나
만세
만듬
##전은
##정보
##ᆷ이나
무색
##하는듯
##진행
연기한
##ᅢ웃
아니여
차마
않네
평점도
했
인데
노골
##할것
##ᆻ던영화
비중이
##들이다
되야
구라
볼것
보고와
부각
##ᆻ을지
##차이
머가
지루하지않
드라마네요
재미있네
추가
##들어서
끝은
끝난다
##팀
##ᆻ으니까
에릭
싶으면
내용전개
##재밋
콧
불면
왔다
##획
##현준
때의
강하게
1점주는
극찬
캐릭
재밌게봐
포인
아이들은
##핑
홈
공포영화가
무슨말이
줄리
##극장에서
결말까지
현실에
현실적으로
나와도
이상으로
남자를
만들기
무서울
##잔인
집단
건강
한번씩
드문
##백이
경의를
잔잔하지만
개봉을
표현해
괴수
쓰나
##할수없는
무엇이
잠수
웃음만
더럽다
더럽고
안타까움
범인이
관객들
##펙트
영화중에서
머리에
머리를
##될듯
##그렇게
송혜교
굉장한
크다
평가를
크리스토
높은지
말아먹은
보여줌
상영관
##뒤에
지겨워
묻혀
짱짱맨
멀쩡
인상깊게
글쎄요
##새끼들
끊임
시간아까워
3d로
사기꾼
불쾌한
존경합니다
특이한
섞어
편견을
가슴아픈
##000원
심오한
별반개도
힘내세요
##죽는줄
쿵푸
겉멋만
정확히
인종차별
원주율
##프라이즈
강지환
1개도
2가
300
60년대
99
싼
싹
퀴어
트레
핀
##훌륭
##뱅
##틀어
##1개
##찔
##찐
##꽝
##34
##갓
##가도
##가자
##도없는
##하리
##었
##었어
##ᅳ름
##서방
##겠죠
##니의
##라지
얽
##만나
##만하고
##거에요
지진
재현
##데요
저지
저게
몸이
모욕
정석
##자에
하던가
##여자가
기법
##럴
##러티브
한대
안좋은
##사에서
만날
##내려
##냄새
미학
##것보다
제미
제왕
아니네
아니라는
##성으로
해주세요
##버리지
##버린다
좋아하네요
##일은
스토리지만
구분
같지만
못하네
일관
지루하기만
것들
##체를
감동받아
완성
예산
나오기
나오는거
나오다니
##먹이
##문을
사람만
상실
##두사
##재밌고
##재밋다
성적
성찰
또라이
있어도
관대
관심을
##판타지
아쉬울
버릴
재밌었고
남자라면
빠지
빠순이
주인공을
높이
봤다는
##사람을
간직
필요없음
##아깝
없었는데
##쾌한
##달아
##잘못
##통수
매력은
##주고싶다
베트
손꼽
엉터리
교회
대사를
제목과
아니라서
##한테는
들어도
홍진
공감을
목적
재미있어서
알게된
만화영화
웃음과
오늘도
배경과
총알
슬프지만
학살
몰랐는데
식스
졸작이다
당시에는
역사적
주연배우
툭
##짓을
여기저기
##내용은
감동도없고
영상미는
숨어
네이버평점
번을
송지효
인물들
여배우들
##ᆺ을때
등장하는
##하하하
매력있는
##필요한
ㅋㅋㅋㅋㅋㅋㅋㅋㅋㅋ
어울려
몇번이나
##노잼노잼
혼자서
울었습니다
관람객
##빼고는
과거를
먹먹하다
중반부터
이연희
밀어
떠올라
면에서
찬사를
메시지가
증말
철학적인
실패작
역할을
시원한
##힘든
퀄리티가
##마지막에
통쾌한
어렸을적
일어날
뿜
대표적인
부럽다
못봐주게
##이후로
한번쯤은
초등학교때
##드려요
##솔직
최초의
쥬라기
윌리엄
클래식
혁명
뚝뚝
비호감
신세경
미야자
소지섭
다이하드
1분
do
http
love
my
sbs
덩
롱
뽕
썸
퓨
ㅠㅠㅠㅠㅠ
##눌
##ᆷ씨
##걍
##쩜
##질리
잇
이선
이범
이혼
이완
##업이
영화본
##리한
아아
##해졌다
가해
가야
지배
저리
나참
##맘
모성애
너네
하자
맘이
없구나
##장은
최하
그루
안된
거냐
대실망
##에서만
우아
우롱
##랑은
##봤을때
도중에
개같은
말라
##할정도
좋아하고
##일으
비하
비싼
유혹
되나
되어서
남아이
일탈
##ᆻ을뿐
##개념
고스란
홧팅
##심의
##문의
사랑으로
명성을
에러
상당한
싶지만
##두근
##재미있다
코드
원표
##질때
액션물
할배
##호러
처음이네요
허구
##란게
##군이
또는
만들었네
돈벌
동감
##절로
장면과
##피아
##렐
발상
발레
아쉽고
##있는영화
##파서
결말에
##살에
볼만했는데
소재에
##하기까지
점은
##는다고
절반
애니가
피라
##스트리
##볼수록
파라노
재밌당
뭔가가
어딜
코미디가
경제
경계
대단히
##결혼
까는
톱
홍금
정신나간
않아도
##블루
알겠지만
용두사
배경도
지나친
분위기에
돌아오
엄마의
주제도
행복을
##귀신
##내용을
##주의를
설정에
##것같습니다
똥을
집중도
비교하면
바꾼
안나오는
놓은
##거같네요
##지루하고
받아야
예쁘게
##재미있음
창의
전편의
별루다
너무재밌어요
##좋겠다
어둡고
접근
자유를
있나요
레이첼
골때
##나올때
그지같은
꽉
춤추
오글거리고
13구
히어로물
타이틀
당연한
드림워
김혜수
컬트
##바뀌
절제된
정당화
권상우
그나저나
팀버튼
미야자키
2차
3시간
60
and
gt
란
♥♥♥
##ᆷ은
##땡
##19
##스랑
##이요
##곡이
##지우
있으니
##하군요
##어마
##겠음
##시라
##낫다
##밍
보셈
##들리
값
가관
##거의
조정
시사
나니
나비
##스ᄏ
##음악이
긍
그들은
모여
모야
몸을
너는
##말아
정리
##구먼
##였구나
##ᆻ어서
최대의
##치않
안했는데
만나는
##에서나
##에서야
##재가
전국
숭
미니
미키
##디가
자라
소설이
최고였습니다
않으면
개봉이
놀이
말이다
##중한
##함만
되도
같네
남발
##바리
별다른
별기대
##편의
장미
장나라
지루하네
아까워요
요약
사랑도
사랑스러
웃게
에일
##동을
불후의
난생
##청이
의학
매혹
강조
10점이다
극한
모르나
작품중
분이
캡
재밌게봤다
##증을
들여
서서
그런영화
마음의
마음속에
단언
박해
공포영화는
아닌지
아닌것
##쳐도
##ᆻ나보다
다른영화
##하나로
이상함
20년이
##크가
##크의
##역의
무서웠다
정도다
인간적인
안되게
안되나
##는거임
##아까운영화
##줘요
캐릭터와
매력적
매력적이다
출현
##장면을
손색
믿음
잔잔하면서도
먹먹한
물고
토마
토끼
악역이
날아
##병맛
글로
##얼마나
복선
훌륭함
될수
겹
사실이
멋진영화
전쟁을
양동근
총격
##스토리도
다큐를
분위기도
클린
즐겁고
백배
휴먼
##끝내
ost는
똑똑
똑바로
쫒
이후에
흐무
전부다
직장
##라이언
받아들이
말아야
에로물
멜로영화
그때의
질질끄
있겠지
누구도
##코믹
운명
감독님의
돋보인다
예고편만
가끔씩
##스텔라
##흥미
##특유의
징징
흐름이
##쏠
##앞에
가져다
##트릭스
농담
##덜덜
닥터
조용히
21세기
낚였네
유지태
오글거려
데뷔작
뮤직비디오
팍팍
힙합
##특집
드림웍스
24
5개
pd
se
괘
뚱
훌
##으라고
##토리
##뭘
##궈
##1위
##ᆺ하게
##ᅣᆷ
##ch
##gm
##이래
##있으면
##어쩌
영화에서는
영화계의
##기준
##니버스
##앉
##아무
##시도
##시죠
##시절이
##남이
##미니
##한가
어벤
##해줄
갔는데
##보셈
조조
조심
젖
저거
나가는
나누
그시절
다리
정이
정재
##구구
##대전
##ᆻ었던
사다
##약이
기차
주상
없군
내놓
최후
그레이
한테
스카
대가
웅장
##진은
연기까지
##부러
##딘
잘함
잘나가
##터짐
차별
##생이
좋아하지
유이
##감사
느슨
못살
알수이
##모가
일생
일요일
장근
머지
것들을
##트와
##타는
역쉬
예쁨
##들었다
##포인트
신민
##적이라
##원도
##원작
코드가
원피스
##족이
액션에
기대도
기대에
기대됩니다
때도
김현
한국어
위에
만들어야
별로였음
##씩이나
히로
심히
재밌게본
아이와
아이러니
죽기
##겠다는
##되는영화
장면만
홀
단역
울게
##극의
현실의
반전의
뻔히
##평점은
힘드
##받았다
높네
##볼까
##볼려고
##아니면
졸아
없었고
##희씨
어떡
뭔가요
##배속으로
##통에
달고
대사들이
물건
어이없어서
##점이상
천만
중간부터
부족함
노래를
너무낮
##외로
국제
삼가
공감가는
세상은
않았음
##많아
변호
사실적으로
부분에서
낚이지
되었는데
임신
임권
##부분에
클라이
관객에게
애니메이션이
주제에
##책이
이정도로
상상을
이쁘게
읽은
다음으로
쫄
2000년대
##돈으로
인물의
##폭력
풍부
지루했어요
허무하게
이번엔
된다는
울었던
구성은
구성과
해도해도
짜증나네
지금까지도
짧게
넘어선
견디
알려준
퍼즐
플레이
고마운
남주가
듣는
메시지를
망쳐놓
이연걸의
시간아까움
##싱턴
##티비에서
인터뷰
뉴욕
나은듯
미치도록
##맹랑
##ㅠㅠㅠㅠㅠㅠㅠㅠㅠㅠㅠㅠㅠㅠㅠㅠ
보고싶어요
복잡한
m창있네
잃어버린
뜨거운
틈이
뭐하자는
자본주의
꿈꾸는
오우삼
강동원
극혐
이탈리아
웹툰
아침에
##솔직히
고스란히
90년
띠
칸
훼
##르르
##넌
##뜬
##챙겨
##th
##잇는
##고도
##지는데
##가야
이경
이스트
##하잖아
영화들은
영화라면
##서린
##겟
##욕이
##시리ᄌ
##미친
보소
보이지만
어의
갇
가상
##보는거
지들끼리
조여
저주
저려
하던
하려는
마케
사나
기록
진작
##오고
##ᆨ일
최저
한개
##간만에
##사님
스무
전세계
묶
무관
##부에
##부턴
미개
미이라
잘되
##봣다
도통
개잼
했을
놈이
노동
노예
##비아
좋아한다면
##더스
같지
남았다
##바래
알지
별점을
보고있는
##안의
##편인데
##겨운
것만으로도
배우만
사랑이란
##져야
에너
눈과
감독님이
이거는
맷
없는듯
기대는
있는듯
넘는
##호의
지금껏
##당하고
김재
김성
김소
김강
##란걸
##발이고
##군의
1점짜리
돈도
과도한
##씨를
심리를
##녀가
이야기도
죽을때
괜찮을
서프라이즈
버전
존내
나왔음
짱임
##글자
만들려고
보기싫
뻔해서
뻔뻔
속은
##평점을
방법이
안되서
솔직한
걸어
##등장
없었으면
언론
##줘야지
수준은
어떻
행동이
보다보다
##능한
찍지
어려워
열정이
엉덩이
믿지
어이없어
악플
모르겟다
쓰지
##수가없다
등록
개인의
스릴러를
##소리가
티가
막장으로
꿈에
봐야한다
이유로
살아남
재미있었고
미국판
복수를
장난아니
알게해준
산만한
개인적으론
허접하다
시나리오를
부분을
되어야
은은
은퇴
후회함
엄마랑
옛날영화
군인
잡는
색감
##만든다
##ㄷㄷㄷㄷ
충격을
똑같다
씨네
번역
재미있다고
재밌기만
허무맹랑
ㅋㅋㅋㅋㅋㅋㅋㅋㅋㅋㅋ
어울리
생각해볼
흑역사
질질짜
성우가
편집이
맛깔
##높아
흥미롭고
선택한
전작에
전작의
허술하고
돌려줘
ooo기영화
증명
##ore
외국인
어린이용
다큐멘터
##앞에서
활용
태어난
때문이다
냉정
픽사
##왜이래
##그렇고
잘생기고
앉아
런닝맨
##틈이
중학교때
영화자체는
별한개도
설경구
곱씨
어마어마
클리셰
임청하
홍금보
35
98
go
li
느린
멸
브
튀어
ㄹㅇ
##ᆫ줄
##ᆺ데
##꽤
##깍
##ᆸ잖은
##op
##ㅗㅗ
##ㄱㄱ
##이에
##이딴
##가기
이재
##활이
##도다
##하이
##하느라
##저링
##기용
##요즘
아가
##나무
보나
보느니
##한마디
##보라
##보며
##보지마
##거는
지우
지적
재료
##데로
저희
나뿐
재미만
다케
넋
##려진
##대도
마마
##여운이
기념
주목
주옥
너무한다
진행이
##수로
감흥이
##상으로
##치면
안제
##건강
온다
오타쿠
수백
##진의
##부르
소방
잘했다
##봤지
##봐야할
최고라는
최고였어요
도입
아니냐
차이가
않는데
##성탈출
##비홍
말하면
말해주는
##할려고
좋아해요
생각한
보고있어요
##편집
많지만
배우분들
고로
고찰
곳고
##걸이
감동적으로
예의
예매
##ᆻ으면서
##공부
##폼
사람들도
##동화
이건좀
이건진짜
불행
##추억
없는영화
넘은
성유리
##당하는
초기
김정
김남
김구라
강혜
##ᆻ네여
있어보이
이해못
두말
캠
우리나라는
##념을
뭔데
##판에
당최
죽인다
##렉스
호소
##메오
유치뽕
존잼
줄리에
현실감이
몰입감이
기억도
다른거
이상을
보기에도
##평생
##역질
무서워서
충무
##캅
파리
억지스럽다
##지않을
찾고
딱딱
받아서
경우
싸울
##장면에서
푸른
깝
물씬
알아야
알았더니
스릴러가
##맞은
꾹
꾸미
나름의
정신을
정신차
데스
언젠
목수
훌륭하고
않았으면
않았을까
##많다
만화는
시나리오에
##싶은영화
##꼬마
양조
지났지만
총을
안타까워
안타깝고
##부분에서
##뻑
##나왔으면
길고
얘기가
##합시다
그만좀
철저
더빙은
흔히
##드립
비교가
혹평
##10자
존재하는
##삼류
어른들이
어쩌라고
##만들고
누구에게
극장판은
쩌네
가치를
##책을
나온다고
과거의
미안해
##멋대로
검은
this
펭
예고편이
복수극
사라진
덕에
메세지는
청춘의
##떨어진
심심해서
##모습이
##모습을
철학적
젊은이
붙여
##아아아
##로서의
모자란
생각나네요
깔끔하고
기회가
스티브
신경쓰
무언가를
알수없는
취향은
흉내
비현실적인
거부감이
응원합니다
인디아나
클라라
런닝타임
top
뚫
일깨워주는
##남기는데
어우러진
매끄럽지
몽환적인
섭외
차승원
드니로
오리지널
##아직도
7광구
크리스토퍼
베트남
##파서블
파라노말
에일리언
1년
bl
bgm
ever
im
na
쎄
쏙
찔
춘
크레딧
필리
##ᆻ습니까
##멀
##긔
##쭈
##쓴다
##22
##2점
##뿔
##ᆰ고
##ill
##un
##ht
##이크
##이죠
##화는
##도와
##하단
##하라는
##어는
영화감독
영화자체가
##저런
##기보다
##요한
아라
아일
##시를
보진
##만세
##들보다
##보일
##거니
재주
재발견
저기
저절로
##무엇
##마냥
##마트
몫
하냐
하려고
마을
마초
마누라
##여야
사전
사토
기쁨
진심이
##수다
연장
한회
한건지
거창
만점을
대역
전성기
진짜진짜
오오
오토
무얼
##디션
잘살
잘하네
잘표현
스트리
왜그래
차분
##세이
노다
##비는
말만
말할수
##할정도로
##감상
남긴다
##바른
못된다
생각해서
##몫
##물은
별볼
##본거
부를
부르는
##노출
##유머
추락
공존
옛다
보는듯
##라고는
웃길
##공주
##적이지만
##적이지도
눈만
내용으로
##질수
기대되는
할수이
있는게
초능력
김하늘
##긴했지만
강아지
만들어주세요
1점주기도
10점도
하는건
##박이
이해하고
과정을
심은
동료
우리들의
##급의
괜찮네
여자들의
서인
아쉽네
단점
버리
아무래도
볼만하네요
볼만했음
메가
멤버
뻔하지만
속도
눈물흘
20세기
라스
치고는
안되는데
건데
졸면서
언급
##잘하고
##최악이
##꺼다
엉엉
믿는
잔잔하면서
약빨
##잡아
잼씀
모르겠는데
조금씩
떨어진
기분좋게
##맞춘
봐야겠다
데려
##이었어요
##됐는데
재미있었던
글구
왜이런
황홀
않았고
장난감
##최고다
나온거
이해가안
##들에게는
작품이라
영화관에
환타지
역사왜
빠져드는
##봤다가
휴머니
##이라는게
꺼내
엉성하다
실화라니
이러니
##기만하고
읽는
재밌지도
인물이
혹성탈출
화려하고
웃겼음
##수준의
끓
ㅋㅋㅋㅋㅋㅋㅋㅋㅋㅋㅋㅋㅋ
어울린다
그땐
묘하게
##ᆸ시고
상영관이
관람불가
##그런가
창조
미안하지만
아닌가요
##기대하고
비추천
희망이
멋있어요
요소를
잘만들어진
새롭게
웬만한
멀리
스케일이
증거
보냅니다
감정이입이
군대에서
시선으로
깔끔하게
##해지네요
톰크루즈
##티비로
썩어
채널돌리
컨저링
인터스텔라
소름돋는
해리슨
불러일으
##보았습니다
##뭔지
##뭔가
아침드라마
내겐
##쫌
##거든요
이은주
적절히
스텝업
배급사
흡사
두근두근
달콤한
그들만의
헛웃음만
##위원회
황정민
엔딩크레딧
전도연
파워레인저
프로그램이
조기종영
클린트
임권택
9점은
bb
꽁
째
펴
##릉
##즈를
##뛰어
##뜨린
##갱
##1ㅋ
##ᆺ은
##쇠
##쿼
##칼
##ve
##ul
##다를
##고은
##지로
이들이
이영
##하구나
##하려면
##어떤
##길이
##게이
##리와
아시아
##니스
##시스
##라마
##한건지
##만함
##들다
##해놓고
##했더니
가시
##보길
##보시길
지대로
지나서
지존
재평가
조쉬
##인으로
저것도
시기
##무니
##주제
##영화네
##영화였다
##음에
##우니
##자막
##자식
##대화
마츠
##엿
열린
##드문
낸
진솔
##수고
##수작
##오르는
##작은
##상도
한없이
안들
안봤다
겁니다
거울
##되네
##와이
##히게
##힌다
##히어로
웅
우웨
우익
##내기
##낸다
##것다
##디로
이뤄
##랑이
생략
잘해서
##봤으면
##봤더니
아니죠
차지
평점좀
평점낮
평점알바
햇
##국의
말에
##할거
##응이
##중독
구역질
##바가
뭡니까
생각하며
붉은
장혁
장쯔
많네요
고발
##소를
##트에
##타령
10개
애정
보는줄
재미없습니다
신나게
신현준
상투
##두번
##윌리
셀
마지막으로
불친
##영씨
없다는게
할지
넘기
##스러워서
후기
후덜덜
##코가
처음임
허전
##현이
##쉽
한국영화가
##같은거
하는건지
별로인
연출의
두명
우리네
##프가
##천재
장면의
꼭봐야
공포영화를
현실이다
나왔는데
기억될
메리
이상도
남자들이
속아서
빠짐
낮음
맞춘
영상으로
치는
인간들이
##매가
##매력이
##카메
몇개
##스탈
##좀비
모든것을
억지설정
##복수
##줘도
음악에
##릴때
웃기지
웃기네
##뿐만
실망했다
실망스럽다
감동적이었습니다
표현했다
악당이
막장의
레즈
천사
특히나
델
각자
각자의
언제쯤
시작은
영화로서
황비홍
않았나
시청자를
변신
느낌이랄까
채플린
재미가없다
tv판
환불
관객의
즐거움
종영
뿐만
패턴
돌아가고
##놈들이
##놈들은
##책임
알고보니
됐는데
##하시네요
##월드
다음에
씨발
비교해
##돈주고
사회에
##레이드
세계관
예상치
##지루하다
2점준다
말았어야
그녀는
권력
질질끌
잃고
화면이
만드네요
빛이
있었다니
##했어도
향해
나에게는
슬퍼서
흥미로워
샤를
많았던
시절의
메세지도
스타일리
2시간이
서로를
##으려는
유머가
놈들
어찌나
한계가
중간중간에
봤었다
아프고
리뷰를
던지는
분노가
연기자들의
하이킥
영화보는내내
찝찝한
스펙
어지간
##ᆯ깁
아동용
작위적인
최민수
최초로
느리고
가르쳐
주지훈
사무라이
묻어나는
자세히
첨이네
흡입력이
김태희
객관적으로
이동욱
쌩뚱맞
나중엔
록키
못생긴
슬래셔
##♡♥♡♥
한예슬
1이
1도
23
3분
3부작
6살
개웃
랑
뵈
세이
쯤
탱
##랭
##으ᄅ
##앵
##헐
##ᆻ소
##fe
##ᆨ의
##그레이
##1점도
##쭉
##촬영
##ㄹㄹ
##ld
##3류
##el
##ap
##담이
영화니까
##리는데
##은혜
보자고
##라스
##해본
가자
##보비
##보임
##보잡
##록이
재능이
조승우
##데터
저녁
나발이고
##영화냐
그것은
##깎
##우면서도
##구석
맙시다
##였을
##였네요
##야야
##없구
내는
내러티브
##치네
안에서
안남
##사라
만나서
만나고
##전혀
대비
댄스
오싹
무기
무처
##하는가
##하는구나
##하는건지
미리
미성
잡다
##연한
##연애
최고라
아니겠지
왜냐
개발
해놓고
노는
##할지
##그자체
좋아지는
좋아한다
유리
유오
유부
구리다
##금을
못보고
생각에
본인이
##모르는
볼줄
##본게
장편
지루하지만
지루하지않고
것인지
드라마보다
##개로
##보다니
##걸작
##유혼
중세
##탓
##타클
쓰레기들
사람으로
시간의
눈부
영광
실컷
##재밌
##재밋어요
세트
코엔
이건머
와이어
매년
액션신
##스럽네요
##홀로
후한
그러니까
때리고
김동
강제
위하여
만들어준
이해는
작품성은
심어
아이의
서민
##날이
##피니
##레스
##주는게
##방의
있다는게
버금
##예술
박지
코믹한
남자와
보기도
보기전
스릴있고
말이지
눈물도
주인공도
계기가
맞게
정도껏
치열
인간을
인간들은
전개되는
##따름
졸려서
##툭
수준급
느꼈던
##집에서
코미디도
대박나
어려울
##꺼라
##보는내내
먹을
모습과
##한텐
여주의
##맞음
제작된
어설픔
날로
따뜻하게
의미는
보면서도
친구들
우리나라에
우리나라에서
##죽고
시나리오는
둘의
왠만해선
팬이라면
식의
식으로
포스터는
재밌는영화
키워
주고싶
##찍어
##누구
약간은
중국의
소림
이름값
얼굴도
19세
횡
##먼저
갖추
##눈이
##츠의
웃겨요
장르는
다운로드
여주인공은
가볍고
허무하다
빨리감
나이트
말아라
울었네요
##틀러
없을까
상황에
만드나
루이
사이에서
프랑스영화
맛에
빨아
창작
분위기와
##멋진
##높다
범죄자
이리도
끼어
아까웠던
넣은
스칼
적당하다
놈들은
봤었던
미소를
와닿지
생각나네
분노의
싸이코패스
##곳에서
오그라든다
지구를
말할것도
심각한
씁쓸한
뗄
외계인이
명확
대표작
##이유는
##가능한
##만드네
##소설을
뛰쳐
잔혹한
움직이는
위험한
저급한
몬스터
담아낸
집어넣
끝날때까지
리암니
페이크다큐
브래드피
비정상
쏠쏠
긍정
naver
별볼일
휴머니즘
무척이나
3개
3탄
up
브레
슴
트라
프레디
##됴
##썬
##펴
##팔리
##vs
##hh
##답게
##가치
##가네요
##가진
잇는
##하듯
##하더군요
##었네요
##어머니
영화죠
##리나
아야
아르
##아버
##아파
##시티
##납니다
##미와
보신
##락이
##한건가
##해짐
##해줘서
지들
조인
##인권
시노
시민
나았다
##스오
##마른
다같이
정유
##엿다
주먹
여지
##없으면
너무좋아요
##수한
##과정
##장님
##상과
##간지
안난다
안하는데
안든다
거대한
##되면서
스파
대리
대형
대략
무려
수애
연기파
미흡
자칫
소문
##연은
잘봤다
##때메
제법
##터져
아니었음
왜만들어
평점올리
인기가
말해서
비유
비난
뭐하냐
생각했다
일상을
##차원
##준이
처참
고려
고래
재미있던데
쓰레기로
사랑스런
##선의
##선수
결합
에반
##적이며
##명도
실력이
싶네
그리운
원맨
불필요한
매회
기대했
##라는거
##라는건지
##싶어서
하나만
하나님
##홈
후유
김대
현빈
##관련
만들어졌다
10점줌
롯데
이해하지
작품인데
과잉
동호
##나오면
명작이라
재밌게봤음
들을
장면들
##피를
아름다웠던
마음은
##행복
유치하지만
표절이
##가는게
몰입을
몰입하면서
만들겠다
보기는
속의
봤다고
##씬에서
##빠지는
극장서
##볼때마다
간첩
##순위
한번은
##근한
졸았다
없었습니다
느꼈습니다
찾았다
##그려
##잘봤습니다
내용이나
돌고
이걸보고
베껴
달아
##있다고
##웃기고
##썩
나오는지
기분만
막장이
들어와
알바들이
##만큼의
데드
oo같은
##이었지만
공감되는
날라
미국에서
출연하는
찌질이
수작입니다
빼앗
질투
강추입니다
싫은
초반의
웃음도
오늘은
어색하다
총질
슬프게
깊이가
스타일이
갑작
갑갑
투표
##한거지
##합니까
주제로
어느새
잔인하게
꺼버렸다
불쌍해
죽일
인물들이
##괴담
각본이
각본과
영화인데도
나이에
##철학
으아
쳐도
불편하고
살인을
##무섭
##빼면
지겨운
##묘하게
##는것은
힘든데
깜찍
스타일의
아오이
나라를
15분
촌스러운
뜯
바람피
해야하나
그래픽은
심심한
결론이
화가난다
와닿는
레이싱
섹시한
소름끼친다
에이리언
시원하게
후속편
10년전에
다니는
선생님이
뇌가
##마음에
좋아할만한
고통을
치밀한
가면갈수록
영혼을
##ent
잘생긴
##셉션
##더럽게
##신분들은
충실한
선동영화
봐줄만
묵직한
다를게
무료로
이게뭐야
##ᆺ갈리
일베충
러브라인
깨알같은
르네
리즈시절
코스프레
아메리칸
끝판왕
주상욱
양조위
펭귄
1빠
5번
la
vs
느려
뷰
텅
##느리
##띄
##쌔
##킬링
##5분
##all
##달리
##가이
##가수
##하든
##하라고
##ᅳ랙
영화고
영화면
영화좀
##기면
##기업
아들의
아들과
보임
##락한
어메이
어깨
가식
##로버
재회
저의
납니다
나홀로
##영화지만
##영화에서
##음의
모냐
##까봐
##말은
##였네
##여배우
사막
기사
주려고
여고
여진
내보내
너무귀여
진보
##오랜
##작정
한건
##하곤
##간다는
안성기
안쓰는데
거대
걸린
##정서
스콧
전락
전환
오만
수치
미칠
##디젤
더한
##봣
##봤어
최곱니다
##땜시
도덕
왜저
했었는데
##비를
##비교
말한다
##할수록
##으으
비비
비극이
##워커
구로
구원
같기도
##바탕
못볼
생각하지
생각해도
알리
일이다
일점도
볼꺼
보고서
부여
부른
##안함
##안타까
드라마에요
배우로
고정
고현
고급
추잡
추악한
화해
##해석
##해서는
쓰레기라고
##팅이
참다
반응
##동네
신나는
영웅이
실존
##윈
마지막의
불사
난감
왓
매트릭스
있는것도
##콜리
처음이
초등
그러니
##슨은
한국은
극과
극적인
연출에
배틀
야이
##씨와
두개
동일
동방
##키드먼
이야기와
아이도
##렌스
발생
발휘
##연기에
보여서
단조
일본판
##행을
존중
표본
망설
기억남
짱나
짱입니다
멜깁
남자배우
만들기도
반전과
가슴찡
얼른
선수
선택이
##역에
봤다니
##사람만
##스트를
건너
##등등
문근
없었지만
##줬으면
외화
외에는
수준이다
##그를
##그린
모두다
욕하는
욕나오는
##거리고
어렵게
출신
어떻게든
믿겨
까메오
꼽을
함정
잼써
악의
악몽
##석은
##맞아
니들은
디아
노래만
1편도
##스트너
출연료
흰
##이상은
않았는데
싶은건지
##던데요
##최고최고
전쟁이
청년
배경은
##뻔함
##스토리는
##스토리가
암살
실화라는
첨본다
죽이네
##열자
책도
재밌긴
훈련
줘서
크고
##또보고
크리스틴
윤계
세계를
ㅋㅋㅋㅋㅋㅋㅋㅋㅋㅋㅋㅋㅋㅋ
몇번이고
울었음
줄거리도
끝내준다
평론가들은
##시대를
불편하다
나온다는
##필름
##하지않은
엉망이고
짧아서
자극하는
무섭지도않고
##버렸음
##버렸네
영화인거
전편에
스크리
신기한
촬영기법
허술하다
나라의
##올때
류의
아마도
만큼은
새롭고
고마워
짐승
##하던지
##홍보
씬은
망쳤다
##로서는
슬픔이
##센트
난해하다
녹화
##ant
예뻐요
체험
행복이
일어나는
다뤄
할말이없다
볼거리가
볼거리도
잊을수가
##아줌마
닮은
생생하게
가득찬
##이하도
오로라
낳은
40대
not
##밖엔
설득력이
찌질한
뽑아
##맞추기
못미치는
곳에서
빵터짐
저평가된
냄새가
스탤론
##리의리의리의리의
하얀
습작
무의미한
로드무비
김명민
드라큐
오페라
한정된
눈요기
핸드폰
강호동
서스펜스
불면증
이범수
김강우
유치뽕짝
목숨을
1화
2년
3대
ne
눌
닐
브라이
셜
츠
트루
##흐름
##ᆯ듯
##그로
##1은
##쪄
##퀄
##21
##30분
##ust
##있냐
##이쁨
##다녀
##지식
이주
잇어
##화면
##도못
##하던가
영활
##섞
아리
아키
아휴
##납
##나는데
보네
보물
보실
어주
##해여
##보려
##보이고
##보느니
지내
##로야
조커
조재현
##데기
##인상
나나
##점에
##점수는
##무가
##주를
그딴
##마는
몸에
모독
넓
##우면
##욱이
##웃어
##구조
하차
마주
##옆
##여운
기도
봣
한장면
한결
한표
##칠이
안고
안목
안봤는데
안가고
##사진
##되냐
##전히
대변
대책
평은
전통
오류
무르
묻고
무삭제
숨이
미사
미루
미군
잘된
##봣어요
##때의
##제는
제레
돌이
차인
개실망
##세상에
이런데
해적
해줄
인셉션
##국주의
##신듯
##랩
비로
비중
유역
밟
못하지만
못만들
생각하는데
알수가
알면서도
일방
##ᆻ을것
장만
지루합니다
##임파서블
드라마임
많았다
고딩
##소나
감동감동
완소
애를
요구
화난다
##선물
신앙
신들린
상식
감독아
싶게
##위해서
##재미가
콜
원빈
##질러
살기
매튜
액션으로
할거
##스럽지만
후진
##회의
##즈는
처음입니다
그러면
김보
한국에
한국형
한국인이
이게왜
##테니
##없는게
그랬다
만들었네요
##않는
멋있었다
##프다
##교육
아이들을
아이들도
당하는
##남겨
##느와르
아쉬웠다
꼭봐라
귀에
##옛날
##ᆺ다고
일본식
##행크
설레이
아닌거
##론의
나왔습니다
짱이에요
##없다고
메인
남자들의
##였다니
보기드문
##드라마로
파란
파이팅
어쩐
##아니야
외로운
뭔가를
느껴짐
배우들만
추천해주고
모두들
등이
##셨으면
캐릭터에
코미디를
실망한
실망스러운
독창
가족끼리
싸우고
대단합니다
교차
잔잔하니
대사들
개봉했을때
토이
토요
악평
카타
모습도
스릴러의
레드
봐야함
##만큼도
정신건강
만드는지
삼국
##좋아하는데
희한
##넘어
않았습니다
신선하다
산드라
답답함
채민
##죽을
시나리오와
1점도아깝다
배경을
영화관가서
태양
진정으로
놀라울
보았지만
##만들어도
공포영화의
돌아가는
터무니
행복해지는
행복했습니다
감정의
먼지
껏다
꺼버림
따라가
##하시면
후반에
후반으로
##것같아서
끝나네
##깊게
##충격
흔해
흔적이
네가
##그럼
없었다면
##1010
##아이돌
당신을
슈스케
케이트
말아먹
기다리
그때는
이런영화에
2015년
성우를
##무서워
금방
돋보임
참신하고
흘러도
가는줄
급전개
분명하다
아버지를
나쁘진
전문성우
##헤헤
중반부
멋있음
관계를
##놀래
##쪽으로
여성의
예전의
놈들이
안봤지만
안봤으면
그래픽도
듣보잡
이뻐요
##걸까요
심심할때
리얼하게
어째서
##끊
말이필요없는
##bbbb
눈빛이
쌍팔
봤을땐
##이유가
로그인하게
생겨서
인내심을
조선족
미치겠다
달달한
엑스트라
##몰라도
잘생김
##밖에는
클라스
기준으로
뚜려
쉣
옹호
뭣도
어떨까
1점준거
차가운
##★☆★☆★☆★☆
영구와
떠올리게
1점준것중에
심사위원
녀석
닌자
지하철
용두사미
어벤져
사다코
이스트우드
마케팅
줄리엣
역사왜곡
원맨쇼
3번째
5점은
7점은
sn
깨우
브레이
쭈
쯔
##ᆻ잖아
##톡
##긍
##그레
##ᆸ소
##쿨
##펀
##삘
##db
##ᆰ어
##ain
##잃
##이긴
##고에
##지르고
##가루
이웃
이만큼
이슬
영화일뿐
##기라도
암이
##닌
##아자
보네요
어서
##해놓은
가미
가위
짙
지독
##로가
조직
##인한
##인드
##인척
시더
남이
##주에
##주나
그치만
다듬
##우우
##우주연
##려도
##대서
마사
마르
사형
사나이
사극이
주체
주원
였습니다
##없냐
없구
낼
내스타일
진화
##작이라
최선을
한달
##치콕
안좋
안나와서
거리
거리가
##와일
##왔습니다
전무
오다
##운의
무책임
수퍼
연기나
##부림
자는
자전
자제
자존
소년의
생뚱맞
덧
도박
##터지는
아니에요
개떡
했네
인한
말해
말하지
##륵
좋아라
좋아합니다
##ᆻ던거
되길
되는거
구매
구멍
##금지
남주인공
못만들어
##하겠지만
##하겠지
뭐죠
알아서
일제
##물어
볼수가
부인
##끼고
지루하지도
것처럼
드라마였다
배우다
고은
##걸린
감동으로
중에서도
중국이
중딩때
10여
100분
##력은
역을
애절한
##난이
참혹
사랑하게
##선가
##단이
##공의
에혀
실종
내용전개가
그림이
##재밌는데
콤비
불꽃
##ᆯ릭
##처리
의존
##질에
살릴
왈
왔어요
왔다가
##영웅
기대합니다
없다면
있는거
넘버
넘친다
성괴
##에게도
지금이
##혁이
##란이
##발랄
하는것
극의
##너스
로긴
있었나
히트
##녀유혼
##나오는거
명작인데
재밌겠다
포스
죽어서
##남편
서세
##날의
장면에
엄태우
아름다움을
호텔
만든것
일본애니
##파괴
무슨내용인지
##것도아니고
망함
현실감
나와라
기억은
짱구
흥해라
보면볼수록
원작보다
애니로
##역으로
낮춰
방식이
라디오
치우
치명
##매의
##매니아
피어
안되네요
솔직하게
몇년이
몇안되는
타짜
##볼때
##볼수있는
파트
순정
건축
##지않았다
##투성이
##그루
잼있었다
모두에게
##산이
캐릭터들의
캐릭터들도
코미디로
##뿐인
긴장을
어려서
잔잔함
뒤집어
개봉하는
제목도
영화에선
잼없어
즐기는
기분좋은
데려다
복수가
##할수밖에
장난해
##베리
사실에
한다면
초반은
양산
된게
인상적이다
##그래서
몰라서
예술을
역사의
##입견
즐겁다
후회하지
주연으로
투성이
엄마와
##놨다
최악입니다
병맛이
말도안돼
광팬
캐스팅에
##만든영화
중국영화
##것같고
더빙을
이러한
끝나지
끝났다
죄를
획을
##드리고
바뀌어
쫄기
했다면
2000년
2005년
##돈이
놓친
교훈이
사회를
장르에
##수준이
존재가
허무하고
된다고
자연스럽고
보여주지
완벽히
멋집니다
멋지네요
##ᆸ시오
끝내주는
빛나
순간이
필수
##렬한
미화하는
3점준다
완성도는
2시간동안
천재다
대한민국의
노력한
플래
떠오른다
사건을
##쩌는
##인거같다
하루종일
##아닌듯
환상의
실패한
골든
##안되게
소름끼치
시선을
미쳤다
##하지마세요
##보여주는
썩은
스케일도
무언가가
##마음이
펑펑울
어머니의
마이너스는
쌍욕
오글거림
시시한
상업영화
##만드나
아니었으면
못봐주겠다
아랫
죽을뻔
어처구니가
거슬린다
아쉽긴
화끈하게
멘붕
납득
납득이
주말에
빅뱅
폴워커
수고하셨습니다
##비슷
##비슷한
앞뒤가
낯선
시리즈로
##00000000
옹박
프렌
꼭보시길
##띵
아담ᄉ
나뉘
나눠
암울한
한순간도
##봤자
능가하는
단체로
얄팍
적나라하게
이순신
가만히
지저분
지상파
쥐어짜
끊임없이
피라냐
##1ㅋ1ㅋ
스타일리쉬
스칼렛
정신건강에
3일
bor
tr
we
드릴
랄
뺨
셰
쬐
쿡
ㅅㅅ
##왠
##브레
##ᆯ드
##ᆷ프
##매우
##ᆨ기
##10년
##ᆺ냐
##챠
##썸
##ᆸ의
##ᆸ기만
##칼리
##퀄리티
##2가
##ㅜㅠ
##uck
##지겨
이시
이작품
이슈
##하가
##엑
##에의
##에나
영화처럼
##기스
##리화
아날
##니잼
##아침
보호
보이네요
##라나
##라는데
어드
가게
가네요
##보셔
지속
지쳐
조디
시절이
나간
##무어
##주네요
##주려고
##마무리
모양
##말에
정부
핫
하필
합시다
##댄
##대결
마동
맛을
사춘
##야의
주면
##없던
없더라
너무하다
##수에
봐요
연계
최대한
한물
한사람
##하고싶
##사로
##사냥
거침
##전개도
##정씨
스마트
오드리
우마
##부탁
미워
##것이지
이룬
잘만
##봤었는데
최고였음
제정신
##터를
개독
인듯
인식
노인
말지
##할게
##버려서
##르의
좋아했는데
##일체
빗
비명
유니
##중인
##중국
되새
구려
##더의
##바다
못지
못하나
##모토
별이
볼껄
##까지가
##ᆻ을지도
##안이
##차고
지루하네요
##개연
배우고
고3
고수
고백
##걸고
1000
공효진
##력과
역량이
끝으로
화나
에니
신부
신뢰
눈뜨고
##위에서
##재미도
원망
원초
불만
완전한
##속이
##지는게
기대해
성숙
후에도
초콜리
때론
김유
강시
강철
괜춘
##인데요
하는가
연출한
연출로
있었을까
작품도
캐서린
##설레
땀을
따듯한
히치콕
동정
##녀석
당하고
들려
##정도다
서사
##느님
그런건
아쉽게
아쉽습니다
귀가
귀요미
##맨이
##예능
박한
박영
무슨생각으로
울나라
줄은
오래전
망치는
망한영화
망했는지
##쳤던
##하나는
반전까지
스릴은
눈물난다
선전
선배
주인공과
계획
##받지
영상을
라면
피가
안되요
##씬도
몇일
파악
간절
필요는
##태규
언어
음악의
음악만
##희를
모두를
보다보면
##달러
대박입니다
같다는
베니
대단함
계속해서
개봉하지
모르겠어요
##웃긴
##다니고
내용도없고
자체를
1편과
각인
각성
날이
목적이
##꿈
복제
훌륭했다
따뜻하다
수작이
##뭐지
알겠으나
신선함
잠든
질러
질문
##권을
사실적인
유쾌하다
깨다
##그래픽
팬이라서
##입니까
애니메이션은
킬링타임도
후회할
##존재
터짐
어느것
##놔서
잔인하지도
잔인하기만
감정선
##사랑을
따라한
광해
이정도는
철없는
철학이
실화라고
소리를
더빙도
##감동적이
회사
##드리게
켄
이미지가
##눈에
취급
괜찮았고
멍청이
이후의
줬다
여주인공도
평가가
윤아
어쩌고
##팬더
기다리고
좀비물
그녀가
잃었다
상영시간
확실한
운운
운명을
물론이고
찍어라
##필드
댓글알바
분위기의
승화
더럽게없다
##영화중에서
역겹고
죽음의
무서운거
몰래
바보가
먹먹해지는
##이런영화
신기하다
연출력도
요소는
##으려나
나라가
속편이
정치적
사건의
고맙다
고마워요
낫지
안맞고
##찾기
리얼한
##넣은
##끄고
밝고
밝은
어릴적에
나타내
톰행크
흐름을
컨세
반성해라
##소재로
찡한
##시킨다
밥먹
좌파
의심스럽다
상상력을
풋풋하고
아픔이
남편이
빡쳐서
초등학생때
신파극
조용한
민망한
8점대는
##멸의
##기억에
내면의
최민식
깨달았다
140
택시
니콜키드먼
잊혀지지가
극단적인
프레데터
이성재
평소에
##oooooooo
what
##바꿔
어땠을까
다녀온
담담하게
##ight
기괴한
엽기적인
이나영
졸업작품
큐브
윌스
어중간한
엑소시스트
##훨씬
박평식
친일파
사로잡
식스센스
이선균
서서히
단언컨
유익한
장근석
신민아
주옥같은
안젤리
어메이징
장만옥
카타르
2개
7번
an
wor
껴
닉
드려
멀어
샹
쒸
킥
힐리
ㅜㅜㅜ
##ᆻ건만
##모리
##깡
##쎄
##ᆸ어
##2의
##ㅅㅂ
##si
##ᆶ이
##ak
##um
##이이
##이한
##답다
##고를
##강이
이질
이전에
##도대체
영화이지만
##섬
##기때문에
##기보다는
아시
아들을
아웃
##니발
##았고
##시노
##시즘
##낳
##나름
##미래
##미녀
보장
보지만
##라라
##만원
##들때문에
##보러
##보았다
지원
##로선
조아요
##인들은
저래
절라
시바
시스테
나같은
나가고
##점으로
##무라
##주니
##주로
그후
##ᆻ는지도
정글
##우치
##자이
##자연
##자랑
##자마자
하니까
하기에는
마크
기막
여주는
여실히
없구만
진주
봣다
봤으니
최수
최진실
##상황이
그레
한때
안티
안드로
##될까
##왔지만
##전문
스며
대다
대구
대하여
우정이
무작정
숫
수식
밉
자료
자빠져
소외
잘라
최고지
##젝트
제한
차원이
##세지
이런쓰레기
인피니
##신과
##신선
##릇
##르다
좋았어
좋아함
좋아하면
##래야
##같지
##일도
유전
구하기
##감으로
남김
바가
뭐하러
생각지도
##모니
##안나오
##차가
지루해요
드라마에서
##준거
처절한
작작
고딩때
##소장
##소문
중구
##타가
나오면서
나오길
##심과
쓰레기도
반짝
##단의
##져도
명예
좋은거
##망이
##보고있는데
##보고있어요
##반복
난국
##첫
액션씬이
최고의드라마
기대하게
##싶을
넘치고
##스럽네
하나를
##호화
##코의
##에게서
허영
##현지
##현우
초라
그러고
##경은
때부터
김래
김창
김규
그래두
극을
있었어요
작품으로
관리
배운
##민을
심했다
동급
동참
동심을
##판은
아이돌이
당당
이영화에서
괜찮던데
여자와
서극
##주는거
호흐
##연기잘
##방을
마음속
버리는
박용
##못미
특징
##메다
울려
존1
볼만하던데
나왔어
리플
기억하고
기억하는
말이야
##ᆷ에도
선교
선입견
낮을
영상물
높네요
##너무낮
걸레
타락
##볼수이
건진
억지스러움
##등록
##지않나
문학
외엔
##성있는
편이
배우들로
어디선가
##거림
어렵
독백
갈아
##장면만
대단하네요
재미없다는
잔잔히
감동적이었어요
꼬맹이
약하고
어이없네
어이없게
표현을
##써서
스릴러도
조금더
조금이라도
기분이다
연기력을
천녀유혼
꾸준
공감은
목표
##좋아해서
미국은
왜이럼
##만한데
도대체가
뺏
뭘말
친구를
산다
싫음
싫어서
##죽어
써도
써라
둘러
태극
당시의
큰일
몰입도는
빠져든다
지루하다고
b급도
엄마는
##짓게
##들과는
##누군
따라서
색다
색감이
왕따
이름으로
돋는다
흔하디
네이버에서
했다는
3류영화
끄는
ㅋㅋㅋㅋㅋㅋㅋㅋㅋㅋㅋㅋ
ㅋㅋㅋㅋㅋㅋㅋㅋㅋㅋㅋㅋㅋㅋㅋㅋㅋㅋㅋㅋㅋㅋㅋㅋㅋ
##지루해
된다면
에로틱
##액션이
바라며
##하자마자
잃지
##흐흐
끌려
흥행에
식상하고
과거에
##야할듯
맥어
흥미진진하고
흥미롭지
개연성은
온모
##낮지
완성도를
대작이다
멋있게
관계가
##올시다
속편은
촌스럽고
노출이
밑에분
##하셔서
메시지는
인상깊었다
비슷하게
외국영화
##헌터
다가오는
다가온다
가깝다
돈아까움
##풀이
와닿는다
수준이하
조폭영화
역할이
슬픔을
어쨋든
괴물이
##갑자기
용서가
소녀의
짠한
칼로
무섭다고
소름돋는다
##총사
꽃보다
보여줬다
연결이
벗어나
##작가님
밋밋하고
쿠엔
주변에
뒤로갈수록
##이해가
돌리도
안무섭다
##하진않
스크린으로
옥의
으리으리
봉태규
##로써는
다르겠지만
육체
하늘을
위로가
오랜만이다
놀래키
끔찍한
##zzzz
여자친구랑
##슬프다
기타노
별하나도
균
##시청률
박신양
국어책
미션임파서블
숨막히는
찜찜
##깜짝
틀림없다
임수정
잠수함
김남길
스펙타클
##그레이드
브라이언
셜록
차인표
아날로그
어드벤
1억
2번째
500
6점이
br
for
kt
밴드
삭
씌
쓴다
쩜
ㄱㄱ
ㄴㄴ
##댕
##퉤
##뜨려
##췌
##켠
##퀀
##2는
##ㄹㄱ
##ᆽ은
##56
##cc
##ir
##ᆱ은
##ast
##us
##이미
##다이
##다보니
##지면서
##지길
이문
이길
##하트
##하심
##었을
##얼이
##어른
##에여
영화까지
영화들을
영화보면
##저질
##기리
##리어
##림을
아따
아시는
##아담
##시장
##나쁜
##미국
##밑에
##만해도
##해버린
##햇던
가치는
가운데
##보나
##거려
지리
지식
##롭다
종이
조명
조악한
저건
나갈
재미난
##마이
##마가
모래
다문화
정점
##우이
##자들을
하시길
하시는
맙소
사운
여왕
여동생
없잖아
너무잘
너무좋다
##수있다
연령
한쪽
안의
안전
##전기
##전달
스페이
##ᆷ이랑
평정
전성
전하고자
오르
우베
무미
무성
수호
##진씨
##내면
연기들이
##것인지
잘난
##때까지
##조의
##제왕
##루니
왜그러
평점만
개명작
해보
해운
해보고
해병
인연
인공
인줄
##생의
##비판
##으다
##용도
##신고
##같애
##들이여
구할
##금이
남지
남음
바람이
못되는
못봤다
못했지만
뭐이런
생각과
생각해요
알수있는
본후
본질을
##모루
일드
##물고
별을
볼걸
##본건데
##차라리
장기
장치
것으로
##개판
고고
곳이
감동까지
중심
역부족
나오니
##ᅢᆫ다
보는듯한
재미없던데
사랑할
##단다
웃어야
##졌던
##폴
##포로
사람으로서
에리
##동엽
##는데도
좋은영화다
##적일
눈도
##원래
느끼지
##재미없는
##재미없네
불멸의
##반도
##충이
##질만
없는지
기대하면서
##싶음
성격이
지금보니
초호화
##경의
##테스크
또다시
강예
만들었던
작품들
과한
배두
배역이
##다가도
분신
##프트
재밌게봄
##킷
##키의
##키스
이야기로
죽었다
죽어도
##남자의
괜찮지만
여자들은
##정도면
보였다
##방법
버티
##예고
공포의
##못보게
줄거리는
오래오래
현실에서
현실성도
누워
##하나의
흥겨
남자들
남자친구
반전영화
속상
말이죠
빠르게
영화다운
방식
맞은
맞음
높냐
##쁘게
##빠이
파멸
##더라면
##순례
필요할까
##아깝네
##줘라
##훈이
##샘
잼있는데
욕하고
욕하면서
욕나옴
웃기긴
웃기려고
##뱀
코미디의
내용이지만
실망을
##거리며
베낀
##결말이
##있었음
흥미가
괴작
##엇음
모르겠으나
개인적
떨어뜨리
잊어
##초딩
노래와
##리온
##생각해
싶다는
##좋았어요
글래
로맨스를
출연자
통찰
수작임
될까
빼놓
잠만
친구들이랑
cg와
사실은
용의
용기를
용가리
허접함
있죠
헐크
작품이라고
낚임
총쏘
##된다는
##스토리를
이딴영화
안타까울
팬티
몰랐던
범인은
졸작이
예술가
즐거웠다
갑이다
애니메이션을
뿐이고
##끝도
턱
싶어지는
##놈들아
코믹물
추억돋
불쌍함
감사드립니다
헷갈리
철저히
영상미에
이쁘네
이름만
##ㄷㄷㄷ
얼굴만
##맛에
##감동을
##먼이
네이버는
##척하는
2004년
갖춰
괜찮았어요
존재한다
끄고
보니깐
그녀를
##분들께
누구냐
판타지를
없을듯
빈디젤
중요한건
금지
금성
##했었다
좋은영화입니다
감성적인
돋보였던
안된다는
엉망인
짧지만
필모
개연성없는
결혼하고
펜
0점도
아버지와
내인생최고의
알려주
몰려
현재의
바보로
퍼펙트
조연들
성장영화
떠오르
##쩌네
하루하루
##하셨어요
인상깊은
트와일
효민
씬이
다가오
얻은
내생의
올라가
설레는
##명이서
헛소리
사랑과전쟁
그렇다치고
자막이
말이필요없음
합쳐
##아쉽다
등장인물들이
침묵
조잡하고
##소재를
뇌리에
움직
뉴스
개빡
##버리네
발전이
익숙한
인내심
##왜이리
탐욕
볼땐
##바이벌
이민기
신비로운
무리수
디테일한
장애인
부실한
서부극
##아닌가요
담겨있는
벌어지는
이수근
##cgv
괴롭
어떨지
블루레이
스탭
##질않나
이종석
##★★★★
하야오
1회부터
어정쩡한
썰렁
##최악의영화
지독한
쓰렉
유치원생
##으라면
고질라
로멘틱
이자벨
각각의
다크나이트
매미oo있네
관대하다
손꼽히는
훼손
강혜정
충무로
오토바이
윤계상
채민서
쌍팔년도
힐링이
중구난
쿠엔틴
맙소사
트와일라이
2도
3명
4점대
80년
am
lt
out
ro
갸
낄
드르
뤼
벙
윽
톡
트로
트래
프ᄅ
팽
펄
헝
##녹
##ᆻ더
##ᆨ은
##짠
##og
##78
##av
##이기에
##이쁘고
##지기
##지던
##가나
이지만
이명
이감독
이것을
##돈다
##어져
영화보다는
##저는
##기동
##리라
##리지만
##의사
##아들이
##았습니다
##아씨
##시로
##시윤
##났음
##미남
보시는
##해질
##했냐
##거여
지네
##롤
쟁
재연
조성
졸린
##인것같다
저딴
나혼자
##면도
재밌지만
##승이
##영화이다
##영화중에
##영화라니
그중
##마에
모건
모처럼
너도
##우성
##구로
##대요
##대신
##대사가
마땅
##야하는
기어
주의
여군
좋구
##듭니다
없으며
내평점
진하게
##수님
##수없다
##옷
##올린
봤는대
연쇄
##러지
##장창
최종
그릇
한몫
안듬
##사기
##사부
만원
##정신이
대학교
##적도
전범
우월
무방
무튼
수영
##진지
##부모
잡지
소오
소비
##봣어
최고작
##조한
##젠
제공
##루이
##분들도
##분열
##셋
이런것
##성공
해내
했어야
해줘서
인과
##비하
말하려고
##일세
비긴
비오는
유익
##중요
##중인데
스토리라
스토리테
되냐
구리고
남한
못된
못알아
뭐든
생각남
생각된다
본영화중
##년들
##물도
별1
##본듯
부조리
##안나온다
##노무
##노키
장백
작정
작살
많지
많을
##유천
##소니
추상
감동에
공개
역활
나오나
나오지만
사랑스러워
반개
##포인
명량
에디
다시보면
내용없는
##두개
##ᆯ리즘
의아
기대보다
할듯
있는영화
있는것
후후
##코드가
##회부터
허준
짜여진
그러지
한국식
그래요
강하다
##관리
만들었는데
만들어내는
##박하고
##계에
연출이나
있었지
있어야지
멋졌다
과감
곽지
관점에서
배슬
야동이
두서
심장을
동의
뭔소리
재밌게봤습니다
아이에
아이리스
당할순
당췌
괜찮다고
서태
호평
홀로
호흡
##연기와
##방에
귀한
버ᄐ
##예뻐
박상
박철
코믹이
슬로우
설정도
유치하기
유치하긴
볼만은
볼만하고
멕
메릴
##하기에는
남자들은
속지
가슴으로
##평론가
근거
근친
맞고
맞지만
치곤
치닫
높고
피로
피디
전개를
안됩니다
##카시
##사람들의
##지마요
##스탄
##알려
파헤
적어
적합
모든면에서
아직은
한번보고
##등을
##근래
언더
잼있고
추천해
추천함
##산다
욕먹
욕심이
보다도
경쟁
경험이
실망입니다
귀엽네요
##꺼임
싸워
베일
열받아서
손오
믿을수
잔잔하다
감동적이예요
알았습니다
알았지만
알았네요
약을
요즘엔
##별루
들어오
들어가는
##하네여
자체로
정신없이
이유없이
만드는게
아까운데
국뽕
형태
미국에
통한
##슬픈
그저그래
신선했다
올만에
친구와
남는영화
있기에
전쟁에
청소
양심이
안타깝지만
##횽
##부분만
팬인데
재미없었던
지루함과
빠져들
종종
백미
백만
민간
##없었던
엔딩까지
싶었음
최악이었다
##들과의
궁금하네요
추억에
웨슬리
하지말고
잡은
잡을
##쓰레기다
헨
이러면
얼굴을
196
회복
획기
충격적이다
집중하게
단순하고
바꿀
##잼있어
놓칠
딸을
##본다면
로맨스도
다운받
허무함
예상되는
어울릴
생각해보면
안보는데
나이를
질질끌고
벌레
##만들지
있겠다
쳐다
놀랄
줄거리에
소설의
2012년
풀어가는
압박
##했었던
찍어도
맛있는
##야할지
지겹고
흥미롭다
샤말
##따윈
급하게
사라지고
먹먹하고
신기할
탈을
우울하고
3편이
촌스럽다
새로울
미래의
##펑펑
웬지
리메이크작
전달하고자
만들었다면
##만으로는
돈아깝고
얻을
슈퍼액션
보이는데
시선이
연예인이
##끄는
죽여버리고
압권이다
나타나
늘어지는
다시보고싶은
포기한
형편없다
기회를
11점을
바뀌고
이때까지
일어난
뗄수
섬세하고
좌빨
시사회로
18세
##ᅳ레딧이
##엉성
쪽팔리
생생한
##굳굳
쿠바
발견한
시트코
분들께
미치지
##남는영화
##ome
달달하고
투자한
영혼이
아팠다
타이타
잼있었음
몇년전에
하여금
##요소가
다루는
해피엔딩으로
기대이상으로
##퀸
언니가
떨어지지만
유아용
왜이러지
왜이러냐
근래에
임팩트가
개나소나
랩
콘서트
흡입력
콜린퍼
피터팬
베리굿
쓸쓸한
박신혜
기분나쁜
##분위기
고릴라
올레티비
옮겨
유승준
아이디어가
##99999999
옴니버스
내취향은
먹칠을
기승전결
노무현
##인줄알았는데
정재영
약빨고
샤를리즈
미성년
아담샌들러
1박
험
흐리
ㅅㄱ
ㅈㄹ
##드류
##ᆯ레
##탱
##트러
##ᆷ없이
##18
##짤
##ᅭᆼ
##숴
##꿔
##프랑
##ge
##7년도
##3년도
##이니까
##이쁘다
##지노
있을때
이스라
##도전
##었네
##에비해
영화한편
##젖
##저예산
##기들
##겐
앗
아자
아껴
보수
보느라
어필
##만남
##들인가
##햇음
가지게
가나다
지날
재일
조롱
##인이다
나지
##넹
##넬리
##영화인줄
그이하도
##ᆻ는디
다는
너의
##려라
##렸음
##댐
##대작
##대표
마피아
##였
##여름
##였으나
삽
사정
사연
사소한
기원
기반
주네
주장
중이
주는거
주셔서
여고생
없죠
내리는
너무하네요
##수밖에
감당
감싸
봤으나
최후의
##상식
한나
한차
##되길
##에서부터
오죽
오덕
오디션
욱
무모
무뇌
무개념
수정
수위
##부대
밀리
미묘한
미셰
자식을
소수
##봣음
스탠
##각기동
제주
도가니
왜들
평점테러
개가
개짜증
##분들의
했고
말까
말대로
##벗
##신지
좋아해
##일로
##일수도
비틀
유준
##워지는
스토리만
스토리라인
남습니다
##밝
##하겠네
생각밖에
알라
별점은
볼거리는
##안나
##안나옴
##편도
지루했던
지루하기도
드라마인데
작업
고루
고집
곳에
##유쾌
춤을
중고
##타이
공격
나오는게
재미없는데
##ᆻ읍니다
엠비
##출신
상당
##망작
눈감
##보고나서
느끼는게
##위로
##재미없
세번째
이건아니
이건아니다
마지막에는
##춤
##첨이
살지
와나
매드
##줄알고
##스럽기
성지
##호는
후레
처음봄
허비
짜고
초점을
김주
김상
김정은
##애를
##군데
강남
윈
1점이다
##님과
별로네
별로지만
별론데
롭
##적으로도
있었으나
있었을텐데
이해하게
과하게
배제
야마
야쿠
분은
두뇌
동원
우리도
우리집
뭔내용인지
명작중의
포커
아이는
당할
##남자가
서영
서글
##된게
##피는
아름답
호프
호강
벗고
##예쁘고
박재
박유천
일본영화가
특집
유치하게
무슨영화
울음
##배우도
##배우를
결말의
##살려
망상
누굴
볼만한영화
##형을
##먹기
##하기만한
원작도
##는다면
빠르고
##ㅋㅋㅋㅋㅋㅋㅋㅋㅋ
이제껏
눈물나게
선율
##나는영화
긴급
근본
근육
힘듬
##잔아
며칠
인간에
##맺
##씬을
##빠지고
##이나마
극장개봉
##볼타
한번에
한번만
음악까지
외치
수준도
##켄
잼있
여운과
딱봐도
욕할
##잘만들어
경기
독재
매력도
갈릴
##불륜
베르
떠난
손을
친절
##있었어요
제목보고
제목부터
제목처럼
꼬라지
약해
어이상실
잼따
감독이나
##엇는데
모르겠습니다
스릴러는
조금이나마
##양반
##봤는데도
들었음
니미
홍경
자체의
제작한
디지
##생각하게
살아있다
살아갈
삼천
##넘치고
영화로써
않았어요
장난이
영화였네요
##블랙
감동이네요
감동이에요
잠재
cg에
시청자가
변함
변명
되는지
청순
양반
어색해서
##된다고
깨어
왠만
찾아볼수
관객은
역사는
몰입도를
##해야하나
못한게
종결
##없었음
##나왔다
돌아와
얘네
엔딩곡
쉰
잔인함
##찍고
##찍은
궁금하게
2편을
엉성함
##다는걸
이러냐
이쁘네요
똥폼
첫장면
죄책
##감동적인
네이버에
티비에
바껴
시즌4
했다고
나올수
2003년
##괴물
##폭행
맘에든다
윤제
ㅋㅋㅋㅋㅋㅋㅋㅋㅋㅋㅋㅋㅋㅋㅋ
케이지
자기자
기다리는
목소리는
목소리도
놀람
줄거리를
2015
상황과
상황에서
##했구나
드리고
살인자
##무섭다
금치
##중간에
끌리는
순간순간
짧고
흘러가
넘어가
견뎌
급급
낫다고
이리저리
몰고
그려내
덕후
너무재밌게
유머와
우울할때
노력은
법한
쇼생
##다시봐도
조연들의
만큼의
만큼이나
새롭다
뽀로로
면도
##딱지
저예산으로
봤어도
##지못한
제작진이
끊어
그걸로
##동일
늦은
나타난
포장한
##티비티
표정연기
씁쓸하다
무시하고
농락
할말없다
좌절
일반인
아픔과
보여줬는데
생생하다
봤을때는
##ᆼ밍
비현실적
반복되는
안무섭고
##본영화중에
김수로
##그렇지
##맥스
하여간
최강의
싶을정도로
21세
이럴수가
맞추기
님들
두려워
낯설
유아인
쩔고
담겨져
야동을
편안하게
이준기
한방에
암걸리는
노잼이다
밖에는
그로테스크
불가능한
평점조절위원회
민주주의
정확한
##꿀잼이
볼까말까
잉여
애틋한
신은경
##채널에서
음모론
엉뚱한
오유에서
쥬라기공
13구역
캡틴
미개한
소방관
imdb
노다메
##스오피스
눌러
##로얄
어쩐지
어벤져스
왔다갔다
안젤리나
드릅게
뤽
스토리텔링
1은
2회
5는
7년
9점이
al
gg
he
or
par
sp
껄
룰
랜
즈
♥♥♥♥
ㅁㅊ
##룰
##늠
##노리
##ᆷ없는
##ᆷ피
##캬
##8년도
##good
##ia
##9점
##44
##이면서
##이즈
##고의
##지라
##지와
##지경
##가와
이대로
입고
이뿌
##독이
##도좋고
##하려다
##하더라구요
영화ㅋㅋ
영화보단
영화음악
영화사에
##저렇게
##기분이
##겠어
아포
##의식이
보편
보시고
##한심
##만치
##들인
가요
가물
가는데
가문의
##거같은
질이
지껄
##로게
재벌
재해석
조미
조한
##인건가
저격
시리
시네
시킨
나른
나라는
##면에
재미까지
재밌냐
##주냐
##주었다
##주길
그정도
##마의
모양이
답다
정은
##우월
##구성이
##잤다
하더라
마련
마시고
##여기
##엿음
사장
사례
였어요
좋으면
##드네
너무했다
진자
진수를
진리다
##오로
연구
##렇
한듯
안성
안웃
##사상
##사극
거친
거품이
대기업
전파
오른
오줌
무도
무어
무덤
무표정
수다
연기들
연기들도
##부부
밍밍
자기만
소나
##연씨
##연습
잘한
##봤을까
스트레
##제의
제라
차기
개념이
이런류
이런드라마
##성만
해학
인위
##국을
##생김
말길
말하려
##으시
##신다
좋았네요
##같지만
비가
비포
비롯
유대
유해진
되겠다
되다니
되버린
구석
구림
구석이
##더블
남상
남들이
##바보
생각안
생각날
생각하니
본드
본다는
일은
부성애
##안습
##차게
장선
장담
##겨울
##실한
것들은
것입니다
드라마중에
배우에
고만
고쳐
고향
추적
추석
중심으로
공산
공각기동
애는
요란
보는사람
##심은
참내
반항
##선징
웃다
##포드
에스
신념
좋은듯
##망한
눈은
이거보면
세대
##질뻔
맺
매니
봤는데요
없는거
없는것
기대되네요
성질
하나다
하나경
##울고
후려
##코비
##회까지
처음보는
##쉬는
김두
한국드라마
강우
##관에
만들었지
1점줌
롤
로드리게
있었네요
관찰
두분
두가지
##설정이
히스레
동경
우리를
우리와
##프의
명작이지
포스가
##되는게
##남는다
여자도
여자애가
서우
##날에
##된거
그런게
그런대로
##피의
발버
발톱
호화
홀리
만든다는
있다가
버림
##파는
존스
줄줄
나와는
리부
리스트
몰입감도
짱이
짱인듯
##형사
점도
스릴감
뻔함
솔찍
주인공인
계단
##잔데
짜증날
높음
새드
##카의
##지마셈
##는거에
##볼만한
##순수
좋다는
##퉁이
왼
외에
##성일
느껴지네요
찾게
전혀없는
욕설
웃기기도
대박임
##잘생겨
##놓는
어렵고
가족은
가족들
쌈
쌈마
이걸로
대단해
대단하다고
대사에
##있어야
먹은
개봉작
물리
꽂
토르
토할뻔
잼남
쓰면
요즘에
##별점
##종의
자체다
제작자
디비
1편에서
##생각하고
##이었고
날카
시작한
시작해
##좋았음
나도모르게
영화로만
##브이
##브스
##허허
##블리
잠자
곁에
우리나라도
재밋던데
양키
어색함
어색하지
봤던영화
봤던건데
다큐의
이딴영화가
분위기만
러브레
찾아가는
##플렉
놀라게
포스터를
##해야만
##해야한다
종북
휴잭
##보니깐
엄마한테
보지말고
폭파
##찍는
행복은
감정표현
순수하게
껍
뛰어나다
##캐리
끝나면
잘봤음
##감동적이고
충격과
발연기가
##이란게
비교도
송중
나올법한
안나오나
##눈물이
딸의
애들용
##또봐도
직쏘
평가할
윤시윤
있을까요
각본을
높은거
좀비가
묘사가
##만들기
##만들면
놀라고
확실하게
화면도
화면에
만드는데
##했기에
금요일
향수를
찍었을까
흥행을
편집도
##뒤로
##만이쁨
돋보인
빨려
짜증나네요
맥라이언
진지하고
후반부는
미화시킨
설명은
시절을
워킹
진실은
천재적인
늘려
##일까요
성장기
있다는걸
어찌보면
무엇보다도
##시리즈는
낫네
인상깊다
비슷해서
돈아까운
기본적으로
슬픔과
##해집니다
시간아까운
행동을
봤건만
채널을
바뀌는
농구
섬세하게
시사회에서
뜻이
##엉망
싱크로
##떄문에
외모가
잭슨
기대안하고봤는데
치밀하고
안무서움
필름이
모를까
이용해
강력한
##먹어라
꼽히는
풍경이
기발하고
킬빌
##검색
또보고싶다
여름에
낚였어
두려움
제외하면
끔찍하다
열정과
사람들에겐
##극장판
양심도
아버지는
rec
기존의
최소한의
부담없이
앵글
무난한
한지민
녹아있는
건질게
앞서간
아기자기한
모니터
애잔한
개성있는
지닌
되돌아보게
클로즈
난무하는
소소하게
cgv에서
##탐정
탕웨이
멀쩡한
홍진호
숨어있는
롱테이
##미니즘
##시리즈를
은은한
누구에게나
장쯔이
버금가는
에반게
제레미
유역비
토이스토리
토요명화
이슬람
자전거
엄태웅
에니메이션
김래원
중구난방
낄낄
미셸
1번
5년
50분
ba
god
ww
xx
딸리
료
밴
빤
쌔
쓰리
쫙
크루즈
틴
힐
ㅆㄹㄱ
ㅇㅇㅇ
##뤄
##르ᄅ
##드랑
##뵈
##트레
##14
##ᆺ구
##끈다
##프를
##df
##ᆿㅋㅋㅋㅋㅋ
##ㅅㅇ
##3분
##이드
##이루
##이영화는
##고있는
##지리
##지르는
##지모르게
##가보다
##가치가
이요
영화내용
영화평점
영화감독이
##기전
##요일이
##릿
아트
아는데
##아픈
##시디어
##미안
보냐
보라는
보내고
##라구
엇
어긋
##해피
##해낸
##보라고
##볼라
##보겠다
##보지마라
##보지마세요
지그
지들이
짓게
짙은
지못미
재기
재활
조건
##데가
##데리고
##인들에게
##인거지
저번
저능
나두
##점수를
##영화만
##영화인듯
##마니
모티
모범
##말라
정경
정답
하이라
##대장
마시
마술
마모루
##ᆻ었지
##ᆻ어야지
사서
사귀
기절
주는데
여느
내눈
##ᆨ이고
최신
최선
최지우
##상관
##짧
##짜리는
정말재밌게
##칙한
##침을
안정
안믿
##되야
스웨
대장
평작
평가는
오리
##운동
무리가
수학
수습
수목
수술
수업
##하는걸
##하는건데
##내놔
연기실
연기며
##디스
자매
자리를
자격이
소련
잘짜
##봤을
스턴
스틸
최고예요
##졸라
도움
##터지고
아니더라도
않다는
평점으로
개졸작
해본
해군
##국민
##생명
말론
##래요
##같았다
##일때
##일텐데
비춰
비둘
유도
유년
유산
유튜
##웠지만
스토리전개가
되요
되네
남동생
바르
바치는
알맹
본다고
본인은
##모도
부재
##노소
##차이가
##편에
##겨서
##실에서
지루하긴
것의
##개인
##개뿔
##보다더
##걸음
##소서
##소라
완결
완존
예정
나오길래
끝장
끝없는
화이
보는건
사랑입니다
##륙
반의
##졌어요
##포기
##포장
명백
신동엽
좋은작품
##적이었다
영호
싶고
싶을때
이거밖에
그립네요
마지막을
마지막장면은
불교
의지가
살해
와진짜
기대하며
##줄거리
##줄알았다
성시
하나씩
##울이
허우
그러다
##쉽게
한국영화를
##애의
##애씨
##란의
이게무슨
강박
만들어놓고
하는구나
별로던데
별로였던
돈에
##씽
분석
##설명
따른
힛
히틀러
심해
심하네
##프스키
##나오는데
##급으로
##증에
아이스
죽게
이영화로
##되는지
##되는거
##남네요
괜찮아요
##천히
여자주인공이
서유
서른
발암
막무가
호감
단어가
버스
버튼
##ᆺ다는
일본영화의
슬플
##못한다
존나게
존쿠
##론을
오래도록
결말만
망했다
리더
기억속에
다른사람
##먹음
이상우
흥행이
남자인
뻔하디
절절
절묘한
##ㅋㅋㅋㅋㅋㅋㅋㅋㅋㅋㅋ
이제그만
애니의
눈물은
눈물나
20여
주인공으로
근대
계시
맞을
##받음
충족
느낌과
느낌으로
전개로
타워
타입
파치노
간신
억지가
필요도
##ᆻ을까요
##아니지만
##아닐까
하고자
편히
느껴져서
배우들과
##새벽
어디에도
##달려
##능을
##셨는데
##잘안
##잘봤어요
경쾌한
찍었다
찍어서
매력과
매력적이고
##탄탄
베를
준수
뒤돌아
개봉할
제목으로
알았어
어이없
토토
##양은
나오는건
떨어져서
않은가
들었는데
들었습니다
##맞춰
꾸며
꾸역
부족함이
정신세계
이유도
1편보단
##생각나서
##외엔
삼각
찌푸
##슬픔
될지
않았을
##많네
괜찮은영화
어린나이
##베스
잠들
만화로
질주
친구들이
친구에게
친구한테
시청율
변하는
변질
나온게
재밋네
자신에게
부분에
지나가
지나가는
총으로
학원
없이도
컷
팬이라
놀랍고
포스터보고
##왜케
##짝퉁
후회한다
휴지
패스
꽥
길어
돌아온
##되어야
입체
##한거같다
키드먼
엔딩도
##함이란
주제곡
잔인하다
최악이네
감정에
코믹도
순수함이
순수함을
불쌍하고
광기
##환의
##주의에
설정을
이정도의
프로젝트
실화라서
##광수
더빙판
이러지
똥칠
죽임
걸작을
얼굴에
##말이필요
전체를
테스트
비디오용
책은
2001년
재밌구만
##쯤은
취미
이것만
사회가
애들한테
##이야기를
해석이
##거같고
매력있고
두번이나
##필요가
##지루한
어울림
자연의
흠뻑
흐른다
방송에
누구를
극장판이
압축
만듦
불편함
처음부터끝까지
겁나게
감성에
흥미진진하게
자극적이고
넘어가는
아쉬운건
온통
##사회의
내인생에
가능성을
그려진
그려냈다
그럴듯한
##친구가
전기세
신기하고
전작을
멋있
##으려다
유머러스
##착한
촌스럽지
시청률은
노출도
사건이
짱짱짱
바람에
##좋겠어요
##짜증난다
미래는
접한
생각한다면
메시지도
질린다
##해보이는
딴짓
아저씨가
기본적인
##아아아아
섹시하고
##뜨거
해주길래
시원시원
희생을
무서웠음
자막으로
일상의
짠하고
스포일러
합리화
몸매가
동생이랑
침몰
이루는
활약
##축구
견자단이
벗어나지
시걸의
인도영화
##반전이
##귀여워
바꿔라
##ᆺ으면좋게
비극을
치밀어
아침부터
극치를
##흘러
봉준호
어쩔수없이
##reat
시간가는줄모르고
하여튼
깨달음
멈춰
##tv에서
상관없이
##앤더
##야겠다는
##ess
##역사상
씹노잼
30년전
1인칭
위대하다
담백하게
파격적인
이렇다
어거지로
##삶을
이승기
##껀데
나중에는
브로디
모니카
##여주만이쁨
덮어
비참한
방황하는
놓치지
##ㅇㅇㅇㅇㅇㅇㅇㅇ
벅차
보석같은
심리묘사가
##영화제에서
##뭉클
월드커
클라이막
풍부한
맷데이
씨네21
멸망
브금
언젠가는
서인국
##아버지가
##로버츠
여고괴담
여진구
무릎
1점준거중
마동석
사춘기
박한별
쒸레기
안드로메다
인피니트
김창완
맥어보이
이스라엘
후레쉬
쇼생크
에반게리온
0개는
1기
27
3박
3점이
4점이
cf
le
릴리
브랜
썅
쟈
촉
칙
켜
큼
힐러
##으루
##훼
##돠
##드레
##ᆷ푸
##1때
##10분
##ᆸ더라
##크래
##프라
##200
##ot
##d로
##ly
##30
##pd
##ri
##이도
##이기도
##달리는
##고리
##지구
##지상
##징이
이가
이들의
이글
이집
이브
이념
##하구요
##하더만
##어쩔
##ᅳ렁
영화에는
영화라도
영화군요
영화같음
##기게
##기며
##시하는
##나나
##나를
##나입
##미드
##라며
##한것도
엎
##들처럼
가다
가질
갔다가
##보냐
##겄다
지역
짓을
지르고
##롭
조악
##인건지
저만
저버리지
시망
시어머니
시퀀
나라면
재밌으면
재미더럽게
##영화라는
그영화
##마라
모아서
모티브
정지
정체가
##우면서
##자다
##자라
하면서도
##댄스
##여러
##야마
기부
기계
기뻐
주저
주게
주려
주진
주식
주조연
였음
여인의
없군요
내일이
진다
##오의
##오버
연개
최우
한니발
##하고싶어
안해
안함
안줄
안주는데
안남기는데
거리는
만다
##전과
스콜
대로
대여
전의
오정
우정을
무자
무명
무고한
수천
##하는것이
##진한
##내라
##부르는
미련
##것임
자녀
자격
##연결
생길
잘모르게
잘하시고
스탈
##때리고
##제국
제2의
##텀
아니란
않길
평점과
평점높
평점10점
개운
개쩐다
##세의
##세한
##세대
했네요
해설
했지
했어도
##국에
노란
##생긴
##빅
말처럼
말장난
말해준다
##ᆻ음에도
##신경
비급
유선
유희
##워라
##중심
되니
구린
##감각
##밭
##밟
##밤에
못하면
못해도
##하게만
생각나고
알면
알렉스
##년을
일도
일점
보고있습니다
부천
##ᆻ을거
##안가
##안보고
##노는
장화
장인
장사
머니
##실화
것같다
처리
작년
##트니
중딩
공식
##력으로
앨
애쓰
나오냐
나오니까
요한
좀만
재미없으면
쓰레기라는
사랑함
사랑이라는
##공을
결투
##포스
명절
명곡
사람인데
사람으로써
엠
에어
##출한
시간여행
상쾌
실베
##재미없고
##재밌었는데
셋
세기의
불우이
의식
액션씬은
없는건가
기대할
기대됨
할수있는
##싶네
##스러움이
하나만으로도
##호강
훅
후배
##회를
처음이었다
지금에서야
허니잼
김아
김병
김옥
한국을
위기
위선
별로였는데
극대화
##좋을
##너의
로렌스
돈날
있었을
작품성을
관능
야한영화
##설마
따지
심금을
뭔말
명작으로
##키가
##급이
아이랑
서동
서커
서바이벌
##된영화
그런걸
##피가
##피디
발차
아쉬울뿐
아름다워요
만든거지
보여지는
마음도
박힌
일본에
슬슬
##있는지
##못할
울부지
울트라
울림이
##ᆻ지요
다른게
##형은
##먹는다
이상형
만들까
반전이라고
보기싫어
원작인
원작소설
##는다는
빠진다
눈물나는
ㅡㅡㅋ
짜증을
짜증나요
치면
피노키
안되지
안되냐
##빠지게
굿바이
##지맙시다
타잔
집안
간접
적응
아주아주
억지웃음
듯하다
수준낮은
느껴야
##그럴
행운
잼있네
추천할
욕나오
##배를
##셔야
대박이
경이
귀엽게
##거린다
가족영화로
##런지
##불러
##탄생
떠나는
대단하고
열번
열정을
열연이
뒤통수
##있었고
물결
물체가
##잡이
토미
표현하는
쓰잘
등의
앞부분
들어요
들었어요
레슬
중간쯤
##생각함
형성
공감대
시작된다
##꾸역
복귀
따뜻해
수작이라고
##뭐니
장난아니다
##블로
##많아서
감동있는
뭘본
강추강추
##법을
산타
겸
느낌이었다
나온건
있도록
##들에게도
전쟁은
##꼬박
지나면
##뻔하고
깊다
다큐는
다큐로
안타깝습니다
문제다
팬이지만
찾아봤는데
재미없었어요
클레이
예술이
예술이다
역사가
역사와
백번
은행
휴가
##나와라
길거리
##끝에
입을
##한거임
엄마를
한국영화에
웨스턴
알고싶다
광주
##환이
##환을
##환경
##빈이
##ㅠㅠㅠㅠㅠ
ost만
##ᆯ까요
##주의자
머리카
볼수없는
볼수있다
걸작이
얼굴은
돋는
끝났으면
##될수
다음엔
씨리즈
##시킴
비교된다
번지
##자체도
##열심히
케로로
케서방
2008년
안나오네
##변화
느낄수있는
교훈적인
딸과
쓸모
가볍지
힘들고
힘들듯
##령이
##시절의
세계가
이번에는
안보길
드러난
나이먹고
성룡영화
어쩌라는
멜로물
으이
으휴
권선징
묘미
##혹한
2013년
낮은듯
성우들
개그는
드립
##흙
##느낌의
사이에
향기
향수
관람가
##하지않는
순간의
창문
슬펐어요
슬펐던
깔려
that
죽음이
만점짜리
아까웠음
예고편에
넣고
넣어서
다있냐
##쇼스키
##나잇
진실된
스타일은
120
멋있네요
부모가
퍼시
##끈한
법을
쇼킹
않았다면
게이는
##시리즈중
경찰이
뜬금포
찬란
##몇번
성공한
잘만든영화
연애의
거기다가
제작진은
##지도않은
##풀어
올라갈때
해주네요
나서도
종교적인
맞는듯
싸이코패
북한의
정서를
로봇이
##인간의
축하
깊이있는
몇번을봐도
##둘이
남녀의
퇴마
퇴폐
신경을
산만하다
무협영화
##마음을
쌍둥이
우주전쟁
시시하고
##귀엽다
느와르의
결과가
스펙터
대부분의
시각으로
우정과
시키는
여태껏
김민준
##해줬다
##해줬으면
할머니가
류승룡
이용한
인상적이었다
외로움
이민정
##캐릭터가
잠이나
인디언
##밖의
안가네
안가네요
멈출
단편영화
깎아
여러가지로
왤캐
윌리스
놀랬다
무한한
제외한
상관없는
##모로우
겪는
정체성을
##때문인지
##관람가
444
움직이거나
감안해도
밀려온다
##뽑
나무랄
##선생님
압도적인
##몸매
세월호
담백한
쫓아
안나왔으면
이렇지
형제의
비호감이
10번도
나한테는
##dddd
못본게
스피드
중학생때
그이상도
애틋
영화볼줄
개망작
추구하는
위안부
따스한
샤론스톤
빠르기
가난한
싼티
저지른
골때리는
의학드라마
어마어마한
데스노
철저한
##라마바
우웩
정유미
기대했건만
##오랜만에
흔해빠진
시덥잖은
boring
##칼립
초콜릿
호흡이
무미건
트와일라잇
연쇄살인
##사부일체
삽질
막무가내
##여주만이쁨여주만이쁨
불우이웃
14년
2기
2명
2배속으로
4개
4점은
80분
are
ip
ok
un
vod
꾀
뉘
딜
랭
붸
뻘
뺀
셔
씩
쟤
쿄
크라
크레이
팩
헤이
##헝
##헤이
##흐르
##듀
##댜
##드릴
##브를
##ᆯ의
##ᆻ내요
##트랙
##ᆫ나
##뚤
##1이
##1끼
##스리
##꽁
##쓰레
##크레
##팽
##2를
##2일
##빤
##쁠
##os
##50
##tr
##b급
##4점
##3점
##est
##닷
##다해
##답이
##곰
##고어
##지난
##가물
이면
이안
이나라
이라도
입이
이보단
이끌
##하에
##하도록
##어게
##업고
##에야
##에노
영화구나
##서를
##서사
##리리
##의도
##아웃
##아무리
##시걸
##나은
##밀이
##미달
보내는
##했을텐데
가네
##보여서
##걱
##거라는
지연
지울
지친
##로워
조장
조화가
조합이
##데다가
저랑
시점에서
나네
재미에
재미짐
##넨
##네유
##넬로
##점점
##무협
##영화관에서
##마부
모여서
다해
다봤는데
답을
다좋은데
너를
넘이
정준호
##구장창
##자에게
##자신이
하실
하류
하더니
##대중
마저
마니아
맑은
마디로
##여도
##ᆻ었음
사수
삽입
주요
내놔
내사랑
내평생
감각이
감안하고
봣어요
##작이라고
##작가가
최루
한게
한이다
한채
한두번
정말최고
안재
안할
안들고
##사한
##사장
거미
거참
거시기
##왔어요
스나입
대만
대화가
평타
전두
##운다
우상
무심
##부리는
##딕
##디다
##디에이
이랑
자이
소속
생기는
생김
생긴다
더해
더준다
잘나
잘하는데
##봤나
##봤는지
##봣던
##조치
##터가
아니게
아니였다
아니구나
아니올시다
차이를
평점1점
##분도
##세용
##세번
##세트
이런일이
해소
인연이
##비의
##비행
말던가
말코비
##버가
##벗어
##그지
##그나마
좋아하던
##일지
##일드
##일지도
비열
빚어
비됴
##워싱턴
스토리며
되려
됬는데
##더가
##더구만
같으니
남길
남아요
##밥이
##바퀴
바랄
뭐이리
생각하면서
생각됩니다
알지만
본인의
본사람이
본시리즈
##년간
일기
일진
보고나
##본영화중
부패
##끼는
##안본다
##푹
##차드
##편에서
장수
장황
머리는
지루하진
것보다
드라마지만
##준영화
##준비
작렬
고요
재미잇어
##소드
중견
10년도
공동
##력의
예를
앳
아깝게
요근래
화나는
##문이
쓰레기라
쓰레기영화는
##팀이
##티티
##단을
웃을수
##포트
##폴라
명언
명배우들의
##보고싶은
##보고싶어요
실천
##재미는
##재밌네요
##재미있는
난장
살자
##지는영화
와중에
매기
기대하는
##ᅳᆨ시
할것
할일
있는건지
##스럽습니다
##호구
##호와
##코는
##당함
때리는
때로는
##슨과
김우
김준
김원
한국에도
현장
##앨런
##란드
이게머
또하나의
강수
##관의
##관은
만들어져
만들어버린
만들었니
이렇게나
하는영화
별로였어요
작품성도
과언이
##키드
포스트
폴리스
이야기라
이야기들
이야기지만
##남녀
##남긴다
##천만
서지
##날듯
##느낄
##핏
발악
아쉬웠던
최악은
##이라지만
##맨의
단막
법이
버린다
박하
박혀
박현지
일본을
공포와
##행위
##못했다
유치하다고
##파일
##파티
울버린
울궈
##론이
##극으로
표출
아깝다고
볼만했던
나왔을
나왔는지
나왔다는
리들리
리차드
기억나
다른걸
##없다는
##먹지
##목을
남자랑
남자주인공이
스릴과
뻔뻔한
절친
빠지지
가슴따뜻
##평이
20살
선한
선과
##니까요
방어
방식으로
치부
##매를
##너무좋아
##시간을
타는
##볼걸
순위
건달
건담
억지스럽
필요없이
##지않아서
##투더
행위
추천해요
##능력이
##뱉
##셨다
##셨네
대박영화
경이로
실망시키지
##통으로
어렴푸
가족들이
가족들과
##보는줄
싸이
##불편
베토
##장면에
열받아
교도
대사로
제목이랑
꼬박
흥미도
##토가
표현된
괴기
감독이다
##웃고
등에
조금도
##석의
떨어졌다
막장도
들었던
##맞게
연기력으로
레고
천천히
홍수
봐야될
봐야겠어요
부족했다
딥
정신분열
언제적
작가야
형이
형식
##돼지
##됐지만
목을
목사
##좋았는데
##병이
미국영화
##락을
시리즈물
##황후
될것
황제
영화여서
감동이었습니다
알게되
알게되어
어린애
신선함이
만화같은
친구의
cg로
주는건
생각이든다
용감한
나온영화
##죽은
썼다
써야
재밋을
##갈수
지루한건
깊고
##스토리에
인상이
##씁니다
임성한
##부분을
아무리봐도
##이갓
놀라움
졸작을
당시에도
관객들의
관객들을
보았어요
예술로
제발좀
##입은
##입장
종말
##짝짝
은희
후회합니다
후회된다
투박
길들여
##클럽
##끝이
##끝날때
##되었던
입에
입가에
보지마요
##한거야
어느하나
최악이네요
행복하다
##귀가
##왕짱
##사랑해요
순수함
추억은
##누가
##인줄알고
따라하기
미친영화
됐어요
됐지
캐스팅만
##주의의
색감도
색다르
##흉
누가봐도
상상도
흘릴
이름에
볼수있어서
똥꼬
똥싸
있을듯
##콩콩
죄없는
##감동도
집중을
##자체는
한마디만
케미
송윤
재밌긴한데
사람들만
##잼있음
##잼있게
인물을
##눈빛
##아이를
교훈과
풍기는
줬어
존재감
맘에들어
##거같아서
직원
직설
윤은혜
매력있다
##칠때
슈렉
어른들은
##욕을
드러나는
##액션은
완벽했다
착하고
권하고
잃게
줄거리만
소설로
2010년
100배
화면은
예쁘네요
평론가들이
불편했다
##했더라면
금발
있었다면
어릴땐
나에게도
댓글이
짝사랑
짝퉁이
흥행은
흥행실패
##취급
짜증났음
##싫은
흥미진진하다
범죄를
샤워
##사람이라면
검사
죽음은
빌린
빌려서
같았는데
알려지지
무서운영화
##빵빵
동화를
기대하고봤는데
진실이
유머도
다르지
류덕
##ᆺ는대
노력을
법칙
게임이
플로
누군가를
##많은데
올리버
##ᆻ더라구요
##떨어져
##떨어진다
짐작
피해자가
전달하려는
안돼는
제작진의
고민을
모자이크
##얘기가
생각났다
##넣어
분노를
이연걸이
이하의
소녀시대
##죽임
상처받은
정서에
늘어지고
다시보고싶다
부끄럽다
아련하고
바뀐
이때부터
조잡하다
활동
##bbb
무시무시
일어나서
광고를
좌좀
발전을
시시하다
스스로를
묘사한
##폰으로
찝찝함
데이트
섞여
결과물
비현실적이고
##재밌었어요
학생들
옆에서
매력적임
짓거리
여행을
좋았을걸
깜짝놀라
이정현
##항상
##♡♡♡
꼽으라면
내면을
이럴거면
업그레이드
##tv로
리얼리즘
새끼들
잘생겼다
야한장면
잘어울리는
한명도
묵직
메이저
시끄럽고
연극을
따분한
폐지해라
하하하하
걸릴
허허허
##슬프고
고등학교때
빠른전개
밀려오는
유발하는
사이코패스
빠져들었다
덤으로
키스신
##드림1개
스톤
제시카알바
##바랍니다
붕괴
안좋아하는데
우스꽝
마지막장면에서
엮어
천국의
핑계
다시보기로
조지클
##ime
얄미
##쓰레기쓰레기쓰레기쓰레기
전율을
처절하게
때우기
무식한
초월한
걷는
##핵노잼
고소영
기대안했는데
순진한
태권도
모호한
그와중에
마스터피스
##로맨스
노골적으로
쿵푸팬더
##3456
지진희
간직하고
매혹적인
박해일
흐뭇
##감사합니다
##뜬금
나뿐인가
곳곳에
필립
##보비치
뷰티
자존심
파트너
최수종
존1나
꾸준히
색다르고
ktx
배슬기
타이타닉
지날수록
쌈마이
싱크로율
##시디어스
존쿠삭
간신히
김옥빈
베토벤
29
26
2점을
3점은
3점대
48
4번
5살
de
great
kn
걔
꼬리
므
샌들러
쑤
##ᆻ노
##ᆻ더군요
##트려
##1도
##0점
##쌀
##쓰래기
##ᆸ번
##ᆸ스틱
##쿤
##크라
##크루
##8점
##ᆰ는
##sf
##90
##3편
##고양이
##지지않는
##가까
##갈이
##갖고
이고
이서
이장
이네요
이분
이국
이어서
이들을
이기는
이뭐
이들에게
이쯤
이틀
이프로
있던데
이빨
##얻
영화사
영화치곤
아유
아내가
##시기를
##나가고
##미오
##미소
보인
보스
보상
보려면
##라블
##한명
얹
##만보고
##들러
##해선
##햇어
가나
가지는
##보를
##보였다
##보기는
##보지말
##거예요
지나고
지킬
재판
조은
조로
조마
좁은
저리가
저질이
나인
나까지
나처럼
나약한
나탈리
재밌나
##스피
##주변
##주셔서
그보다
그곳
##마를
모지
모리
다투
다봄
다르고
정이건
##우를
##자한
##자살
##자리에
하길
##댓
##대상
##대에서
##댄다
마돈
##야되
기생
기묘한
주었다
주민
주다니
좋던데
##드니
##없구만
너무재미있게
##수리
##오를
##오그라
##ᆨ이는
감우성
봤어야
연평
##과도
##과이어
##짜고
한시도
##치와
안하는
안내
안달
안보게
##사바
거임
거칠
거장의
##되니
##되어서
##와닿
##전체
##전설
##냥이
대니
대상
대립
##히지
전해지는
옷을
무능력
##진게
##진리
연기너무잘
##부들
##부여
##부른
미지
자의
자부
잘보았습니다
##봤고
최고여
##졸리
##조절
##각본
제인
제멋대로
도는
도로
아니자나
왜나와
왜자꾸
않냐
않겠다
개미
개재미
##분명
##분투
##세에
말라고
말하기
##ᆻ음ㅋㅋ
##그가
##그의
##그대
##그때
##그녀
##그닥
좋아용
##래이션
##같습니다
비트
유인
유작
유연
##웠고
됬다
되야지
구입
##감만
남주는
##든데
바비
못하네요
못했음
못한다는
##하게만드는
생각되는
알면서
본거지
##모드
##모양
일대
별10
볼일
볼시간에
##본데
##본방
##본사람
장점
장예
장엄
머시
드라마라
작고
배우에게
고아
고대
고난
고추
##소설이
춤이
중3
중심이
예나
애도
앨리
애쓴
나옵니다
나오지도
끝이다
요가
화이트
보는건지
##라공
##머신
쓰레기에
쓰레기통에
사랑이다
사랑했던
사랑스러움
반응이
##단계
##공간
결승전
##포먼
명성
엥
에단
##동영상
신발
##적이라고
상승
##망생
눈높
실상을
감독에
##원씨
내용없고
그리스
마지막장면이
원한
원한다면
불끄고
##추억이
의심이
살게
살다가
액션영화가
기대했지만
기대했었는데
기대되요
##줄만한
할만한
할텐데
##싶었다
있는건
넘나
성기
성냥
성동일
하나입니다
##울었다
##코타
처음이자
허각
초한지
땜시
김종
한국애니
##긴했는데
##길을
##발로
##테고
##테랑
그랬지만
그랬냐
또한번
위협
만들어주는
##님도
모르면
배껴
밸런
분류
분들도
분들에게
음란
음산
땀
##민우
심야
동심
우리들
명작중
재밌게봤던
당대
죽지
죽어나
들으면
##남고
##천국
##학대
##된듯
장면으로
장면에선
##레스트
아름답네요
막막
꼭봐야할
버디
##잼잼
##잼씀
##ᆺ다면
박준
##후무
특정
##멜
##파에
##파리
울다
울뻔
울린다
존예
오래간만에
누님
나와요
기억상실
남자지만
##였다고
만들려면
점을
보기전에
뻔해
##드라마다
##드라마의
속시원
얼음
##크는
무서워요
맞나요
맞는지
핏
전개의
##씬만
##시간동안
##스트로
##스틸
##는거보고
타인의
집합
파리의
건가요
필요없고
졸음
문소리
문화를
없어져
##줬는데
편향
찾은
게리
게리오
##훈훈
##산으로
받지
받쳐
어디다
어디가서
드팔
보다보니
##집중
경각
내용이라
##거리게
##통을
##통사고
어렵지만
어렷을때
가족드라마
갈리는
갈등이
##주고싶
##불패
벨라
떳
떠나고
달래
열어
손이
##있어도
##있었지만
##토의
잼게
잼없는
표현의
표현할수
모르겠는
모르겠어
쓰다
즐기고
등을
모습에서
##별한
##소리만
그렇네요
티라노
아름다운영화
자체에
정신없고
데려다가
보게됐는데
##강의
살아가고
##이었어
공감할수
날리
##됐으면
##꿈을
##커녕
그저그렇
수작을
의미로
황진
장난으로
##블록
무엇일까
신선했고
올바른
얼마전
변화를
##향을
느낌이네요
판치는
##인이랑
용감
우리나라가
##죽음
오늘의
##튼의
자신만의
##꼴이
총기
되었으면
깨고
진정성이
팬으로서
스타데
환상을
몰락
몰랐네
범작
클럽
관객들이
포스터의
예술적
함께한
애니메이션의
은유
후회안
주연이
주연을
주연들의
패륜
##존스
좋겠는데
좋겠음
입은
보지마삼
얘들
##정말잘
##느끼게
터진다
어느순간
주고싶은
한국영화중
병원
행복해
행복했다
행복합니다
순수했던
추억으로
꺼버린
미친거
잡혀
잡탕
감사해요
대체적으로
설정으로
흘렸다
중국판
왕자
똥망
있을지
##될지
흔들어
전체가
발연기는
집중할
비교할
티비판
##열에
쪼금
이미숙
##폭탄
여배우는
이것밖에
##작품은
별점테러
##이야기가
##똘
##할때마다
##거같네
윤재
##싶었던
거의다
이번에도
그대로의
어른도
어른들을
케이스
자연스레
나이거
성룡은
어쩌구
기다린
##액션영화
##받아야
으악
권장
권투
이런영화도
##듬어
놀고
놀아
누구야
이어가
소설도
2013
루시
##님이랑
##무서운
##무서움
중요하다
##주인공의
끌지
홍콩영화의
편집을
과거와
엉망이
##멋짐
흥미로웠다
깔깔
흘러나오는
괜히봤다
페미니즘
빌어
##는것만
설명도
싫어하는데
같았음
같았어요
전편을
가능성이
복수는
사라졌다
현재를
워스트
워싱턴
바보같은
나쁘다
나쁘게
대작이
2시간을
서로의
아오이유
탈락
퍼포먼
노출은
뜨고
그림도
누군가가
면을
보고나서도
안봤음
##빨로
##떨어지고
##암튼
하루에
##별로다
심심하다
전달하는
보고싶어서
어린이들이
딴거
붙어
특별히
5점짜리
##슐리
##콘서트
##힘들
뒷통수
겉만
떠나지
##보여주
현대판
정서가
로보캅
톰하디
봤더만
등장인물들
동생이
답습
##트릭
##트리고
재밋다고
그것뿐
연기자들이
오랫만
소름돋았다
##지말아
상상력에
##ㅉㅉㅉ
진짜재밌어요
쪽팔
닮았다
전문가평점
바꿔서
느낀건
국내에서
특이하고
휘둘
뭉클한
어처구니없는
가슴아파
복잡하고
챙겨보는
카리스마가
콩가루
##지금까지
##값이
갈등과
c급영화
잼있었어요
몇년만에
꼽는
최강희
년이
##기다려
테러리스트
감명깊은
오빠들
앉아서
경험을
이해안됨
런닝타임이
기준이
##ith
##ooo기
의리로
##베이터
답이없다
적절하게
영화자체도
무너지는
뭐하자는건지
난잡한
바이블
편안한
로빈윌리
죄송하지만
##어디서
감각적인
스토커
시간때우
공간에서
암걸릴
킹콩
킹왕짱
9점대는
하품만
옳은
머릿속에
우디앨런
늑대인간
퀸
긴박감이
민주화
펼쳐지는
파이널
어수선하고
폰부
그림체도
상태에서
판타스틱
가슴아프고
유승호
반지의제왕
이모양이
##비에르
에바그린
된장녀
지저분한
서정적인
발랄한
훔쳐
포인트가
포인트를
쓰나미
톱스타
춤추는
나비효과
토마스
훌쩍
웅장한
저렴한
스무살
허무맹랑한
life
불친절
##카메라
개웃김
눈부신
코엔형제
조인성
대리만족
뜯어
삼국지
윌스미스
기막힌
에리카
곽지민
가나다라마바
한참을
엠비씨
긴급조치
##ᆷ피언
아포칼립
솔찍히
하이라이트
유튜브
베를린
꾸역꾸역
후레쉬맨
1초
2류
2점은
40년
50년
7살
88
9점을
cr
csi
ex
낀
둬
드류
브란
삘
쓰라
퀄
킬리
크루
ㅡㅜ
##벙
##ᆯ세
##ᆯ슨
##ᆯ륭
##ᆻ데
##ᆻ습
##트랑
##ᆫ공
##ful
##13
##샌
##촬
##ᇂㅎ
##크라이
##ㅡㅜ
##gh
##up
##wo
##ㄴㅇ
##ㄴㄴ
##이용
##이들의
##지션
##지며
##지다니
##짓이
##갖
이화
이었다
이색
##업다
##어난
##어설
영화군
영화치고
영화보는데
영화속의
##저의
##서로
##기네
##기면서
아른
아청
악한
##아를
##아가는
##십니다
##났습니다
##나갈
##및
보이나
보려는
보삼
##라면서
##한부
어장
얻고
##만난
##만화가
##해내
##해보는
##햇지만
가리
가려
가여
가시지
##보가
##복한
##보기에
##거고
##거도
재생
조각
##데스
##인양
저를
저에게
나게
나약
재미나
재밌는지
재미업
재미지다
##스다
##스넌
##네디
##영화와
급이
그토록
##ᆻ는지는
모델
닦
##말자
정권
##우나
##우와
##우울
##굼
##구석이
##렸네
하찮
하겠다
하려면
하던지
하우스
하모니
##대소
마침
맑고
##열이
##여주는
사냥
사는게
사골
기네
기름
기초
주어
주신
주위
주어진
주구장창
여인
여정
여겨
여성이
내린
너무좋고
진구
##오르
##오면서
감점
감출
감격
감춰
감회가
봣던
##러드
##작렬
##장군
최상
##짧은
한층
##치며
안아
안경
안죽
안질리
##사무
##사투
##사아자
##되지만
만에
만으로
##와도
##전화
##전도
##전한
##전투
스쳐
대성
대처
대견
##히로
평온
전하는
전원
오션
올린
오컬
뭍
수밖에
##하는거지
##하는듯한
연기때문에
밍
미혼
잣
자비
잤음
자다가
자폐
자칭
소시
최고야
##조마
##조작
젠
##루미
도서
아니였음
아니어도
평점이다
개도
개고생
##세연
이런지
##성장
인질
##비언
##할지도
##그저
좋았을듯
유태
##중근
##람쥐
되기
구도
구나
##감정을
같애
남주의
느와
##바꾸
바티
못자
못난이
##하게하는
##몰이
일류
볼려
볼것도
보고픈
보고또보고
##본적이
##본드라마
부어
부처
부풀
##ᆻ을거다
##안감
##안치고
##차를
머라
머여
##겹
드라마나
드라마네
드라마였습니다
드라마였어요
드라마틱한
고무
고사
##걸륜
재미잇어요
##소수
##체류
##름이
100년
공리
공군
애인
애청
나오던
나오긴
나오겠지
보는지
##멍이
##머프
##머리가
##문학
##티의
반해
반면
반쪽
웃었음
웃지요
##졌습니다
결제
##포함
사람에
사람한테
에밀리
##동물
좋은지
##적이라는
##적이어서
영어로
실소
이거진짜
내용만
내용인데
##재밌었다
세기
세븐
콜라
##반의
##추기
매료
매춘
맴버
할려고
있는거지
하나님의
##호크
후련
지금이라도
짜맞춘
그러는데
때까지
때묻
##한다는게
##혐
##쉬고
김진
김승우
한국전쟁
현주
##애기
##없는듯
##했다는게
##군다
강도
만들었음
##같은건
이렇게도
별로야
별로였지만
##넘이
멋있어서
이해안되는
관점이
배고
둥
캐치
##설수
심플
동시
동아리
##프는
명작이라는
당위
당당히
들인
들지만
##남친
괜찮을듯
어따
여자랑
##레나
발정
아름다워서
아름답습니다
막히
호모
##연기자
##연기짱
꼭한번
만든거냐
##방울
##맨을
버젼
##예회
##ᆺ닥터
박물
박스오피스
일본인이
##있는게
유치하지
무슨죄
울다가
존잘
##극치
##배우는
망침
볼만하네
나왔을때
나왔다고
소재인데
리처
##먹었다
멕시
이상이
만들자
만들던가
뻔하지
뻔했다
빠지고
가슴속에
가슴뭉클
솔로
이제와서
눈물날
주인공들은
무서웠던
맞출
##잔잔
인간과
높을
피의
피를
##카이
##시간낭비
##사람들도
걸음
많은듯
팜
파도
간에
##따로
억지스러워
##아니었다
문채
음악으로
수준으로
수준임
편은
느껴지고
여운은
받는다
욕나오네
웃기지만
캐릭터들은
코미디와
실망이네요
실망했어요
##거리가
##통이
매력의
갈망
##탄이
베끼
달라서
손으로
교통사고
##결국
대사하나하나
개봉하고
개봉했을
알았지
꼬아
꼬꼬마
토나올
##톨릭
표현하고
괴리
쓰세요
##승리
##석천
떨어지네요
##한테도
##감있는
기분을
들었지만
들어가서
레니
천년
##종이
중간까지
##ᆸ입고
알바냐
알바들아
부족하지만
디젤
디자인
정신이상
정신상태
보게됨
살아라
oo이
##이었네요
공감하기
공감되지
시작된
##꾸로
로맨스가
시리즈중에
따뜻함이
영화였지만
감동이었다
알겠네
##벨이
잠안
##이지나도
산뜻
시청자들
변하지
느낌입니다
판을
싫다고
답답하게
확신
있단
있기는
오늘날
배경음악이
양자
된거
되었던
되었네요
되어버린
다큐가
팬심으로
환영
찾아보니
식당
재미없어도
보아야
보았네요
##감독과
즐거웠던
종류의
암유발
후회는
후회가
공포영화라고
휴대
휼륭
##이라는걸
패틴
돌아간
좋겠네
보지마시길
##한거다
주제의
터질
싶어졌다
잔인하지만
병사
궁금함
코믹과
코믹으로
블레이드
웨스
2편에
감사하고
감사하게
##ᆨ스피
후반의
중국인
돋았다
잘봤네요
##깊이
다음편이
##먼의
테일러
네버
네임
비교를
비교적
비교해도
케미가
2009년
몸짓
몸부림
갖는
##잼있어요
##등학교
##폭발
교훈은
훈남
##츠가
애들영화
쓸때
줘야지
존재하지
크크
전부인
지루했고
예상대로
어른을
어른들
초딩도
##밀한
##팬인데
보여주는데
##액션의
##스타일이
으으
누구인지
2011년
낮은게
없을것
극장판을
화면만
개그도
빈틈
한심하고
사이의
감성과
편집은
##재미있습니다
##재미있네요
능청
##량한
참신하다
불륜은
망작이
망작이다
자극적이
##기대를
흘러간다
무섭긴
##묘사
얘기하고
미화한
##버렸네요
남아있다
남아돌
설명할
있음을
영화인것같다
내인생의
진행도
감상평
알려진
사라지는
워쇼스키
어렸을땐
##헨
스캔들
중반까지
중반까지는
멍청하고
요소도
틀에
틀을
틀린
다르지만
##방송에서
##봐야겠다
##착오
##시켰다
해피앤
놈은
##시리즈의
경찰은
전설적인
멀미
##찾는
웃긴데
##해봅니다
봤었지
만났다
비슷하다
이건뭐지
화가나
호러물
##ᆺ네여
섹시하다
소름끼치게
에이미
##스톤의
종교를
##넣기
##힘들어
무지하게
불쾌하다
일상적인
짠하다
톰과
늘어진다
합격
몸매는
아깝단
아깝더라
꽝이다
올해의
고생한
몽골
##졸잼
남녀노소
침략
아련하다
이루어진
김기덕이
출연진에
춤도
##네이션
그것만
할말없음
여기서도
##관계를
꼴보기
억압
쌍벽
알수있다
연결도
##작가의
비주얼도
##의미로
생생히
기독교인
푹빠져
앤드류
전반적인
생겼다
코난이
비극적인
미모와
돌리고
##따구로
대부분이
노답이다
시키지
##재밌었음
다운받았는데
거슬려
스크린에
스크린에서
제이미
능력을
정의는
깜짝깜짝
##올림
류승완
##♡♡♡♡
욕망을
커플이
주말의
나았습니다
신비롭고
보자마자
아름다움과
깨달음을
연기잘하는
깎아내
결정적으로
앉아이
##버그의
안볼란다
이해안감
국가대표
남깁니다
잠시나마
주윤발의
일깨워준
애매한
유덕화가
염정
애국심
1인2
흡혈
컬러
죄송합니다
##어디가
##아저씨가
어우러져
kbs에서
배경음악도
호기심
##뜨리는
불안한
센세
##스라는
깍아
일으키
흔들리는
송강호의
보셨으면
부딪
선사하는
영화평론가
부자연스러운
긴박감
스러운
배워라
장난치나
불과하다
##아프고
넘쳐나는
곽부
키아누리
모아놓고
##아름다운
지니어스
어지럽고
오리지날
보고난후
상큼한
절대보지마라
갱스터
##덴티티
마녀사냥
주관적인
감수성
맴돈다
벅찬
부드러운
초월하는
강요하는
폼만
간단한
목숨걸고
찐한
불법체류
##ffff
##신기신기
꺅
챙피
재치있는
오마쥬
한쿡영화의
일일드라마
one
보게되었는데
핀처
시사하는
극한의
들여다
스카이
김현주
어떡해
저렴
도입부
##뜨린다
진솔한
빠짐없이
유오성
빨리감기
리암니슨
슴가
여지껏
고현정
동방불패
가슴찡한
문근영
오다기리
서세원
쫄깃
소름끼치도록
얄팍한
거침없이
밉상
해운대
분신사바
프랭크
한낱
성지순례
김주혁
가물가물
##로게로게
러브레터
클로즈업
힛걸
권선징악
퍼시픽
스펙터클
무심코
김우빈
##드림1개드림1개
조마조마
연평해
장예모
1을
2d
36
3는
3은
4는
4명
4000원
50년대
95
all
cc
don
just
ng
time
깐
도리
로리
흐를
##룬
##밴
##밴드
##ᆯ지
##ᆯ란
##ᆻ거나
##ᆷ포
##ᆨ도
##1편
##1년도
##쪙
##ᆼㅋ
##ᆺ수
##ᆺ따
##채우
##꺄
##쏴
##ᆸ에
##ᆸ지않은
##2편
##뼈
##ol
##ma
##ᆶ고
##ᅰᆺ
##ep
##ud
##6점
##ye
##ke
##잇다
##이드라마
##이쁘
##있구나
##있나요
##다들
##다섯
##고가
##고만
##고향
##지지만
##지에서
##지좀
##지지가
##직임
이처럼
##도현
##하도
##하노
##하랴
##어지
영화니
영화엔
영화이고
영화보기
영환지
영화치고는
##저래
##서가
##기기
##기간
##겠고
##게없다
##겠군
##리로
아녀
##의로
##니를
##니오
##아래
##아녀
##아역
##아픔
##시트
##은왜
##나음
##나보다
##밑
##미야
##미제
##밀라
보질
보람이
봅시다
##라클
##해가
##해줌
##해보이
##보드
##보자고
##거가
##거만
##거네
##거랑
##거늘
지인
지성
지향
재조
조안
##인기
##ᆻ다니
저에겐
저학년
시각이
시기에
시초
시궁
시한부
나대
나지만
나는데
나아가
재미으
재밌을듯
##영화들
그은
그시대
그놈의
##마누라
모가
몬가
닫
다카
정선
정복
정윤
##우는데
##우며
##자신
##자본
하신
하울
하락
하자면
마인
마더
마징
사자
삽입고
기업
김일
주로
주네요
주문
주겠다
주려다가
여기는
없으면서
너무심
진출
##수술
##오네
감미
봣네요
연락
##과함께
##러브
최정
##상에서
##짬뽕
한것
한명이
한사람의
##치에
##치로
##치지만
##치면서
안개
안한다
안나고
안중근
거라
##되기
만점이
만나면
##왔고
##전부
##냐ㅡㅡ
##ᆷ임
대만족
대서사
##적을
전미
전용
진짜너무
오시
오픈
오광
오멘
오열
우유
우에노
무적
무력
연기변
##ᅩ리아
##부에서
미나
미남
미친다
미달이
##것네
##디의
이르
##연속
생동
더티
잘해요
##때려
제길
제점수는
제국주의
##루유
도배
왜캐
왜일까
차려
차분한
않나요
평점왜이
평점왜이래
개허접
개쩔
개발연기
개구리
##분히
##분동안
##분짜리
##세를
##세영
이런저런
해마
해주고
했냐
인시디어스
노트
##할머니
##으실
##버리게
##용석
좋아도
좋아여
##같으면
##ᆻ던것
비노
유진
유투
##함ㅋ
구분이
##감성
##감없이
##덧
##덕지
같던데
같잖은
남들
남는거
바쁜
못이
못보는
못만든
못봐서
못만드는
알콩
알렉
본질
본사람
본사람들은
##모션
부럽
##안다
##안나오는
장군
장점이
장점을
머피
것이지
것일까
드라마와
##개막장
작년에
고기
고군
고창
##소개
추모
10살
10000
공정
공익
역에
애처
애정이
나오던데
끝맺
요세
화신
재미없더라
##ᆫ다고
##류에
반미
반대로
##선은
웃은
ㅋㅋ진짜
사람에겐
시간대
신나
눈시
눈꼽
영하
영감
실상은
감독들
이거볼
그립습니다
##두는
##두가
##윌리스
##재미있고
##재밋는
세금
코스트너
코폴라
##반대
##추고
내가슴
왕이
매너
액션영화는
액션영화의
없는가
없는거야
기대할게요
##줄도
##하지못한
할로
할줄
할뿐
할수가
넘사
##스러워요
##스러웠던
성폭행
하나만으로
##호를
##회사
처음인
처음인듯
짭
초보
초대
초심을
초대박
초저예산
그러면서
##경씨
때리
때매
김용
한국말
한국에선
한국공포
##긴하다
현상
그랬어
그래야
강성
강소라
위에서
만들었어
만들었다고
10점이지
별로에요
극히
극적
##좋다고
##적으론
과도
과하다
뱃
배끼
배낀
두루
두마리
따지면
##민족
심함
##녀다
##나오지
##나오게
뭔지도
##킹이
##교를
##급을
포레스트
이야기다
아이에게
당한
당했다
들은
이영화도
##정돈
발상이
발가락
최악인
최악으로
호랑이
만든듯
만든건가
##방이
##방영
##방식이
공포에
공포감
##있는듯
설리
아무렇
유치했다
##팝
울린
줄여
##극에
결말로
표한다
망했어
누드
누워서
소재나
재밌었어
몰입할
몰입할수
기억안
짱깨
다른데
##형의
##형님의
이상해서
##하기위해
##였다는
반전이다
보기를
보기싫다
원작으로
원작이랑
절때
절실히
속을
##ㅋㅋㅋㅋㅋㅋㅋㅋㅋㅋ
얼어
이제까지
이제부터
이제훈
이제라도
주인공에게
##크게
힘으로
맞아요
맞먹는
##받는다
영상만
라니
치중
높여
##매일
##매매
피에
피어스
안되면
##씬의
##씬과
##빠다
솔직하고
##카드
굿입니다
몇달
##지마시길
걸고
많은지
많은생각을
##알렌
##좀해라
파티
간결
적을
건물
필요함
##료로
졸귀
##태의
하고싶
문명
##줬음
##투자
##투표
음악영화
##희도
##새키
추천하는
모두의
웃기네요
##집을
##배가
##셨어요
##셨네요
코미디에
실망했음
실망스러워
귀엽네
##통쾌
어려움
##나라의
가족에
가족이랑
출품
이걸왜
떠들어
달린
달린다
대단했다
풉
교감
뒤에서
##있었습니다
개봉전
토비
토나온다
토요일
잼난
잼슴
##엇던
악을
카우
스릴러로
기분좋아
막장에
막장영화
막장이다
들어갈
레미제
담주
봐야합니다
부족해
디게
정신없는
데스티
##스트의
##생각도
삼박
언제부터
형님이
공감되고
날아가
##됌
##돼서
##됐음
##됐어요
목욕
시작하고
글쓰
왜이제
로맨스로
##ㅡㅡㅡㅡ
사람이나
세상엔
찢
##넘들
##뭐임
##이상하고
영화로는
##ᆺ이야기
올인
만화의
질을
##찬이
산업
좋았다고
사실적이고
판에
되는영화
허접하게
##죽겠다
시나리오의
작품이네요
부분들이
더럽
tv드라마
낚이
낚일
총싸움
##뻔했네
되었어요
되었지만
되어가는
슬프지
다큐영화
이딴것도
안타깝
태도
팬들
찾아보고
재미없었는데
관객들은
관객들에게
##해야겠다
킬링타임으로
킬링타임용이
백프로
주연급
주연배우의
##독립
패밀리
지루하다는
투자를
길어서
##클리
좋겟다
##끝나서
입술
##한거냐
킴
키이라
엔딩을
폭탄
옛날엔
병입니다
##약간
감정은
코믹요소
##누님
따라가지
##완벽
캐스팅을
##랄라
그만해라
상상이
재밌음ㅋㅋ
##캡
##캐스팅이
흘리게
실화라
이름도
이름은
머리속에
똥같은
있을뿐
끝나기
194
##맛을
다음날
죄가
전체적
회를
회자
충격적이고
단순하게
2005
2004
2007년
여배우도
##쯤에
놓아
취해
취권
딸은
##작품을
괜찮았지만
존재의
좋은데요
로맨스영화
다운받은
##할때는
##삼아
윤리
두번다시
영화임에도
예상을
받았던
드러내
##팬이지만
말아먹어
보여주기
바라본
그때가
##하자는
그녀들의
방송을
권총
판타지영화
끝냈어야
재미없는건
풀어내는
의도로
루카
운전
##했군
##하니깐
영화보다도
##했어야
한편으로
젊어
젊음
황당하고
맛은
##취향이
유명해서
여전사
##따위는
역겨워
아빠를
죽음에
결혼식
##하긴하지만
##하긴한데
후반부가
페넬로
남아도
남았던
시절에
3점도
동화책
##나이더
##영화로는
영원하라
저질영화
선택은
전작보다
연출력과
대한민국에서
멋잇다
요소들이
##이었다는
관계에
15년
노력하는
성장하는
예전부터
바람둥이
낫습니다
##좋겠네요
##짜증남
미래에서
귀신은
웬만해선
힘들었음
##폐지
##찾고
증오
질리지않는
인상깊었던
게임의
이기적이고
##세계를
보고싶지
철학을
아프게
딴건
설레고
설레게
설레임
망쳐놓은
끊기는
보시라
##안되서
끝나고도
블랙코메디
에잇
라이토
죽어라
죽어가는
녹음
##익은
##나온다고
다큐멘타
동물농
후속작이
##지않은영화
##죽이는
상처가
##인간들
##아쉽
##아쉽지만
##무비의
소장가치
등장인물이
폭력을
반성하게
산만함
표정과
답없다
무시한
연기자들도
##ade
10분만에
홍보영화
##사이의
##버리면
꽃미남
보여줬던
진짜재미없다
좋아할듯
대표적
비주얼은
쪽바리
고통과
냉소
##만드냐
느낀게
##꿀잼꿀잼
##줄알았음
부러워
섞인
7점대가
편견이
타임킬링
학생들이
아파서
유치함의
영화제작
시즌2는
세련되고
볼때는
##영화라지만
못보겠음
못보겠네
교육용
페이스
풍경과
동성애를
##노래도
위로를
여러가지를
짜임새가
결정적인
제외하고
제외하고는
겪어
이드라마는
평점조작
별반개
현실적이어서
누군가에겐
##페이지
##짱짱맨
반가운
부모님께
##생활을
똑같네
자세한
영화같네요
영화같아요
감안하면
위대함을
점수는요
##한국영화
바이올린
장진영
##뮤지컬
헌터
다섯손가락
엘리자
온가족이
링컨
케릭터가
망가진
린제
##듣는
선정적인
짐캐리의
어리버리
리얼리티가
정상적인
정확하게
감흥도
##테잎
협박
##아빠가
땡칠이
액티비티
시켜서
안나지만
일으킨
아이디어는
밑도끝도
고리타
밋밋하다
크로넨
해피엔딩이라
##펜터
섬뜩한
안녕하세요
일품이다
별한개
클로이
영환줄
밀라요
절대보지마세요
2014년에
그럴듯하게
곤란
##시네마
맴도는
귀찮아서
방향을
보게됬는데
소소하고
아메리카
자리에서
1점준것중
파고드는
떄문에
오마이갓
구지성
내세운
덴젤워싱턴
##맘대로
##봤을땐
어딜봐서
토끼를
겹쳐
##흥미진진
잘나가다가
김소연
##꽥
기념비
아일랜드
열린결말
웅얼
레즈비언
##앵글
김동완
트라우
아야세
후유증
##ally
나홀로집에
구로사와
드라큐라
어줍잖은
비롯한
상식적으로
파란만
뚜렷한
쭈욱
쯔쯔
전무후무
우마서
단언컨데
카타르시스
온몸에
이문식
금성무
톡톡
샤말란
시트콤이
1박2일
제라드
강우석
발버둥
송중기
명백한
주진모
꼬박꼬박
##본방사수
성냥팔이
아청법
##사아자차
느와ᄅ
리처드
시궁창
알콩달
고군분투
0개
000
1보다
1명
1순위
2월
45
4회
5가
92
911
as
aw
bo
fuck
pl
with
xxx
꿰
득
드라이
려
브ᄅ
슨
썬
쌀
쵸
크레
튼
프란
훠
훤
ㅇㅅㅇ
##드래곤
##브레이
##ᆯ케
##텅
##믓
##ᆨ키
##1을
##ᆺ는지
##ᆸ싸
##ᆸ킨
##쿄
##2도
##뿍
##7년에
##ur
##6년에
##ks
##km
##익이
##이것도
##있을때
##다다
##담을
##는것을
##곱
##고와
##고래
##짐을
##가휘
이의
이니
이말
이럼
이따
이보영
이세상
##화의
##화로
##도아닌
##핳
##하야
##엎
##엇다
##었나
##어지고
##어버린
##에피
영화ㅋ
영화들의
영화ㅋㅋㅋ
영화수준
영화일까
영화만드는
영화인가요
영화시작
##기들이
##기물
##겠냐
##ᅮᆫ드
##리우드
아웅
##니와
##닝이
##았어요
##아이는
##아놔
##앓이
##시리
##시안
##은채
##미랑
##을수가
보리
보지않
보이네
보너스
어거
엇가
##만화를
##해결
##했을듯
갑이
가지가
##보로
##보지만
##보기도
##보기가
##보러가
##거부
짓이
지혜
지린다
##로움
조종
조화를
##데오
##인대
##인즈
저두
저번에
시장
나치
나라도
##면에서는
재미라도
##스나
##무술
##주년
##주기가
그에게
##마와
##마져
##깝
답게
다있어
다코타
널리
너에게
##말지
##말투
정무
정교
정크
정점을
정녕
##구여
##구멍
##렵
##자유
##자동차
하기도
하더라도
##대본
##대해서
##대충
마다가
마누
##여친
##여왕
사촌
주걸륜
여우
여기가
여성을
여균
여학생
좋구요
내다
내마음
너무지루
너무많이
너무좋음
너무재미있어요
너무이뻐
너무높다
진상
##수와
봣습니다
연설
##장구
##장과
최시원
##짜린
##짜리가
한일
한창
한고은
한켠
##치지
안대
안소니
거꾸로
##되며
만드려
##왈
##정훈
스물
댓
대조
대세
대답
대가리
전후
전해주는
오연
오호
옷이
우수
무인도
무능한
수상
수있는
수잔
##진건
연기진짜
미카
믹스
##것들은
##디도
##디아
자가
자화
자동
자식이
자아내
소박
소박한
생물
생명의
더나
더블
잘해야
잘찍
잘나타
스튜
최곤데
##조가
##조합
##각을
제타
##루요
##턱
않으면서
않으며
개신
개소름
##분량
##성상
##성룡
해바
했는가
##비밀
말야
말것
말기를
말곤
##벗고
##버젼
##용을
##르지
##ᆻ던건
##일어
##일줄은
비상
비꼬
비운의
유재
##중에서도
##들이고
구해서
구식
구할수
구성을
##감정이
같지도
같으면서도
남북
남우주연
##밥을
바디
바른
밥을
밤새
못합니다
못하면서
못느끼
못했고
못만드나
##하겠는가
뭐든지
생각없는
본적
본건지
##모자
##모호
일에
별1개
별개로
볼라
볼건
보고있으면
##본적
부셔
부르고
##노동
장모
장학
먹이
##겹다
지루했는데
##임ㅋㅋ
##ᆻ겠네
처벌
작성
많아요
배우진
배우님
고르는
고평가
##걸요
재미있지
재미잇는
##육이
중화
중에서는
##타기
역의
역동
예비
애뜻
애기가
애드리
끝에서
요거
화만
재미없던
##심리
##문화가
쓰레기중에
참아
참된
##선으로
##단체
웃지
웃었던
##졌지만
##져있는
명의
명탐정
에라
다시보니까
신랄
좋은게
좋은영화가
##적이게
##적이면서도
상어가
눈살
눈알
실수를
감독새끼
싶지도
싶으나
이거뭐
내용까지
내용인지도
느끼며
##윙
##위의
코너
원피
완전감동
##었다니
##질로
##질팡
살리고
살림
살인이
왔음
##영상을
매길
액션신이
액션마저
##라는건
성에
##호호
##호흡
후하다
##코도
##코를
##코스트너
##즈와
처음인데
지금와서
짜게
짜장면
그러네요
##한다니
##쉴
김해
김고은
##청춘
##청소년
##발음
##했다니
그랬음
또라
만들었어요
만들어놓은
이렇게밖에
1점주
1점줄
10점주고
하는건가
##박스
별로라고
극으로
##좋지만
##좋습니다
롤러
##계는
돈의
이해하는
과분
관광
뱉
야수
야하다
두배우
두배우의
##민정
히스
심하고
심쿵
뭔내용이
##교훈
##급이다
포근
아이덴티티
당할수
당첨
들리는
들여서
많이들
##남주
여자배우
##학을
##학원
##지도록
##레알
##주는영화
발라
발킬
발상은
아름다울
호주
귀를
단점은
버거
##예상
박근
일본어
##행동
특촬
울림
존트라
줄수가
##배우들도
표합니다
표방
##살짝
망하는
망신
볼만해
볼만했지만
##쳐라
나왔어요
나왔다면
몰입하고
기억으로
기억에서
##ᆻ나봐요
##형님이
메디
이상이다
##하기를
남자배우가
만들지마라
반전으로
절실
##평범
애니도
눈물짜
눈물까지
##크에
##인지를
힘도
계신
맞냐
맞지않는
인생이란
영상의
치킨
봤다만
피는
전개나
##씬에
##빠짐
##너무나
##카와
##카타
굿이다
##지마시고
##격투
타격
파라
파이트
간의
순식
재밌다ㅋㅋㅋ
##아니냐
졸다
##태가
하고는
문어
외전
외노
##희망
수준에
##성이나
편지
느껴집니다
찾을수
겠다
전혀없고
##퍼의
##퍼센트
잼잇어
잼있었는데
추천으로
욕밖에
욕나올
웃기게
##배로
코미디물
##잘하는
##잘어울
경주
경비
경쾌
찍으면
실망도
긴장도
##했던거
##했던영화
##통해
##통하는
독고
매력적으로
갈팡
##꺼라고
##짱이
##짱임
베테랑
달인
달리고
손잡고
믿음이
뒤쳐
친근
까지는
개봉한지
감동적이지도
감동적이었고
물에
물음
알았으면
약속
어이없이
##잡은
토모
##토를
잼나는
표현은
감독이랑
##있다니
카드
씁
씁니다
##웃기다
요즘영화
요즘같은
모습으로
삶이란
스릴러라고
##소리는
##소리를
여주도
막장스토리
천장
##종을
홍석천
알바는
디스
정신적
1편보고
##생각합니다
살았던
살아나는
국회의
작가와
공감하고
날리고
##돼는
시작을
시작과
시작했다
##좋았던
##좋았고
미국을
##만한게
로맨틱한
##0년대에
복고
복싱
##00만
여운이남는
뻔한내용
뻔한결말
통제
통속
희극
의미에서
##이상으로
될것이다
장난이냐
영화였고
감동이나
감동있고
무엇하나
알게됨
괜찮은듯
##업을
어린애들
##베가
##베일
##베스트
친구는
친구들과
곁
변한
사실이다
점수다
판빙
싫고
용기에
용기가
챔피언
있군요
써서
썼으면
작품이라니
자신들의
부분만
배경에
배경의
지나지
지났는데도
어색해
총각
총집
되었고
지루한데
유쾌함
안타까웠다
##효과는
##쓰나
임요
문제지만
몰랐음
찾아가
식겁
##플래
놀랍
놀라서
보았음
포스터와
진부함
예술적인
##입장에서
지루함은
못한영화
킬링타임으로도
백진
백성
##없었는데
혼합
투모로우
길지만
##되었습니다
엔딩에서
싶어하는
폭소
##약을
##ᅳ려고
감정들
##채플린
##왕자
코믹연기
##사랑이
##사랑해
##사랑이야기
블러드
알고있는
알고보면
여기선
뛰어나고
##ᆻ냐고
잡았다
색감과
감사한다
엉성하게
프로가
헤매
헤헤
헬기
흘리며
중국산
실화바탕
왕짜증
##것같지만
더빙으로
첨보네
얼굴과
읽을
다음주
충격적
텍
테론
네요
발연기와
비교해서
책의
책으로도
송일
이미연
나올듯
2002
재밌더라
##잼있다
여배우들의
##ere
##ᆺ을듯
멍하니
흐믓
로맨스물
##보기로
마이크
맘에듬
당신에게
크리스티
잘못을
##필요없고
각본에
##레이터
하게하는
세계관이
이번주
예상이
어른들의
생각해보니
생각해본다
실제로도
케이온
하다못해
드러나
나이들어
흑백이
에로티
보여주려
기다릴
기다리며
방송에서
꿈은
##틀어서
누구든
소설은
평범하지
끝내주게
상영을
100번
의도한
전형적
너무너무너무
중요성을
중요한지
##느낌은
프랑스의
댓글에
##곡을
순간을
##을수도
황당하다
식상함
뮤비
맛없는
훈훈하게
빨라
분위기나
안된다고
만족합니다
##풍의
엉망이다
맥아담
이래도
##영화중하나
##그림
좋을텐데
##따위로
아빠랑
결혼을
비추입니다
앞으로는
희망한다
##여자를
##버렸어
내인생최고의영화
##수있게
전편과
예고편을
가능성
##낮다
나쁜놈
##ᅳ린다
3점짜리
다이아
다이빙
어렸을때는
##숀
묻어나
쓴거
팔레
저질러
신기함
멍청하게
나라에
속편을
시청률을
그림체가
새롭
뽀뽀
놈놈
올림
올리고
올리비아
낫네요
##짜증나서
아닐까요
어둠
안맞아
케이블로
##해주면
웃긴건
환상적이다
자유와
자유로운
##명작이다
군대를
논란
8점정도
눈을떼
##새끼들은
비슷함
7점이나
##지못하고
##지못하는
##스텝
미소짓게
아프네요
아저씨의
##흥행
보이려고
보고싶다면
망쳐놔
독특하게
해주는거
역할에
역할은
골드
##으니깐
죽어야
종교적
이하늬
난해하고
동물의
##일뿐이다
무서웠는데
##보여준
불쾌하고
불쾌했다
##ang
북한이
부터가
10년만에
징기스
##으로서의
아깝군
흐름도
꽝이
비주얼이
국민학교
신경써
재밌네여
쓰래기영화
답이다
답없는
선생님의
움직임
##관계가
상상력은
상상력과
일반인이
##ation
##사이에
재밋엇음
견자단의
13일의
##아주아주
벗어날
우주에
##만점에
싱크
봤을때도
상업적
아니었는데
##같았음
외모지상
취향에
찝찝하고
끝난후
영국식
마이클베이
빡쳐
문화의
문화적
겨울에
코난은
아줌마가
미모는
초등학생이
아역배우
기술이
스페셜
명품드라마
타임용
##드럽게
허세만
영혼의
짜릿한
쓰레기같은영화
크리스마스에
##몬드
주성치가
주성치의
인상적이네요
##비디오로
욕망의
악마를
보통의
그당시에
그당시엔
벗은
나았을
##문제를
맞춤
영화이긴
야구를
부실하고
아내의
맘대로
쩔어요
울컥했다
애기들
스티븐시걸
브루스윌리
##어이없네
멋있었어요
맞춰서
쩔음
시끄러워서
양심적으로
사뭇
두번째로
바램이
애매모호
이게뭐냐
비밀을
방법을
잊혀지질
잊혀지지않는
##상황에
이해할수없는
극단적
극단적으로
자랑스럽다
6점대는
헌신
다섯개
여친이
여친이랑
기억나는건
책임을
루즈한
망가지는
##듣기
장동민
꼭보셈
굴러
어리석은
개똥철학
집어치
정상인
who
아니었다면
예수님
이소룡의
있으니까
유행어
매끄럽게
일으켜
담담한
##겁나
아끼는
엔딩크레딧이
부자연스럽고
배웠습니다
shit
크로우
##볼만함
단체관람
오지라
##잊혀
댄싱
싱거운
##읽어
오페라의
찰리채플린
거듭할수록
평론가는
경악을
지지부
박정희
러셀크로
부끄러운줄
미치는줄
노튼의
김윤석
하지마루요
색깔이
콧물
줄리안
퓨전
우아한
되도않는
글로리아
질질끄는
이경영
갇혀
진작에
죽을때까지
냉정하게
곱씹어
젊은이들의
blog
황홀한
폄
불친절한
어지간하면
멜깁슨
믿겨지지
안목이
돌이켜
sns
쥐어짜는
원초적
140자
자빠졌네
김규리
박용우
선입견을
우베볼
배두나
이명박
쟁쟁
소오름
비긴어게
장백지
손오공
콜린퍼스
미성년자
야마카시
디지털
21세기에
쥬라기공원
공각기동대
리부트
휴잭맨
www
오리엔
잘짜여진
비둘기
허우적
꽥꽥
힐러리
서커스
울부짖
피노키오
쓰잘데기
번지르르
자이언
어렴풋이
##345678
오션스
알렉산
레미제라블
알콩달콩
마다가스카
발킬머
갈팡질팡
징기스칸
2를
2분
2점대
33
5편
6년
car
oh
per
꿔
듀
뿅
쇠
쑈
캔
크래
틸
트러
트레이
힌
ㅜㅜㅜㅜ
ㅠㅠㅠㅠㅠㅠㅠㅠㅠ
##벌어
##뱅이
##즉시
##뉘
##ᆻ길래
##툴
##ᆷ씨가
##뜨릴
##ᆨ인
##괘
##쨩
##ᆺ죠
##ᆺ뻐
##쵸
##ㅋㅎ
##썰
##ᆹ다
##29
##2개
##ㅡㅠ
##80
##ᆰ아
##ᆭ은
##ter
##bi
##na
##9년에
##43
##3d
##ace
##ue
##uu
##ㅓㅓ
##이러
##이것
##이든
##이어서
##이구나
##이영화를
##잇어요
##잇고
##다만
##고기
##지냐
##갔는데
이진
이청
이들은
이oo
이불
이창
이입
잇고
이시대에
이세상에
##독한
##하오
##하튼
##어에
##어느
##었지
##에에
영화든
영화학
영화구만
영화만의
영화속에서
영화끝나고
##게되는
##리뷰
아려
아부
아씨
아메
아싸
##니는
##아비
##았네
##시는지
##은이
##미한
##미쳐
보지는
보영
보아서
##라운드
##한드라마
어후
##만데
##해봐
##했으니
갔던
가는게
##보인
##보군
##보이가
##보내는
##거란
##거슬
지만
지웠다
##로썬
재구성
좀이
조세
조형
##인디
##인에게
##인애
저냥
저걸
시티
나영
나만의
나니아
낡은
##스민
##스맨
##네는
##점이다
##주자
##주신
##영화나
그날
##맡
##마을
##마마
##마루
목이
모모
몹시
모조리
다다
답지
너가
##말인가
##말밖에
정려
정수
정성
##우어
##자라는
하려
하지도
하비에르
##대원
##대는거
마네
사채
기세
주인
주무
주유
주된
여긴
##드는데
##없나요
없기
내친구
내나이
너무해
너무좋았다
너무질질
##오면
##오는데
##ᆨ이라
봐봐
##러기
##작으로
##장으로
최강이
##상처
##상블
한스
한판
##하고있는
##간데
안구
안하면
안했지만
안했으면
안웃겨
##사노
##사나이
거여
거지만
거라고
##되다
##됬다
##되다니
만땅
##와요
##전으로
##전까지
##정권
스코
스머프
대명
##힝
##히들
##힐링
##재를
평에
전주
전사
전직
전부터
전우치
오게
오면
오현
무사
무신
무더
무당
무혀
무능
무법
수지
수녀
수oo
수행
##하는줄
##진웅
##내린
##낼수
연기자가
연기하는거
미로
미쿡
##것과
##디는
##ᆼ익
자다
소모
소망
소란
솜씨
##연예
생의
생산
생명을
생활이
더글
잘알
잘한듯
잘해주
##봣습니다
최고급
최고였던
##좀이
##조각
제리
##루치
##룩한
왜만든
왜만드는
왜봤지
차예
않는게
개를
##분으로
##세끼
##성인
##성없는
##성우가
핸
해가
했었다
햄버
했나요
인사
인천
인지도
##국가
노랑
노르
##생기고
말한
말로는
말하자면
##으시길
##으시면
##르신
##르트
좋앗다
좋아했어요
##래서
##같으니
##일단
빚
비평
비웃
비겁
비밀이
유기
유우
유괴
스토리고
스토리상
스토리까지
굿닥터
남여
남매의
느그
##바에
##바를
바를
밤이
바라고
바스코
못가
못참
못하냐
못만든다
##하겠다는
뭐하고
생각하나
생각좀
생각할수
생각보단
본래
본좌
##모어
##모메
일장
일병
일대기
##물론
별두개
보고있다
보고왔는데
##본후
부들
##끽
##끼가
##끼리의
##안고
##안은
##안한
##안봐
##안봄
##풍이
##놈에
##놈을
##차는
장식
멎
머금
머저리
것만으로
그냥그래
배우나
배우인데
고른
고아라
##소중
추악
10초
##막장이
예외
애쓰는
애슐리
요괴
화살
화나서
화딱지
보는중
재미없구만
##멈
쓰레기인
쓰레기야
참담
##ᆻ으므로
사랑하지
사랑이라고
사랑스럽게
사랑한다면
##류영화
반은
반데
반했다
웃었어요
##공연
##공룡
결여
사람에게는
사람냄새
에게
에미
신사
신중
좋은건
##적이었던
상기
상위
##망상
##망신
눈의
눈깔
영감을
실버
감독판
감독한테
이거랑
이거보면서
이거보느니
##원주고
그립
##둑이
느낌에
##위안에
셋이
세뇌
원인
원본
원영의
난도
##척이
살았다
살아서
살인의
맥이
매즈
액션배우
기대이
기대하면
##줄만
할정도로
할아버지가
하나요
훑
후로
##회는
##회에서
##당당
초짜
초중
초록
그러냐
##쉬튼
김청
김새
김준호
##긴처음
##길동
현우
현란한
##애서
##애애
강용석
윗
위치
##관심
만들어놨네
만들어졌으면
##같은게
##린이
극우
로즈
로렌
돈받고
돈들여
##적으로는
있었네
##않다
멋대로
이해되지
이해못하는
##찮게
작품에서
과소
과감한
관음
야한거
분이라면
##민수
##민국이
심도
심정이
동기
##녀를
##나오네요
명작중에
명작이고
이야기들이
아이테
당하기만
죽겠다
##남은
여자분
서툰
잔상이
##피식
##렉이
아름답지만
최악인듯
막혀
만든게
만든건
보여주세요
귓가
마음이다
단점이
단독
버킷
##잼나게
##예쁘다
설교
##못하게
##못해서
같은거
유치함이
##파워
무슨말
줄도
줄어
##살짜리
망칠
망설이
현실적
현실성을
리모
리듬
재밌어여
멜
메르
메마른
이상해요
만들지마
만들수이
만들수있는
만들거면
보기좋은
스릴을
스릴있는
절규
절묘
속으로
속터
속에서도
속지마세요
빠지다
##ㅋㅋㅋㅋㅋㅋㅋㅋㅋㅋㅋㅋㅋ
##ᆨ질이
눈물만
눈물과
눈물이나
눈물콧
##역은
긴박한
낮다니
힘겨
계몽
인생도
인생과
정도를
영상에
라인
라푼
인간들의
인간관계
높길래
##매한
피만
##빠져서
##카다
굿잡
몇명
몇oo
몇년전
걸쳐
집으로
파는
파일
파탄
아주그냥
모든것
재밌다는건지
필요해
필요없네요
##지않아요
졸음이
##태어
##태를
듯이
##아깝고
없어지고
편성
편승
편이지만
편협
##0년도
배우들에게
##새가
행오버
추천할만한
딱이다
##산의
어디에서
욕은
욕구
듦
##셔널
대박이고
대박이에요
##잘해
##잘함
내용이다
내용이랑
##뿐더러
귀여웠다
##놓으면
돌파
##최강
출시
##꺼는
##꺼같다
##꺼에요
##꺼번에
##짱이다
베플
떠들
대단해요
##진짜로
교수
##결과
뒤를
뒷이야기
먹어라
물려
꼼
약하지만
함축
톤
잼께
표현하지
악령
카이
카펜터
카모메
##써도
##써라
##다니엘
##승천
떨어뜨린다
기분더러
##같다는
##같다고
레슬리
레지던
천하
꾸는
꾸르
##초월
##표가
##표를
##스트가
##진다는
살아가
살아간다
삼촌
각종
작가도
목사님
##꿉
훌륭합니다
##락으로
사람입니다
않는가
영화라고는
출연작
따뜻한영화
따뜻해지고
통일
찌꺼
희열
##넘은
##이상함
될수도
영화로서는
알게해줬다
cg만
cg를
##이지난
변화가
변해가는
확장
초반부는
용가
나온지
있기
있기를
훨신
이해가안되
작품이었다
자신에
양들의
영화관이
슬프지도
학대
학예회
##참다
안타까웠던
태평
시대착오
##쓰면
##쓰는거
임상
컸던
진정성
팬들이
팬입니다
팬으로써
찾아와
찾아보는
식민
놀라는
놀랐음
놀랐어요
놀랍네요
##잖어
예술의
예술은
예술이라
함께하는
빠졌다
즐거움을
##해야할듯
##만들어서
애니메이션으로
은혜
은지원
민호
##봤다면
주연배우들의
패배
퉁
투쟁
투입
돌아다니
##되었는데
입양
얘기는
엔딩에
##느낌을
주제의식
터널
어느덧
싶어도
폭망
폭격
##놈아
##짓은
##짓거리
감정선을
##채로
것이라고
궁금해
궁금증
말도안되게
불쌍하게
2편의
따라올
광대
##내용에
##내용인지도
##하십니다
풀리는
##월에
##ᆼ장히
감사를
대체로
엉성하기
실화가
왕의
##다는건
감동도있고
이러고
머리속에서
똥이다
있을지도
195
읽는다
##감동적이다
테마
집중력이
집중하면서
티비서
송새벽
이미지를
나올때마다
2003
2006년
안나올
안나오네요
##눈물을
##아이들이
##ᆺ을텐데
놓을
놓쳐
놓치고
딸리는
화려함
##수준이다
흙
존재는
존재감이
로맨스는
맘에안
큽니다
##전개와
크림
매력있음
두번보세요
두번봐라
##평점이나
##인생을
각본도
##한번더
하겠습니다
세계적인
예상가능한
ㅋㅋㅋㅋㅋㅋㅋㅋㅋㅋㅋㅋㅋㅋㅋㅋ
받았을
안보신분들
초딩용
빵점은
자연을
자연과
자연스럽지
드러운
드러내는
자기네
성룡을
어쩌다가
##팬이라
이영화를보고
##액션을
##철이
##철한
멜로도
##하자나
착하게
봐서는
그녀에게
으으으
꿈꿔
뭐냐고
판타지의
낮은거
평범하고
평범하다
끝내지
없을까요
화면과
평론가들의
룸
운지
##했니
##했단
개그가
개그콘서트
##픽션
##무섭고
있었다는
사이프리
찍었나
찍었는지
찍었냐
댓글도
댓글을
댓글들
댓글보고
홍콩식
감성은
황당무
돋보였다
과거가
불륜에
카메오
맥주
소중히
지겹
지겨움
##멋있다
여전한
##높지
흥미롭
샤크
흘렀다
##코미디영화
검술
역겨움
아빠는
결혼에
##사회에
비추합니다
##벌레
자꾸만
앞으로가
희망은
##여자는
##여자랑
##는것에
##는것만으로도
싫어요
많았으면
예고편은
독립영화가
복수의
감상하고
별루고
느끼게해준
##낮게
워터
다이애
다있나
##웬
묻힌
##영화로써
중반이후
저질이다
선택의
연출력의
연출력은
로맨틱코메디
허술함
멋있습니다
##이었다면
부모의
틀리
잘만들었어요
우울증
##중입니다
속편의
촌스럽
병맛같은
##시켜주는
예전에는
누군가는
올리기
경찰을
뜬금없다
바람을
##하는짓이
전설이다
이뻤다
##처음으로
월화
하루를
하루카
웃긴영화
제작비로
제작비를
자유로
늙어서
저예산영화
##해보인다
가끔은
봤었음
##홍철
##스텔
##친다는
화가나는
제작진들
고민하게
돈아깝
돈아까워서
아저씨는
폐해
감탄이
슈퍼스타
독특하다
평생을
##응원
더이상의
##추천합니다
던지고
연예인들
예쁜데
##스톱
시원찮
떠나보내
그렇다쳐도
##최고의드라마
용서할
소녀들의
짠하네요
로보카
재난영화의
졸리다
예뻤다
##아쉬워
##아쉽네요
##아쉬워요
그지없는
봤슴
봤구요
##재밌게봤는데
##재밌게봤다
##재밌게봤어요
올해본
##앞으로
채널에서
##둘다
남겨진
폭력의
##찝찝
부끄러워
부끄럽지
국민이
강렬하게
스케일은
마무리도
디즈니의
출연진이
춤출
통쾌하고
통쾌하다
무시하는
일어나고
##샷
찡하다
찡하게
##네이버
사극을
인터네
눈빛은
밥도
헐리우드식
홍보가
어머니가
뿌리
##사이에서
성인영화
이해할수가
보여줬으면
벗어난
남편을
닮아서
표절작
주변에서
앤딩
아니었지만
아니었나
설마설마
##보아도
아쉬웠어요
##꼭봐야
빡침
무비의
7점대는
비극적
결과를
박진영
본영화인데
스텔론
내게는
스크린쿼
으리가
챙겨보고
옆집
고양이가
로버츠
##왜이렇게
정의가
김수미
타이밍
전설의고향
이정진
이소룡이
거부감
ㄷㄷㄷㄷ
갈등을
어쩔수없는
악마의
##res
재미있지도
아까울뿐
대해서도
할리웃
외로워
받을만한
##혈쌍
대본을
미스터빈
버렸네
작위적
다루고
탑3
낚시질
연기잘하고
짝이없는
짜임새있는
##탈리즘
다행히
##하고자하는
떨어집니다
겪은
시즌1은
시즌1부터
낭패
안습이다
펼치는
##zzz
##붕괴
남기는데
##관람불가
##답답하고
사투리가
따윈
브루스윌리스
첩혈쌍
김혜수의
돌아가신
못믿
따분하고
보지말것
주윤발이
정우성이
사무엘
호구로
충격이다
해리포터는
##123
바래요
조니뎁이
특수효과가
빵터졌다
감안하더라도
난잡하고
장국영의
보러갔는데
엘리베이터
띄엄
생활을
##몰입이
##몰입도
기존에
##으리라
관련된
명장면이다
부정적인
세월을
안어울림
호기심이
쏟아져
객관적인
##튀는
절망적인
일어나지
##좌왕
##쩔고
일으키는
고뇌와
저럴
만화책을
빙의
황정음
책임감
머릿속을
알파치노의
##크림
한순간에
우디알렌
장난치냐
튀는
습격
차승원의
##00원주고
아기자기하고
브로스넌
곽경
뻑
뻣뻐
연상케
##쟈게
우왕좌왕
캐릭이
어지럽다
입장에선
숀펜
썰전
##선택을
앙상블
##뚫
만들어주셔서
파워레인져
모른다는
위트있는
니콜라스케이
심리묘사
멈추지
공허한
##재밌는영화
발음도
왕가위의
이태임
버무려진
혈압
닭살
탕웨
안보는걸
애썼다
김선아
박평식이
데미무
믿기지가
##로봇
무색하게
노골적인
##죽는줄알았다
목적을
썸머
우롱하는
숭고한
미키루
휴먼드라마
##구구구구
갇힌
살아남은
다큐멘터리가
있어보이려고
두말할
싸울때
언젠간
철저하게
거창한
속도감
썩어빠진
상투적인
쌩뚱맞은
##으련
##야야야야
##툭튀
횡설수
브레드
시놉시
돌고래
고정관
참다참다
배틀로얄
##리의리의리의리의리의리의리의리의
1화부터
미사일
비로소
일방적인
##★☆★☆★☆★☆★☆★☆★☆★☆
snl
짙게
조디포스터
간절히
톰행크스
컨셉이
world
드려요
유전자
어드벤처
해병대
글래디에이
턱없이
필모그래
과감히
서태지
버텨
치닫는
헨리
슈퍼액션에서
제주도
삼천포로
조미료
조한선
김두한
지긋지
저능아
삼각관계
맷데이먼
주저없이
오정세
실베스타
서동요
경이로운
머리카락
##크레더블
전두환
김원효
교도소
이뭐병
떳떠
아오이유우
가나다라마바사아자차
오컬트
##군다나
멕시코
쌍벽을
센세이션
비노쉬
페넬로페
여균동
개신교
해바라기
순식간에
팔레스타
차예련
레지던트
04
2주
3가
4편은
4차원
58
5명
8년
8점을
99년
9점이상
ar
co
can
jy
kill
man
more
ps
two
uf
ucc
wow
want
깽
냐
뜰
뺴
쓰라고
쫑
츤
콕
콱
탱크
푼
프라
##즈리
##냉
##ᆯ트로
##ᆻ더만
##ᆻ듯이
##ᆷ에서
##ᆨ살
##1발
##199
##쨔
##ᆼ께
##ᆺ기
##ᆺ속
##ᆺ당
##ᆺ불
##ᆺ꾸
##ᇂ고
##썽
##dr
##low
##5점
##5개
##ᆿㅋㅋㅋㅋㅋㅋㅋㅋㅋㅋㅋㅋㅋㅋㅋㅋ
##tl
##ip
##ms
##mbc
##7점
##ㅈㅈ
##ㅏㅏ
##ㄱㅋ
##이번
##이없다
##다란
##고요
##지긴
##가에서
##가다가
이는
이무
입다
이방
이만하면
이빠이
##화한
##도하고
##도없다
##핫
##하내요
##어와
##얼리
##었구나
##엠
##엘이
##ᅳ롱
영화과
영화내
영화봤다
영화광
영환가
영화속에
영화랄까
영화들에
##기랑
##겠
##욜
##리수
아네
아들도
아슬
아멘
아찔
##닐
##았어
##아키
##시시
##시끄러
##나쁘
##남이다
##밋
##밍이
##을위해
보입니다
보낸
보더라도
보신분들
##라길래
##한개도
어눌
##햇어요
##해본다
##했으며
가면서
가보고
가야지
##보느라
##거래
##거보고
##거라곤
지은
지르
지능
지렸다
지키는
재대로
조음
##데없는
##인저
##인만큼
##인거야
저당시
저스틴
시내
시계
시급
시답
나더라
나로써는
##주리
##주러
##영화지
##영화인지
그들에게
모요
모음
모름
모험이
다수
담을
다짐
넓은
##말야
##말하는
정소
정적인
정식
##우지
##우리가
##구한
##구들
##구마
##렸는데
##자극
##자매
##자들에게
##자룡
하두
하구만
하구요
하자는
##대여
##대왕
##대사는
마나
##여신
##였는지
##여자의
사사
사와
사는데
사업
##야겠어요
기요
기간
기운
기울
기립
기묘
주름
주말이
주었던
주몽
주룩
좋으
##없죠
냅
내서
내적
내심
내릴
내생각
내공이
내이름
너무한거
너무하잖아
진흙
##수면
##수사
##오스
##오네요
봐선
봣어
봐왔지만
연걸이
##작인데
##작가는
##장대소
그라
한류
한잔
한껏
한마리
정말좋은
정말재미없다
##치네요
##치는데
안뜨
##사서
거저
##되도
##되지도
##되나요
##와라
##전엔
스승
스킨
##히면
##재림
전하고
전현
전적으로
전광
전까지는
오달
온데
오묘한
오스카
##운서
우연이
무장
무진
무분
무쟈게
수수
수없이
수긍
##내시간
##부리
##부실
미생
미달
##것일까
이룰
자국
잤어요
자리가
소이
소위
소수의
더운
더스틴
잘하는지
최고네
최고였고
##때리는
##조화
##조심
##조선
##졸이
제기
제게
제이코
제정신이
##루의
##루만
##루야
도를
도그
도끼
도달
도쿄
아니잖아요
차에
않기
평점의
평점너무
평점주기도
개는
개같이
개유치
##분장
##분간
##섹스
##섹시
이런말
이런명작
해품
햇는데
인것
인증
인기를
인류의
인크레더블
##국제
노홍철
##비도
##비한
말리
말과
말해야
말하는데
##할텐데
좋았구요
##ᆻ던게
비장
비우고
유동근
##ᆸ다운
##중은
##중하나
스토리에서
되다
되돌리
구스
구속
##더와
##더냐
##더이다
남에게
##바도
##바엔
바는
바니
바란
바둑
못말
못돼
뭐이딴
생각됨
생각했지만
생각외로
##듯합니다
알던
알지도
알모도
본성을
본거라
##모아
##모독
일케
##물과
별생각없이
별다섯
볼라고
볼류
볼가치가
##본다고
부도
부려
부적
부유
부당
부수고
##낌
##안을
##안가는
##안볼
##안맞
##안될
##풋
##노가
##노의
##차반
머물
##겸
##격한
지루할수
지루했지만
지루하던데
지루할수도
드라마이다
배우빨
고대로
고스트
재미있지만
재미잇게
##유도
##유키
추운
추가요
감동받았다
중경
중년의
10분이
공영
공상과
역설
옜
예체
예능이
애니다
애들과
앨런
##ᆻ고요
끝에는
용이
요샌
화제
보는영화
보는느낌
##머지
##심하고
##문화를
쓰레기의
쓰레기드라마
##티는
##ᆻ으면서도
사랑한
반점
반갑
웃었습니다
##졌네
명목
엠씨
영화를보고
##동원
신을
신유
신문
신나고
##직원
##적이나
##적이야
##적이네요
상을
상속
상대로
상남자
상대가
##망하고
영리
영애씨
감독들이
이거슨
##원으로
내용들이
내용자체가
그리는
그립고
그리움
##두준
느끼한
##위거
##재미로
##재밋고
##재미있었다
세탁
세심한
코넬리
코끝이
원시
원스
원더
불평
불협
의구
의사가
##질주
##질까
살면
살리는
살펴
##영원
매염
액션까지
액션이라도
기대했다가
##줄께
할수도
##싶고
##싶게
##싶습니다
##싶으면
넘치게
성준
성취
성범죄
하나라도
##울까
##울때
##호프
후의
후아
훗날
##코난
##코스터
##당에
허드
짜기
##현재
##현씨
초창
그러한
그러려니
##혐오
김승
김흥
김정화
김효진
김인권
##길바래
현대의
##애들도
##테일이
그랬어요
강풀
위노
만들었다는
1점주고
10점으로
10점드림
하는듯
하는걸
로저
로미오
돈좀
연출까지
##식상
과제
과정은
배용
야만
야하지
얕은
분들만
음미
음울
두사람의
땀이
따져
히트맨
심정
심취
심정을
동거
동성
동반
동심이
##녀는
##념에
##나오냐
##나올까
명작의
명작영화
명작이네
##키고
포드
포매
죽도
죽겠네
##남의
괜찮아서
여자로
여자에게
##절정
서기
서늘
서유리
##학적
장면들은
엄지
발달
아쉬워서
아쉬움을
막을
호감이
홉킨
##방학
##맨날
마음과
마음까지
##ᆨ한테
단단
벗는
##예전에
##예쁜
박성
박살
박희
##행복한
설치
##후후
##후에도
##멤버
유치합니다
##파이팅
무슨말을
##배우님
결말과
##살면서
망하고
현실로
볼만하지만
나왔네
리브
재밌어용
몰입하기
기억하는데
짱개
##ᆻ나보네
##목이
남자도
만들다가
원작만화
뻔할
뻔하게
##드라마라고
절묘하게
빠순
빠지면
가슴한
얼렁
애니중
눈물새
주인공들도
영화답다
##벽이
낮고
계기로
맞서
맞네
맞습니다
맞는데
맞았다
치매
피트
피튀
##너무좋아요
몇십
걸친
##는거여
타겟
##볼게
##볼라고
##볼땐
간만
적인
건드리
##력있는
한번보면
억지스럽게
##등의
##등급
필요없습니다
##아니라고
없었어요
편파
느껴진
찾으러
##새1끼
잼잇어요
추천추천
##산을
어디인가
욕나와
욕심을
##달고
웃기면서
##배운
캐릭터로
코미디라고
대박이네요
대박대박
##잘보고
경고
경상도
같다고
내용임
내용이야
##뿐인데
긴장의
##거리를
##통수를
돌프
갈피를
출근
출생의
##주고싶은
싸움이
이걸영화라고
대단하네
##접한
재미있게봤어요
계속되는
잔잔해서
뒹
뒤집
친절한
먹방
제목부터가
물이
알았어요
알았던
알아야지
알아봤다
꼬집
어이없네요
토렌
모르겟고
카지노
쓰냐
쓰는지
모습만
##별이
스릴러에
그렇듯
떨어지게
티격
들어있는
들어왔는데
천정
천박한
천하의
니키
니들도
홍성
알바도
알바의
제작을
제작사
부족해서
부족했던
정신과
정신사나
1편으로
살아온
국정
oo은
oo들
삼가고
작가들이
공감대가
날림
시작하자마자
복원
훌륭하지만
훌륭했고
사람이면
##커의
##ᅱ업
통수
통틀어
##할수없다
찌르는
##슬립
수작인데
수작이네요
장난도
장난치는
장난아니고
##브는
##련한
##허다
알게되었다
신선했음
잠오는
만화도
질문을
친구도
##찬은
##이징
시청자들이
변해
##최고입니다
사실과
사실이지만
점수도
싫으면
싫은데
답답했다
있구만
작품이라는
전쟁과
배경만
지났는데
영화관을
슬프기도하고
둘은
궁굼
안타깝네
##쓰냐
임무
문제의
몰라요
몰랐네요
찾아봐도
##플렉스
졸작임
관객수
예술성
예술인가
재밌는게
재밌는듯
역사적인
몰입도와
빠져나올
##해야하는
##해야한다는
갑툭튀
종편
백퍼
은주
암시
암만
암흑
주연은
##덕화
여러분들
투니버스
##끝난
##끝나는
##되었지만
키운
##정말정말
##혜진
##느낌이다
터지고
쉽다
주고싶은데
폭력이
최악이었음
옛날영화라
##놓고는
군사
행복하고
행복했던
코믹하고
영화라기
영화라기보다는
블레
웩
꺾
불쌍할
불쌍하네
불쌍해요
미친듯
##죄로
돼서
됐음
됐습니다
##찜한
##온나
캐스팅과
하지원의
하지원은
않는다면
감사한
감사할
##한영화다
설정의
설정만
상상하든
중국은
실화라는게
소리지르
ㅉㅉㅉㅉ
볼수있어
있을수
죽이지
끝나나
1999
##될수록
훨씬더
다음편
다음작품
##멘터리
테크
템포
발연기의
씨지
씨의
##이란걸
송희
몸은
몸으로
몸개그
##싸이코
재밌군
인물에
##변태
##아이와
##말곤
이것두
화려하게
쓰레기영화다
##층이
괜찮았으나
장르도
애들만
##수준을
흐미
맘에드는
##할땐
윤진
두번보고
힘들지만
힘들때
재미있는영화
##한번도
하겠지만
노잼노잼노잼
세계에
세계의
세계에서
예상가능
sf를
어울리고
2점도
안봅니다
실제로는
초딩영화
초딩수준
하다하다
몇번씩
##활동
밑바닥
어쩌란
보여주면
기다림
완벽에
울었네
##받아라
이어지지
상영하는
없을때
풀어나가
만드신
평론가의
루크
쩌네요
##시대가
##했죠
가치있는
중요하지
중요한데
감독님은
사이비
좋은영화네요
프랑스영화는
한편으론
관람후
감성의
순간부터
황당함
황당해서
##하지도않
##하지도않고
훈훈해지는
만족하고
##풍경
미안한
짜증났다
맥그리
소중함
보는데도
지겨워서
흥미진진함
여전하다
샬로
좋을까
역겨울
아빠와
죽음으로
급작
온전히
결혼한
##하긴했지만
끼고
끼리
##버려라
싫어진다
전편이
많았음
독립영화의
감상한
몰두
몰아서
그렸다
넣지
깜빡
##인물이
##빛나
나쁘지는
##친구들
이런거구나
대작을
아이들이랑
인정하는
인정하지만
먹먹함
먹먹하게
##이런거
##이런영화가
선택을
촬영한
너무재밌다
적당함
관계의
다르네요
15년전
밀고
류현
핵꿀잼
부족한듯
탈북
퍽
##보이는데
3편까지
##시켜서
##쪽에
그림자
성장드라마
예전엔
새로움
정치에
##시리즈가
귀여운데
바람핀
낫지만
손발오그라
힘들어서
힘들었던
애들이랑
안맞음
80년대에
##해주지
##해주길래
웃긴게
심리적
자유롭게
한계인가
피해를
늙었다
트위
안돼고
안돼요
거기까지
보고싶습니다
7점정도
낭비한
화가나서
가까워
폐쇄
기본이
기본은
감탄했다
5점도
보이게
설렘
망쳐버린
끊이지
끊기고
오락물
##슈퍼
모자랄
생각납니다
무겁고
##이건뭐
용서와
##남자랑
현대인의
십대
십분
칼을
##and
북한을
압권이었다
나타나서
멋졌어요
늘어놓
##뚱한
##뚱땅
포기하고
깊이를
퀄리티는
##쏟
등장인물들의
남녀가
본방사
폭력적인
부끄럽게
국민을
전투씬
##킬러
##랜드의
이때는
##확실
심각하다
##소재는
##샵
##최악최악
눈빛연기
의문을
소재로한
##오빠가
존경스럽다
떼지
평이한
여기서부터
##ᅳ레딧에
##딸을
뜻밖의
뿌듯
뿌린
재밋었음
오글거린다
##영화임에도
명확한
시걸이
새벽의
때문이
표절을
기다려집니다
##ies
살고싶다
##귀엽고
##귀여움
##이유를
지켜라
##괜히
##배우들로
익살
##지어다
##꼭보세요
보길잘
##뭔데
못봤지만
볼게없다
7점대라니
휠
박진희
돌림
돌리다가
본영화중에
##지않았음
픽사의
반복해서
##맹숭
##omb
오로라공
오바다
보고싶었는데
보고싶어지는
할까요
헤어지는
헤어지고
읽어보고
##다운받아
김민희
척하는
탁재
##흘려
빌려본
콩은
포르노를
낳고
거북한
도전하는
탐크루즈
##라기보단
응원하고
이해하기엔
뛰어넘은
맹목
맹탕
착한척
있던가
꼽는다
외로움을
이민호
##검사
수고하셨어요
작위적이고
둘이서
아름다움에
##신분은
##느껴진다
오랜만이네
짜임새도
뛴다
결정판
##없을정도로
무한도전
국가의
장국영이
##쫄기
앞뒤도
아내와
잘어울려
잘어울린다
서부영화
##때문이다
조카가
##얼굴이
테잎
프리퀄
하시지
집착하는
남자주인공의
타고난
부르지
여자친구가
클래식이
이끌어내
이끌어가는
혹시나해서
개낚
추격씬
반가웠다
끼워맞춘
보러갈
아놀드의
자랑하는
바이러스
케빈코스트너
램버
나레이션이
##ash
배역을
폭풍눈물
쿵후
중독성
어리석
덤덤
##몸으로
담백하고
뭐하는건지
할아버지의
호기심에
임창정의
짜집기한
이동진
웃었네요
있으신
있으면서
우습다
몽환적이고
트랜스
##억지로
즐길수
흉내낸
##잭슨
##오오오
빠지는게
##ㅎㅎㅎㅎㅎㅎㅎㅎ
러브라인이
빙빙
빙자한
아름다웠고
던져주는
##가슴이
##분위기가
밖엔
##목소리가
개그맨들
브라보
브라질
##ice
나한텐
말투가
타란티노의
최고최고최고최고
인터넷에서
##멋있고
핑크
쯧쯧쯧
듬뿍
##제목이
파이터
국어책이
##아프다
잘만들겠다
숨막히게
못생김
가족애를
디카프리오의
드니로의
그럴싸하게
슬랩스틱
브리짓
상태로
가슴아프다
퉷
해줬으면
##하지말자
올드보이
##숭맹숭
포켓몬스터
##웃기네
댄서
미치겠네
##노답노답
골라서
낮추기
잠들었다
뻥튀
개념없는
코스모
알바생들
낭만적인
박시후
손가락에
총체적난
노린
##텐츠
로멘스
버무린
꺼져라
정준영
화질도
##긴장감이
줄리아로버츠
뼈저
수십번
쉴드
시간때우기용
애절하고
측면에서
와이프
김영철
과대평가된
좆망
##훌륭한
얽힌
감동받았습니다
툭하면
툭툭
가해자
지배하는
2차대전
gta
가관이다
##치않은
별기대없이
손색없는
물고기
느슨한
홀딱
힘듦
쫄딱
번역은
##한마디로
넋을
김정훈
캠코
꾹참고
every
찔끔
차분하게
공존하는
이해가안감
불러일으키는
어지간한
탱고
왜냐하면
브래드피트
스파르
갑작스런
##킬링타임
왜저러
단조로운
망설임
아키라
##옆에서
희한한
녀석들
##발랄한
라디오스타
치명적인
쬐금
깨닫고
당당하게
##누군지
셜록홈
아시는분
무성영화
해냈어
별1개도
박상민
청소년이
오죽하면
유준상
##밝혀
눈감고
홍경인
지껄이는
시네마
전파낭비
무덤덤
인위적인
남상미
빨려들어
##르륵
재활용
모티브로
남동생의
화이팅이
성시경
어린나이에
김병만
씩씩
비열한
난장판
조지클루니
know
저리가라
감춰진
애청자
때묻지
발정난
흡혈귀
##시트콤
오광록
제점수는요
노트북
할로윈
데스티네이션
엘리자베스
##ᅮᆫ드그레
존트라볼타
임요환
눈물콧물
스크린쿼터
첩혈쌍웅
횡설수설
기립박
무진장
알모도바
공상과학
눈물샘을
1학년
25년
2am
3년
4년
56
6번
7세
70분
9살
bomb
cl
day
f급
mb
sc
wat
꺠
껌
끈다
깬다
딘
쓰래
쟝
쨔
찔러
츄
취업
트렁
흐려
♡♡
ㅇㅋ
##뤠
##랭이
##흣
##즈라
##쟝
##늑
##ᆯ뿐
##ᆻ긴
##탱이
##ᆼ크
##ᆺ도
##ᆺ대
##ᆺ슴
##ᆺ어서
##ᆺ집
##ᆺ갈
##ᅴᆫ
##츠를
##ᇂ지
##ᇂㅎㅎ
##0억
##꼐
##쑤
##28
##ㅌㅊ
##ock
##tm
##be
##ble
##ㅅㅅ
##se
##40분
##pl
##ㅈㅎ
##ry
##way
##kd
##ㄲㄲ
##ㅐㅐ
##이시
##있을듯
##는영화
##는줄
##지식이
##지망생
##가벼
##가시노
이대
이와
이하다
이원
이긴
이득
이시대
이벤
있으며
이전의
이현우
##화까지
##도없이
##도너무
##하품
##어이가
##어째
##에가
##에비
##에플렉
영화배우
영화때문에
영화마다
영화만든
영화에서도
영화와는
영화내용이
영화내용은
##서요
##기위한
##립니다
##리에서
##리즘
아하
아티
아즈
아들은
##의도가
##니콜
##아르
##아동
##아슬
##시러
##시는게
##나이가
##미아
##미더
##을려고
보드
보도록
보더라구요
보물을
##라시
##라기엔
##한태
어바
어머
어루만
##들여서
##들리스
##해하는
##해달라
갚
가도
가오
갔으면
##보진
##볼이
##보호
##보이지
##보세여
##겅
##거려서
지우고
지현우
##로에
##로니
##로스
잴
졷
조이
조윤
조센
조절이
조진웅
##데드
##인터
##인증
##인형
##인격
##인들을
저때
나부
나문
나이는
나래이션
##면에선
재미두
##스스
##스퍼
##스파이
##점수가
##무언
##무리가
##무조건
##주던
##주얼
##주시길
##주완
##주룩
##주륵
##영화야
##영화보면서
그분
그사람
그중에
그뿐
그정도로
그대는
그마저도
##맘이
모데
모던
모션
##까는
##까말까
다임
다이나
다죽
다봤다
다짜고
너므
##말하고
##우려
##우먼
##구름
##구절
##구성도
##려한
##자신을
하수
하악
하희
하기에
하균
##대만
##대하고
마는
마스크
사후
사색
사탄
사탕
##야함
##야하나
##야죠
기여
기쁘
주니
주기가
주입
주려는
주먹이
였지만
여명
여행이
여섯
여왕이
좋네여
##등이다
##없을때
내포
내스탈
너무높
너무유치
너무좋네요
진가
진리를
진국이
##수만
##수씨
##수입
##수빈
##오른다
봐보세요
봣지만
봐왔던
연제
연금
연발
연정훈
##작의
##작전
##장가
최진
##상상
##짜피
##짜증이
한경
한발
한복
한거야
한꺼번에
정말재밌어요
##침이
##치는거
안드는
안해도
안떠
안보다가
안그래도
##사자
거장이
거리도
##됬는데
##됬으면
만나게
만끽
##왓
##전사
스님
대적
대화를
대상이
##힘을
##재로
평면
##적당
전나
전우
전대
전수
전까지
전에는
진짜ㅋㅋ
진짜개
오씨
오기로
오구리
우물
무용
무차별
수능
##진을
##진부
##진심으로
##내다
##내리는
연기하고
##부다
##부활
미적
미끼
미케
미취
미숙
미스테
##것으로
자질
자유의
자비에
##연주
##연변
##연령
생일
더할
더구나
더좋은
잘도
잘봄
잘하시
잘하는거
잘했다는
잘했다고
잘만듬
잘하시네요
최고는
최고가
##조로
##각시
##제미
##젤이
제프
제압
##루션
도마
도자기
##터진
아니구
아니니까
아닙니까
아니였으면
왜나온
않던
않더라
않으면서도
평점왜
평점믿고
개개
개선
개재밌다
개억지
개쩜
개쩌는
개꿀잼이
개차반
##세히
##세염
이런글
##성격
##성근
해당
해놔
해변
해답
해줘야
해냈다
인거
인민
인격
노아
노노
노인의
##비로
##비안의
말다
말들이
##할라고
##할배
##버는
##범을
##신만
##신부
##그거
좋았지
좋아하긴
좋아하시면
##일줄이야
빔
비위
비스트
비약
비보이
융
유다
유효
##워야
스토리다
스토리야
스토리인데
##들이는
되지만
되질
되기를
되겠지
굵
굶
구질
구현
##감의
##감명
남네
남아서
남다른
##바꼭
바치
못했는데
못찾
##하게되는
생각하지만
알린
알콜
알렌
알리기
알맹이
본연의
##모험
##모양이
##모델
일인
[...]
