#version: 0.2 - Trained by `huggingface/tokenizers`
. .
영 화
▁ 영화
▁ 이
. 

▁ 아
ᄏ ᄏ
▁ 그
▁ 보
▁ 재
다 .
.. .
! !
다 

다 .

▁ 정
▁ 나
는 데
너 무
▁ 다
▁ 하
▁ 좋
.. 

▁ 없
▁ 어
▁ 너무
▁ 사
▁ 내
▁ 감
▁ 진
▁재 미
▁ 연
▁ 있
▁ 지
으 로
지 만
하 고
▁ 한
▁ 최
▁ 시
네 요
▁ 안
▁ 1
▁정 말
▁ 스
▁ 만
.. ..
▁ 가
.. .

에 서
▁재 밌
▁ 기
▁ 대
▁ 봤
▁ 평
▁ 전
▁진 짜
▁ 마
▁연 기
하 는
" "
▁ 수
▁ 무
▁ 모
▁ 여
! 

▁ 생
▁ 잘
어 요
▁ 주
▁최 고
▁ 않
▁ 더
습 니
▁평 점
ᄏᄏ ᄏᄏ
드 라
토 리
▁ 오
▁ 개
▁ 제
▁이 런
▁ 인
▁ 배
▁ 말
드라 마
~ ~
▁생 각
? 

▁ 왜
▁ 자
들 이
▁ 같
▁ 못
▁ 소
▁스 토리
▁영화 

▁ 남
▁ 알
▁ 본
까 지
▁ 느
▁ 미
▁ 유
▁아 니
ᅲ ᅲ
▁보 고
▁ 볼
▁감 동
▁ 일
하 게
▁ 별
이 라
▁ 비
▁ 쓰
▁ 것
▁ 장
▁ 우
▁지 루
▁ 드라마
다 는
; ;
▁ 많
▁ ᄏᄏ
▁ 작
▁ 중
▁재미 있
레 기
▁ 부
▁그 냥
▁배 우
▁ 뭐
▁ 공
보 다
▁사 람
▁ 2
▁ 조
해 서
면 서
▁내 용
▁ 역
▁1 0
▁ 완
▁만 들
▁감 독
▁ 끝
▁ 고
▁ 저
▁ 애
다 ..
▁ 좀
적 인
▁재미 없
렇 게
리 고
▁ 해
▁쓰 레기
▁ 명
▁사 랑
▁ 참
▁ 되
▁ 반
▁보 는
? ?
ᄏ 

▁영화 를
!! 

▁ 웃
, ,
▁ 영
^ ^
▁ 예
▁ 결
보 고
▁ 봐
ᄒ ᄒ
▁다 시
지 막
액 션
▁ 거
▁좋 은
▁좋 아
▁시 간
입 니
▁ 상
▁ 매
라 고
▁ 싶
~ 

▁ 신
으 면
▁ 처
▁ 눈
다 고
▁ 바
▁ 실
▁이 거
음 

▁ 노
▁ 불
들 의
다 가
▁영화 가
▁작 품
▁영화 는
적 이
지 는
▁ 원
O O
▁ 살
▁없 는
▁봤 는데
▁영화 .
하 지
▁이 건
인 공
▁최고 의
▁마 지막
▁ 난
▁내 가
▁ 3
▁기 대
▁완 전
▁ 액션
▁좋 았
▁있 는
▁ 도
▁ 의
▁ 코
▁하 나
▁ 할
▁ 넘
▁ 성
야 기
▁ 추
▁ 때
▁ 죽
어 서
▁처 음
▁ 몰
▁한 국
세 요
없 는
▁지 금
▁ 후
▁ 했
같 은
▁ 현
▁나 오
인 데
들 은
▁ 괜
▁하 는
▁ 김
▁최 악
합 니
▁이 게
▁이 렇게
에 게
▁모 르
▁ 또
▁10 점
▁아 깝
▁ 극
▁ 세
ᅳ ᅳ
라 는
▁별 로
대 로
적 으로
▁ 허
이 나
▁1 점
▁ 멋
▁이 해
부 터
▁ 강
▁ 관
▁ 위
▁ 초
▁ 돈
연 기
▁연 출
▁ 분
▁ 로
있 는
▁ 짜
하 다
▁ 두
▁느 낌
▁명 작
▁ 구
▁ 따
▁ 동
네 

▁ 화
▁역 시
▁ 심
▁ 잼
▁이 야기
▁ 음
.. ..

▁평점 이
!! !!
▁기 억
▁ 뭔
네요 

▁ 캐
▁재밌 게
되 는
^^ 

영화 

▁우 리
▁ 들
이 다
습니 다
▁많 이
▁ 당
▁괜 찮
▁아 이
정 도
▁ 에
배 우
▁장 면
▁그 래
주 는
▁이 영화
지 도
습니 다.
고 ,
▁여 자
▁ 잔
▁그 리고
▁아 름
▁ 엄
▁ 발
다 면
▁ 요
문 에
▁만 든
네요 .
▁그 런
"" ""
▁아 까
▁ 막
▁ 와
리 는
▁ 포
▁ 꼭
▁ 차
▁주 인공
재 미
요 

▁보 여
사 람
▁영화 .

▁ 귀
▁같 은
▁마 음
▁ 설
▁ 드
▁ 특
▁ 단
▁ 슬
다 ..

만 에
▁아 닌
필 요
것 도
▁ 울
▁공 포
▁유 치
▁ 졸
▁ 존
진 짜
▁ 줄
▁ 박
▁일 본
ᄏᄏᄏᄏ ᄏᄏᄏᄏ
다 ...
▁ 표
을 까
▁ 망
▁무 슨
하 나
아 서
.... ....
가 는
▁ 점
0 0
▁아 무
었 는데
▁ 서
▁볼 만
▁현 실
없 이
▁결 말
▁ 힘
▁소 재
▁가 장
▁ ᅲᅲ
하 기
▁몰 입
다 니
▁ 리
▁다 른
▁ 누
인 가
▁ 흥
시 간
▁이 상
▁보 면
▁ 과
▁ 짱
▁보 기
!! !

▁ 속
▁ OO
나 는
▁반 전
▁매 력
▁ 빠
드 는
▁말 이
▁ 걸
▁ 선
▁남 자
음 .
▁ 뻔
▁ 얼
▁ 절
보 는
▁애 니
하 면
"" "
구 나
ᅮ ᅮ
▁스 릴
▁가 슴
▁짜 증
인 지
▁없 고
▁ 낮
▁원 작
미 디
▁ 솔
▁눈 물
하 지만
스 럽
▁ 맞
▁ 방
▁ ᄒᄒ
▁ 긴
▁ 억
▁ 계
봐 도
▁정 도
▁대 한
▁ 높
0 년
▁ 충
는 지
이 었
▁인 생
릭 터
재 밌
▁만들 어
려 고
▁전 개
▁영 상
요 .
▁인 간
습니 다.

▁않 는
▁ᄏᄏ 

▁음 악
스 러
▁있 었
▁ 게
▁ 머
▁ 몇
▁솔 직
지 않
이 다.
▁많 은
지 마
▁ 간
▁ 집
▁모르 겠
▁ 돌
더 라
에 는
이 고
니 까
▁ '
어요 

▁ 건
리 즈
ᄏᄏ 

▁극 장
▁ 순
▁ 필요
▁ 9
▁ 굿
나 서
▁모 든
▁아름 다
▁한 번
▁ 적
▁ 피
▁ 듯
처 럼
▁ 4
▁아 직
지 고
▁ 새
정 말
▁억 지
메 이
▁끝 까지
▁ ᅳᅳ
밖 에
▁ 문
▁ 근
▁하 고
이 다.

▁수 준
▁ 욕
▁ 찾
▁ 프
▁ ..
나 오
▁하 지만
▁ 8
▁ 올
▁ 편
떨 어
▁봐 도
들 을
▁솔직 히
▁ 받
▁ 파
▁전 혀
▁ .
▁ 치
다 ...

▁재 밋
▁ 언
;; 

중 에
하 다

▁ 행
스 터
▁이 제
▁모 두
▁뭔 가
▁ 열
▁ 7
▁ 외
떻 게
▁아 주
▁ 딱
▁ 버
▁ 찍
▁추 천
했 던
▁ 경
▁영화 였
▁ 갈
이 는
▁여 운
; 

나 라
▁ 5
▁캐 릭터
지 

아 니
▁연기 력
▁엄 청
▁ 크
!! !
▁코 미디
리 가
타 임
▁실 망
▁ 호
하 다.
함 

▁공 감
▁대 박
▁ ᄏᄏᄏᄏ
0 점
▁ 된
는 거
장 면
기 도
▁긴 장
이 다

▁ 출
▁ 독
▁ 손
듯 

스 트
▁ 달
을 때
감 독
▁ 약
주 고
▁최악 의
▁ 놀
▁ 먹
▁나 온
▁개 봉
▁배우 들
이 랑
주 인공
▁ 레
었 던
▁대 단
생 각
에 도
▁가 족
▁ 답
▁ 믿
▁ 준
친 구
▁영화 의
▁재미있 게
라 도
▁ 교
▁ 질
▁이 걸
▁어 떻게
▁ 엉
만 들
▁내 내
ᅲ 

때 문에
수 록
▁계 속
▁흥 미
했 는데
영화 는
▁ 악
▁표 현
이 가
▁ 등
던 데
▁잔 잔
▁영화 에
▁ 야
▁어 디
스 토리
습니 다

▁알 았
이라 는
엔 딩
▁ 물
▁ 함
▁ 즐
▁남 는
▁아니 라
건 지
▁대 사
~~ 

수 가
최 고
이 지
▁ 싸
▁모 습
▁제 목
▁재밌 었
냐 ?
▁아 쉽
이 상
▁잼 있
봤 는데
내 내
기 는
▁그래 도
없 고
▁ -
▁ 떨어
▁ 카
▁ 삶
▁않 은
▁나오 는
내 용
ᄒ 

어요 .
어 야
▁ 담
▁ 베
보 면
▁아 쉬
전 에
▁연기 가
▁ᄏᄏ ᄏ
▁만들 었
라 리
하 다.

▁내용 이
▁ 잊
한 테
기 에
▁조 금
▁그 렇
▁스릴 러
▁기 분
성 이
▁ 잠
아 요
영화 가
▁않 고
▁봐 야
▁진 심
▁느 껴
▁막 장
▁ 네
리 오
라 

▁긴장 감
▁자 체
입니 다
▁제 대로
만 큼
어 도
평 점
하 면서
▁시 리즈
▁개 인
▁아름다 운
▁ 데
들 도
▁ 메
이라 고
▁요 즘
▁제 일
▁ 떠
▁오 랜
▁ 앞
대 체
입니 다.
으 나
리 스
▁연기 도
▁근 데
네요 .

▁나 는
▁ 니
▁없 었
▁보 다
▁만 드는
▁알 바
ᄃ ᄃ
▁부 족
▁ 케
이 란
ᅲᅲ 

▁감동 적이
▁ 천
▁중 간
▁ 날
▁ 홍
훌 륭
▁웃 기
▁재미 도
▁내용 도
ᄏᄏ ᄏ
▁아까 운
▁정 신
▁제 작
▁스토리 가
▁ ...
음 .

▁보 다가
것 같
▁노 래
▁미 국
▁이 유
▁나 름
▁ 은
기 가
▁ 목
▁않 았
만 한
▁어 설
▁ 디
▁나 왔
▁ 타
▁시 작
▁ 형
▁ 국
▁1 편
▁ 티
임 

지만 ,
0년 대
▁ 삼
▁영화 ..
ᄍ ᄍ
▁때 문에
▁보고 싶
▁왜 이
▁감독 이
▁ 통
▁ 각
치 는
▁못 한
거 리
▁나 와
▁ 킬
라 이
할 수
해 도
▁영화 라고
▁ 글
▁그 러
▁로 맨
▁절 대
▁ 훌륭
▁보 게
▁ 복
마 다
▁너무 나
▁ 될
이 없
▁ 뒤
영화 를
스 팅
▁따 뜻
▁싶 은
▁감 정
▁살 아
▁의 미
▁영화 로
▁수 작
▁아직 도
▁출 연
▁느 끼
감 동
▁뻔 한
ᄏᄏ ᄏ

▁시간 이
▁세 상
▁아니 고
▁작 가
▁2 0
~~ ~~
▁여운 이
▁ ᄏ

나 리오
기 를
로 운
▁괜찮 은
더 니
▁차 라리
으로 도
하 는데
▁나 도
▁스토리 도
나 고
▁그 저
▁신 선
스러 운
""" 

▁ 희
니 다
이 야
▁ 뭘
학 교
▁안 되
네 .
▁주 는
▁ C
▁무 엇
▁특 히
▁얼 마
▁보 면서
▁ 6
▁장 난
▁ 변
▁ 걍
이 런
▁좋 겠
▁ 산
요 ?
▁도 대체
▁ 갑
해 야
소 리
▁만 화
▁점 수
▁ B
▁ 판
▁ 싫
▁ 친구
▁감독 의
▁행 복
▁무 섭
▁어 린
▁사 실
▁무 서
♥ ♥
고 싶
▁ᄏᄏ ᄏ

▁ 황
▁ 확
▁되 는
▁ t
▁ """"
메이 션
▁언 제
▁오랜 만에
▁ 용
▁ 훨
▁답 답
▁시 청
▁ᅲᅲ 

▁ 길
▁멋 진
사 랑
▁이해 가
▁ 옛
▁ 토
▁ 첨
것 이
지 가
▁부 분
▁허 접
_ -
▁마지막 에
▁ 빼
▁ 빨
거 같
▁재미 가
▁없 이
▁좋아 하는
입니 다.

▁자 신
▁초 반
▁ 양
▁ 입
▁관 객
▁추 억
합니 다
▁ 깨
▁우리 나라
▁전 쟁
▁귀 여
나 게
어 

▁봤 던
▁인 상
부 분
하 네
▁소 름
▁완 벽
▁ 깊
성 도
좋 아
▁ 러
놓 고
▁ 엔딩
지 ?
▁생각 이
인 듯
한 데
▁어 색
▁시 나리오
▁배 경
아 깝
▁지루 하고
▁OO O
▁어 떤
▁ 궁
▁ 청
▁ 패
▁킬 링
▁ ᄏ
▁ 낚
인 이
▁1점 도
▁유 쾌
▁힘 들
디 오
▁영화 관
▁ 팬
니 다.
영화 .
▁분 위
▁ 잡
동 안
네요 ..
▁ 헐
▁다 큐
▁ 흐
▁안 타
▁ 식
▁ 총
▁ 둘
▁스 타
▁오 늘
▁없 다.
▁지루 한
▁배우 들의
▁이 딴
▁시 대
▁들 어
▁문 제
▁슬 프
▁함 께
▁ 환
구 만
,, ,
▁ 범
아 까
▁찾 아
▁졸 작
o o
▁결 국
▁ 종
텐 데
▁ᄒᄒ 

▁ 임
▁ 큰
▁보 았
해 요
▁좋 고
▁개인 적으로
▁ 뛰
▁ 왠
럽 게
었 다.
▁ 뿐
들 에게
치 고
▁진 정
▁ 태
▁보는 내내
시 길
▁어 릴
▁당 시
▁역 사
▁애니 메이션
리 지
▁재밌 는
? ?

그 냥
▁보 세요
▁진 부
낭 비
보 니
이 지만
▁예 술
▁얼마 나
▁ 클
건 가
수 있
쓰 레기
▁코 믹
) 

▁ 책
▁ 꿈
그 래
보 단
▁포 스터
▁아름 답
▁몰입 도
나 마
▁아무 리
▁ 암
▁캐 스팅
▁설 정
▁ 혼
다 !

▁강 추
▁ """
▁ 0점
지 루
▁ 백
▁킬링 타임
▁연기 는
▁없 다.

▁기억 에
▁ 맘
점 대
▁안 되는
네 ..
▁주 연
▁후 회
지 ..
▁개 연
레 이
▁영화 도
▁영화 라
▁오 래
▁돌 아
▁ 민
▁사람 이
▁영화 ...
하 며
▁웃 음
었 다
함 을
▁ 브
려 는
작 품
▁멋 있
s t
▁ 얘
주 의
▁ 꽤
▁ 몸
▁지 나
▁제 발
▁ 히
▁보 지
▁매 우
자 기
▁더 빙
ᅮᅮ 

▁충 격
▁ o
▁주 제
▁그 렇게
니 다.

들 과
당 히
▁ 터
▁여 러
▁같 이
▁집 중
▁ 폭
나 ?
이 버
한 거
했 다.
▁어 느
▁잔 인
▁ 낫
▁보 지마
▁엄 마
인 줄
▁ 군
▁재밌 어요
▁충 분
!!!! !!!!
▁궁 금
▁ 병
♥ 

르 는
▁별 점
재미 있
▁ 블
▁ 채
▁하나 도
▁옛 날
같 이
▁아깝 다
영화 의
적이 고
▁ T
▁미 친
▁따 라
학 생
▁빠 져
▁ 먼
▁순 수
재미 없
▁ ,
마 디
▁것 이
▁ 커
ᄒᄒ 

함 .
이 거
▁불 쌍
▁극장 에서
▁ 풀
한 다
▁ 색
0 분
▁뛰 어
▁ 탄
▁ 광
꿀 잼
만 든
▁나 올
▁위 해
▁ 숨
에 요
▁위 한
▁ 괴
지 .
▁말 도
▁ 투
길 래
▁ 흘
음 ..
▁ 너
▁중 국
▁마음 이
▁ b
▁없 다

▁그 만
!! !!

▁ 굳
▁ 라
고 

하 겠
함 이
▁상 상
▁느낌 이
는 게
자 가
해 지는
▁있 을
합니 다.
고 ..
▁영화 중
▁ 끌
버 린
▁알 고
▁약 간
▁엉 성
성 을
이라 도
▁ 돋
말 이
듯 한
▁ 왕
워 서
좋 은
▁이 름
▁감 사
▁프 로
기 만
력 이
전 개
이 야기
하 시
▁여 기
가 지
.. ...
▁내용 은
합니 다.

▁걸 작
▁이 쁘
▁대 체
▁누 가
▁얼 굴
▁ 읽
▁비 슷
▁ 똥
▁하 지
▁ 번
하 네요
▁후 반
▁공포 영화
▁로맨 스
냐 ?

▁ᅳᅳ 

그 리고
▁ 철
▁이 정도
입니 다

▁영상 미
▁훨 씬
느 낌
▁재미있 었
▁가슴 이
▁ ᅲ
대 한
으 니
▁감동 도
▁갈 수록
▁여 주인공
▁존 나
▁눈물 이
▁티 비
▁C G
▁ 첫
굉 장
했 다
▁그 나마
▁실 화
▁B 급
▁사람 들
▁ 키
것 을
자 체
리 를
▁노 잼
가 서
군 요
재 밋
▁비 교
▁괜찮 았
▁ 똑
한 다.
▁ 죄
▁ 흔
이 건
~~ ~
냐 

인 생
점 이
▁없 다
▁재밌 다
▁연기 를
▁ g
▁ 맛
노 잼
▁전 체
▁발 연기
▁ ^^

▁잘 봤
▁비 디오
▁ S
니 다

지 ...
▁ 트
멜 로
▁어 렸
합니 다

▁기억 이
▁2 편
▁그래 서
▁ 으
▁ 밖에
라 서
이 네
▁장 르
?? ??
▁ s
▁ 갖
▁ 벌
▁단 순
▁어설 픈
▁ 늘
시 절
▁것 도
▁ 굉장
수 준
▁사람 들이
▁초 딩
▁네 이버
oo d
ᄋ ᄋ
▁ 취
▁있 고
▁느 낄
▁2 00
나 온
이라 면
까 ?
시 키
▁알 게
▁보여 주는
보 게
보 기
지 를
▁ 딸
▁ 송
했 지만
▁다 들
▁귀 엽
개 도
▁1 9
▁ 쳐
▁다 음
▁오 글
ᅲᅲ ᅲᅲ
지 지
▁이 미
라 .
이 였
▁영화 ..

마 지막
스 가
▁시 즌
▁인 물
▁것 을
▁영화 ,
▁ 꼬
▁ ᄏᄏᄏᄏᄏᄏᄏᄏ
아 이
정 이
한 번
▁마 이
e r
▁ 쓸
▁상 황
려 서
▁한국 영화
▁결말 이
▁간 만에
▁ 테
으 면서
▁영화관 에서
다 시
잖 아
▁이 것
▁성 룡
그 런
나 요
라 면
었 다

하 하
▁ 섹
머 니
인 의
▁한 마디
짜 리
는데 ..
▁주 고
▁좋은 데
▁등 장
▁ .

▁3 류
▁교 훈
▁ c
었 다.

▁화 려
▁존 재
완 전
▁이 후
보고 싶
▁킬링타임 용
▁ 풍
다 른
땜 에
자 

▁바 로
▁ 온
▁ 훈
아 야
있 고
▁독 특
론 가
움 

▁아 님
▁재밌 고
▁생각 을
▁감동 적인
▁판 타
▁ 멍
거 야
▁잔잔 한
▁맘 에
▁그 리
▁평 가
▁여 배우
▁스토리 는
▁애 들
세요 

▁전 부
건 데
▁잘 못
▁배우 들이
나 

연 히
▁사 회
▁있 을까
다는 게
▁ 직
감 이
▁보 니
.... .

▁다 운
점 은
▁없 어
▁삼 류
ᅮ 

▁ 혹
▁대 해
▁진정 한
▁ 틀
▁ 빵
아 닌
이 팅
구 요
할 때
▁어 울
▁상 당히
고 는
▁그 대로
▁감동 을
했 다.

▁거 의
정도 로
▁정도 로
▁재미 는
▁소 설
▁ ~
▁영화 인데
겠 다
수 를
▁생각 보다
▁감동 이
▁같은 데
나오 는
▁ ᅳ
▁ 해서
모 르
▁다 르
▁높 은
▁ 항
중 간
▁허 무
▁세 계
........ ........
들 어
보 다는
스 타
▁재미있 는
▁했 는데
▁ ᄍᄍ
리 의
▁예 상
▁두 번
▁중간 에
을 듯
을 텐데
▁나와 서
1 0
없 다
▁자 연
▁뭐 야
에서 도
여 자
▁영화 !

▁ 휴
봐 야
▁좋아 요
가 ?
년 도
년 이
▁어 이
▁드라마 

▁볼만 한
▁ ....
댓 글
▁영화 ...

▁당 신
▁몇 번
▁ 윤
▁구 성
거 나
분 들
이 게
임 .
다.. ..

▁봐 서
▁ 겁
▁어 른
▁기 다
▁최고 

ᅳᅳ 

▁ 봣
버 렸
지 ?

▁영화 다.
▁나 의
▁이영화 를
▁ 까
▁자 기
▁실 제
▁혼 자
겠 지만
▁ 잃
시 대
▁봤 어요
▁에 로
1 점
▁ (
▁ 착
기 대
되 고
라 니
▁평점 을
▁ O
▁ 밑
어 나
저 히
▁이 번
▁ 맨
▁ 압
▁ 멜로
어 가
여 서
했 다

▁아 버
?? ?
을 수
에서 는
▁각 본
▁ 흑
때 마다
▁안 된
▁제 가
,, ,,
▁마음 에
▁ 빈
▁ ...

▁슬 픈
▁굿 

▁굉장 히
다 !
에 선
▁좀 비
▁장면 이
▁낮 은
▁ 묘
음 악
▁더 욱
▁머 리
▁질 질
▁어디 서
▁갑 자기
- _-
▁어 쩌
▁있 어서
▁평 범
사 가
;; ;;
랑 스
이 트
하고 ,
▁지루 함
▁원작 을
▁저 런
▁보여 준
▁방 송
▁즐 거
▁빨 리
▁ 권
보 면서
는데 ,
▁여 주
▁누 구
▁극장 판
▁새 로운
▁확 실
▁ 빛
네 ...
던 가
▁볼 수
▁ 금
네요 ...
▁봤 지만
▁예 쁘
▁작품 

▁어 이없
▁2 점
▁감독 님
▁보여 주
▁그 녀
▁하 게
▁못 하는
▁재미없 는
▁상 영
▁ 벗
▁ 슈
▁ ..

말 고
▁의 도
▁크 리스
▁영화 다
▁개 그
▁끝 나
▁해 야
▁불 편
▁훌륭 한
▁ 밀
일 이
~~ ~

▁생각 해
▁같 다.
▁화 면
하 자
▁가 치
▁같 아
▁믿 고
▁ 겨
▁ 듣
▁ 회
▁ 흠
우 드
코 미디
▁생각 하게
▁ 꺼
▁ 놓
근 데
에 겐
▁자체 가
▁ ᄉ
었 음
유 의
해 

▁너무 너무
▁전 형
▁뭐 가
▁저 는
▁시청 률
▁ 운
와 서
▁일 단
▁항 상
▁ M
해 주
어요 .

▁ 꿀잼
지 게
하 니
▁있 지만
▁역 대
▁예 고
▁성 우
▁흥 행
▁대단 한
▁탄 탄
▁ 봄
▁ 씨
▁ 왔
▁ 필
현 실
▁있 어
▁만 드
▁그러 나
여 

진 진
그 러
봐 서
조 건
▁감 성
▁만 점
보다 가
▁살 인
▁20 1
, .
▁ 빌
▁ 향
도 록
▁아 닐
▁가 지고
▁중 요
▁ 써
군 

▁없 어서
▁평 론가
▁수 가
▁비 해
▁사람 은
▁주인공 이
메 디
속 에
▁관 람
▁ ᄒ

남 자
하는 거
이라 니
하지 않
▁처음 부터
▁T V
i n
▁충분 히
들 아
리 티
▁한 심
▁아깝 다

▁순 간
~ !

한 다.

▁한 편
▁이런 영화
▁것 은
하지 도
▁돋 보
▁ 짝
한 영화
▁좋 다
내 가
무 리
▁진 행
▁있 다.
▁소 리
▁참 고
▁ᄏᄏᄏᄏ 

▁헐 리
나 ?

좋 았
▁해 도
▁개연 성
▁ 됐
▁ 헤
▁알 겠
▁점 점
▁ 쉽
별 로
사 회
하 다고
;; ;
▁그런 지
▁리 얼
▁프 랑스
▁안타 깝
▁ 루
▁ 댓글
▁영화 인
조 차
▁영화 !
▁만 족
▁잘 만들
▁t v
이 코
▁어 려
;; ;

1 0점
▁ 급
되 어
스 의
▁나 이
▁시 절
스럽 고
▁식 상
▁ 젊
영화 중
▁몰 랐
▁훈 훈
▁ a
만 이
만 으로도
는데 ...
▁자 극
▁g ood
▁ 능
▁ 든
▁ 섬
히 려
▁분위 기
▁ m
▁ 맥
▁소 중
▁참 신
▁먹 먹
▁홍 콩
▁ 승
만 의
으 며
짜 증
▁봤 다.
▁죽 는
▁황 당
시 리즈
저 씨
▁그 닥
▁이영화 는
▁케 이
▁ 창
러 운
신 이
▁그 때
▁어 쩔
▁ 짧
▁쓰레기 

▁선 택
▁전개 가
▁엉 망
▁흥미 진진
▁ 찌
었 어요
촬 영
▁유 명
▁한마디 로
/ /
리 게
웃 음
줘 야
한 게
효 과
▁평점 은
▁불 륜
▁도 저히
▁망 작
▁카 메
▁안타 까
▁ 깔
▁ 묻
▁ 페
▁가 는
▁무 조건
▁여 전
▁엄청 난
▁ 검
▁ 놈
아 도
최 악
하 긴
▁더 럽게
▁어릴 때
많 은
민 국
영화 ..
ᄏᄏᄏᄏ 

▁감독 은
▁다시 봐도
▁편 집
이 면
해 진
▁이 어
▁끝 내
▁지금 까지
▁과 거
▁아쉬 운
▁얘 기
▁ 쓴
파 이
▁있 다.

▁최고 였
▁모르 고
다 ....
인 물
지 ..

▁사랑 을
▁- _-
▁ 뮤
기 고
지 금
한 다

▁이 것도
▁그 게
▁안 나
, 

요 ..
추 천
▁이 리
▁진 지
▁9 점
▁범 죄
▁멍 청
들 

처 음
▁사람 들은
▁원 래
▁돈 주고
겠 다

▁미 안
▁판타 지
영 상
영화 .

▁ 끼
연 출
영화 로
▁영화 다.

▁하 면
▁줄 거리
▁물 론
▁희 망
그 램
막 장
당 시
보 이
알 았
▁되 었
▁초 등
▁ 견
대 박
편 이
▁재밌 는데
▁자 꾸
▁설 명
▁힘 든
어 로
▁아 빠
▁최 근
▁평점 에
▁결 혼
▁후반 부
▁ ?
▁ 갔
▁ 넣
▁ 뜬
▁ 북
▁ !

가 고
방 송
애 니
없 음
▁가 능
▁전 설
▁그래 픽
지않 는
▁로맨 틱
▁따뜻 한
까 ?

▁있 다는
▁미 화
▁유치 한
스 런
이 하
▁감 상
▁재밌 음
▁알 려
▁저 질
?? ?

▁액션 도
▁분 명
▁전형 적인
▁ d
▁ 법
▁아 ..
▁사 라
▁느 꼈
▁ 합
님 의
시 는
▁내 인생
네요 ..

▁가 볍
▁괜 히
▁ 친
▁ ^^
내 는
하 여
▁그 럴
▁그 림
▁배우 가
▁ 

▁ 골
따 위
함 .

▁오 히려
▁웃 긴
▁예 전에
▁억지 로
▁느끼 게
▁병 맛
▁ 는
▁있 는데
▁ 덕
▁ 찬
작 가
,, 

▁영 웅
▁이야기 를
메이 크
▁독 립
▁무서 운
▁완벽 한
▁오글 거
공 포
명 작
▁나 쁘
▁바 보
▁인간 의
▁ 깜
▁ 학교
어 진
하는 게
▁3 점
▁듯 한
나 면
네 ..

대 의
지 의
프 로
▁대 작
▁연출 력
그래 도
▁S F
▁ ᅮᅮ
자 의
해 라
.... ..
▁별 루
▁우 연히
▁완 성도
▁되 어
▁동 화
▁ !
▁ 워
것 은
오 는
은 데
▁영화 임
▁보 는데
▁해 준
▁바 라
▁기대 하고
▁멋 지
▁대한 민국
▁흘 러
▁ 팔
네 .

님 이
스 를
▁나 쁜
▁봤 다
▁인 정
▁뭐 냐
▁현 재
▁모르 는
인가 ?
▁스타 일
. 5
S T
워 요
평 가
함 과
▁영화 보다
▁돈 이
▁요 소
보 는데
움 이
▁없 을
▁진 실
▁전 편
▁좋은 영화
▁신 기
▁아이 들이
▁아무 것도
▁적 당
▁복 수
▁ 을
실 망
▁전 기
▁이런 거
▁지금 도
▁ ᄒ
예 산
웠 던
지 ...

▁허 술
▁관 계
▁풀 어
심 이
인 간
▁다 행
▁영 원
▁노 력
▁죽 음
▁처음 으로
▁서 로
▁잊 혀
▁메 세
▁어설 프
- -
심 을
우 는
영화 에
▁중 반
▁화 이팅
안 되는
▁이 러
▁이런 걸
▁같 다.

같은 데
▁특 유의
▁부족 한
▁o st
▁ 핵
내 고
리 아
시 고
▁전 문
▁유 머
▁바 람
▁코 메디
▁ ᄃᄃ
이 네요
▁2 시간
▁성 장
▁즐 겁
▁앞 으로
▁천 재
▁다운 받
▁ 촌
▁ 플
기 엔
▁웃 겨
했 고
▁같 아요
최고 의
▁ 멀
▁ 탈
▁ 라는
리 에
있 게
▁전 작
▁저 도
▁연출 이
▁놀 라
▁청 춘
강 추
드 가
안 하고
어 울
음 ...
이 에
▁영화 다

▁영화 에서
▁부 모
▁장면 은
▁목 소리
h e
▁ 촬영
♡ 

상 을
스 로
한 건
한 다는
▁여 성
▁아닌 가
ᄏᄏᄏᄏᄏᄏᄏᄏ ᄏᄏᄏᄏᄏᄏᄏᄏ
▁리 메이크
▁ 면
세 가
▁아니 다.
▁왜이 리
▁어렸 을때
기 

년 에
▁아 오
▁아 프
▁그 려
▁최고 다
▁우 울
▁ 0
▁ 류
년 전
화 가
▁지 난
▁못 보
▁비슷 한
▁ D
▁나 라
▁만 큼
▁않 을
▁말 하고
▁중 에
▁재미있 어요
▁해 주
▁노 출
▁또 한
~ !
도 ,
▁남 아
소 한
식 이
▁영화 입니다.
▁10 0
▁쓰레기 영화
▁유치 하고
▁졸 라
▁모습 이
▁뜬 금
▁ ᅲ

▁ ᅮᅮ

다 ,
았 던
역 시
인 거
▁이 래
▁그 의
▁사 건
▁말 고
많 이
했 음
▁이 연
... 이
▁스토리 에
▁비 추
▁ 짐
그 라
다 운
됨 

려 면
무 슨
아 먹
치 게
▁정 치
▁가 득
▁시간 낭비
▁재밌게 봤
▁귀여 운
▁철 학
▁ 짓
개 봉
점 을
정 을
▁1 2
▁이상 한
▁게 임
나 ..
없 다

장 이
▁보 이
▁안 보
▁드라마 를
배우 들
▁누 군
▁ 접
가 

자 는
▁봤 습니다.
▁돌 려
▁진부 한
▁ 던
▁ 응
▁ 학
놓 은
라 .

어 지는
자 들
지 못
지 .

▁없 음
▁어 찌
▁안 맞
▁재미있 고
▁해 피
▁귀 신
▁ 퍼
세 계
야 

인 은
져 서
하 다는
해 준
▁좋 다

▁스 케
▁아깝 다.
▁마음 을
▁짱 짱
▁행 동
▁경 찰
▁전체 적으로
▁화려 한
▁예고 편
▁ 뜨
기 억
하 던
▁1 5
▁그런 데
▁울 었
하면서 도
▁ 얻
대 사
이 의
▁아 는
네요 ~
▁안 나오
▁감동 적
▁지루 해
▁눈 이
▁별로 였
▁너무나 도
감 을
▁아 마
▁전 달
▁마 치
▁미 래
▁보고 나서
▁드라마 가
▁예 전
▁손 발
▁삶 을
▁먼 저
심 히
아 

알 바
았 다.
자 를
하 냐
▁소재 는
재밌 게
▁무엇 보다
^ 

▁ 샤
▁ 였
▁ 춤
네 ...

르 고
수 도
수 있는
없 다.
해 주는
▁나 만
▁다 가
▁어 렵
▁한 계
▁대 충
▁잘 생
▁성 공
▁명작 

▁이야기 가
▁반전 이
▁왠 지
▁ 붙
리 도
만 하면
반 전
▁이런 게
▁드라마 .
▁재미없 다
▁여자 가
▁ :
▁ 월
거 지
난 다
분 에
▁시 도
면서 도
▁작품 이
▁아깝 다.

▁이영화 가
▁싫 어
▁OOO 기
▁ A
▁ 논
▁ 웬
▁ 힐
마 저
모 습
▁그 랬
▁나 머
▁나 에게
▁다 소
▁애 들이
▁지금 봐도
▁피 해
▁메 시
▁인상 깊
▁환 상
r e
▁ 늙
▁ 뒷
예 요
▁영화 중에
▁이 젠
▁재미없 고
▁8 점
▁자신 의
▁깊 은
극 장
인 을
▁재밌 어
▁보고 있
▁눈 을
▁심 심
구나 

▁허접 한
▁확실 히
순 간
스 는
▁조 연
▁와 닿
▁7 점
▁러 브
▁어이 없는
▁밑 에
닝 타임
랄 까
새 끼
스 릴
▁보 이는
▁자 유
사람 이
▁매력 적인
▁모습 을
▁케이 블
▁ 낭비
번 째
했 으면
▁잘 만든
▁미 소
▁했 던
▁글 쎄
▁군 대
▁ 증
눈 물
들 만
말 로
절 한
▁스토리 ,
▁내용 을
세요 .
▁맞 는
▁9 0년대
▁ 젤
만 으로
지 컬
퀄 리티
터 리
특 히
하 다..
하고 싶
▁심 리
▁아까 움
▁속 편
스럽 게
▁4 점
▁왜이 렇게
▁프로 그램
* *
▁ 씬
고 ...
었 지만
하 네

▁아 ...
▁나 를
▁하 루
▁연 애
지도 않
▁취 향
▁ 딴
과 는
로 서
줘 서
▁나 서
▁좋 다.
▁고 민
하기 만
▁ 꾸
가 족
려 다
성 애
을 거
이 해
일 뿐
▁아 놔
▁스토리 와
▁재미없 음
▁제작 비
▁ G
▁ 끊
마 음
▁영화 보고
▁못 하고
▁남 주
▁사람 을
▁해 주는
▁의 외
▁10점 

▁있었 던
▁느껴 지는
▁감정 이
▁부분 이
▁낚 였
▁겁 나
▁ᄉ ᄇ
▁ +
더 만
로 는
무 서
시 켜
일 까
▁그 럼
▁봤 습니다
▁연기 에
▁저 예산
▁실 패
▁넘 어
▁외 국
▁찍 은
▁세상 에
▁어색 한
▁순수 한
▁젊 은
▁카메 라
▁ 라이
구 려
도 없고
듯 .
소 년
소 재
었 으면
▁아 저씨
▁재밌 네요
▁재미없 어
▁화 가
사람 들
▁떨어 지는
▁O ST
저 럭
하 네요

▁영화 입니다.

▁감 탄
▁재밌 다

▁느 낀
▁싶 다.

▁중간 중간
▁c g
▁ <
▁ w
▁ 까지
나 요?
만 드는
아 버
▁오 락
▁사랑 이
▁좋았 다.
▁아닌 데
▁유쾌 한
▁여전 히
으 론
하 려는
▁가 끔
▁아니 면
▁역 할
▁보는 게
▁역시 나
▁소재 를
아니 고
▁알았 는데
▁ 엑
사 는
와 르
움 을
이 를
지 말
▁있 다면
▁기 본
▁아니 다
▁드라마 는
▁액션 은
▁액션 이
▁아까 워
▁특 별
▁8 0년대
▁ 곳
▁ 씁
림 

안 되
한 다면
▁사 극
▁봤 었는데
어요 ~
▁조 폭
▁드 는
▁제작 진
▁섹 시
▁ 꼴
▁ 돼
▁ 밤
가 ?

해 보
▁어 이가
▁시 선
▁스토리 를
▁유 일
▁슬 픔
▁블 랙
▁독특 한
나 올
네 여
럭 저럭
아 아
이 제
▁이 하
▁다 만
▁내 생
▁전 에
▁알 아
▁볼 때마다
▁저 렇게
▁결 론
▁할 말
▁리 뷰
▁매력 이
▁연기력 이
▁호 러
▁이유 가
▁평범 한
( ?
▁ 폐
결 말
영화 도
▁이 기
▁그 들의
▁스 트
▁가 진
▁평 생
▁거 지
▁3 편
▁굿 굿
▁소름 끼
▁ 쩔
겠 지
니 아
이 렇게
▁안 봤
▁모 자
▁미 스
▁예 쁜
▁기대 를
▁흥미 롭
▁괴 물
레 스
위 해
트 가
▁좋 을
▁아니 지만
▁끝 나고
▁뭔 지
▁짜증 나
▁ 헛
식 으로
요 .

펑 펑
했 을
▁연 예
▁안 하고
▁재밌 었는데
▁연기 와
이라 서
▁살 짝
하지 마
▁악 역
▁다큐 멘
▁ 밝
끼 리
화 를
▁시 원
하는 지
▁몰입 이
▁보기 엔
▁그렇 고
▁통 해
▁희 생
▁깔 끔
▁ 푸
라 가
명 이
시 아
았 다
즈 니
한 것
▁봤 다가
▁일 어
▁고 전
▁작품 .
▁했 지만
▁어린 이
▁ 풋
나 가
남 는
먹 고
아 주
원 이
▁영화 지만
▁하 는데
▁안 본
▁일 상
▁지루 하다
▁끝 난
▁사랑 하는
▁분 노
▁이야기 

▁과 연
▁용 서
▁굳 이
▁ 끔
▁ 녹
▁ 밥
디 어
유 치
좋 고
.... ..

▁만들 지
▁난 해
▁주인공 의
▁음악 이
▁종 교
▁어릴 적
▁어렸 을
▁압 권
▁슈 퍼
9 9
▁ I
▁ 겉
▁ 십
주 얼
▁그 다
▁그 럭저럭
▁나 타
▁정말 로
에서 의
▁거 기
▁이건 뭐
▁하나 하나
▁현실 을
▁짜증 나는
▁레 이
▁티비 에서
b b
▁ i
▁ 짠
▁ 톰
걸 로
까 진
되 지
듯 이
씨 가
었 고
▁사랑 에
▁불 쾌
▁만들어 진
▁잼있 게
▁나왔 으면
▁신선 한
▁전기 세가
~ !!

▁ 뭉
서 야
요 ?

▁영화 네요
▁재 난
▁재미 를
▁쓰 래
▁부 터
▁작품 성
▁처음 엔
▁표 절
을까 ?
▁열 심히
▁이연 걸
▁ 칼
군 요.
드 립
무 섭
작 

제 목
한 국
▁보 시길
으로 서
▁더 이상
▁같 다

▁재미없 다

▁후 속
▁막 판
▁포 장
▁ 덜
▁ 썩
▁ 챙
▁ 침
봐 라
이 터
▁보 시
▁사 기
▁사 는
▁있 다

▁개 판
▁봐 라
▁나오 고
▁아름답 고
▁귀엽 고
▁뮤 지컬
▁ 축
기 의
끄 럽
다 !!

무 비
보 지마
분 이
줌 마
어요 ..
▁동 물
더라 도
▁재밋 게
▁공감 이
▁싸 이코
▁진심 으로
▁감동적이 고
,,, 

▁상상 력
▁아닐 까
▁ 늦
와 는
▁무 지
▁무 협
▁소 녀
▁배우 의
▁2 0년
▁10 년
▁영 환
▁필요 한
▁이유 는
▁몸 매
▁ 쇼
겠 다.

류 의
사 를
없 어
▁없 음

▁감 명
▁오 그라
▁자 막
▁고 생
▁사랑 과
▁상 처
▁현 대
지않 은
▁떠 나
▁채 널
▁ ᄌ
▁ 익
▁ 쩌
들 에
죠 ?
진 심
티 비
하 다가
했 다는
▁되 게
시간 이
▁크 게
▁놀 랍
▁기분 이
▁형 편
▁혹 시
(? )
a n
o u
▁ 격
▁ 퀄리티
구 하고
대 는
돌 아
수 는
시 킨
해 지
▁아 침
▁보 러
▁말 로
▁감동 과
▁표 정
▁소재 가
다니 ..
▁말이 필요
▁추억 의
아깝 다
▁흐 름
▁이정도 면
▁ᄍᄍ 

▁ 잇
▁ 징
▁ 퇴
쵝 오
▁가 서
▁봤 으면
▁전 투
▁수 도
연기 가
▁두 고
▁폭 력
▁쓸 데
▁ 엘
가 능
그 렇
보 여
이 니
이 크
표 현
▁그 지
▁봤 음
▁오 버
▁생각 나는
▁동 생
▁삶 의
▁소름 돋
▁등장 인물
▁쉽 게
- 

겠 다.
들 고
명 의
안 에
줄 알았
▁좋 다.

▁어 제
▁사 이
▁마 무리
▁볼 수록
▁지루 해서
▁지루 하지
▁별로 

▁연출 ,
▁포 기
보는 게
아까 운
. 2
▁ 꼽
▁ 맡
▁ 잤
아 님
오 빠
영화 였
▁그 립
▁정 서
는데 

▁말 할
▁남 녀
▁남 을
▁신 경
▁좋았 던
▁강 렬
▁우리 가
▁드 러
▁필요 없는
▁봐야 할
▁몇번 을
▁북 한
▁해피 엔딩
▁ 끄
보 세요
수 의
이 유
이 자
임 .

▁아 련
▁나 중에
▁스 크
▁무 시
▁소 장
까지 는
▁비 주얼
▁사람 의
▁설 레
▁수준 이
▁보고싶 은
▁태 어
▁가볍 게
▁스케 일
▁힐 링
o r
▁ 컨
▁ 활
남 

도 가
따 라
▁미 치
▁비 극
▁끝 나는
▁반 성
▁봤는데 ..
▁소재 로
▁반전 도
▁받 아
▁디 즈니
▁산 만
▁ 뇌
▁ 몽
▁ ᄋᄋ
기 로
독 교
르 노
속 에서
언 가
엄 마
오 글
의 미
정 신
▁이 루
▁그 린
▁나 가
▁하 면서
▁있 게
▁조 잡
▁거 짓
▁눈 빛
▁의 심
▁몰 라도
▁느낌 

▁선 생
▁제목 이
, 2
. ᅳ
▁ 런
▁ 움
▁ 메이
관 계
전 쟁
▁없 고,
▁좋아 서
▁의 문
▁싸 구려
평점 이
▁국 민
난 다

당 

리 기
에 만
이 며
중 의
해 요

히 는
▁영화 같
▁말 을
▁본 방
▁일 부
▁뭐 지
▁김 기
▁심 각
하기 도
▁음악 도
▁올 해
▁통 쾌
▁똑 같
▁ 났
▁ 찡
거 운
고 있
다 ~
밋 밋
버 리고
인 듯

일 본
자 단
짐 

찝 찝
했 어요
▁시 시
▁역 겨
▁시간 을
인가 ?

▁점수 를
▁깊 이
▁엉성 한
▁ 쉬
▁ 윌
▁ 라고
그 인
대 가
캐 릭터
했 는지
영화 라고
▁영화 ....
▁있 다
▁지 구
▁가 까
▁지루 할
▁다시 한번
▁좋아 할
▁좋았 고
▁연출 도
▁인생 을
▁능 력
▁ 흡
듯 ..
라 스
마 스
였 던
트 콤
▁이 때
▁않 게
▁죽 여
연기 도
▁그런 가
사람 은
지않 고
▁이제 야
▁악 당
▁언제 나
▁깨 닫
a d
▁ 꽃
▁ 농
▁ 펑펑
구 니
만 점
상 이
우 리
영화 ...
▁이 쁜
▁아 픔
▁지 겹
▁스 티
▁최고 !

▁오 랫
▁인 터
▁아니 다.

▁이해 할
▁존 경
▁듯 

▁받 았
▁광 고
▁헐리 우드
4 년
▁ 쌍
드 의
만 화
뻐 서
이 후
하 신
▁영화 ~
▁그 것
▁생 애
▁사랑 스러운
▁3 0
▁방 금
▁홍 보
▁안되 고
▁뛰어 난
하시 는
▁ 뉴
▁ 쫌
버 리
▁영화 라는
▁그 걸
지만 ..
▁평 이
습니 다..
▁못 할
▁3 0분
▁낮 아서
▁어려 운
▁섬 세
▁풋 풋
o n
▁ 납
▁ 뜻
▁ 줬
음 ..

잼 있
학 년
▁시 사회
다는 거
▁드 럽게
▁눈물 을
▁딱 히
감독 이
▁잊 을
▁산 으로
▁마이 너
▁씁 쓸
▁ E
▁ 쪽
나 왔
난 다.
하 셨
영화 라
▁연 결
▁좋았 는데
▁최악 

▁명작 이
▁아이 들
▁발 전
▁결말 도
▁결말 은
▁새 벽
▁니 콜
▁둘 다
▁아버 지
▁쓰래 기
▁ 닥
▁ 싱
▁ 좌
▁ 체
▁ 밋밋
리 

물 

식 을
여 운
이 션
하 구
▁이 따위
▁보 인
▁무 언가
▁생 생
▁느 와르
▁불 구하고
▁살 다
▁느낌 을
▁단 연
아니 라
▁베 스트
▁정신 병
▁ 푹
▁ 쵝오
괜 찮
되 었
음 을
작 이
한 다고
▁영화 !!

▁나 은
▁다 니
▁하 이
▁어 머니
▁스 포
▁대 표
▁일 반
▁고 등
▁고 통
▁좀 더
▁바 뀌
▁때 문
▁지금 은
▁드 립
00 7
▁느끼 는
아까 워
▁ 닮
나 와
느 라
두 고
봤 다
성 에
이 

하 네요.
▁나 옴
▁남 겨
▁10 분
▁웃 겼
▁성 인
▁몰입 해서
▁남자 가
장면 이
▁배우들 도
▁출연 진
▁죄 다
▁묘 사
▁ 잭
거 리는
걸 까
나 도
아 가
용 

자 고
준 다

피 소
함 ..
▁보 니까
▁연기 자
▁아니 다

▁봤는데 ...
▁올 라
▁여기 서
v er
▁ ᅮ
▁ 폴
답 답
더 군요
로 우
봣 는데
사 의
▁한 데
▁시 걸
▁안 돼
▁스 스로
▁우 주
이다 ...
▁발 로
▁아까 웠
▁현실 적인
▁과 장
▁외 계
▁0점 은
▁헐리 웃
i e
▁ e
▁ ᄋ
▁ 냉
감 도
고 .
캐 스팅
하 려고
▁아 류
으로 써
▁재밌 다.
▁인 도
▁같 아서
▁재미없 다.
▁로 그인
▁슬 퍼
▁아직 까지
▁떨어 진
▁떠 나서
▁작가 가
▁시대 를
▁단순 한
▁견 자단
a t
▁ 뽑
▁ 앤
나 보
셔 서
소 설
이 냐
죠 .
▁재밌 음

▁전 반
▁생각 없이
▁영 국
▁상 업
▁처 럼
▁이거 보고
▁분 들
▁모든 게
▁무엇 을
자체 가
in g
스릴 러
▁ 빡
▁ 찝찝
★ ★
계 의
도 안
수 없는
영 이
함 에
▁영화 보는
▁아 들
▁생각 나
▁하는 거
▁와 우
▁집 에서
더라 

▁레 전
▁뒤 로
▁러 닝타임
▁옛날 에
▁흔 한
▁벌 써
▁good 

▁ 떡
노 래
만 드
봄 

인 트
임 ?
▁없 지만
▁연 속
▁지 켜
▁시 각
▁안 보고
▁연기 ,
▁이런 영화가
▁볼 수있
▁명 품
▁작품 을
▁좋았 다.

▁단 지
▁누 구나
▁뻔 하고
▁외 모
주고 싶
▁재밌었 어요
내용 도
▁은 근
▁슬프 고
▁전문 가
▁즐겁 게
B S
▁ h
▁ 줌
▁ 흉
과 의
나 옴
먹 는
이 리
▁주 변
▁않 아
▁기대 안하고
▁1점 

▁위 대한
▁느낌 .
▁발 견
▁않는 다.
▁5 점
▁청 소년
▁빠져 들
▁ !!

가 락
된 다.
듯 ..

러 디
로 도
받 는
부 족
씬 은
양 이
처 구니
▁보 길
▁가 져
▁기 독교
▁무 비
▁들 었
▁에 휴
▁망 쳐
▁속 에
▁놀 랐
▁느껴 진
리스 마
▁ 섞
이 스
젠 장
영화 인데
▁한 다.
▁시 트콤
▁1 8
▁공 부
▁반 복
보고 있
▁싶 어
▁싶 다

▁아이 돌
배우 들의
을까 ?

▁갈 등
▁믿 을
▁잔잔 하고
▁대사 가
▁웃기 고
~~~~ ~~~~
▁초반 에
▁유쾌 하고
▁맨 날
▁탄탄 한
▁김기 덕
▁ 쥐
▁ 쩐
소 리가
시 에
시 작
언 니
였 는데
인 들
죠 

▁없 다는
▁한 참
▁1 3
▁말 았
▁만들 고
▁시간 가는
▁특 수
▁특 이
▁일본 영화
▁인생 의
▁찍 었
시키 는
▁마이 클
* 

ᄃ 

▁ 콜
▁ 쿠
▁ 타임
물 을
미 가
불 어
석 이
장 난
주 세요
호 가
▁다 양
▁있 어야
▁봤 다

▁같 다
▁같 았
▁볼 게
▁결 과
▁음악 과
지마 라
▁문 화
▁편 견
▁치 밀
ᄃᄃ 

▁국 내
▁움 직
1 2
▁ f
▁ 척
간 의
당 한
되 서
따 구
아 프
애 들
어 .
였 다.
와 의
제 작
지 어
하 려
했 음

▁영화 입니다
네요 ...

▁여 행
▁제 로
▁생각 하고
▁미 모
▁보고 나면
▁봤는데 ,
▁관 심
하다 니
하다 ..

▁모르겠 다.
더라 면
▁찍 어
▁아쉬 웠
▁그렇 다고
▁떠 오
▁"""" """
▁꿈 을
▁찌 질
▁유명 한
▁검 색
▁멍청 한
l l
▁ 센
계 속
나 이
날 때
다 만
설 정
차 라리
키 는
하 진
.. 그
▁아 나
▁아 줌마
▁없 음.
▁있 으면
▁대 부분
▁무 척
▁고 마
▁해 리
▁불 러
▁코 난
▁로 봇
스러 웠
▁인상 적이
▁잔인 한
▁끌 어
▁즐거 운
▁덕 분에
▁독립 영화
o v
▁ [
▁ 컴
봤 던
야 말로
우 고
을 것
이 에요
트 맨
▁내 려
▁기 술
▁주 고싶
▁우 와
▁사랑 의
▁되 고
▁노 답
▁3 D
▁에 피소
▁달 달
▁따뜻 해지는
▁의외 로
▁뭉 클
1 00
▁ 낳
▁ 업
▁ 007
가 지고
씨 의
으 니까
정 한
쳐 서
편 은
하 세요
▁아 역
▁좋 게
▁말 하는
▁왜 케
▁싶 다.
▁나오 면
▁아깝 지
▁슬 펐
시간 에
▁매력 적이
▁새 롭
▁표현 한
▁히 어로
b s
▁ ᄀ
▁ 콘
기 분
성 은
이 네

짱 

▁안 됨
▁기 가
▁봤 더니
▁인 내
▁자 살
▁본 거
▁일 이
▁비 현실
하다 ...
▁동 안
이다 ..

다니 ...
▁짱 

▁경 험
▁긴장감 도
▁복 잡
▁보세요 

▁섹 스
▁이후 로
▁틀 어
▁봣 는데
-_- 

▁짝 퉁
▁초등 학생
o m
로 만
몰 입
불 가
사 수
용 으로
장 에서
.. 이
▁어 처구니
▁최 강
▁우 정
▁조 선
▁조 합
▁사랑 은
▁거 슬
▁신 파
▁눈 에
▁죽 은
▁세 월
▁필요 없
▁감정 을
▁t he
▁빼 고는
▁암 튼
▁ 썼
관 이
버 트
성 치
요 ~
저 도
테 일
▁그 거
▁없 었던
▁어 휴
▁1 시간
▁만 나
▁않 지만
▁오 바
▁쓰레기 같은
▁되 지
▁극 치
▁장면 에서
▁박 진
▁박 수를
▁남자 의
▁원작 의
▁인간 이
▁7 점대
▁흥미 로운
▁신선 하고
▁민 망
▁손발 이
. 4
▁ ?

갈 수록
것 만
만 을
영 환
한 지
▁어 우
.... ...
▁모 른
▁더 러운
▁많 아
▁작 은
▁좋았 다

▁허 세
"""" """

▁힘 이
▁방 법
재밌 어요
▁연기력 도
▁빼 고
▁레전 드
▁ 탁
▁ ~

듯 .

버 스터
수 없
에 대한
원 작
을 듯

이 로
준 것
체 가
함 은
▁가 면
▁더 불어
▁제 이
▁일 품
▁지루 하게
▁웃 김
▁싶 었
▁바 꿔
▁좋았 어요
▁하나 의
사람 들이
▁카 리스마
▁개연 성이
▁웃음 이
▁직 접
▁겨 울
▁학교 에서
▁ 갠
▁ 멘
▁ 뱀
▁ 탐
▁ 픽
상 황
어 지
였 다.

적 은
▁최고 다

~~ ~~

▁생각 하는
▁본 다면
▁끝 났
▁완전 히
▁좋았 으나
▁김 민
▁설 마
▁데 이
ᄍᄍ 

▁의미 를
▁무서 웠
구만 

ᅲᅲᅲᅲ ᅲᅲᅲᅲ
▁역대 급
▁그다 지
▁챙 겨
V D
나 ...
문 제
받 은
비 디오
세 상
임 을
주 기도
▁영화 들
▁정 의
▁다 룬
▁어 지
▁가 벼
▁재밌 다고
▁못 생
▁기대 했는데
▁아이 가
▁높 아
▁게 다가
▁한번 쯤
▁교 육
▁삶 에
▁이유 를
▁범 인
▁빌 려
▁누군 가
▁다큐멘 터리
▁스크 린
2 0
▁ ^
▁ p
▁ 꽝
▁ 학생
감 은
거 면
그 대로
나 .
동 생
레 딧
살 다
성 의
요 ...
음 이
▁모 를
▁평점 보고
▁미 드
▁비 판
▁포 르노
▁졸작 

▁지나 치게
▁뛰어 넘
▁이쁘 고
z z
▁ 봅
▁ 웨
긴 한데
끝 까지
아 라
아 직
요 일
있 다
좋 아요
주 가
지 ,
▁보 긴
▁보 며
▁재미 잇
지만 ...
▁봤 을
▁여 태
보다 도
▁끝 이
▁영 혼
▁좋아 해서
▁화 끈
배우 가
▁게 이
더라 구요
▁떨어 지
▁패 러디
!!!!!!!! !!!!!!!!
▁깜 짝
▁잊혀 지지
1 1
5 년
ᄍ 

▁ 엠
▁ 엽
▁ 옆
가 슴
야 지
운 드
하 던데
▁이 끌
▁이 용
▁지 겨
▁진짜 

▁않 다.

▁더 럽
▁아니 었
ᅲᅲ ᅲ

▁사람 들의
▁조 용
▁도 전
▁죽 을
▁모르 게
▁당 연
▁아까 울
▁빠 진
▁영화였 다.
▁먹 고
내용 이
▁싶은 데
♥♥ 

아깝 다

▁커 플
▁투 자
▁전설 의
▁ l
▁ 콩
냐 고
루 스
명 을
부 작
시 즌
아 쉽
요 즘
정 은
제 발
함 의
▁봤 을때
▁주 성치
들이 랑
▁감동 의
▁해 결
▁사랑 이야기
▁반 개도
▁죽 이고
▁이해 하기
▁우리 의
▁전개 도
▁몇 몇
▁모르겠 다
▁달 라
▁없었 다.
▁타 이
학교 때
▁시즌 2
▁착 한
▁ 튀
▁ 팀
냄 새
는 건
니 깐
들 .
듯 ...
로 써
배 경
버 리는
비 가
솔 직
슬 프
시 다
신 은
우 기
음 ...

▁영화 !!
▁이 정
▁아 닙
▁재미 와
▁재밌 어요

▁대 해서
▁봤 습니다.

▁못 해
▁좋아 하는데
▁한국 영화는
▁김 수
▁관 한
▁따 로
▁울 고
▁가슴 에
▁ᄒᄒ ᄒ
▁모두 가
▁레 알
▁잠 깐
이야 

▁ 봉
▁ 쏘
▁ 탑
▁ 젠장
냐 ..
대 를
라 인
물 이
삭 제
아 무
야 ?
억 지
이 기
이 다..
임 스
출 연
토 록
회 가
▁영화 ~

▁영화 네요.
▁아 기
▁봤 네요
▁개 막장
▁인 기
▁볼 거리
▁영 어
▁내가 본
▁기대 했
▁넘 치는
▁세 련
▁이야기 .
▁보여 줬
사람 들은
다니 

구나 .
감독 의
▁국 가
▁괜찮은 데
▁무섭 지도
▁진부 하고
▁그녀 의
a r
▁ 빅
▁ 쏟
▁ !!
겨 진
러 워
머 리
받 고
받 았
뻔 한
식 의
자 들이
▁이 럴
▁보 려고
▁감 흥
▁1 ,2
▁스 파이
.... ...

▁대 중
▁스토리 

▁미 쳤
다는 걸
▁많 았
▁공 짜
▁재미없 음

▁참 으로
▁작품 .

▁짜 임
▁점 수가
▁8 점대
▁올 려
▁담 아
▁앞 으로도
▁웃기 지도
▁변 태
좋아 하는
▁왠 만하면
그래 서
▁똑 같은
▁필 름
▁응 원
▁ P
▁ 뿌
▁ 옥
▁ 찰
기 다
어 여
인 들이
주 연
포 터
▁이 도
▁재밌 던데
▁말 아먹
▁볼 거
▁뭐 라
ᄒᄒ ᄒ

▁작품 은
▁할 리
▁10점 을
▁우리 는
▁이제 서야
▁그렇 다
▁수작 

▁보지마 세요
???? ????
▁류 승
▁ 됬
▁ 술
려 다가
버 그
시 청
씬 이
요 소
이 래
자 연
▁아 동
▁내 면
▁감 히
▁대 화
▁개 뿔
▁스토리 의
▁액션 영화
▁좋았 을
▁하는 지
연기 력
▁ᄒᄒ ᄒ

▁악 마
▁야 동
▁잊 지
▁알바 들
▁행복 한
▁19 9
▁풍 경
스타 일
▁겨 우
▁D VD
~ !!
▁ k
▁ y
▁ 맹
▁ 줘
감 

구 요.
느 니
라 기
뭔 가
소 녀
얼 굴
없 어서
▁영화 보면서
▁이 민
▁무 리
▁주 말
▁제 시
▁못 하겠
▁남 편
▁지루 함

▁역 겹
▁싶 을
▁신 비
▁할 머니
▁심 하게
00 0
▁정도 의
▁듯 .
▁욕 망
▁캐릭터 가
▁블 록
▁말도 안되는
▁장르 가
▁빈 약
ᄋ 

▁ n
▁ 쩝
까 

더 빙
드 시
만 은
어 라
역 사
우 가
이 러
인 것
임 ..
초 반
후 반
▁아 픈
하고 ..
▁한 다.

▁무 술
ᄏᄏᄏᄏ ᄏ

▁오 로
▁자 주
▁강 력
습니다 ..

▁몇 년
▁긴장감 이
▁왜이 래
▁6 점
▁어린 시절
▁깨 달
▁중요 한
▁한심 한
▁ 끈
▁ 육
는 다
루 즈
본 다
속 의
오 늘
원 의
제 가
했 다고
▁그 건
▁그 당시
▁보 통
... 그
▁다 루
▁하 다
▁어 두
▁최 초
▁만 한
▁인 해
ᅲᅲ ᅲ
▁감동 

▁지루 하다

▁배우 를
▁재미없 게
▁쓰레기 영화

▁싶 다
▁좋았 다
▁하나 

▁죽 이는
을까 

▁원작 이
▁않는 다.

▁모르겠 지만
▁받 을
▁느껴 졌
▁세상 을
▁답답 한
▁기다 려
▁감명 깊
▁깨닫 게
▁ ;;
▁ 놓고
관 람
굿 

된 다

드 로
신 분
애 가
얘 기
어 떻게
은 거
▁안 볼
▁기 발
▁살 고
▁살 려
▁멋 져
▁위 해서
▁아까 움

▁설 득
보는 내내
이었 다.
▁수준 의
장면 은
▁떠 올
▁노래 도
▁관객 을
▁개연 성도
▁훈훈 한
▁죽는 줄
▁영원 히
▁막판 에
▁ 됩
▁ 옷
개 인
님 들
력 을
리 카
뿐 

사 이
없 다.

있 어
있 었
점 

▁이 소
▁아 내
▁좋 지만
▁좋 네요
▁사 진
▁전 율
▁수 고
▁생각 하면
▁지루 했
▁작 위
▁분 들은
▁만든 거
▁보여 주고
▁방 영
만들 었
▁자신 을
▁자신 이
▁낚 시
▁문제 가
마지막 에
,. ,.
ᅳ 

▁ 깎
▁ 를
▁ 엿
▁ 칭
▁ 효과
는 대
다 큐
모 든
스 

야 할
인 과
줌 

티 브
해 졌
▁보 다는
▁있 었는데
▁지 났
하는 건
▁오 빠
▁생각 나서
▁미 스터
▁장 애
▁우 려
▁바 꾸
OO O
▁위 로
▁동 성애
▁단 편
▁몰입 감
▁않는 다

▁올 리
▁달 리
▁디 테일
▁분위 기가
▁둘 이
▁비디오 로
▁가치 가
▁못보 겠
▁시간가는 줄
▁ 앉
▁ ;;

그 리
는 가
다 음
된 다.

어 린
있 다.
취 향
하 라
해 라

영화 ..

▁하 늘
▁없 는데
▁있 던
▁대 놓고
▁모 험
▁이런 영화를
▁인 디
▁것 이다.

▁해 석
▁잔 뜩
이었 다.

▁만들어 도
▁추천 

▁등 등
건가 ?
▁테 러
군 요

기 지
기 에는
놈 들
린 다
부 를
세 포
유 .
장 을
▁아 예
하고 자
▁대 본
▁연기 잘
▁여 름
▁제 외
▁유 지
▁비 하면
▁드라마 .

▁2 1
▁조 니
▁만들 면
▁다시 는
▁도 망
배우 들이
▁와 ..
▁현실 성
인가 

▁속 에서
▁듯 .

▁억지 스러운
▁영화였 다.

▁야 구
▁아쉬 움
만큼 은
▁의미 가
▁추억 이
▁M 창
▁안타까 운
e n
▁ 씹
▁ 홀
건 만
겠 다는
내 요
냐 ??
대 단
드 를
드 리
미 네
복 을
볼 만
없 음

이 들
있 는데
절 대
형 래
▁영화 인듯
▁배 역
▁비 밀
▁결 정
▁상 관
▁돈 을
▁연출 과
▁심 오
▁높 게
▁노래 가
▁클 레
▁여러 가지
▁색 다른
▁늘 어
▁소중 한
▁짜임 새
▁ L
▁ 낙
▁ 묵
긴 장
나 니
냐 .
된 다
때 문
리 다
멘 타
모 두
무 지
번 은
세 기
신 을
아 ..
연 이
있 어서
장 한
종 일
영화 다
▁보 자
▁다 이
▁정말 이지
하는 것
▁남 은
▁뭐 하나
▁조 작
▁애 들은
▁거 기에
▁기대 이상
▁좋았 지만
▁하나 같이
▁할 말이
▁에 이
▁결말 을
▁반전 은
▁매력 을
▁가슴 을
더라 .
▁극장 가서
▁아름다 움
▁새 끼
▁여운 을
생각 없이
▁야 한
▁그저 그런
▁양 심
▁귀여 워
▁지나 도
▁s f
▁킬링타임용 으로
▁이래 서
▁ /
겨 서
그 만
년 의
능 력
로 웠
바 로
빨 리
사 건
생 활
아 는
아 쉬
알 고
통 령
허 접
▁영화 화
▁정 확
▁한 명
▁최 민
네요 ^^

▁안 쓰
▁스 페
▁기 준
▁소 소한
▁부 끄
▁부 실
▁성 격
▁또 다른
▁이야기 는
▁잔 혹
▁와 ...
▁주인공 은
▁선 동
▁남자 주인공
스러 움
▁집 에
▁버 렸
스토리 도
건지 ..
▁둘 째
레이 션
▁굳 

▁최근 에
▁감정이 입
▁연예 인
솔직 히
▁블록 버스터
▁ N
▁ 택
간 다
과 서
다 !!!

듬 

림 .
보 니까
씨 는
았 다

어 디
었 음

▁어 쩜
▁사 고
▁연 극
▁마 세요
▁잘 어울
▁최고 로
▁제 임스
▁생각 한다.
▁일 깨
▁결 코
▁충 실
▁많은 데
▁5 분
▁ᄏᄏᄏᄏ ᄏ
▁아쉽 다

▁막장 드라마
▁무엇 인지
▁길 게
▁오래 된
▁먼 가
▁나쁘 지
▁스트 레스
▁ 됨
나 봐
니 

님 은
던 지
들 ..
리 로
스 크
았 는데
어 리
오 래
제 로
▁아 래
▁정 체
▁감 각
▁무 한
ᄏᄏᄏᄏ ᄏ
▁스토리 .
▁재미있 다
▁10 대
▁사랑 스럽
▁이해 안
연기 는
하다 ...

▁잼 나게
▁적 당히
▁열 정
▁데 리고
▁소름 이
▁느낄 수
▁참신 한
▁본방 사수
v d
▁ =
▁ 낭
▁ 넌
▁ 떨
▁ 틈
▁ ....

구 성
나 와서
니 퍼
되 면
르 게
매 력
이 쁘
이 영화
인 도
조 금
후 의
▁아 ~
▁그 만큼
... 정말
▁봤 다.

▁생 활
▁주 기도
▁못 봐
▁지루 하다.
▁한국 의
▁10점 이
▁느낌 의
▁명작 을
▁구 성이
▁잼 잇
▁망 한
▁치 고
▁준 다.

▁집중 해서
▁탄 생
▁시즌 1
▁크리스 마스
▁식상 한
파이 어
▁다운받 아
아버 지
▁ 댄
▁ 몬
▁ 샘
강 호
개 그
거 라
겟 다
묘 한
서 는
아 름
준 다
추 기
팩 트
피 스
▁그 자체
▁시 키
▁안 습
▁재밌 네
▁재밌 을
▁수 많은
▁생각 했는데
들이 나
▁본 게
▁봐 줄
▁좋아 요

▁바 랍
▁넘 게
▁한국 인
▁했 으면
▁하는 게
▁아무 런
▁낮 게
▁언 니
▁7 0년대
▁ᄏᄏᄏᄏ ᄏ

▁손 에
만들 어
▁아쉽 다.

▁살아 가는
▁무서 워
▁빼 면
부분 이
▁책 을
▁몰입도 가
▁돌아 가
전개 가
▁읽 어
미네 이터
i t
▁ 줍
▁ 첩
기 전에
동 차
부 가
였 다
였 음
좋 다
커 플
티 즌
퓨 터
▁영화 이
▁영화 입니다

▁이 것이
▁좋 음
▁1 위
▁가 지
▁재밌 다.

▁마 라
▁잘 하고
▁주 기
▁않 다.
▁못 했
▁볼 때
▁조 절
▁조 카
▁명 화
▁웃 고
▁살 린
▁살 면서
▁봤는데 도
▁여자 의
▁이상 하게
▁보기 에는
▁영상 이
▁집 착
▁연기력 은
▁질 리지
▁담 배
▁시리즈 중
▁없었 다.

▁부분 도
▁b 급
▁ᅲ .
▁실제 로
▁여주 가
▁볼수 있는
▁핵 노잼
▁다양 한
▁ F
▁ 뽕
▁ 쥬
▁ 휘
국 영
니 ?
도 대체
라 의
만 다
바 이
빼 고
셈 

신 의
아 나
윤 발
점 도
치 가
▁다 를
▁기 자
▁생 긴
어요 !
▁자 식
▁감동 은
▁영 향
▁거 부
▁마지막 까지
▁로 버트
▁꼭 보
▁망 친
▁짜증 만
▁있었 다.
▁호 구
▁자체 는
▁시리즈 는
▁앞 뒤
▁보세요 .
▁꽤 나
▁주제 를
▁약간 의
▁엉성 하고
▁2편 은
▁교훈 을
▁소설 을
년도 에
▁플 롯
▁놀라 운
▁특수 효과
▁ K
로 드
린 다.
문 화
분 한
빠 진
싸 움
아 빠
어 ..
이 걸
자 들의
죽 는
짱 짱
치 곤
영화 임
▁없 네
▁사 투
▁있 구나
▁안 에
▁최고 !
▁않 아서
▁생각 으로
▁유 아
▁쓰 는
▁많 고
▁애 기
인데 ,
인데 ..
▁위 험
▁심 지어
이다 ...

▁장면 도
▁여자 친구
▁서 부
▁4 0
▁교 과서
▁만들었 는지
▁친구 가
▁답답 하고
▁포스터 가
▁0점 이
▁b e
▁갖 고
▁짧 은
지도않 고
▁특별 한
▁끔 찍
▁거짓 말
ᄀ 

▁ X
▁ 객
개 는
관 객
누 나
래 곤
뢰 매
리 며
버 려
봤 어요
선 을
속 으로
스 포
시 오
어 용
여 행
이 도
있 다

잡 고
치 노
트 의
하 길
할 까
혼 자
▁영화 와
▁영화 인지
▁하 다가
▁좋 음

으로 는
▁가 르
▁무 료
▁배우 들은
▁반 드시
▁매 일
▁죽 인
▁처음 에는
▁나오 지
▁짜 집
▁원작 에
▁있었 지만
▁한번 도
▁20 분
▁역사 를
▁강추 

▁어느 정도
▁첫 사랑
나요 ?

▁혹 은
▁어울 리는
▁시청률 이
▁한편 의
▁에피소 드
▁가벼 운
▁일깨 워
( 웃음
▁ 벤
거 든
덕 화
로 의
리 면
박 한
심 으로
웃 기
이 어
정 의
주 면
▁그 야말로
▁정 작
▁한 숨
네요 ~

▁안 가
▁무 게
▁주 윤발
▁평점 조
▁비 행
▁감독 을
▁때 려
▁멋 졌
▁여자 주인공
▁소재 도
▁짜증 나서
스러 워
▁손 색
감독 님
최고 

▁오랜 만
▁출연 한
▁작가 님
아까 움
▁아름답 게
▁보지 말
▁당신 은
▁예쁘 고
▁짝 이
▁묻 어
▁말하고 자
▁태어 나서
▁스티 븐
▁살다 살다
~ ^^

▁ u
▁ 린
▁ 혐
▁ 합니다.
겠 네
기 까지
나 ..

도 를
듯 ...

봤 지만
상 수
시 면
싶 은
악 한
았 다.

애 들이
여 주
였 다

일 을
작 .
장 르
지 말고
프 닝
함 ,
후 회
영화 !

▁다 크
▁내 게
▁드라마 ..
▁저 급
▁할 수
▁처음 에
인데 도
!!!! !

▁당 황
▁당 연히
▁이상 의
▁많은 걸
▁모르겠 고
▁아름다 웠
▁받 는
▁준 다

▁나름 대로
▁타 고
▁형 사
▁20 대
▁첨 엔
▁러 시아
▁이딴 걸
▁브 루스
▁o f
▁듣 고
▁끼 워
▁희망 을
▁쓸데 없이
▁일부 러
▁해리 포터
2 점
▁ 록
▁ 팍
▁ 혀
▁ 효
▁ 줘야
나 ,
나 의
대 해
보 영
부 는
스 에
점 에서
정 우
했 을때
형 님
▁이 야
▁이 따구
▁나 랑
▁있 지
▁한 다
▁한 다

▁안 될
▁재밌 다는
▁진짜 ..
▁수 입
▁잘 하는
▁배 트맨
▁생각 할
▁남 기
▁본 지
▁내용 과
▁10 년이
▁재미없 었
▁재미없 어서
입니 다..
▁3 0년
▁추 격
▁했 다.
▁이해 를
▁로 코
▁심 형래
▁음 ...
▁장면 을
▁소재 와
▁영상 과
▁모든 걸
▁근 래
▁파 워
▁담 겨
▁베 드
▁잠 시
▁재미도 없고
▁목 숨
▁1편 은
▁1편 보다
▁엔딩 이
▁충격 적이
▁빵 빵
▁어쩔 수
▁-_- 

▁나머 지
▁유일 하게
u t
▁ ᄇ
▁ 땜에
게 임
게 하는
긴 하지만
니 다..
도 는
또 한
리 와
린 다.

뭐 야
상 의
성 과
스 키
슨 이
쟁 이
정 화
지 현
영화 보다
영화 중에
▁영화 만
▁이 수
▁나 에겐
▁하 길래
▁없 다..
▁있 다고
▁만 남
▁제 니퍼
▁이런 건
▁아니 라고
▁많 아서
▁중 에서
▁배우 는
▁애 국
▁애 매
▁웃 으면서
▁다시 보니
▁시간 만
▁지금 의
에게 는
부터 가
▁여자 들
▁드 림
▁모르겠 다.

▁적 절
스토리 가
▁싸 우는
▁확 인
▁배경 음악
▁꼬 마
▁빵 터
▁ᅳ .ᅳ
▁d vd
▁유일 한
▁내생 에
▁강렬 한
▁y ou
i s
▁ >
▁ 굴
▁ 컬
▁ 으로
♡ ♡
냐 ...
레 인
면 에서
미 는
아 요

자 .

▁영화 ....

▁이 은
▁보 던
▁정 우
▁너무 도
▁감 안
▁재밌 어서
▁무 너
드라마 

▁자 세
▁같 습니다.
▁뭐 지?
▁보는 거
▁다시 보고싶
▁신 의
▁실 력
▁살 렸
▁액션 ,
▁극 단
▁잼 없
▁울 리는
하나 도
▁머 리가
▁받 은
▁언 젠
▁5 0
▁아쉬 움이
▁1편 이
♥♥ ♥♥
▁흐 르는
▁엄마 가
▁으 리
▁착 각
▁같아 요.
▁돋보 이는
▁헤 어
▁케이블 에서
▁새벽 에
▁이소 룡
1 9
3 년
l e
공 감
관 에서
난 다.

느 껴
때 매
보 았
부 로
선 생
쓰 고
아 치
아 저씨
으 려고
이 프
자 나
전 을
추 억
포 스터
함 도
해 지고
화 이팅
▁그 것도
는데 도
▁하 여
▁어 째
으로 만
▁대 통령
▁진짜 로
▁오 브
▁생각 도
▁별 반
▁뭐 하자
▁고 맙
▁재미없 다..
▁싶 지
▁난 잡
▁하나 로
▁김 혜
▁강 한
▁위 대
▁동 양
▁화 장
▁반전 을
▁맞 춰
▁모르겠 다

▁제목 만
▁디 워
▁따뜻 하고
▁C 급
▁점수 는
▁팬 이
▁주제 가
▁숨 겨진
▁실화 를
▁초딩 때
▁잘못 된
모르 겠
▁두번 째
▁흑 인
최악 의
▁잊혀 지
▁폐 지
▁영환 데
▁할리 우드
▁조니 뎁
' 

▁ ᄅ
▁ 덤
것 같은
드 만
민 이
시 나리오
언 제
이 든
잼 

진 이
차 별
하 

한 듯
했 음.
▁아 들이
▁재 능
▁다 섯
▁1 인
▁마 약
▁주 지
▁개 노잼
▁이런 영화는
▁재미있 음
▁사람 도
▁예 능
▁한국 에서
▁연출 은
▁두 려
▁아이 들과
▁여자 는
재미 도
▁마음 으로
▁일본 의
▁현실 이
▁과 학
▁보기 에
스럽 다.
▁열 받
▁싸 움
▁그렇 지
▁언제 봐도
시길 

▁클 래
▁여러 번
▁집중 이
▁단순 히
▁불편 한
▁부모 님
▁클레 멘타
. 0
. 1
▁ 떼
▁ 링
▁ 염
▁ 킹
간 다.
느 끼
다 ~

랜 드
모 로
분 위
웃 김
으 려
인 건
일 의
잇 는
전 이
죠 ..
중 반
중 이
지 면
테 러
팔 이
함 ...
▁이 병
▁없 게
▁사 용
▁재미 로
▁있 음
▁안 봐도
▁봤 다면
▁생 겼
▁배 급
▁남 긴
▁쓰 고
▁중 독
▁배우 도
▁뭐 니
?? ??

▁실 험
▁1점 은
▁멋 있는
▁이해 할수
▁로 빈
▁서 양
▁현실 적이
▁빠 른
하지만 ,
스럽 지
▁인생 에
▁ᅳᅳ ;

▁편 안
▁떨어 지고
▁희 대의
▁터 미네이터
재미있 게
▁있을까 ?
▁다르 게
▁익 숙
▁혹시 나
▁컴 퓨터
▁ R
▁ 갓
▁ 숙
살 인
아 ...
오 브
이 여
잡 을
적 

조 연
주 기
판 이
▁이 보다
▁이 뻐서
▁이 토록
▁아 놀
▁그 동안
▁정 보
▁하 하하
▁좋 다고
▁없 네요
▁너무 재밌
▁있 겠
▁최고 봉
▁않 을까
▁개 념
▁인 형
▁배 신
▁유 발
▁중 2
▁부 르
▁저 평가
▁재미없 어요
▁시간 에
라는 게
▁멋 지고
▁따 위
▁기억 나는
습니다 ...
▁일본 은
▁매력 있
▁높 아서
▁새 로
▁봐도 봐도
▁없었 다

▁판 단
▁여러 분
▁빵 점
하지않 고
▁어설프 고
▁안맞 는
a s
▁ 땡
▁ 옹
간 에
개 가
미 국
보 내
불 허
스 케
식 은
어 색
으 신
이 름
자 로
즈 의
직 한
쯧 쯧
했 었는데
희 가
▁영화 자체
▁이 드라마
▁보 내
▁하 시
▁하 다.

▁좋 네요

▁사 운드
▁진 리
▁한 방
▁안 들
▁1 1
▁대 가
▁개 성
▁자 랑
▁소 피
▁드라마 에
;; ;;

▁매 니아
▁10점 준
▁두 근
▁들 고
▁망 치
건지 ...
내용 은
▁네 티즌
으나 ,
▁6 점대
▁전쟁 의
▁찾아 볼
▁궁금 해서
▁영상미 가
▁여주인공 이
▁어른 이
▁ᄋᄋ 

▁메이 드
ov ie
7 년
▁ 벨
▁ 붕
▁ 헌
▁ 혁
는 다

더 더
말 도
물 로
버 릴
버 림
사 와
어 가는
엄 청
자 .
자 면
자 와
줄 은
줄 이야
티 노
하 균
하 거나
▁재 개봉
▁하 품
▁어 든
▁1 4
▁재밌 습니다
▁기 타
▁대 신
▁최고 .
▁최고 !!

▁않 고,
▁아니 야
▁2 번
▁재미없 다고
▁반 담
▁거 북
▁마지막 이
▁하나 .
▁한국 영화의
▁분 들이
▁느낌 은
배우 의
▁망 가
구나 ..
▁짜증 이
▁프 레
▁영화였 습니다.

▁대박 

▁달 려
▁즐 겨
▁담 은
▁봐야 하는
▁형 님
▁만화 책
▁사실 을
▁폭 발
▁폭 풍
▁흑 백
▁밀 려
▁루 즈
▁탈 출
▁겉 멋
▁마이너 스
▁어우 러
▁ 땅
▁ 뚱
▁ 엔
▁ 햇
군 .

기 법
도 의
들 ,
들 .

딩 때
리 한
마 자
보 긴
보 이는
사 에
성 우
스 ,
시 원
어 의
었 을
이 고,
있 네

할 게
.. ?
▁이 성
▁나 레이션
▁없 음.

▁어 리
▁사 상
▁사 이코
▁한 거
▁안 나온
▁정말 ..
▁가 고
▁봤 습니다

▁평 소
▁부 럽
▁기대 없이
▁액션 을
▁극 복
▁관 련
▁공포 물
▁현실 과
▁힘 내
▁이상 하고
▁스릴 도
▁짜증 나고
▁정도 면
이었 던
▁인간 은
▁적 어도
▁열 연
▁된 다.
▁잔잔 하게
▁잠 이
▁느껴 지
▁케 릭터
것같 아요
▁각 색
▁양 아치
▁시나리오 가
▁환 경
▁꿈 꾸
▁얼굴 이
▁맛 이
▁압 도
▁즐거 웠
▁빛 을
▁소중 함을
극장 에서
▁G ood
▁결론 은
▁컨 셉
. 3
가 면
귀 여
데 이
들 끼리
받 을
봤 다.
살 아
서 도
엇 는데
인 지도
장 의
점 수
제 대로
죠 .

편 을
하 디
하 러
해 선
했 습니다.
형 제
.. 진짜
영화 다

▁아 우
▁만 약
▁봤 어요.
▁평 균
▁무 겁
▁오 프닝
▁자 본
▁못 미
▁본 건데
▁유 행
▁우 뢰매
▁부 담
▁부 부
▁내용 인지
▁10 0점
▁만들 어서
▁명 복을
▁명 불허
▁바 다
▁없는 게
▁있는 지
▁로 드
▁명작 은
▁잼 나
▁박 수
이었 다

▁집 어
▁파 괴
▁외 로
▁공감 할
▁달 콤
▁가족 이
▁목 소리가
▁왜이 러
▁유쾌 하게
;;;; ;;;;
▁믿고 보는
▁리얼 리티
▁자극 적인
▁가득 한
▁라이 언
▁후속 작
▁쓸데 없는
ad 

▁오랫 만에
▁뱀 파이어
▁공짜 로
. ᄏ
C G
▁ 꿀
▁ 칠
▁ 들이
갈 때
군 .
년 전에
니 ?

들 한테
라 노
란 티노
린 다

마 이
무 시
분 은
불 쌍
시 가
아 무리
임 에도
잘 봤
적 으론
짐 .
한 마디
영화 ,
▁영화 네요

▁영화 인줄
▁이 렇
▁이 준
▁다 보고
▁없 으면
▁없 다고
▁어 떨
▁한 다는
▁안 어울
어요 ~

▁자 동차
▁유 럽
▁장 동
▁장 국영
▁재미있 다

▁명 장면
▁거 품
▁원 조
▁3 번
▁할 까
▁추 리
▁김 지
▁김 치
▁모르 겟
▁동 시에
▁서 울
▁과 대
▁매력 에
▁선 물
▁낮 아
▁인생 이
나오 고
▁호 기
감독 은
▁개봉 한
▁삶 이
▁담 백
▁잊 을수
할수 있
▁세상 이
▁이름 이
▁살인 마
▁알겠 는데
▁내생 애
▁늦 게
▁가까 운
▁흡 입
▁인터 넷
▁제이 슨
▁못봐 주
1 5
c k
ᅲ .
▁ 듭
▁ 품
▁ ~~
구 가
든 지
들 ...
따 뜻
라 ...
범 죄
비 슷
상 영
성 기
소 름
스 와
여 진
인 들의
장 애
존 나
준 호
중 에서
해 주고
▁아 파
▁그 것을
▁다 세포
▁한 개도
▁최 소
▁만 난
▁마 무
▁생 에
▁왜 곡
까지 도
▁일 베
▁드라마 의
▁부 정
▁내용 의
▁역 량
ᄒᄒ ᄒᄒ
▁매 미
▁액션 과
▁좋았 을텐데
▁최악 이다
▁10점 만점
▁아깝 고
연기 를
▁명작 이다
▁아닌 듯
00 00
▁소재 의
스럽 다

스럽 다.

▁전개 와
지않 았
▁프 리
▁파 격
▁케 빈
것같 다
▁미국 의
▁당시 에
▁책 임
▁포스터 만
▁설정 이
▁낫 다

▁불쌍 한
▁걸작 

▁흔 들
▁허술 한
▁ᄃᄃ 

▁짐 캐
▁잘생 겼
▁전반 적으로
개인 적으로
▁ 널
▁ 냄새
끝 나
높 은
데 체
라 에
래 도
리 엄
맞 는
먹 은
상 은
스 톤
어 ...
였 지만
였 으면
오 오
위 원
인 게
좋 겠
준 거
중 훈
할 만한
함 ..

▁아 진짜
▁그 것이
▁나 무
▁나 이가
▁다 신
▁하 며
▁하 지마
.... ....

▁기 존
▁최고 다.
▁이런 류의
▁자 기가
ᅲᅲ ᅲᅲ

▁볼 려고
▁지루 하다.

▁부 탁
▁사람 들에게
▁사람 이라면
▁끝 날때
▁재미없 네
▁불 안
▁불 가능
▁의 리
▁때 마다
▁10점 주는
▁돈 내고
▁아무 생각없이
▁보기 싫
▁만들어 낸
▁찾 는
▁먹 는
▁가족 의
▁제목 을
▁친구 랑
▁시청 자
▁어색 하고
▁시대 에
▁시대 의
▁민 폐
▁브 래
▁죄 송
▁있을까 ?

................ ................
▁어쩌 면
▁벗 어
▁잘만들 었
▁초등 학교
▁가능 한
여운 이
▁은근 히
▁갠 적으로
▁객 관
▁짜집 기
, 이
? !
o d
▁ V
▁ 년
▁ 웅
▁ 협
▁ !!!

▁ 입니다.
길 

나 름
낮 은
늦 게
더 맨
데 ..
도 아니고
들 로
림 이
못 한
미 스
바 람
법 한
보 지
스 맨
쓰 는
어 이없
우 의
위 한
인 거같
저 리
쥬 얼
질 않
질 질
치 의
코 믹
프 리오
해 줬
.. 정말
▁이 동
▁이 뻐
▁다 있
▁최 소한
▁안 무서
▁정말 ...
▁만 났
▁봤 을까
어요 !

▁말 아야
▁알 수
▁것 에
▁뭐 하는
▁공 간
▁조 화
▁내용 에
▁바 탕
▁도 무지
▁할 때
▁김 태
▁김 희
합니 다..
▁별로 고
▁강 간
▁선 정
▁정도 가
▁대단 하다
▁즐 기
▁즐 길
▁재밌었 음
▁아쉽 지만
▁담 긴
▁천 국
▁시작 부터
라이 언
▁왠 만한
▁암 걸
▁갖 다
▁이것 보단
아닌 가
▁100 %
▁블랙 코미디
▁하나하나 가
▁보시 면
▁역겨 운
▁스포 츠
▁외계 인
▁콜 린
▁탁 월
▁첩 보
o w
▁ 액
▁ 탓
▁ 에서
▁ 드라
같 고
같 음
나 간
나 ...

남 기
노 답
다 !!
둥 이
드 려
라 ..
렸 다
못 해
보 구
슨 의
시 다

신 고

어 버린
웨 이
유 리
의 를
전 의
좋 게
주 일
킬 링
하 니까
하 냐?
하 네요.

함 께
▁영화 일
▁영화 임

▁보 려
▁하 다.
▁좋 앗
▁없 네

▁사 무
▁내 돈
▁진 한
▁안 보는게
▁가 정
▁봤 어요

▁무 난
▁여 친
▁않 다

▁개 나
▁개 똥
드라마 가
▁소 화
▁알 수있
▁일 으
▁우 연
▁만들 다니
▁고 뇌
▁고 독
▁쓰레기 .
▁예 뻐
▁상 징
▁바 란
▁마지막 회
▁죽 이
▁세 번
▁허 허
▁따 분
▁동 네
습니다 !

▁장면 들이
▁요 새
▁주인공 들
▁울 면서
▁유치 해서
▁볼만 함

▁빠 지는
구나 ...
▁인생 은
▁건 지
▁적 절한
▁4 .4
▁억지 감동
▁찾 아서
▁하지만 ,
▁버 려
▁버 린
▁버 리고
아니 면
▁공감 도
기도 하고
▁독 일
생각 이
것같 다

▁작가 의
♥♥ ♥

▁길 이
▁첨 부터
▁배경 이
▁포스터 에
레이 드
▁영화라 니
▁블 루
▁ᄏᄏᄏᄏᄏᄏᄏᄏ ᄏᄏᄏᄏᄏᄏᄏᄏ
▁교훈 도
1점 도
들아 

▁황당 한
▁영원 한
▁뜬금 없는
▁녹 아
▁쏟 아
▁어두 운
▁혐 오
2 년
▁ &
▁ 빙
▁ 털
가 운
감 과
같 아
거 리가
까 지만
는 다.

따 

리 나
모 를
므 로
민 의
분 들은
빠 져
사 실
야 .
어 .

위 에
잖 은
초 에
카 프리오
탈 출
하 더라
함 ...

해 져
▁보 단
▁정 상
▁나 았
너무 너무
▁기 회
▁수 면
▁오 우
▁인 종
▁것 들이
▁것 이다.
▁장 진
▁감독 과
▁감독 도
▁고 양이
▁재미없 다.

▁참 ...
▁웃 었
^^ *

▁예 수
▁다시 보고
▁시간 때
▁시간 아깝
▁싶 었던
적이 지
▁마지막 엔
▁한국 판
정도 가
▁점 이
▁아무 도
▁ᅲᅲ ᅲ

▁반전 에
▁절 망
▁맞 아
▁있었 다.

▁실망 이
▁준 다.
▁알았 다.
▁아쉽 다.
▁조금 은
▁홍 상수
것같 다.
▁보게 된
▁라 스트
▁끌 고
▁읽 고
▁전체 적인
으면서 도
모르 고
▁빛 나는
▁의도 가
▁탄탄 하고
▁헛 웃음
▁몽 환
▁이도 저도
▁류승 범
▁제시 카
▁명불허 전
, 3
. ,
n d
▁ 곱
▁ 님
▁ 밖
▁ 죠
▁ 입니다
▁ 합니다
가 에
가 장
간 만에
같 다
거 에
구 의
굿 굿
그 랬
기 와
꺼 면
니 가
더 군요.
던 거
만 도
무 엇
발 연기
번 에
승 전
신 분들
안 타
애 들은
워 즈
원 은
죠 ?

진 않
질 이
파 치노
프 레
할 수가
.. 너무
▁아 담
▁있 나
▁못 본
▁재미있 다.
▁재미있 는데
▁끝 나서
▁반 대
▁또 보고싶
▁짜 릿
이다 !

▁괜찮 게
▁포 인트
▁드 디어
▁공포 를
▁줄 리
다니 는
▁리 즈
▁가슴 아
스럽 다
재밌 음
▁만들어 주
▁있었 으면
니까 ?
▁9 점대
▁받 고
▁치 는
▁재밋 다
▁캐릭터 들이
▁놀 란
생각 을
▁담 담
▁잊 고
▁잠 들
▁요즘 은
▁앞 에
▁않았 다.
라이 즈
▁보게 되
▁t h
▁빨 갱
▁깨 알
▁인상 적인
▁배경 으로
▁이름 을
▁키 스
▁트 랜
나온 다
▁쓸 쓸
▁아님 

▁엑 소
▁밤 에
▁거지 같은
▁선생 님
b 

o t
▁ x
▁ 뚝
▁ 삭제
고 생
광 고
귀 엽
나 쁜
되 게
리 스트
못 하는
박 죽
보 인
분 의
분 들이
선 택
아 노
오 랜
왔 는데
왕 국
웃 겨
을 수가
적 이라
전 혀
조 현
죽 박죽
지 부
찬 란
치 를
타 지
편 집
했 으나
후 에
희 의
▁영화 인가
▁그 들이
▁보 라고
... ?
▁정 당
▁다 녀
하고 는
▁재밌 었던
▁진짜 ...
▁최고 .

▁오 는
▁배 꼽
▁자 아
▁뭐 고
▁뭐 ..
▁사람 들을
▁끝 도
▁반 영
▁느낌 .

▁심 장
▁드 래곤
▁박 중훈
▁ᅲᅲ ᅲ
▁빠 졌
▁선 사
▁정도 는
▁피 터
▁이제 는
▁질 리
▁무섭 고
▁빼 곤
▁깊 게
▁보았 던
▁빠져 서
▁뛰어 나
▁나올 때
▁티비 로
▁허무 한
해주 세요
▁든 다.
▁창 피
▁진지 하게
▁요소 가
▁풋풋 한
▁아류 작
▁설득 력
▁화장 실
▁이병 헌
/ 

9 년
T V
^ -
d d
▁ r
▁ 폰
▁ 합니다.

가 가
감 사
곳 에
다 르
도 로
로 맨
만 족
맘 에
비 해
유 .

자 ,
자 리
체 적
코 메디
크 레딧
트 를
평 론가
해 본
해 요.
했 다..
했 습니다
▁영화 나
▁영화 속
▁보 낸
▁하 정우
▁무 거운
▁개 콘
▁공 중
▁2 탄
▁10 번
▁끝 에
▁웃 기는
▁기대 가
▁좋았 습니다.
▁있는 거
▁후 에
▁별로 다

▁분 량
▁동 영상
▁음 식
▁아이 언
▁아이 디어
▁단 어
▁절 제
▁만들어 졌
▁추천 하고
▁캐릭터 를
▁베 이
▁변 화
▁좋겠 다.

▁들어 가
▁임 팩트
▁보았 는데
▁암 울
리의 리의
▁생각해 보게
▁적당 한
▁뜬금 없이
▁던 져
지못 할
▁E BS
▁하이 틴
아직 도
0 %
1 년
8 년
e s
▁ 앙
기 .
내 지
더 라고
라 라
맞 은
물 론
물 의
부 의
수 선
아 누
얼 마
었 다는
역 할
였 고
있 다.

지 에
치 도
타 고
패 스
하 루
해 .
▁이 쁨
▁그 들
▁하 도
하고 ...
네요 ^^
▁가 히
▁평 화
▁전 화
▁연기 하는
▁무 간
ᄏᄏᄏᄏ ᄏᄏ

▁말 고는
▁말 그대로
▁비 호
▁드라마 ...
▁부 끄럽
▁고 어
▁예 측
ᄒᄒ ᄒ
▁신 하균
하지 말
▁죽 고
▁했 다.

▁했 더니
▁아깝 다..
▁강 동
▁명작 .
정도 의
▁망 할
▁절 로
▁짜증 나게
▁머 릿
▁필요 없다
▁모습 은
▁않은 데
한테 는
▁시작 해서
▁형 제
▁글 을
▁뒤 에
해야 할
▁언제 까지
▁들어 간
▁보세요 .

▁숨 은
▁2편 이
▁송 강호
▁오글 오글
▁잃 은
시대 에
▁봄 

▁만점 에
▁12 세
a l
i c
▁ 땐
▁ 족
가 를
갔 다
겠 다고
경 이
구 요

그 럼
그 렇게
데 미
됨 .
롭 고
루 토
르 소
말 을
물 .
살 때
석 규
성 한
세 

야 지

었 다고
원 을
잖 아요
힘 들
▁이 종
▁하 ...
▁어 떠
▁있 고,
▁있 다니
▁한 가
▁한 순간
▁시 종일
네요 !
▁기 괴
▁않 음

▁소 개
▁것 만
▁재미있 었는데
▁부 활
▁부 자연
▁뭐 라고
▁2 .2
▁명 대사
▁사랑 하고
▁참 ..
▁싶 어서
▁마지막 장면
인데 ...
▁멋 지게
▁연출 력이
▁따 름
▁에 효
▁이영화 의
▁힘 을
하기 는
▁보기 가
▁맞 추
▁영상 도
▁한번 더
▁엄청 나게
▁개봉 당시
▁표현 할
▁어디 로
내용 인지
▁베 리
▁아쉬 울
▁그렇 지만
▁잠 을
▁시리즈 의
▁황 정
▁임 창
▁혼 란
▁그리 워
▁밑 도
▁아버 지의
▁개그 맨
그러 나
▁돋보 인
▁뮤 직
▁진지 한
▁워 낙
▁시도 는
▁피해 자
** **
▁깔끔 한
▁축 구
▁맡 은
▁감명깊 게
▁칭 찬
B C
▁ 덴
▁ 르
▁ 습
▁ 큐
간 히
감 정
것 

것 에
결 국
네 여

데 

드 워
들 여
매 이션
봤 다

상 에
씨 도
유 발
인 에
잔 인
졸 작
중 국
증 이
지 나
크 루즈
할 거
할 뿐
했 다면
행 복
▁이 별
▁이 승
▁아 만다
▁없 나
▁너무 좋
▁한 시간
▁최고 라고
▁말 투
▁소 통
▁우 디
▁중 학생
▁재미있 음

▁부 산
▁배우 들을
▁끝 을
▁사랑 해요
▁봐 라

▁바 닥
▁불 과
▁난 리
▁넘 넘
▁괜 찬
습니다 ...

▁아이 들의
▁공포 가
▁박 신
▁리 암
▁빠 지
▁맞 지
재밌 는
▁전개 ,
▁전개 는
▁수준 을
▁치 유
▁연기력 에
▁아니라 ,
▁긴장감 을
▁않았 던
▁디 카프리오
▁타 란티노
감동 적이
▁t o
▁역사 에
▁아깝다 !!!

▁왕 조현
▁CG 가
재밋 게
▁당신 이
▁안된 다.
,,,, ,,,,
▁같아 요

▁향 연
▁다운받 아서
▁그려 낸
기억 이
▁소름끼 치는
▁형편 없는
▁격 투
a m
e d
▁ 닿
▁ 섭
경 찰
구 라
나 이트
녀 석
는 다.
답 게
덕 에
로 

발 견
상 태
스 텔
시 기
시 의
신 도
없 네
예 진
위 가
으 러
잔 잔
제 를
지 르
진 다
트 릭
포 인트
해 ..
했 네
▁영화 !!!

▁이 나
▁이 지
▁나 중
▁있 긴
▁있 어요
하고 

▁한 효
▁안 좋아
▁가 짜
▁기 획
▁모 욕
▁알 파치노
▁본 다
▁보고 나니
▁일 을
▁비 쥬얼
▁지루 하기
다는 건
▁재미있 네요
▁다시 금
▁실 감
▁원 숭
인데 

습니다 !
▁아이 들에게
정도 는
▁만든 영화
▁그런 거
▁졸 리
▁졸 업
하나 하나
하기 에
▁절 정
▁억 울
▁건 질
▁극장 에
▁영화였 다

▁영화였 습니다.
▁캐릭터 도
▁호 불
주인공 이
▁어디 에
▁잼있 어요
▁삶 과
것같 아
▁미국 식
▁킬 러
▁뒤 죽박죽
▁살아 있
▁무엇 인가
▁장난 아니
고싶 은
거같 아요
하네 ..
▁스타 워즈
▁왠 만
▁영화라 서
▁더빙 이
▁여러 모로
▁보지마 라
▁묘 한
▁TV 에서
▁능 가
▁흘러 가는
▁비추 

▁미스 캐스팅
▁밝 혀
▁엘 리
▁고등 학교
▁엽 기
▁아기 자기
▁오로 지
▁시종일 관
a y
t t
ᅳ .ᅳ
▁ 획
▁ 힌
▁ 다

▁ !!!
가 의
감 .
같 아서
관 을
기 위해
네 ?
로 그
롭 게
먹 을
미 

미 의
미 친
봤 음
비 에
새 록
스 틱
슴 

없 다..
여 기
영 의
예 술
요 !
요 ~

으 셨
이 큰
있 던
주 행
준 다.
차 피
케 이
티 가
편 의
한 ,
허 무
▁영화 냐
▁영화 다..
▁영화 보다가
▁보 이지
▁보 아도
... 진짜
▁어 딘
▁연 상
▁한 지
▁1 등
▁가 수
▁재밌 네요

▁봤 네요.
▁수 록
▁말 씀
▁생각 만
▁미 녀
▁우 선
▁드라마 였
▁재미있 다.

▁재미있 어요

▁10 자
▁되 돌아
▁봐 라.
▁신 인
▁원 주
▁좋았 음

▁도 데체
▁의 상
▁돈 아깝
▁구 성도
▁잼 있는
▁이야기 의
▁당 장
▁요 리
▁보여 줄
▁망 쳤
▁현실 은
하기 엔
▁없고 

▁긴 박
▁올 레
▁실망 

▁나온 다
▁흥미 를
▁표현 이
던데 

▁조금 만
▁살아 야
▁살아 있는
▁세상 에서
▁장난 하나
▁역사 상
▁오래 전에
▁충격 적인
▁순수 하고
▁숨 막
▁재미있었 어요
▁키 아누
노잼 

▁상황 을
잖아 

▁직 업
▁질질 끌
▁m ovie
▁페 이크
프로 그램
▁아마 추
▁쩌 는
▁소장 하고
▁닥 치고
▁쩐 다
▁뛰어넘 는
▁김수 현
▁브래 드
▁바탕 으로
▁ ᄆ
가 위
간 다

대 고
돈 주고
동 근
드 먼
때 도
목 소리
버 스
본 색
비 추
빼 곤
선 이
아 이가
안 돼
야 ..
에 ,
에 요

요 ..

원 에
이 딴
일 은
지 ....
집 어
트 는
▁영화 이다.
▁영화 임.
▁그 가
▁보 다니
▁나 열
▁하 드
▁하 아
▁하 다

▁있 음.
▁한 다고
▁시 켜
▁대 학
▁마 찬
드라마 는
▁생각 합니다.
▁자 고
▁스토리 ..
▁본 것
▁본 다.
▁유 덕화
▁별 거
▁것 .

▁우 린
▁지루 하
▁조 낸
▁감독 ,
▁애 잔
▁사랑 해
▁사랑 스럽고
▁기대 이하
▁액션 씬
▁후 하게
▁했 다
▁나오 는데
▁나오 는거
▁최악 .
▁극 혐
▁1점 이
▁로 망
▁심 한
▁이야기 .

▁음 ..
▁에 라이
▁아까 워서
사람 의
▁드 니
▁단 체
진짜 

▁박 보영
▁아무 튼
▁없고 ..
▁음악 ,
▁필요 가
▁9 0분
▁남는 게
▁데 스
▁않았 지만
▁국 어
▁1편 에
▁장난 치
▁부분 은
▁힘들 었
▁똑 같이
▁성룡 의
▁당신 의
▁섬 뜩
▁승 리
▁그럴 싸
▁오글거 리는
▁풀어 낸
▁나머 지는
▁미소 가
▁i s
▁섬세 한
★★ ★★
▁둘째 치고
▁중2 병
' 의
g h
▁ ᄂ
▁ 락
▁ 람
▁ 맙
▁ 옴
▁ 잉
▁ ........
각 본
거 의
겠 네

기 ,
기 종
네 ~
도 에
되 는데
때 는
리 언
보 러
본 다

분 을
스 카
실 히
심 에
아 오
안 에서
어 떤
에 로
을 꺼
의 식
일 러
임 ...
있 음
져 야
진 다

집 에
트 로
할 뻔
흥 미
영화 에서
▁영화 랑
▁이 만한
▁그 로
▁하 겠
▁하 기
▁하 기엔
▁있 음

▁시 험
▁1 6
▁1 회
▁스 토
▁스 피
.... .....
▁봤 었
▁평 을
▁전 도
▁마 냥
▁모 아
▁생각 은
▁소 유
▁감동 ,
▁비 록
▁지루 함을
▁지루 함.
▁드라마 로
▁공 유
▁고 문
▁보는 것
▁다시 보기
▁매 번
▁기대 하지
▁의 사
▁하나 는
▁넘 어서
▁했 는지
▁모르 지만
▁캐 릭
▁여자 를
▁공포 는
▁유치 찬란
▁이상 은
▁남자 는
▁짜증 났
▁방 향
▁찍 고
▁ᄏᄏᄏᄏ ᄏᄏ

▁손 가락
▁레 옹
▁대사 도
▁싸 우
▁재밌었 다.
▁재밌었 다

▁감동적이 었
▁나와 야
▁뻔한 스토리
▁행복 하게
▁무섭 게
▁엔딩 크레딧
▁몰입도 도
▁민 족
▁민 주
▁별점 이
하시 고
군요 .

ᄋᄋ 

▁풍 자
▁독특 하고
,,,, 

▁의도 는
하자 면
▁누군 지
▁: )

하고싶 은
▁난해 한
▁ᄌ ᄂ
▁두고 두고
▁쉬 운
▁납 득
▁떡 밥
▁박진 감
준것 들
▁평점조 절
o st
~ !!!

▁ ~~~~
▁ 입니다.

같 다.
개 를
구 역
기 .

께 서
나 라는
나 가는
놈 이
다 리
든 다
리 면서
맞 추
미 화
믿 고
바 타
발 이
본 거
살 이
세 여
셔 야
스 레
싫 어
어 스
엇 다
에 다
움 과
으 리
이 네요.
일 까?
잡 는
장 에
저 것
찬 욱
채 널
천 원
태 현
판 을
표 정
하 네요..
한 영화

했 었
히 고
▁영화 이다.

▁아 카
▁재 방
▁재 앙
▁어 거지
▁연 관
▁지 옥
▁안 좋
▁안 무섭
▁스 펙
▁수 는
▁무 의미
▁여 신
▁개 꿀잼
▁같 고
▁같 음
▁같 습니다.

▁알 아야
▁본 영화
▁미 션
▁우 왕
▁뭐 여
▁2 는
▁끝 날
▁쓰레기 는
▁되 야
▁상 태
▁바 이
▁이거 보단
▁극 중
부터 는
▁두 시간
!!!! !
▁들 어서
습니다 ^^

▁아이 유
▁줄 수
었는데 ..
▁짱 !

▁없고 ...
▁방 해
재밌 다
▁음악 은
▁코미디 

▁된 다.

▁가족 애
▁가족 을
▁흥미 로웠
던데 ..
▁아니라 면
▁재밌었 다
만큼 이나
▁앞 서
▁정신 이
치고 는
쓰레기 쓰레기
지루 하고
▁돌아 보게
▁웃음 을
▁브 라
재미없 다
▁괜찮았 던
▁괜찮았 는데
▁온 갖
▁어울 리지
▁자연 스럽게
ᄏᄏᄏᄏᄏᄏᄏᄏᄏᄏᄏᄏᄏᄏᄏᄏ ᄏᄏᄏᄏᄏᄏᄏᄏᄏᄏᄏᄏᄏᄏᄏᄏ
▁제작비 가
우리 나라
ver y
▁이끌 어
▁스파이 더맨
시청 률
(웃음 )

▁4.4 4
1 

< 

> >
b c
i m
t v
▁ 멜
▁ ᅮ

가 ...
가 면서
극 을
나 ??
대 에
더 욱
덩 어리
도 한
돈 이
럽 고
마 리
사 고
소 

아 리
알 아
았 지만
여 자가
우 스
원 에서
을 지
이 ,
이 네요

인 ,
저 냥
저 런
타 쿠
필 버그
하 늘
할 것
▁보 석
▁하 하
▁좋 을듯
▁없 지
▁진 수
▁지 가
▁한 동안
▁정말 

▁오 지
▁인 류
▁비 참
▁드라마 도
▁작 화
▁애 초에
▁명 연기
▁명 성에
▁상 큼
▁신 이
▁원 하는
▁살 리지
▁난 무
▁좋았 음
▁도 와
▁하나 가
▁넘 치
라는 거
▁1점 을
▁관 점
▁관 심이
▁아이 디
인가 요?
▁과 정
▁매력 적
▁절 대로
▁방 황
는지 ..
이었 다
▁영상 은
▁피 아노
▁수준 

장면 도
▁놀 래
▁준 다
▁제목 에
▁아쉽 다
▁느껴 질
평점 은
▁니 가
▁글 고
▁좋겠 다.
▁좋겠 어요
▁점수 준것들
부분 은
▁잡 아
▁태 국
▁캐스팅 이
작품 

▁노잼 

▁크리스 찬
▁로맨틱 코미디
▁알려 주는
공포 영화
▁ᄉᄇ 

99 99
▁조잡 한
▁흉 내
▁기발 한
▁뭐하자 는
. 8
c g
v s
ᅩ ᅩ
▁ 갱
가 .
결 혼
결 말이
궁 금
력 에
리 는데
물 에
미 를
바 라
받 아
병 맛
사 도
삼 류
스 코
승 우
시 다.
아 지
야 ...
약 한
어 쩌
예 요.
자 꾸
졌 다.
지 섭
진 행
질 을
하 실
하 길래
한 편
할 줄
▁영화 적
▁이 라는
▁좋 으나
▁없 네요.
▁내 취향
▁있 으나
▁시 끄
▁안 보면
▁가 시
▁가 야
▁재밌 어요.
▁봤 음

▁마 니
▁마 법
▁연기 의
▁여 기에
▁잘 했
▁않 다
▁않 음
▁오 해
▁오 리지
▁말 은
▁스토리 나
▁스토리 로
▁스토리 전개
▁본 격
까지 ..
▁별 한
▁우 는
▁고 양
▁쓰레기 를
▁영 구
▁좋아 하지만
▁처 절
▁이거 보다
▁성 인이
▁때 가
▁별로 ..
▁짜 리
▁명작 .

▁이영화 에
▁막 상
▁주인공 들이
▁설 경
▁아닌 가?
▁아무 나
▁가장 한
▁빠 질
▁애니 는
ᅮᅮ ᅮᅮ
▁짜증 남
더라 .

니까 

▁받 아야
▁재밋 는
이상 은
▁떨어 뜨
▁시리즈 를
▁보고싶 은데
▁보게 되는
▁뒤 늦게
▁의미 도
▁의미 있는
▁길 을
▁관객 이
▁완벽 하게
▁문제 를
▁설정 은
▁얘 기를
▁충분 한
▁19 8
▁사회 적
▁ᄍᄍ ᄍ

▁자연 스러운
▁놓 치
▁안나 옴
▁그럴 듯
▁미스 테
▁오랫 동안
학년 때
▁데이 빗
▁파워 레인
라에 몽
' 을
6 년
▁ 쾌
가 며
같 다

개 념
거 다
광 구
기 술
끝 나고
녀 의
덕 분에
데 ...
도 ..
돌 려
동 이
렸 던
론 의
리 ,
면 이
명 은
브 리
생 겼
어 주
외 로
을 정도로
이 ..
인 걸
인 지는
장 은
진 실
진 창
충 격
평 을
호 러
영화 제
영화 다.
▁이 모
▁보 겠
▁어 수선
▁감 이
▁지 극
▁지 독
▁한 석규
▁안 됨

▁마 다
▁마 블
▁연기 

▁모 방
▁주 온
▁최고 최고
ᄏᄏᄏᄏ ᄏᄏᄏ

▁남 성
▁본 능
▁아니 고,
▁재미있 어요.
▁조 지
▁만들 수
▁감독 에게
▁끝 

▁되 는데
▁웃 는
▁시간 도
▁상 대
▁처 음

▁눈 으로
▁실 사
▁실 수
▁불 법
▁의 해
▁코 스
▁때 는
▁10점 은
▁음 모
▁아이 를
정도 

▁OO 

▁빠 순
▁음악 을
▁모든 것이
▁억지 스럽고
▁억지 스런
▁욕 을
▁욕 이
▁편 하게
▁열 라
▁찍 는
▁크 레딧
▁먹 칠
이라는 게
▁스릴러 

▁제대로 된
▁니 네
▁니 들이
▁느끼 고
이런 영화
거같 다

▁분위 기는
아까 움

▁졸작 .
▁뿐 

▁뿐 이다.

▁클 로
▁꿈 과
▁감사 합니다
느낌 이
▁듣 기
▁201 4년
추천 

애니 메이션
▁그림 체
▁찬 양
▁웃겨 서
▁15 세
▁산만 하고
▁런 닝타임
▁정신병 자
▁고등 학생
▁세월 이
▁세련 된
얼마 나
1 편
▁ ;
▁ 곤
▁ 벽
▁ 석
▁ 적이
감 한
경 을
고 도
까 말
내 서
리 즘
며 ,
못 하고
버 츠
베 이
보 던
봐 라

부 에
승 헌
시 킬
신 기
어 ?
어 ..

에 휴
예 쁘
예 요

있 지만
찾 아
탈 리아
플 린
햇 는데
했 어요

영화 !
영화 인줄
▁영화 란
▁영화 볼
... 너무
▁정 사
▁나 루토
▁어 서
▁사 과
▁감 성을
▁지 는
▁시 골
▁안 가는
▁가 만
▁대 결
▁마 시길
▁연기 로
▁모 니
▁생 존
▁주 관
▁최고 입니다
▁소 소
▁미 학
▁일 어나
▁비 정
▁쓰 러
▁드라마 중
▁재미있 어
▁재미있 을
▁부 러
▁그냥 저냥
▁조 차
▁되 면
▁되 었다.

▁좋아 요.
▁신 세
▁바 라는
▁난 다.
▁기대 했던
▁도 시
▁넘 쳐
▁성 형
▁몰 라
▁이렇게 까지
▁극 본
▁강 요
▁구 조
!!!! !!

▁들 게
▁에 드워
▁포 몬
▁귀 찮
▁볼만 함
▁현실 적이고
▁과 정이
▁걸 로
▁애니 매이션
구나 .

▁가슴 아프
▁정도 

▁재밋 엇
▁재밋 음
▁재밋 어요
▁추천 합니다
▁호 흡
생각 으로
▁가족 과
▁준 비
스토리 는
▁- -
▁긴장감 과
▁개인 적인
▁니 들
▁알바 가
▁않았 다.

▁나왔 던
할수 있는
▁첨 으로
▁초반 엔
▁입 장
▁입 장에서
▁귀여 웠
▁채 워
▁굳 굳
하하 하하
▁아버 지가
▁안된 다
▁벗 어나
▁201 4
▁쉽 지
▁죽음 을
▁오그라 드는
▁상처 를
이후 로
▁니콜 라스
▁우려 먹
▁호불 호가
. c
4 4
e t
▁ 롤
▁ 팅
▁ 텐데
▁ 합니다

가 리
간 다.

것 보다
고 한
깊 은
나 다
네 ....
년 만에
달 라고
라 곤
릴 때
번 을
셨 으면
스 틴
아 내
안 됨
어 른
어 를
에 다가
옛 날
이 들의
임 ..

임 ?

자 도
죽 이고
참 고
철 학
해 가는
혜 선
영화 ...

... ?

▁정 주행
▁다 름
▁하 네요
▁없 던
▁감 수
▁감 성이
▁연 습
▁있 습니다.
▁한 글
▁안 보는
▁안 봐서
▁1 ~
▁1 개
▁대 역
▁연기 만
▁무 식
▁잘 한
▁최고 다.

▁말 하려는
드라마 를
▁생각 한다.

▁같 네요
▁못 했던
▁남 의
▁감동 이었
▁부 드
▁뭐 ...
▁공 룡
▁참 여
▁반 갑
▁웃 을
▁다시 봤는데
▁싶 다면
▁신 은
▁살 았
▁마지막 은
▁기대 되
▁성 의
▁했 으나
라는 걸
▁이해 도
▁초 월
▁우리 에게
▁와 서
▁포 함
▁차 승
▁차 이
사람 도
▁줄 이야
▁박 찬욱
▁몰입 하게
인가 ..
▁속 이
▁게 스트
▁간 단
▁적 은
▁피 식
▁새 록
▁새 삼
▁경 악
▁캐릭터 는
▁답 이
▁영화에 요
▁어디 가
▁모습 에
▁긴장감 은
▁시리즈 가
이없 다
해야 지
▁귀여 워서
▁귀여 워요
▁러 셀
▁엔딩 은
▁이딴 게
▁애니메이션 

▁책 으로
▁영화라 지만
▁군 더더
▁커 버
▁커 서
▁영상미 도
느낌 

▁갖 게
▁테 이큰
그런 데
▁틀 림
모르 게
10 자
▁꺼 버렸
▁이어 지는
▁후반부 에
▁영웅 본색
▁완성도 가
▁동화 같은
▁전편 보다
▁면 이
▁남아 있는
▁늙 은
▁보고있 는데
▁이하 도
▁흥미롭 게
▁슈퍼 맨
▁거기 다
▁심각 하게
▁밋밋 한
▁흉 내내
▁화끈 한
▁M창 

▁아이언 맨
3 류
9 점
@ 강추
f f
i d
▁ 곡
▁ 탕
▁ ,,
갑 자기
게 다가
계 를
구 를
그 나마
끄 는
넘 치는
누 라
니 ..
동 화
든 다

들 린
땜 시
러 스
만 

맞 고
명 한
미 안
방 식
배 는
버 튼
보 세요

복 수
상 한
소 가
소 리는
속 을
스 란
심 한
아 의
암 튼
여 배우
여 주인공
위 를
일 에
있 을
작 은
좀 비
지 ??
창 시절
프 리
하 네.
혜 교
▁영화 들이
▁이 중
▁아 메
▁아 ....
▁그 이상
▁보 구
▁재 탕
▁좋 습니다.
▁좋 고,
▁없 어도
▁어 중간
▁어 차피
▁한 정
▁한 줄
▁최 대
▁봤 다..
▁전 라도
어요 ..

▁오 페
▁말 밖에
▁소 년
▁소 품
▁소 리가
▁남 았
▁본 건
▁미 쳐
▁유 승
▁아니 잖아
▁비 해서
▁우 승
다는 것
▁참 나
▁되 서
▁되 는거
▁반 응
▁웃 다가
▁웃 으며
▁거 듭
▁시간 과
▁시간 은
▁매 주
▁작품 에
▁기대 한
▁액션 의
▁좋았 어요

▁죽 었
▁지금 보면
▁김 명
▁이게 뭐
▁연출 .
▁구 경
▁따 듯
▁괜찮 고
▁여자 들이
▁주인공 들의
재미 가
재미 없는
▁점 에서
하기 가
이었 음
▁전개 에
▁파 고
▁재밋 고
▁영화였 다
아니 다
▁레 오
▁믿 기지
▁물 어
▁남는 다.

▁대사 와
▁재밌었 다.

▁삶 은
▁만들었 으면
▁잊 지못할
▁봐야 겠
▁앞 에서
▁알바 생
▁노래 는
▁1편 의
▁보고싶 다
▁좋겠 다

▁추억 을
하네 ...
▁총 체적
▁결국 엔
▁결국 은
▁캐스팅 은
재미없 음
▁색 채
▁여주인공 의
▁장르 를
▁송 승헌
▁이미 지
▁상황 이
▁아님 .
▁좋아요 .

▁권 상
▁진행 되는
▁홍콩 영화
▁진실 을
▁메세 지
▁어설프 게
▁A 급
▁심리 묘
▁돼 지
▁거기 서
▁빠져들 게
▁앉 아
긴장 감
▁빨갱 이
▁2.2 2
' 라는
▁ 컷
▁ 펜
♡ ♥
가 야
개 의
구 

구 리
누 가
두 번
마 르소
바 닥
보 려고
뿐 ..

에 요.
영 은
웃 긴
자 들은
저 는
지 라도
크 로
평 이
한 텐
할 듯
할 순
희 는
▁영화 야
▁아 바타
▁재 치
는데 .
▁하 ..
▁없 다...
▁너무 재미있
▁내 시간
▁지 경
▁지 저
▁시 체
네요 ....
▁기 법
▁마 녀
▁수 사
▁모 순
▁여 유
▁잘 안
▁않 음.
▁오 직
▁개 망
▁말 아
▁본 듯한
▁유 익
▁보고 난
▁일 찍
▁일 주일
▁것 

▁공 연
▁내용 전개
▁고 증
▁재미없 음.
▁해 외
▁명 배우
▁반 도
▁반 지의
▁예 뻐서
▁좋아 했던
▁매 끄럽
▁불 가
▁액션 만
▁추 구
▁죽 어
▁죽 일
세요 .

▁위 트
▁돈 아까워
▁로 마
▁화 질
▁음 향
▁기억 을
다면 ,
▁꼭 봐야
00 원
었는데 ...
▁OO OO
▁애니 를
▁원작 은
▁만들어 야
▁전개 .
스러 울
▁간 지
▁적 나라
▁욕 심
▁올 드
▁편 의
떨어 진
▁치 료
▁버 무
▁추천 합니다

▁여운 도
▁된 다

▁손 꼽
▁엉 뚱
▁떨어 짐
▁만들었 다.
▁느껴 지지
▁감동적이 에요
▁수작 .
▁좋겠 다
▁초반 에는
▁강추 !

인줄 알았
▁커 녕
▁커 피
▁불쌍 해서
▁감사 합니다.

▁번 역
▁2편 도
ᄋᄋ ᄋᄋ
▁딸 이
▁인물 들의
▁이것 은
▁이것 보다
그런 지
▁킬링타임용 으로도
▁낮은 지
▁평론가 들
▁영화인 것
▁후반부 로
▁메세 지를
▁나머 진
▁다니 엘
▁과장 된
▁아직까지 도
▁러닝타임 이
▁멘 탈
▁픽 션
▁낭 만
스포 머
▁아놀 드
오랜 만에
▁지극 히
@강추 @강추
▁ 껏
거 같은데
것 들이
것 이다

것 같은데
공 주
귀 신
나 저
느 냐
니 스
다 들
더 럽게
도 

때 부터
려 

로 로
면 을
받 아서
방 에서
보 자
봄 .
센 스
스 턴
실 패
여 러
요 ...

이 지

임 이
장 센
제 일
준 다.

코 드
쾌 한
판 으로
팬 이
평 생
폭 력
하 였
하 의
했 습니다.

형 이
.. 영화
▁그 에
▁보 일
▁보 지도
... 아
▁나 면
▁다 이하
▁하 네
▁하 고,
▁없 다...

▁너무 좋아
▁내 고
▁있 겠지만
▁지 키
▁1 7
▁정말 정말
▁스 필버그
▁재밌 네요.
▁기 적
▁대 부
▁평 론
▁마 리
▁연기 자들
▁생 명
▁오 유
▁이런 것도
▁이런 식으로
▁인 권
▁못 만들
▁유 사
▁중 의
▁공 허
▁2 5
▁끝 판
▁재미없 어

▁되 어야
▁좋아 

▁노 무
▁도 라에몽
▁의 견
▁할 아버지
▁추 가
▁처음 이다
▁위 안
▁느낌 도
▁명작 이다

▁구 리
▁따 스
▁여자 애
▁유치 원
하나 ?
▁소재 만
다니 ...

▁누 나
▁빠 르
▁인간 적으로
▁간 간히
▁.. ...
▁열 광
▁추천 합니다.

▁야 하지도
▁어디 까지
▁제목 은
▁국 산
할수 없는
고싶 다
▁귀여 움
▁인상 적
인듯 .
▁시대 가
건가 

건가 ?

쓰레기 

▁왕 가위
▁번 을
▁잘봤 습니다
▁잘봤 습니다.
▁잘봤 습니다

시키 지
보기 엔
▁시즌 3
▁여배우 의
중간 에
시대 의
▁의도 를
▁회 상
▁든 다.

짜증 나
▁엉망 진창
▁바라 보는
▁ost 도
▁학 창시절
▁아픔 을
▁겨울 왕국
▁옆 에
▁영향 을
▁소피 마르소
▁10점만점 에
킬링 타임
▁비호 감
▁한효 주
i l
~ 10점
▁ 낸
▁ 혈
간 이
거 워
것 처럼
격 이
구 먼
구 ..
군 ..

극 

나 보다
니 의
돌 이
등 장
때 가
뜨 고
랄 한
러 티브
만 ..
멋 진
비 는
수 정
숙 한
순 수
스 펜
씩 이나
없 게
올 라
은 영화
자 인
작 .

잘 못
전 은
졌 다
지 환
진 의
천 재
침 

판 에
펙 트
하 세요

▁영화 찍
▁영화 냐?
▁영화 제목
▁이 란
▁재 방송
!! ♥
▁정 석
▁하 니
▁없 애
▁없 다..

▁없 어

▁지 워
▁안 녕
▁대 학생
▁수 십
▁생 기
어요 ...
▁최고 인
▁더 러워
▁오 인
▁배 드
▁배 울
▁자 위
▁미 술
▁미 야
▁일 일
▁것 .
▁것 과
▁드라마 라고
▁중 학교
▁공 주
▁고 인의
▁애 가
▁명 확
▁보는 동안
▁좋아 하시는
▁눈 요
▁눈 치
▁최고의 영화
▁몰 아
▁지금 이나
▁최악 이다.
▁아깝 다...
▁별로 ..

▁이해 불가
▁로 멘
▁심 사
▁심 장이
▁엄 정화
▁아닌 듯

▁유치 뽕
▁줄 리아
▁줄 거리가
▁박 시
▁일본 에서
었는데 ,
다니 .
다니 ..

▁흥 분
▁속 았
▁빠 지게
재밌 고
▁순 진
▁굿 !

▁적 극
▁문 득
떨어 지는
▁연기력 과
▁된 다
▁달 리는
▁나온 거
▁- 

▁떨어 져
▁담 고
이란 게
▁날 아
▁목 적
▁1편 을
▁통 해서
▁각 각
할수 도
▁세상 의
▁만화 가
▁우리나라 의
▁패 션
▁이딴 거
▁시대 적
▁당시 엔
▁백 인
▁주연 의
▁브 로
▁미친 듯이
▁숨 어
좋은 데
▁감사 합니다

▁하지 말
▁하지 원
▁영상미 와
▁장르 의
시키 고
▁19 금
▁흠 잡을
▁관람 객
▁tv 에서
▁승 부
▁흥미진진 한
▁설명 이
▁같아요 .

▁한계 를
▁웬 만하면
마저 도
▁이기 적인
▁아련 한
▁의문 이
▁이따위 로
▁믿을 게
▁전율 이
▁스페 인
▁비행 기
▁마무 리가
▁김희 선
▁원주 율
▁국어 책
▁에드워 드
( )
, 연출
8 점
c n
~ ♥
▁ 란
가 ..
같 아요
겠 다..
겨 운
기 나
까 봐
냐 ..

넘 게
놈 은
놈 의
님 을
두 사
뒤 에
란 한
려 도
려 진
렸 다.
볼 때마다
성 ,
손 가락
씀 

양 의
에 대해
운 데
워 

원 래
자 막
재 현
정 보
줌 .
줘 도
즈 가
지 원
카 메
프 라이즈
하 시길
할 지
함 으로
.. 그냥
▁영화 같은
▁이 를
▁이 순
▁그 들을
... 영화
... 그냥
▁정 통
너무 잘
▁하 던
▁좋 지
▁내 세
▁지 상
하고 도
▁안 나오는
▁만 으로도
▁봤 고
▁전 지현
▁마 구
▁연기 한
▁모 독
▁모 호
▁최고 임
▁최고 ..
▁않 나
▁개 같은
▁제 왕
▁생각 한
▁생각 합니다.

▁못 해서
▁못 했다.
▁본 적이
까지 ...
▁보고 도
▁드라마 !
▁중 후반
▁부 각
▁뭐 랄까
▁사람 에게
▁고 작
▁애 들도
▁쓰레기 가
▁다시 보게
▁신 세계
▁없는 거
▁기대 안
▁처음 이다.
▁처음 이다

▁아깝 다..

▁별로 ...

▁허 나
▁허 탈
이나 ,
▁초 중반
▁돈 으로
▁명작 이라고
▁재밌게 본
▁아이 러
▁발 음
사람 을
필요 한
▁유치 함
▁박 정
▁박 평
▁일본 인
▁표 정이
▁망 설
▁망 했
지않 게
▁피 곤
▁8 점은
▁외 면
▁버 리
▁된 장
는거 야
▁출 발
▁나온 다.
내용 을
▁아쉬 움

▁아쉬 워요
▁봐야 지
▁자체 도
▁만화 를
부분 도
▁분위 기를
쓰레기 영화
그래 픽
▁b ad

▁첫 번째
▁발연기 에
▁갖 춘
▁이것 저것
▁어울 리
▁더욱 더
▁어쩌 다
▁가치 도
▁꺼 져
▁향 한
▁소리 만
▁게임 을
▁환상 적인
마음 이
▁엑 스맨
▁농 담
▁기가 막
▁김민 종
▁여태 까지
000 원
아름 다운
▁이따구 로
▁언젠 가
.ᄏ .ᄏ
▁트랜 스포머
▁엑소 시
' 이
@ 

ᄉ ᄇ
▁ j
▁ 측
감 에
개 

겟 다

구 는
군 ...
극 의
남 아
남 을
는 것도
더 러
데 라
됩 니다
드 림
들 어서
라 ,
라 지
많 고
말 고는
몰 랐
문 을
미 도
볼 수록
부 모
빼 고는
성 룡
스 도
실 화
없 는데
요 ??
움 .
이 냐?
인 해
자 식
작 을
졌 던
졌 다

주 지
죽 여
줬 으면
지 우
지 효
치 않
했 습니다

힘 든
▁이 다
▁이 탈리아
▁그 시절
▁나 을
▁하 던데
▁좋 네요.
▁없 으니
▁어 마
▁내 일
▁연 주
▁시 점
▁재밌 습니다.
▁봤 음.
하는 것도
▁잘 만
▁더 더욱
▁평점 왜
▁배 가
~~ ^^

▁생각 나게
▁같 다..
▁못 주
▁못 따라
▁남 친
▁남 기는
▁본 인
▁미 치는
▁지루 함이
▁드라마 ,
▁작 가는
▁고 질
▁애 로
▁애 절
▁재미없 을
▁결 과는
▁거 장
▁좋은 영화

▁신 고
▁신 화
▁좋았 고,
▁몰 락
▁아깝 다는
▁이해 못
▁돈 은
▁이야기 에
▁재밌게 봤는데
▁들 러
습니다 ~
▁아이 고
▁에 릭
▁이영화 보고
▁졸 았
........ ..
........ .

구나 ..

▁원작 과
▁ᄒᄒ ᄒᄒ

▁인생 에서
▁않는 다
▁4 0분
▁하고 싶
▁욕 만
▁찾 기
▁버 릴
▁추천 해
▁코미디 는
▁대사 는
평점 을
▁의미 없는
▁뭘 까
▁이해가 안
▁빨 간
▁초반 부터
▁흐 지부
▁보았 습니다.
▁터 지는
▁보지마 세요

▁색 깔
▁CG 는
▁19 7
▁사회 의
▁안된 다.

▁M BC
▁봄 .
▁훈훈 하고
▁카메 론
▁법 정
▁깜 놀
▁메세 지가
▁우울 한
▁짱짱 맨
▁미래 를
▁샤 론
▁월 드
▁싫어 하는
▁모자 란
▁i t
▁톰 크루즈
▁퇴 보
▁떠오 르는
▁엠 마
▁줘 도
▁빈약 한
▁컬 트
▁장동 건
▁매미 OO
▁오우 삼
▁드래곤 볼
▁무간 도
▁덴 젤
tt p
▁아마추 어
▁새록 새록
2 2
: //
c e
n a
▁ 롱
▁ 춘
▁ 틴
▁ 는데
▁ in
감 .

갔 는데
개 연
걸 까?
군 ...

기 보단
꼬 마
끝 내
나 싶
내 요

네 용
네 이버
노 출
돈 으로
동 을
랑 은
문 의
물 은
봅 니다
삼 

서 트
소 장
스 에서
슬 리
신 선
실 력
어 마
어 이
었 다..
었 음.
에 이
였 다면
오 로
왔 던
요 한
웠 다
웠 다.
율 이
이 긴
이 시
일 단
저 기
전 문
전 체
주 는데
진 은
집 에서
통 수
트 라
특 집
특 유의
히 히
▁영화 계
▁영화 내내
▁아 ,
▁정 준
▁나 고
▁하 긴
▁사 로
▁재미 만
▁지 지
지만 

▁한 대
▁한 예
▁안 겨
▁만 날
▁가 을
▁봤 다는
▁마 틴
▁마 라.
▁연기 .
▁모 양
▁최고 !!
▁생각 했던
▁자 리
▁같 음

까지 .
▁미 장센
▁유 령
▁감동 .
▁지루 하지않
▁중 년
▁배우 와
▁사람 과
▁사람 마다
▁조 기종
▁10 년전
▁끝 은
▁재미없 다..

▁참 을
▁영 광
입니 다...
▁노 튼
▁작품 이다.
▁살 리
하지 말고
▁도 움이
▁성 적
▁때 의
▁김 선
▁또 봐도
▁10점 짜리
▁극 찬
▁강 하게
▁돈 과
▁돈 벌
▁연출 을
▁분 장
▁구 지
▁아이 들은
▁에 바
▁만든 다.
▁꼭 보세요
▁귀 신이
▁드 문
▁단 역
▁공포 영화가
▁무슨 말이
........ ...

▁서 정
▁현실 감
▁다른 건
▁이상 으로
▁남자 를
구나 ...

재밌 어
▁영상 ,
▁인간 들
▁많은 것을
▁집 단
▁한번 씩
▁8 .5
▁캐릭터 의
▁손 예진
스트 라
▁개봉 을
▁믿 기
▁알았 다
▁알았 다.

▁함 부로
▁카 피
▁어설 퍼
▁절대 보지마
▁수작 .

▁무섭 다
▁사실 이
▁낚 인
▁낚 여서
▁문제 는
해요 .

▁아름답 다.

▁설정 과
▁보지마 셈
▁따라 가
▁괴 수
▁읽 는
▁잘봤 습니다.

▁굉장 한
거야 

▁평가 를
▁여배우 가
▁지루함 의
▁201 2
▁불륜 을
▁아빠 가
▁오글거 려서
▁인상깊 게
이해 가
▁의외 의
▁할말 을
▁다큐멘 터
▁불쾌 한
▁윌 리스
▁30 대
▁편견 을
세상 에
▁이정 재
▁수고 하셨
▁ᅲ. ᅲ
▁ᅲ. ᅲ

▁be st
▁ᄇ ᄉ
▁클래 식
한마디 로
▁탁월 한
▁어떠 한
▁람 보
▁군더더 기
' 가
c t
ᅲ ᅮ
ᅲ ᅮ

▁ 값
▁ 닌
▁ 듬
▁ 왓
▁ 톱
▁ ;

▁ ;;;
▁ 쯧쯧
▁ very
건 지

금 보
누 구
닝 맨
다 코
대 화
두 근
듣 고
러 워서
림 을
버 리지
볼 수
봐 

부 한
사 에서
상 욱
서 방
설 마
성 으로
스 피
심 의
아 ,
아 ~
아 들
아 침
앞 에
어 질
여 .
연 의
오 

올 려
왔 다
유 머
이 들이
졌 으면
중 한
진 다.
진 다.

집 니다.
치 만
케 팅
토 퍼
파 서
필 름
하 든
하 리
하 이
하 더니
허 허
혀 서
화 면
.. ᅲᅲ
.. ᄏᄏ

▁영화 제
▁영화 감독
▁이 전
▁그 를
▁그 와
▁그 외
▁보 아
▁재 현
▁나 을듯
▁어 케
▁사 망
▁내 리
▁재미 나게
▁있 어도
▁지 하
하고 .
▁한 가지
네요 !

▁안 됐
▁안 좋은
▁1 탄
▁가 깝
▁가 난
▁가 해
▁기 록
▁무 색
▁최고 ...
▁평점 도
▁볼 것
▁일 관
▁별 하나
▁장 소
▁장 혁
▁우 롱
▁많 다.
▁재미있 어서
▁재미있 었다.
▁완 성
▁저 게
리고 싶
▁해 라
▁되 었다.
▁상 당한
▁싶 으면
▁노 골
▁작품 의
▁좋았 습니다

▁코 드
▁하나 .

▁처음 이
▁나오 기
▁김 윤
▁또 라이
▁10점 .
▁별로 다
이나 오
▁관 대
▁관 심을
▁돈 만
▁돈 낭비
▁구 멍
▁구 분
▁들 여
▁들 어도
이다 !
▁에 러
▁차 태현
▁주인공 을
▁드 물
을까 ..
▁볼만 한데
▁현실 에
▁매력 은
▁있었 고
▁머 야
▁머 리를
▁하고 싶은
▁경 의를
▁ᄏᄏᄏᄏ ᄏᄏ
▁약 한
▁믿 는
▁엉 터리
▁표현 해
▁등 록
▁아니라 서
▁대사 를
▁재밌었 음

▁잼있 다
봤는데 ..
▁베 트
▁아까운 영화
▁나와 도
감동 도
▁황 금
▁용 기
▁답답 해서
▁시나리오 도
▁힘들 게
▁잡 는
▁환 장
▁종 합
▁개인적으로 는
▁뿐 .

▁태 권
▁역사 적
▁아름답 다.
▁0점 을
▁웃음 과
▁멋있 고
▁주제 는
▁낫 다.
▁낫 다.

▁영화중 에서
좋은 영화
▁ᅲ _
▁잘봤 어요
수준 

▁알게 된
▁귀엽 다
▁오글 거리
▁킬링타임용 도
버렸 다.
▁듣 는
▁감성 팔이
▁갔 다
▁찬 사를
작가 님
▁면 에서
▁학 살
▁뜨 거운
눈물 이
▁끊 임
▁굿굿 

▁일어 날
▁십 점
▁20년 전
▁징 징
▁윌 리엄
▁닮 았
▁쥐 어
▁특이 한
ov e
▁말아먹 은
▁최초 의
▁심오 한
▁정확 히
▁부끄 러운
▁쥬 라기
▁겉멋 만
▁과대 평가
▁수면 제
▁시간때 우기
▁가슴아 픈
▁마찬 가지
!!♥ !!♥
, 스토리
. 7
. 9
3 4
i on
ᄅ ᄅ
▁ 겹
▁ 엇
▁ 욱
▁ 콤
▁ 혜
감 상
강 에
것 들
겠 습니다.

곳 이
곳 에서
공 부
군 이
권 택
나 무
나 타
남 .
내 려
냐 ...

녀 가
놀 이
놓 는
달 라
덜 덜
디 가
리 칸
리 트
못 보
밑 에
본 다.
살 에
성 

시 나
앞 에서
어 어
언 이
없 고,
였 음

일 으
자 키
전 달
절 로
주 제
줄 거리
진 희
치 기
크 의
하 냐?

해 .

했 지
히 어로
▁영화 ^^

▁이 자
▁아 끼
▁그 는
▁보 라
▁정 이
▁나 니
▁하 던가
▁연 인
▁있 습니다.

▁지 배
▁1 개도
▁마 스터
▁무 대
▁모 성애
▁최고 에요
▁않 아도
~~ !!

▁같 네요.
▁남 기고
▁유 혹
▁아니 지만,
▁드라마 !

▁부 르는
▁뭐 냐?
▁뭐 지?

▁고 소
▁저 러
▁저 지
▁쓰레기 ..
▁사랑 ,
▁사랑 으로
▁되 어서
▁예 산
▁시간 아까워
▁상 실
▁바 꾼
▁불 행
하지 

▁난 다.

▁좋았 습니다.

▁의 한
▁넘 는
▁성 경
▁성 찰
▁죽 기전에
▁했 다

▁최악 .

▁별로 임
▁느낌 ..
▁명작 !

▁구 혜선
▁기억 될
▁들 지
정도 면
▁장면 과
▁졸 잼
▁존 잼
▁일본 이
▁일본 영화는
▁볼만 했는데
▁소재 에
하기 까지
▁속 은
▁원작 소설
▁간 직
더라 ..
▁필요 없다.
▁4 편
▁억지 스럽
▁편 인데
▁받 아서
▁찍 을
▁추천 !

▁경 계
▁크 로
▁공감 을
▁흥미 로
▁잔잔 하지만
▁남는 건
▁재밌었 어요

어야 지
▁잠 수
▁날 려
▁어린 아이
▁무서 울
▁허접 하고
▁재미가 없
▁전쟁 영화
▁슬프 다.
▁임 청
▁당시 에는
▁캐스팅 도
주의 를
▁너 희
▁비교 하면
▁ᅳ 

▁어이 없고
▁몇번 이나
▁까 는
▁안된 다

▁놓 은
▁참고 로
▁과거 를
▁분명 히
▁친 일
-- --
▁중반 부터
▁아프 리카
▁얻 어
▁메시 지
▁메시 지가
▁아까워 

▁시원 한
▁어렸을 적
▁사기 꾼
▁퀄리티 가
▁그지 같은
▁가까 이
▁영화라는 게
▁대표 적인
나옴 

▁고마 운
▁한번쯤 은
▁엽 문
▁타이 틀
▁사투 리
▁다크 나이트
▁혁 명
▁흡입 력
▁다세포 소녀
▁짐캐 리
▁정당 화
▁임창 정
.c om
나저 나
▁끝판 왕
ttp ://
' 는
, 연기
. 6
2 00
3 0분
c h
o p
v e
▁ 떄
▁ 숭
▁ ~~~
걸 이
구 구
기 준
나 쁘
니 버스
당 하는
대 전
더 스
도 없는
든 다.
라 지만
래 셔
려 니
리 다가
맹 랑
보 며
본 영화
볼 만한
볼 수있
봤 으면
빠 지는
뻔 

시 스
앞 으로
어 느
연 애
영 웅
요 ,
요 !

이 미
자 에
저 예산
졌 다.

증 을
집 니다
짓 을
쳐 도
초 딩
틀 러
하 더라도
함 만
했 다가
형 사
호 의
▁영화 본
▁이 영
▁보 이고
▁나 참
▁나 가는
▁없 어요
▁어 고
▁감 옥
▁있 네
▁있 으니
▁최 대의
▁안 했는데
▁만 나는
에서 만
에서 야
▁기 승전
▁대 실망
▁전 락
▁연기 ...
▁모 티브
▁잘 살
▁주 먹
▁않 으면
ᄏᄏᄏᄏ ᄏᄏ
▁인 지
▁못 살
▁소 지섭
▁본 듯
▁아니 라는
▁일 탈
▁별 기대
▁부 디
▁사람 만
▁조 아
▁고 딩
▁고 스란
▁명 성을
▁상 어
▁싶 었는데
▁작품 중
적이 다
▁난 생
▁도 중에
▁의 지
▁1점 주는
▁강 조
▁연출 

▁기억 나
이다 !!

▁발 레
▁발 상
▁요 약
▁차 마
재미 는
▁마음 속에
▁울 었던
▁유치 하다

을까 ...
하나 로
▁점 은
▁서 서
▁결말 .
▁결말 까지
▁매력 있는
▁남자 라면
▁절 반
▁애니 

▁전개 

▁머 가
지않 아
▁피 라
▁찾 을
▁뭔가 가
▁7 .5
▁7 광구
▁캐릭터 와
▁ᄏᄏᄏᄏ ᄏᄏᄏ

장면 을
▁출 현
▁대단 히
▁대단 하다

▁교 회
▁없었 다
▁부족 하고
▁홍 진
▁웃기 다
▁정신 나간
것같 다.

▁무섭 지
▁답답 해
▁토 끼
▁부분 을
▁배경 과
▁분위 기도
▁분위 기에
▁다큐 를
▁총 격
▁총 알
oo oo
건가 요?
▁아름답 다

▁주연 배우
▁몸 을
▁지나 친
▁잔인 하고
▁엄마 의
▁나올 까
▁상상 력이
▁똥 을
▁영상미 는
▁똑 바로
▁송 혜교
▁등장 하는
▁휴 먼
▁혼자 서
시대 를
기대 하고
▁예쁘 게
▁왔 는데
조차 도
▁창 의
▁초등 학교때
▁알려 준
▁사라 진
▁골 때
▁오글거 림
▁오글거 리고
▁ᄃᄃ ᄃ

▁촌 스럽
▁짐 승
▁철학 적인
▁접 근
▁춤 추
▁러브 라인
▁취향 이
▁역할 을
나올 때
▁3편 은
하지마 라
bb 

티비 에서
▁소름돋 는
줄알았 는데
▁태어 난
▁통쾌 한
▁납 치
▁가져 다
▁센 스
▁못생 겼
▁베드 신
▁정우 성
▁클레멘타 인
▁인종 차별
▁공중 파
▁절제 된
▁원숭 이
까말 까
▁오인 혜
' 를
, .

1 위
1 0년
o re
▁ 롯
▁ 며
▁ 밍
▁ 빗
▁ 져
▁ 즈
▁ 츠
▁ 함

▁ ♥

가 게
가 네
겠 지

겨 울
괴 담
군 ..
그 저
남 주
눈 이
린 트
마 냥
매 우
명 화
물 .

미 니
바 리
버 전
별 루
보 소
봐 요
상 실
슬 퍼
시 다.

싱 턴
어 설
역 을
예 고
완 벽
왜 곡
우 

음 ?
이 기에
일 리언
있 으면
작 에
저 링
저 질
지 네요
카 이
타 는
통 에
트 리
판 타지
플 렉
함 ?
해 ?
향 이
▁영화 ?
▁영화 에서는
▁영화 예요
▁이 겨
▁이 범
▁이 외
▁이 태
▁그 대
▁정 리
▁나 비
▁하 셨
▁없 네요

▁어 벤
▁어 의
▁너무 재밋
▁내 는
▁있 지만,
▁최 하
▁최 후
▁시 사
▁1 분
▁봤 는지
▁수 치
▁주 는거
▁배 워
▁생각 났
▁스토리 지만
▁남 발
▁느 슨
▁아니 지
▁아니 다..
▁일 생
▁비 롯
▁비 중
▁비 하
▁것 들을
▁우 스
▁우 아
▁지루 하기만
▁중 학교때
▁내용 ,
▁만들 기
▁웃 게
▁예 쁨
보고 나서
입니 다..

▁매 혹
다고 ?
▁불 면
▁작품 이라
▁3 00
▁좋았 습니다
▁도 는
▁코 드가
▁할 배
▁할 수있
▁넘 어가
▁때 도
▁김 영
▁극 한
▁허 구
▁아이 와
▁마음 의
▁울 었어요
▁공포 도
▁볼만 하다

▁현실 적으로
▁반전 의
▁스릴 이
▁인간 적인
지마 세요
▁건 가
▁듯 ..
▁듯 ...
▁파 이
▁캐릭터 ,
▁ᄏᄏᄏᄏ ᄏᄏᄏ
▁된 다는
▁놀 랬
▁믿 지
▁엉 덩
▁잔잔 하면서도
▁만들었 다.

▁없었 으면
ᄃᄃ ᄃᄃ
▁노래 를
▁이유 로
▁티 가
▁글 로
▁6 0년대
▁행복 을
▁사실 적으로
▁용 두사
▁부분 에서
거같 다
거같 아
▁전쟁 을
부분 에
▁OOO 

▁애니메이션 이
▁설정 에
지루 한
▁백 배
▁몸 이
▁히 로
▁집중 도
▁T he
이거 나
▁색 감
▁여기 저기
▁이쁘 게
▁읽 은
▁송 지효
▁다음 으로
다시 봐도
거야 ?
▁구성 ,
▁구성 과
▁이번 에
▁머리 에
▁보여준 다.
▁운 명
▁예고 편이
▁짧 게
▁선택 한
▁내인생 최고의
▁전편 의
인간 의
▁예고편 만
▁다가 온
▁메시 지를
▁자유 를
▁넘어 선
▁외국 인
▁아침 에
▁흐름 이
▁신경 쓰
▁받아 들이
▁뉴 욕
bs 에서
▁복잡 한
▁당연 한
▁팀 버튼
▁틈 이
▁봐줄 만
▁손색 이
▁팍 팍
▁꿈꾸 는
▁뚝 뚝
▁뮤직 비디오
▁파워레인 저
▁다이하 드
▁미야 자키
. 이
. ᅮ

e l
e st
▁ 깝
▁ 셀
▁ 훌
▁ 다.
가 진
거 는
것 이다.
국 의
군 의
남 길
냐 .

누 군
니 다..

다 를
달 아
도 와
들 리
등 등
때 의
라 를
라 마
리 타
리 지만
마 는
맛 이
멋 대로
배 속으로
볼 려고
봤 네요
부 턴
불 륜
생 이
서 린
시 네
씨 를
어 머니
여 야
역 의
왔 으면
웃 겼
원 도
으 라고
은 ,
을 뿐
음 에도
중 독
챙 겨
할 정도로
해 석
했 나
했 고,
했 지만,
현 준
효 진
.. 그리고
▁영화 들은
▁영화 이다

▁영화 계의
▁이 라
▁이 혼
▁이 스트
▁아 가
▁그 들은
... ᅲᅲ

... 그리고
너무 나
▁어 떻
▁정말 재미있
▁가 상
▁재밌 음.
▁기 념
▁무 관
▁여 왕
▁잘 봣
▁잘 하
▁주 상욱
▁개 소리
▁왜 ?
▁같 네요

▁미 니
▁미 키
▁쓰 렉
▁것 만으로도
▁장 미
▁2 차
▁조 심
▁조 정
▁조 조
▁만들 려고
▁저 거
▁사랑 

▁사랑 도
▁좋아 하고
▁좋아 한다면
▁신 념
▁신 민
▁불 후의
적이 다.
▁원 피스
OO OO
▁3 d
▁3 시간
▁기대 도
▁기대 에
▁액션 에
▁도 입
▁의 학
▁넘 은
▁추 락
▁죽 기
▁김 강
▁최악 이
합니 다..

합니 다...
▁또 는
▁강 호
▁돈 도
▁분 이
▁명작 이다.
▁구 역
▁심 히
▁심 리를
▁장면 만
▁차 별
▁단 언
▁아닌 것
▁공포 영화는
▁서 프라이즈
▁볼만 하다
▁결말 에
▁속 의
▁뻔 히
▁애니 가
▁낮 추
▁높 다.
▁솔직 한
▁버 전
▁5 점대
장면 에서
▁나온 다

▁나온 다고
스토리 

건지 ..

건지 ...

▁싸 울
▁제목 과
▁재밌었 고
▁막장 으로
▁중간 부터
▁은 은
▁은 퇴
▁타 락
▁복 선
▁아니고 ...
▁안되 서
▁장난 하냐
▁변 호
▁산 만한
▁양 동근
▁관객 들
▁배경 도
▁범 인이
▁임 권택
▁예술 영화
▁맘 이
▁영화라 면
▁돌아 오
▁웃음 만
▁충격 을
▁주제 도
▁주제 에
▁엄마 랑
▁군 인
▁별점 을
▁흘 렸
▁이쁘 다

▁이정도 로
이네 ...
수준 이
▁알게 해준
▁인물 의
▁높은 지
▁허무 하게
을텐데 

봐야 지
▁구성 은
▁잃 어버린
▁흑 역사
음악 도
▁어이없 어서
▁감독님 의
▁밀 어
▁성우 가
▁ᄒ ᄃᄃ
▁즐겁 고
▁돌려 줘
기억 에
▁와닿 는
▁증 명
▁아까움 .
▁그럼 에도
▁모자 라
▁흥미롭 고
▁채널 돌
가능 한
▁활 용
▁인터 뷰
▁쪽 팔
▁냉 정
▁섞 어
▁13 구역
▁움직 이는
▁검색 해
▁유지 태
▁21 세기
2점 부터
▁자본 주의
라노 말
▁듭 니다.

▁일베 충
▁곱 씹
▁강동 원
▁아카 데미
▁신세 경
▁고스란 히
) 이
, 그
1 개
9 0년대
~ 7
▁ 놔
▁ 멸
▁ 칸
▁ ??
▁ ~~

같 음

거 라고
급 의
기 업
꺼 야
니 다...
대 중
데 로
들 러
들 보다
로 가
름 

먼 저
미 래
박 이
별 점
봤 다가
부 러
비 아
비 홍
빠 졌
사 나
성 탈출
스 티
스 페
시 도
시 를
않 고
었 습니다.
었 는지
에 ..
올 리
워 요

유 쾌
음 에
잘 만들
줄 

지 다
질 때
차 이
크 가
할 려고
해 줄
했 더니
홍 보
흐 름
영화 지만
▁영화 판
▁이 경
▁이 랬
▁이 완
▁보 진
... 이런
▁정 화
▁나 누
▁나 뿐
▁나 아
▁하 려는
▁좋 더라
▁어 떡
▁지 적
▁지 들끼리
▁한 테
▁시 끄럽
▁1 ,
▁1 1점
에서 나
▁기 차
▁마 을
▁연기 ..
▁여 튼
▁주 목
▁최고 라는
▁말 만
▁말 하면
▁말 해주는
▁생각 함

▁같 지만
▁못 했다.

▁알 렉
▁보고 왔
▁보고 있는
▁감동 적으로
▁일 요일
▁것 인가
▁우 익
▁드라마 ..

▁많 다

▁재미있 다고
▁재미있 었던
▁부 른
▁배우 분들
▁사람 들도
▁내용 

▁고 찰
▁저 주
▁쓰레기 다
액션 이
▁좋아 하지
▁바 가
▁노 동
▁노 력이
▁도 통
▁할 아버
▁김 재
▁김 현
▁별로 .
▁1점 준
▁멋 잇
▁강 지환
▁위 에
연기 잘
▁두 말
▁이야기 도
▁기억 도
▁에 너
▁와 ~
▁차 이가
▁특 징
▁존 내
▁박 해
▁서 스펜
▁현실 의
시간 낭비
▁이상 을
▁짱 !
▁뻔 뻔
▁뻔 해서
▁없고 .
스러 워서
▁듯 ..

▁억지 설정
▁ᅳᅳ ;
▁재밋 는데
▁딱 딱
▁경 제
▁코미디 가
▁공감 가는
▁달 고
▁레 드
▁가족 영화
▁알았 더니
▁물 건
▁물 고
▁물 씬
▁남는 다.
▁잼있 음
어야 할
▁스릴러 가
▁스릴러 를
▁개인 의
▁천 만
▁정신 을
▁정신 차
▁나름 의
▁않았 으면
▁국 제
▁수작 이
▁아니고 ..
▁무서 움
▁무서 워서
▁초반 부
▁관객 에게
부분 에서
인듯 ..
▁시나리오 ,
▁시나리오 를
▁낚 이지
▁슬프 지만
▁임 신
▁보았 다.
▁태 어나
▁클 라이
▁얘 기가
▁o n
▁풀 어나
▁그만 좀
▁상상 을
▁비교 가
▁똑 똑
▁네이버 평점
▁200 0년대
▁존재 하는
▁허무 맹랑
▁에로 영화
음악 이
▁권 력
▁누구 에게
▁빛 이
▁2점 

▁상영 관
▁가치 를
▁운 동
▁왔 다
▁몰랐 는데
▁먹먹 한
// 

▁안타까 울
▁덕 에
▁복수 극
-- 

▁전작 의
▁놀라 울
강추 

▁퍼 즐
▁논 리
모습 을
▁증 말
▁취향 은
로서 의
▁가끔 씩
▁푸 른
▁어린이 용
▁이연걸 의
▁20년 이
이유 가
이유 는
▁닥 터
ᅲᅲᅲᅲᅲᅲᅲᅲ ᅲᅲᅲᅲᅲᅲᅲᅲ
zz zz
▁더럽 고
▁조용 히
▁일깨워 주는
▁영화자체 는
▁어우러 진
ᅲ. ᅲ

안타 까
▁큐 브
▁어마 어마
파서 블
▁베트 남
1 4
1 8
1 0분
4 점
5 분
~ ^^
▁ `
▁ ᄃ
▁ ᅵ
▁ 규
▁ 입니다

♡ ♡

걸 

과 정
구 석
국 민
국 이
그 자체
긴 했지만
남 은
네 ....

놈 들이
대 도
데 ,
데 ?
디 션
마 트
맞 춘
맹 이
바 가
보 일
볼 일
봤 을
블 랙
사 ,
선 수
수 고
안 의
안 되고
어 는
어 ...

없 을
예 능
요 미
요 !!
요 ^^

울 었
으 시
을 지도
음 ,
일 라
입 고
재 가
조 아
진 정한
책 임
체 를
쳤 던
틱 한
피 아
하 지는
할 만
함 !

해 놓고
희 씨
▁영화 네요.

▁이 들이
▁그 레이
▁보 느니
▁재 료
▁재 발견
▁나 발
▁다 는
▁다 케
▁하 다니
▁하 려고
▁좋 습니다.

▁없 습니다.
▁내 러티브
▁재미 ,
▁한 개
▁1 년
▁스 업
▁재밌 기만
▁기 쁨
▁기 회가
▁전 세계
▁수 백
▁모 여
▁생 략
▁잘 표현
▁주 옥
▁않 네요.
▁배 려
▁생각 해서
▁스토리 .

▁우 습
▁부 를
▁배우 ,
▁배우 만
▁역 쉬
▁끝 냈
▁저 리
▁저 희
▁저 절로
▁재미없 다...
▁되 도
▁반 감
▁매 트릭
▁싶 지만
▁신 데라
▁바 랬
▁원 표
▁기대 되는
▁죽 을때
▁후 한
같은 거
▁하는 건
▁1점 짜리
▁초 기
▁두 명
▁잼 나요
▁우리 들의
▁만든 다.

재미 있는
▁울 어
▁유치 해
▁현실 성이
▁다른 거
▁과 정을
▁보기 에도
▁정도 .
▁인간 들이
▁간 첩
▁수준 은
▁치 고는
▁언 급
▁열 린
▁믿 어
던데 ...
▁남는 다

▁대사 들이
▁조금 씩
▁스릴러 물
▁데 려
▁삼 가
▁보고싶 다

▁복 수를
▁무엇 이
▁장난 감
▁만화 는
▁싫 다
▁싫 은
고싶 다

▁시나리오 에
▁식 스
▁오늘 도
들에게 는
▁클 린트
▁o cn
▁빠져 드는
▁괴 롭
▁철 저
▁감동도 없고
이건 뭐
수준 의
아이 돌
▁성룡 이
머니 즘
▁온 몸
▁세계 관
을듯 .
▁어른 들이
을수 도
▁각본 ,
▁어쩌 라고
▁누구 도
▁꿀잼 

▁씨 네
▁해도 해도
으며 ,
▁그때 의
▁지금까지 도
▁희망 이
▁느꼈 다.
▁영화임 .

▁요소 를
▁청춘 의
▁스케 일이
▁잘생 기고
모습 이
새끼 들
로서 는
마음 에
▁시선 으로
▁말이필요 없는
▁징 그러
▁컨 저링
▁스티 브
▁무언가 를
▁찝찝 한
▁불러 일으
▁새롭 게
▁비현실 적인
▁멘 붕
▁쏘 우
▁인디 아나
▁한숨 만
▁김혜 수
▁오리지 널
▁별한 개도
▁설경 구
▁권상 우
▁조기종 영
) 가
) 의
2 1
3 점
O ST
o g
▁ ]
▁ 퓨
가 수
갑 니다
같 다.

겁 니다
고 은
관 련
교 육
근 석
기 보다
기 라도
김 

까 .
나 를
나 만
나 왓
네 ,
네 ~

놈 들은
느 와르
능 한
드 러
드 문
론 이
리 쉬
만 듬
모 르는
미 녀
본 게
봤 더니
부 탁
브 라
비 스
빨 고
뿐 만
사 한
상 도
성 공
소 를
아 닐
아 줌마
안 나오
앗 는데
어 보이
엇 음
여 ?
영 씨
오 르는
우 면
웃 기고
월 드
으 세요
음 의
임 ...

있 다면
작 이라
전 히
점 점
정 서
조 위
좋 음
좋 다

주 세요

짜 는
쩐 다
치 면
타 령
판 은
하 십
하 라는
하 군

하 려면
한 것도
화 는
회 의
훨 씬
.. ?

▁영화 지
▁이 재
▁아 야
▁재 평가
▁정 재
▁하 세요
▁좋 다..
▁없 네.
▁없 다는게
▁너무 좋았
▁사 토
▁지 니
▁지 나서
지만 .
▁한 수
▁시 스
▁정말 재밌
▁스 무
▁만 세
▁진짜 진짜
▁마 초
하는 영화
▁무 얼
▁잘 해서
▁잘 보고
어요 ^^

▁최고 임

▁오 타쿠
▁인 가
▁배 틀
▁말 에
▁생각 하며
▁남 고
▁알 수없는
▁느 리고
▁아니 였
▁감동 받았
이라 는거
▁장 나라
▁많 았던
▁부 조
▁그냥 ..
▁공 존
▁2 8
▁내용 으로
▁고 발
▁저 기
▁재미없 네

▁해 보
▁웃 길
▁예 매
▁예 의
▁봐 주
▁거 울
▁거 창
▁신 나게
▁눈 과
▁이거 는
▁노 예
▁불 친
▁이건 좀
▁이건 진짜
▁난 국
▁기대 는
▁좋았 음.

▁있는 게
▁지금 껏
▁김 소
▁김 정
▁별로 인
▁1점 주기도
▁명작 입니다
▁동 료
▁캐 리
▁우리 나라는
▁당 최
▁에 일리언
▁장면 의
▁아까 웠던
▁차 분
▁슬 래셔
▁울 게
▁졸 면서
가는 게
▁힘 드
▁소재 ,
▁ᅲᅲ ᅲᅲ

▁다른 영화
인가 ...
▁속 아서
▁OO 같은
▁빠 짐
ᅮᅮ ᅮ
인지 ...
▁맞 춘
▁계 획
▁높 이
▁충 무
이었 지만
▁만들어 준
▁영상 으로
▁몇 개
▁9 0년
▁굿 ~

▁모든 것을
▁ᅳᅳ ;;
▁수준 이하
▁욕 나오
▁올 라가
▁열 정이
▁영화였 어요.
▁호 소
▁된 거
▁대단 하다.
▁엉 엉
했는데 ..
▁악 플
▁기분 

▁기분 좋게
만큼 의
이라고 는
▁보다 보다
▁케 이트
▁천 사
▁왜이 런
▁각 자의
감동 

감동 적인
▁세상 은
▁변 신
▁빼 앗
합니다 !

▁패 턴
▁영화관 에
▁흐 르
▁총 을
▁슬프 다

구만 ...

▁종 영
▁뿐 만
▁클 라라
▁강추 !!

▁더빙 은
▁터 져
▁낫 다
▁채 플린
말이 필요
▁맛 깔
▁맛 에
▁s h
▁인물 들
▁인물 이
▁ᄏᄏᄏᄏᄏᄏᄏᄏ 

▁이후 에
▁여배우 들
▁삼류 영화
▁혹 성탈출
▁기다 렸
▁이번 엔
▁묘 하게
▁극장판 은
▁상영 관이
▁밀 라
▁꺼 내
▁만점 을
▁향 해
▁잘만들 어진
▁시절 의
▁창 조
▁망작 

▁묻 혀
▁검 은
▁사라 져
▁메세 지는
▁유머 가
▁플 레이
▁멀 리
▁전작 에
▁철학 적
▁던 지는
▁어찌 나
재밌게 봤
▁웬 만한
▁심심 해서
▁증 거
▁남주 가
▁섹시 한
▁리뷰 를
▁소름끼 친
▁깔끔 하고
▁아침 드라마
아님 

▁미치 도록
▁인터 스텔
▁잊을 수가
나왔 으면
▁말았 어야
▁깜짝 놀
가슴 이
▁아닙 니다.
▁감흥 이
▁찰 리
▁아동 용
▁오로 라
▁작위 적인
▁M창 있네

▁감정이입 이
▁댄 스
▁K BS
▁묻어 나는
▁저급 한
▁적절 히
▁자세 히
▁두근 두근
위원 회
▁몽환 적인
▁그들 만의
▁섭 외
▁비정 상
▁구역 질
! ?
. -
2 편
i f
ᄂ 

ᄉ 

ᄏ 1
▁ 겠
▁ 놨
▁ !!!!
가 치
개 로
거 리고
것 이다.

괜 히
구 ,
금 을
날 이
남 편
낮 아서
내 기
넣 은
네 유.
는 지도
님 과
당 하고
데 터
독 립
됨 .

됩 니다.

랄 까?
만 ,
맞 추기
모 가
묘 하게
무 니
반 복
방 법
방 의
보 길
보 라
보 비
보 잡
보 느니
볼 수있는
분 명
뻔 했
선 의
센 트
수 밖에
슈 퍼
심 은
씨 와
아 .
어 난
없 네

었 다면
연 한
올 때
유 혼
으 으
은 혜
이 되
이 뻐
이 한
이 영화는
인 권
인 상
인 척
있 네
제 는
존 재
주 를
죽 이는
준 이
지 식
쩌 는
키 스
타 클
피 는
피 를
하 곤
하 단
할 듯

해 피
했 다...
훈 이
▁이 선
▁재 수
▁없 었는데
▁없 나?
▁사 전
▁사 다코
▁내 겐
▁진 솔
▁연 장
▁있 다는게
▁있 는데,
▁한 없이
▁최 저
▁안 봐
▁안 젤
▁스 칼
▁만 나서
▁만 나고
▁가 라
▁재밌 당
▁재밌 다..
▁재밌 지도
▁재밌 어

▁대 비
▁대 책
▁봤 다...
▁봤 었던
▁마 마
▁마 케팅
▁여 주의
▁잘 나가
▁주 세요
▁않 겠
▁오 오
▁오 토
▁개 독
▁개 발
▁생각 에
▁같 지
▁같 습니다
▁소 리지
▁남 매
▁알 수가
▁알 겠지만
▁느 린
▁미 개
▁유 부
▁아니 란
▁볼 줄
이라 곤
▁장 르는
▁지루 하지만
▁사람 으로
▁조 여
▁조 인
▁저 것도
▁좀 ..
▁해 놓고
▁되 었는데
▁결 합
액션 은
▁좋아 지는
입니 다...

다고 생각
▁노 는
적이 지만
적이 지도
▁3 분
▁할 거
▁넘 기
▁한국 어
▁한국 영화가
▁나오 게
▁최악 이다

▁또 보고
▁10점 도
▁이해 하고
▁강 아지
▁돈 아까
연기 에
▁연출 의
▁로 렌
되는 거
▁괜찮 음

▁아이 의
주는 게
▁여자 들의
재미 잇
▁드 리
▁아닌 거
▁공포 영화를
▁박 지
하나 

▁과 잉
▁과 도한
▁보기 전
▁속 도
▁남자 와
▁남자 들이
▁솔 까
▁눈물 흘
▁계 기가
스러 움

▁수준 .
▁수준 급
▁치 열
▁7 0
▁버 금
▁최악의 영화
했는데 ,
▁모습 과
▁기분 만
▁막장 이
▁데 미
▁제작 된
▁어설 픔
▁시작 은
▁보게 됐
▁따뜻 하게
▁영화로 서
▁아니고 

▁6 0
이런 거
♥♥ ♥
고싶 어
▁첨 에
▁힘들 다

▁팬 이라면
▁잡 고
▁식 으로
▁둘 의
▁스타 일이
▁환 불
▁뿐 이다.
▁역사 왜곡
▁포스터 는
지루 함
▁멋있 다
▁보지마 세요.
재미없 어
▁이름 값
기만 하고
이야기 

▁이쁘 다
▁실화 라니
▁비교 해
▁s o
하하 하
▁사회 에
▁직 장
▁예상 치
을듯 .

▁흑 흑
▁좀비 영화
▁크리스 토퍼
▁화면 이
▁흠 ..
▁씨 발
▁있어 보이
이라니 ...
▁분위기 와
▁m e
▁놈 들은
최악 

▁편집 이
해진 다.

▁끝내 주
▁느꼈 던
▁별루 

▁서로 를
▁메세 지도
▁화이팅 !

▁이연 희
▁샤 를
▁한계 가
▁붙 여
▁미소 를
▁군대 에서
▁아까움 .

▁OST 가
▁쩔 어
▁깔끔 하게
▁분노 가
▁재난 영화
▁작품성 은
드립 니다.

▁잇 는
▁사이 에서
▁끄 는
▁런 닝맨
▁심각 한
▁보인 다.

▁다니 는
▁드립 니다.

▁슬퍼 서
▁h ttp://
▁아쉬웠 지만
▁무척 이나
▁낳 은
▁못생 긴
▁담아 낸
▁최초 로
▁잔혹 한
▁거부 감이
▁위험 한
▁가르 쳐
▁별반 개도
▁달콤 한
▁못봐주 겠
▁사무 라이
▁헛웃음 만
^- ^
▁아이러 니
▁엑소시 스트
▁흐지부 지
' s
+ 

1 3
2 가
2 는
6 점
^ _
h h
l d
u n
▁ 낼
▁ 쯤
▁ st
가 니
가 자
구 조
그 린
근 한
까 ..
나 .

난 다..
내 면
동 네
된 거
든 가
등 록
디 로
디 젤
때 메
렸 다

로 봇
르 의
린 거
림 .

마 치
만 ...
맞 게
먹 었
명 도
뭐 냐
바 탕
부 르
비 교
비 를
빼 면
뿐 .

사 라
셉 션
속 이
수 님
수 로
수 에
순 위
스 라
슬 픈
시 라
시 티
씬 에서
않 는
았 음
앞 으로도
야 야
었 어요

연 은
왜 이리
요 ~~
용 도
윌 리스
으 려는
이 쁨
인 드
인 으로
장 님
좋 음

죠 ??
지 로
짐 .

차 원
태 웅
편 인데
하 느라
한 심
할 정도
햇 다
현 이
홀 로
화 

히 게
.. ᄏᄏ
▁영화 평
▁영화 자체가
▁이 념
▁아 .
▁아 시아
▁보 신
▁보 였
▁보 자고
▁나 왓
▁다 리
▁하 네요

▁좋 음.
▁내 놓
▁지 들
▁지 대로
▁안 에서
▁안 하는데
▁1 빠
▁가 관
▁기 도
▁전 성기
▁진짜 .
▁마 라

▁마 누라
▁연기 까지
▁무 기
▁여 지
▁여 진
▁최고 라
▁않 아요
▁더 한
▁개 잼
▁말 자
▁말 해서
드라마 .
드라마 로
▁못 된
▁소 림
▁소 방
▁본 다.

▁미 리
▁미 이라
▁일 대
▁일 상을
▁별 다른
▁별 볼일
▁비 유
▁장 편
▁지루 하지않고
▁중 세
▁2 가
▁조 직
▁쓰레기 로
▁쓰레기 라고
▁사랑 이란
▁웃 지
ᄒᄒ ᄒᄒ

▁거 대한
▁좋아 하게
▁시간 의
▁상 투
▁신 현준
▁처 참
▁원 맨
▁난 다

▁3 ,
▁3 개
▁액션 

▁액션 신
▁좋았 음.
▁도 덕
▁코 엔
▁하나 만
▁김 동
▁김 성
▁김 구라
ᅳᅳ ;

▁허 전
▁이해 하지
▁강 제
▁강 혜
▁초 능력
하다 !

▁구 라
▁우리 네
▁들 었다.
▁장면 ,
주는 거
리는 거
▁차 지
재미 없고
▁마음 은
▁아닌 ,
▁울 었다
▁졸 려서
▁존 중
▁이상 도
▁짱 이
▁보기 도
▁걸 린
▁뻔 하지만
▁스릴 있고
인지 ..
▁맞 게
▁정도 껏
▁전개 되는
▁인간 을
▁인간 들은
▁음악 에
▁돌 고
▁돌 이
▁건 강
▁9 8
▁아름다 웠던
▁한번 은
▁욕 먹
▁영화였 어요
▁5 개
▁캐릭터 들
▁코미디 도
▁코미디 영화
▁공감 되는
▁나온 다.

▁레 즈
▁질 투
▁막장 의
▁개인 적으론
▁메 가
▁니 다.

ᄃᄃ ᄃ

▁날 로
▁홍 금보
▁않았 다

▁시작 

▁의미 는
▁출연 하는
▁희 한
▁보면서 도
▁싫 다.

▁황 홀
▁시청 자를
사랑 을
▁토 니
▁관객 의
▁우리나라 에
▁깊 이가
좋아 요

▁시나리오 는
▁힘들 다.

▁식 의
▁슬프 게
해요 ~
▁주제 로
▁옛날 영화
▁너 네
▁너 는
▁라 스
▁감사 합니다.
보기 싫
er y
▁상황 에
▁훈 남
▁다운 로드
모르 겟
10 

▁뭐야 ?
▁휴 머니즘
▁빨리 감
▁살인 을
하지않 은
▁진행 이
별로 

▁어려 울
10점 

해진 다.
▁과거 의
▁이리 도
▁범죄 자
▁갔 는데
▁그래픽 은
▁그래픽 이
▁흘러 가
▁팔 아먹
▁스타일 의
▁ost 가
▁촌 스러운
이에 요

▁촬영 기법
▁0 .5
▁해주 세요
▁남아 있
▁15 분
▁안나오 고
반전 이
▁심심 한
▁와닿 지
▁w h
▁레이 싱
▁침 묵
▁형편 없
그렇 고
▁말할 것도
▁뇌 가
▁좋아할 만한
▁드립 니다.
▁떠오 른
▁픽 사
???????? ????????
신분 들은
▁묵 직한
▁몬 스터
▁바랍 니다.

▁다를 게
▁록 키
▁배급 사
▁객관 적으로
▁황정 민
▁리암 니
▁브래드 피
gh t
▁코스 프레
♡♥ ♡♥
- >
. 그
. """

1 은
2 

5 0
5 점
8 0년대
r a
u l
ᅩ 

▁ 덩
▁ 슴
▁ 줘서
가 루
교 훈
근 래
기 때문에
깜 짝
남 자가
냈 다.
너 의
눈 에
는 디
다 보니
대 충
되 면서
렬 한
메 오
몰 라도
무 가
문 이
미 와
바 른
밖 엔
베 리
불 가

상 과
세 이
소 나
슨 은
시 

아 들이
았 으면
야 오
어 쩔
엉 망
여 름
오 고
우 니
우 면서도
운 이
워 커
웠 다

웠 다.

위 해서
이 번
이 면서
작 정
적 일
점 수는
제 왕
좋 아서
죠 ...
죠 ..

줄 알
질 만
책 을
치 도록
코 의
키 드먼
트 에
하 가
하 라고
하 자

할 수록
항 상
해 줘서
했 네요
했 어도
행 을
.. ᅲᅲ

영화 나
▁영화 면
▁영화 좀
▁영화 네요..
▁보 이지만
▁재 주
▁나 이트
▁다 같이
▁없 네요.

▁없 나요?
▁어 정
▁너무 높
▁너무 재밌어요
▁진 보
▁있 습니다
▁지 도
▁지 어
▁한 사람
▁시 민
▁안 고
▁안 봄
▁1 

▁재밌 긴
▁봤 네요

▁전 환
▁마 츠
▁마 세요

▁수 애
▁주 려고
▁평점 좀
ᄏᄏᄏᄏ ᄏᄏᄏ
▁오 만
▁인 기가
▁생각 해도
▁같 기도
▁못 보고
▁본 다

▁미 달
▁미 성
▁미 칠
▁볼 꺼
▁볼 수가
▁비 난
▁비 중이
▁것 이다

▁지루 하다..
▁드라마 보다
▁드라마 !!

▁재미있 네요

▁재미있 었다
▁배우 로
▁2 3
▁만들 기도
▁고 급
▁고 래
▁고 려
▁고 백
다.. ...
▁좀 ...
▁쓰레기 ...
▁사랑 스런
▁되 겠
▁되 었다

▁영 활
▁시간 아까운
▁상 식
▁매 년
▁매 회
▁싶 어요
▁신 나는
▁실 컷
▁불 필요한
▁작품 ..
▁작품 성이
적이 다

▁마지막 의
▁마지막 으로
▁있는 것도
▁한국 은
▁후 기
▁후 덜덜
▁했 어야
▁하는 것
▁김 하늘
▁아깝 다...

▁별로 ...
▁1점 .

▁이해 는
▁명작 이라
▁명작 이다.

▁동 일
▁이야기 와
▁아이 도
▁에 반
▁에 이리
배우 들도
▁발 생
▁발 휘
▁그런 가?
▁와 이프
▁주인공 도
▁보여 서
▁울 었다.
▁유치 하지만
▁표 본
하나 의
었는데 

▁서 극
▁ᅲᅲ ᅲᅲ
▁몰입 을
▁몰입 하면서
▁보기 는
▁속 터
▁반전 .
▁반전 과
▁얼 른
▁낮 네
▁게 리
▁건 너
▁ᅳᅳ ;;

▁욕 하는
▁찾 고
▁파 악
▁파 라노말
▁열 자
▁7 점이
▁외 에는
▁경 우
▁영화였 는데
▁호 텔
▁된 다고
▁출 신
▁나온 다는
▁개봉 하는
▁믿 겨
▁이걸 보고
▁어떻게 든
▁악 몽
▁등 이
▁잔잔 하면서
스토리 를
이라는 걸
▁- >
▁떨어 졌
▁잠 든
▁니 들은
▁알바 들이
▁날 라
▁날 이
훌륭 한
▁웃기 지
▁미국 이
▁미국 판
▁목 사
▁각 자
▁20 세기
▁6 살
▁좋겠 네요
▁갑 작
▁언제 쯤
▁토 요
▁초반 의
▁우리나라 에서
▁배경 은
▁청 년
▁졸작 .

▁뛰 쳐
▁암 이
지루 해
하며 ,
▁터 지
▁잔인 하게
▁따라 한
▁중국 의
▁알고 보니
▁약간 은
▁재미있었 음
▁CG V
▁흔 히
▁아님 .

▁그리 운
아닌 데
▁같은데 ..
▁세계 를
▁잃 고
1점 준것
▁슈 렉
▁흠 ...
▁놓 친
▁영화인 거
▁나이 에
▁a nd
▁자극 하는
지금 도
▁넣 어
▁넣 은
이하 도
▁가볍 고
▁오글거 려
어진 다

▁멋지 다

▁신기 한
▁허술 하고
▁노력 한
▁2시간 이
▁만큼 은
▁가득 찬
▁재밌게봤 어요
▁잘생 긴
▁나에게 는
▁씬 은
무서 운
▁실패 한
▁곳 에서
아아 아
▁할말 이없
▁시원 하게
▁일어 나는
드립 니다
▁10년 전에
▁오그라 들
티비 로
▁보러 갔
▁말이필요 없
▁씁쓸 한
▁체 험
▁보인 다

▁생생 하게
▁드립 니다

▁닮 은
▁망쳐 놓
▁느껴진 다.

▁치밀 한
▁찌질 한
▁새롭 고
▁히어로 물
몰입 도
▁봅 니다.
▁볼거 리가
▁강력 추천
▁지났 지만
▁미스터 리
en t
▁충실 한
▁무료 로
▁목숨 을
▁이은 주
분위 기
▁못미 치는
▁로드 무비
▁끝날때 까지
▁이동 욱
▁김태 희
▁리즈 시절
▁깨알 같은
리의리의 리의리의
▁EBS 에서
▁나중 엔
▁왠만 해선
▁어딘 가
▁페이크 다큐
▁전도 연
▁차승 원
▁아메 리칸
▁한정 된
▁박평 식
▁한예 슬
.com /
▁김강 우
, 김
5 6
> _
C N
X X
a ll
i ll
o 

▁ 려
▁ 렷
▁ 음

▁ //
▁ re
간 지
갔 으면
거 다

건 강에
국 주의
그 게
그 녀
글 자
기 보다는
기 분이
깊 게
납 니다.
났 던
났 다

되 길
드 림

레 드
려 요
론 은
리 어
리 온
마 가
마 른
마 무리
매 니아
물 도
밀 리
밖 에는
보 시길
본 방
블 루
사 극
사 냥
사 진
상 으로
새 벽
세 한
스 .
아 담
야 ...

없 지만
역 에
오 히려
우 치
우 주연
유 미
음 ᄏᄏ

인 

인 트가
임 파서블
있 나
자 신
저 렇게
져 

주 에
짱 !

찍 는
초 등
크 리스
타 르
트 

트 와
파 괴
하 구만
할 꺼
했 어요.
행 크
헤 헤
현 재
영화 만
영화 라는
영화 관에서
▁영화 ^^
▁이 가
▁이 질
▁이 작품
▁아 리
▁그 것은
▁보 소
▁재 회
▁나 한테
▁나 홀로
▁하 자
▁하 ....
▁좋 습니다
▁사 막
▁감 당
▁있 으
▁지 존
▁한 결
▁한 달
▁한 표
▁한 장면
▁최 곱
▁안 목
▁1 이
▁만 듬
▁가 식
▁기 사
▁대 략
▁대 로
▁대 변
▁대 형
▁봤 다고
▁평 은
▁전 국
▁마 주
▁연기 파
▁여 고
▁생 겨서
▁잘 하네요
▁최고 입니다

▁않 음.

▁오 류
▁오 르
▁제 미
▁제 법
▁인 한
▁말 해
▁생각 하지
▁생각 하는데
▁자 는
▁같 네요.

▁못 볼
▁못 봤
▁못 하게
▁못 함

▁못 만든
▁미 루
▁미 흡
▁유 오
▁보고 ,
▁보고 서
▁감동 받
▁일 방
▁비 틀
▁부 여
▁뭐 지..
▁조 쉬
해서 는
▁10 개
▁고 현
▁애 를
▁재미없 다는
▁해 줄
▁쓰레기 .

▁참 다
▁반 가
▁웃 어야
▁싶 게
▁신 앙
▁눈 부
▁원 빈
▁이건 아니
▁난 다
▁3 대
▁3 부작
▁액션 .
▁액션 으로
▁하나 님
▁넘 겨
▁추 악한
없는 영화
에게 도
▁10점 .

▁극 과
▁연출 한
▁느낌 이다.
▁구 매
▁동 방
▁아이 들을
배우 도
▁요 구
▁만든 것
▁귀 에
▁단 점
▁일본 식
하나 ?

▁서 민
▁현실 

인가 .
보는 거
▁눈물 도
▁높 다
이었 다는
재밌 다

▁만들어 라
▁머 냐
지마 라

▁모르겠 음.
▁순 정
▁9 9
▁굿 .
▁적 응
▁피 어
▁듯 ...

메이 징
▁문 근
▁욕 나온
▁파 이팅
▁재밋 다

▁뭔가 를
▁찍 지
▁5 번
▁연기력 ,
▁크 루즈
▁실망 한
▁배우들 만
주인공 의
▁교 차
만들 어도
▁잔잔 하니
▁함 .
▁즐 기는
이지 .
냐? ?

만큼 도
▁감동적이 다
▁훌륭 하고
▁될 듯
▁싫 다

▁무섭 다

▁황 비홍
▁길 고
▁토 이
▁전쟁 이
좋아 하는데
▁배경 을
▁흐 른
▁슬프 다
▁좋고 

▁진정 으로
▁클 라스
▁꿈 이
▁브 레이
▁몸 에
▁충격 이
▁터 무니
▁어느 새
재미없 다

▁투 표
하시 면
▁얼굴 도
▁재미있었 고
▁흔 적이
▁갖 추
보게 되
다시 보고싶
▁전부 다
▁영화인데 도
▁높은 거
▁했는데 ,
▁몇번 이고
▁각본 과
▁듣 보잡
▁필 수
이라니 

▁순간 이
▁리얼 하게
▁안타깝 다

▁든 다

▁m y
▁놈 들이
▁그래픽 도
▁알려 주
▁깜 찍
▁멋지 다
▁전편 에
▁ᄒ ᄃᄃ

▁관계 를
▁화이팅 

▁전문 성우
▁여성 의
▁아프 고
▁류 의
▁나라 를
▁시간낭비 

▁짱짱 

알바 들
▁중간중간 에
▁슬픔 이
▁썩 은
an t
▁쌍 욕
▁쌍 팔
▁고통 을
▁연기자 들의
▁느껴진 다.
▁3D 로
▁방법 이
▁어지 간
▁어지 럽
▁봤을 땐
▁지겨 운
▁지겨 워
▁떠올 리게
▁기준 으로
어디 서
이쁘 고
(웃음 )
▁어째 서
▁프레 디
▁냄새 가
^- ^

로맨 스
▁졸업 작품
▁능가 하는
▁드니 로
▁단체 로
▁무의미 한
▁미스테 리
▁심사 위원
▁사로 잡
▁임청 하
▁어벤 져
▁이스트 우드
▁나발 이고
▁원맨 쇼
▁에이리 언
3 0
g ood
▁ 닐
▁ 래
▁ 킨
▁ 레기
▁ 녀석
가 기
가 라
간 다는
걸 린
걸 까?

겁 게
것 이다
게 도
경 은
그 때
글 고
기 동
기 면
나 머
날 의
날 로그
남 겨
냈 다.

녀 유혼
대 사가
더 이상
동 석
동 엽
되 었다.
된 다는
둘 이
뒤 로
라 !
란 다
랑 이
래 ?
러 브
려 나
려 한
력 도
로 이
릴 게
만 나
만 옥
만 하고
말 은
모 토
뭔 지
미 .
바 보
보 지말
복 이
볼 때
봅 니다.
뿐 인
생 긴
생 의
선 물
성 있는
써 서
씬 도
아 자
안 가
안 나
았 고
야 겠
없 다..

없 음.
엇 던
역 으로
왠 지
우 우
우 울
운 의
웠 지만
음 !

이 니까
이 영화를
입 견
입 장
잇 고
있 어요
전 설
제 의
죽 을
즈 는
질 에
짱 !
척 하는
청 춘
타 이
틈 이
피 니
필 드
하 던가
할 까?
해 질
해 버린
해 놓은
했 어
했 음.

혹 한
훈 훈
영화 다.

▁영화 고
▁영화 니까
▁영화 !!!
▁영화 일뿐
▁아 시
▁아 키
▁아 들과
▁보 실
▁나 네요
▁다 듬
▁하 차
▁없 다면
▁어 깨
▁어 렷
▁어 려서
▁너무 낮
▁사 형
▁재미 

▁지 우
▁한 건
▁최 선을
▁안 봤는데
▁1 도
▁가 미
▁가 질
▁재밌 습니다

▁전 무
▁전 통
▁마 사
▁마 크
▁잘 된
▁최고 !!!

▁않 는데
▁오 마
▁인 데
▁말 할수
▁말 하려
▁자 제
▁소 년의
▁스토리 ...
▁스토리 라인
▁남 편이
▁유 리
▁아니 었으면
▁감동 ..
▁일 점도
▁쓰 나
▁것 ,
▁것 인지
▁것 처럼
▁지루 해

▁드라마 입니다.
▁많 지만
▁중 에서도
▁중 딩때
▁부 자
▁뭐 

▁2 4
▁2 년
▁조 승우
▁내용 .
▁내용 전개가
▁10 00
▁10 자

▁완 소
▁고 은
▁고 정
▁저 의
▁애 정
▁애 절한
▁재미없 다...

▁해 적
▁해 라

▁명 곡
▁사랑 합니다
▁보는 듯
▁거 대
▁거 리가
▁시간 아깝다

▁살 릴
▁없는 것
▁이건 머
▁좋았 어요.
▁의 존
▁넘 친
▁성 유리
▁추 잡
▁죽 어서
▁몰 라서
▁한국 형
없는 게
▁후 진
▁했 을
▁했 다면
같은 영화
▁나오 는지
▁김 보
▁최악 이다.

▁이게 왜
▁극 적인
ᅳᅳ ;;

▁초 콜
▁로 긴
하다 ,
하다 ....
▁두 개
▁느낌 ..

▁화 해
▁심 은
▁기억 은
습니다 ~

▁당 당
▁당 하는
▁장면 에
▁차 가운
사람 만
▁드 폰
▁단 조
▁공포 영화

▁공포 영화의
▁줄 은
하나 는
▁서 인
▁보면 볼수록
▁짱 이다
▁남자 들의
▁낮 지?
▁맞 추기
▁만들어 놨
▁솔직 하게
더라 구요.
▁건 축
▁아름다 움을
▁문 학
▁욕 나오는
▁프 렌
▁8 0
▁편 이
▁파 란
▁파 트
▁모두 다
▁외 화
▁외 로운
▁경 이
▁캐릭터 에
▁캐릭터 들의
▁크 고
▁코미디 를
▁된 게
장면 만
▁긴장 을
▁독 백
▁달 아
친구 가
▁악 의
▁야 이
▁함 정
▁대사 ,
▁아쉽 긴
▁아쉽 네요
▁아쉬 워
▁스릴러 .
▁스릴러 의
▁기분 좋은
▁데 작
것같 아서
▁노래 만
▁미국 에서
▁나왔 는데
▁1편 도
할수 밖에
▁복 수가
▁될 수
▁감정 의
▁출연 료
감동 을
이야 ?
▁산 드라
▁갑 갑
▁만화 영화
▁친구 들
▁행복 해지는
▁양 산
하네 ..

▁완벽 히
▁엔딩 곡
▁시나리오 와
▁영화관 가서
▁헐 크
▁태 양
▁클 라
▁코믹 한
▁꿈 에
▁캐스팅 에
▁주연 으로
▁돌아 가는
▁웃음 도
▁엄마 와
▁숨 이
이야기 가
▁후반 에
▁후반 으로
▁여주인공 은
▁CG 도
▁키 워
군요 ..
▁죄 를
▁맛 을
▁트 라
▁초딩 이
▁취 급
나요 ??
▁화려 하고
▁존재 가
▁훈 련
거야 ?

▁있을까 

▁ᅳ ,.
버렸 다

▁각본 이
▁확실 한
▁금 방
▁그녀 는
▁크리스 틴
▁끝나 지
▁성우 를
▁201 5년
▁평론가 들은
▁관람 불가
영화중 에서
▁창 작
▁짧 아서
▁가는 줄
▁안나 와서
▁미화 하는
작가 가
▁무서운 거
▁나쁘 진
▁3점 

▁흘러 도
▁스타일 리쉬
▁아닌가 ?

▁아오 이
▁나라 의
지못 한
▁러브 스토리
가족 이
▁OST 도
▁시선 을
▁결론 이
▁안봤 으면
▁분노 의
▁녹 화
▁후속 편
▁싸이코 패스
보여 주는
오글 거
▁눈빛 이
▁찡 한
▁지구 를
▁마이너 스는
▁무언가 가
▁어머니 의
▁로그인 하게
▁떨어진 다

▁해리 슨
▁달달 한
▁인내 심을
▁가면 갈수록
▁데이 먼
▁영혼 을
▁화끈 하게
▁주말 에
▁n o
▁됨 .
▁저평가 된
▁옹 호
ᅲ. ᅲ
▁암울 한
잔잔 한
▁획 을
▁김명 민
▁지저 분
▁적나라 하게
▁유치뽕 짝
▁샤론 스톤
▁지하 철
▁피라 냐
) ,
2 의
: )

e 

s 

ᅮ ᅲ
▁ 릴
▁ 으면
▁ !!!!

▁ ^

▁ vs
것 .
게 이
결 이
고 에
굳 굳
권 을
급 이
급 영화
기 스
길 이
끄 고
끌 고
난 이
났 다
내 

놔 서
단 이
달 러
대 서
더 의
도 못
도 전
됩 니다.
드 벤
들 ...

디 에
라 ..

래 야
리 네
망 이
망 한
멸 의
무 라
뮤 지컬
민 서
반 도
보 이고
봤 자
비 판
뿐 .
수 작
슬 픔
싶 다
아 마
안 습
야 의
야 .

야 ?

약 간
없 었
오 버
올 린
용 이
위 에서
음 ....
이 이
인 한
일 도
일 때
일 체
임 !

입 은
잊 혀
자 랑
전 거
전 기
져 요
조 절
조 한
좋 겟
좋 앗
중 

중 인
증 에
지 와
지 ....

천 국
카 시
태 규
터 짐
테 이크
텔 링
팬 더
프 랑스
하 듯
하 트
하 냐

할 께
할 말
햇 던
했 을까
행 이
헌 터
현 우
호 화
홍 콩
흥 행
.. ;;

영화 !!

▁영화 ~~
▁이 룬
▁이 슈
▁이 주
▁이 만큼
▁아 랫
▁아 들의
▁아 날로그
▁그 땐
▁그 은
▁그 리스
▁보 물
▁재 해석
... ᄏᄏ
▁정 답
▁나 간
▁나 빠
▁하 필
▁없 나?

▁어 야
▁어 줍
▁어 진
▁내 스타일
▁있 네요
▁최 대한
▁안 죽
▁1 .
▁1 화
▁스 마트
▁가 게
▁대 리
▁전 성
▁무 거
▁무 삭제
▁무 책임
▁잘 한다
▁주 면
▁더 러
▁개 떡
▁제 정신
▁인 식
▁말 하지
드라마 ..
▁자 존
▁못 지
▁못 함
▁못 하지만
▁소 리를
▁알 아서
▁알 면서도
▁본 인이
▁미 군
▁볼 껄
▁감동 으로
▁별 이
▁쓰 레
▁지루 

다는 ..
▁부 인
▁뭐 임
▁역 을
▁역 작
▁역 활
▁10 0분
▁만들 다
▁만들 었던
▁고 로
▁재미없 어요

▁재미없 었던
▁재미없 음.

▁참 ...

▁되 새
▁거 침
▁좋아 라
▁싶 네요

▁신 들린
▁눈 만
▁실 존
▁실 종
▁불 꽃
▁불 사
다가 도
▁작품 ,
▁작품 이다.

적이 다.

▁살 기
▁난 감
▁넘 버
▁때 론
▁몰 래
▁한국 에
▁후 유
▁후 에도
▁했 다는
▁현 빈
인데 .
▁괜 춘
▁최악 이었
에게 서
▁세 트
▁위 하여
▁연출 로
▁연출 에
▁로 보
▁느낌 ?
▁구 로
▁구 원
▁따 른
▁동 정
▁동 참
▁동 호
▁잼 써
▁이야기 ...
▁이야기 ..

!!!! !!
▁기억 하는
▁들 을
▁괜찮 아
▁엄 태웅
▁발 랄
▁졸 려
▁박 영
▁망 했는지
▁무슨 내용인지
........ ..

▁볼만 

▁결말 

▁이상 해
▁보기 드문
▁속 편이
▁선 수
▁선 전
▁애니 로
▁가슴 찡
▁없고 ...

▁낮 춰
하지만 ..
▁방 식
는지 

▁영상 을
▁음악 의
▁몇 년이
▁간 절
▁간 다

▁모르겠 네요
▁건 데
▁극장 서
▁필요 는
▁9 점은
나오 는거
▁파 리
▁치 명
▁모두 에게
▁7 점은
▁추천 .

▁갈 아
▁코미디 .
▁코미디 .

▁실망 스러운
▁개봉 했을때
생각 하게
▁어디 선
▁알았 다

▁싸 우고
▁모습 도
▁아쉽 고
▁아쉽 네요

▁자체 를
▁시리즈 

▁데 드
▁데 려다
▁메 리
▁없었 지만
▁부족 하다.
▁않았 다
▁않았 는데
▁디 아
▁타 짜
▁삼 국
▁보고싶 어
▁뒤 집어
▁사실 에
▁사실 적인
거같 음
▁양 조위
▁잡 은
▁졸작 이
▁보았 다
▁역사 의
▁애니메이션 은
▁설정 ,
▁후회 하지
▁더빙 도
▁잔인 하지도
▁재밌어요 ~
▁라 면
▁철 없는
▁이정도 는
▁ᅲ ᅮ

▁장르 에
▁200 5년
▁쳐 도
▁인물 들이
▁교훈 이
▁이후 의
▁평가 가
▁사회 를
▁혹 평
▁ᄍᄍ ᄍ
10 자

▁.... ..
▁당신 을
▁기다 리고
▁봤어요 .

라니 ..
▁O CN
▁아버 지를
-_- ;;

-_- ;

▁지루함 .

▁영화다 운
▁불편 하고
▁운 운
▁흥행 에
남자 의
▁TV 로
▁이런영화 에
▁리얼 한
▁안타깝 고
▁영화인 듯

▁급 전개
▁분위기 의
▁참신 하고
▁먹먹 해지는
해진 다

▁끝내 주는
▁쓴 거
지금 까지
▁끼 어
명작 

▁바보 가
▁완성도 는
▁요소 는
실망 

▁화이팅 !!

▁이러 니
▁이러 한
▁2시간 동안
▁사건 을
▁사건 의
▁행동 이
▁다가 오는
▁환상 의
일뿐 

소재 로
안되 게
▁일어 난
▁톰 행크
▁상상력 을
▁흐름 을
▁스케일 도
▁활 약
▁이루 어
▁시시 한
▁좌 파
▁나옴 

▁외계 인이
▁뽑 아
▁빡 쳐서
주고싶 은
▁줌 

▁18 

~~~~~~~~ ~~~~~~~~
▁어처구니 가
▁조선 족
▁민망 한
영환 데
▁탐 욕
▁죽을 뻔
▁아닙 니다
아무 튼
▁볼거리 도
▁내면 의
▁택 시
▁극단 적인
▁ᄅ ᄋ
▁힘내 세요
▁집어 넣
▁V ery
남기 는데
▁담담 하게
▁다녀 온
▁한순간 도
▁납득 이
▁영구 와
▁가만 히
~♥ ~♥
na ver
▁끊임 없이
▁서서 히
▁롯 데
▁강호 동
▁단언 컨
▁주옥 같은
' 에
7 8
` 

a 

a k
i g
i ght
u m
▁ 균
▁ 삭
▁ 슨
▁ 졌
▁ 쳤
▁ 니까
▁ ???
▁ ;;;

감 각
감 으로
개 판
걸 고
게 된
계 상
고 를
구 난
구 로
국 가
그 레이드
금 이
급 으로
껴 서
끝 에
나 잇
나 요

남 녀
네 !
니 발
단 의
대 표
됬 는데
래 

레 미
려 야
령 이
로 선
루 니
르 지
리 .
리 브
리 얼
리 우드
만 원
말 에
맨 이
메 다
몸 매
뭐 가
미 드
바 다
방 을
버 림

별 한
본 사람
볼 까
분 히
비 

비 하
사 로
산 이
수 한
쉽 게
스 랑
스 탈
스 파
시 노
심 과
아 씨
안 된
안 쓰
어 렵
없 네요
없 으면
엇 다

엉 성
에 효
여 도
예 전에
왔 지만
우 이
위 로
인 표
인 들은
일 세
일 수도
있 었던
자 마자
점 에
정 씨
졸 라
주 로
주 변
진 지
집 중
집 니다.

짓 게
짱 !!

쪽 으로
차 가
코 가
키 의
틀 어
프 트
한 다..
했 네

희 를
.. ᄏ

영화 ~

▁영화 네
▁영화 보
▁영화 이다
▁영화 처럼
▁이 슬
▁이 웃
▁이 라고
▁이 전에
▁아 ~~
▁아 들을
▁그 딴
▁보 셈
▁보 장
▁보 호
▁재 수없
... ᄏ

... ^^

▁정 부
▁하 네요.
▁하 기에는
▁없 음..
▁어 쩐
▁어 메이징
▁사 나
▁사 춘
▁진 주
▁진 화
▁재미 지
▁연 계
▁지 속
▁지 식
▁지 원
▁지 친
▁한 물
▁한 다면
▁시 기
▁시 바
네요 ~~
▁안 다
▁안 가고
▁안 성기
▁1 %
▁1 억
▁스 며
▁스 톤
▁스 파
▁재밌 네

▁기 는
▁기 막
▁봤 으니
▁마 시
하는 영화

▁수 식
▁수 정
▁수 퍼
▁무 덤
▁주 원
▁배 운
▁생각 되
▁생각 지도
▁생각 합니다

▁왜 저
▁자 라
▁같 다..

▁알 리
▁미 사
▁일 드
▁비 명
▁비 비
▁장 만옥
▁지루 했다.
▁지루 했다.

▁지루 하지도
▁지루 하다고
▁재미있 습니다
▁배우 고
▁2 %
▁조 재현
▁10 여
▁끝 으로
▁고 3
▁애 썼
▁해 학
▁쓰레기 들
▁사랑 ..
▁사랑 하게
▁사랑 한다
▁보는 줄
▁거 리
▁좋은 거
▁좋아 하면
▁싶 네요.

▁눈 뜨고
▁작품 도
▁작품 으로
적이 며
지는 게
▁3 일
▁3 탄
▁완전 한
▁좋았 어요.

▁도 박
▁하나 를
▁할 까?
▁넘 치고
▁성 괴
▁때 부터
▁나오 네
▁별로 .

▁허 영
▁돈 아까운
연기 ,
▁구 하기
▁따 듯한
▁동 감
▁동 심을
▁심 어
▁심 하다
▁음 ....
▁캐 서린
▁당 하고
▁아이 리스
▁에 니
배우 는
▁이영화 에서
▁여자 와
▁그런 건
▁와 이어
▁차 원이
▁귀 가
▁존 1
▁일본 애니
........ ....
▁아무 래도
▁몰입 감이
▁리 플
▁과 한
▁속 지
▁매력 

▁걸 레
▁스릴 은
▁짜증 난다
▁원작 보다
▁맞 은
▁방 식이
▁계 시
▁정도 .

▁높 다

재밌 음

▁음악 만
▁있었 다

▁몇 일
▁몇 안되는
▁돌 리도
더라 ...

▁건 진
▁피 가
▁하고 ...
나오 면
▁언 어
▁모두 를
▁외 엔
▁버 리는
▁5 00
▁캐릭터 들도
▁연기력 을
▁코미디 로
▁대박 이다
▁독 창
▁개봉 하지
▁배우들 로
▁계속 해서
▁표현 을
던데 ..

▁잔잔 히
▁영화에 선
▁함 .

이상 실
▁잼있 네요
▁네 가
▁메 인
▁없었 고
▁없었 음

▁없었 다면
▁보다 보면
이란 걸
▁정신 건강에
▁제작 한
▁1편 과
▁왜이 럼
▁통 한
▁각 인
▁못한 다

▁못한 다.

▁감정 선
감동 이
▁안되 는데
▁싫 어서
▁친구 를
좋아 해서
인듯 .

▁팬 이라서
▁헐 ...
▁큰 일
해요 ..
▁책 도
▁몰입도 는
▁암 살
▁돌아 온
▁멋있 게
▁히 트
▁더빙 을
들과 는
▁엄마 는
▁채 우
▁색 다
하겠 지만
▁느낌이 랄까
▁이름 으로
▁비슷 하게
▁재미있었 다.

▁실화 라고
▁실화 라는
▁흔 해
▁트 루
▁벌 어
▁느낄 수있
▁19 세
▁다음 에
▁이미 지가
▁허무 하고
▁자연 스럽고
▁잃 지
▁봤어요 ~
▁에로 틱
▁상영 시간
▁슈 스케
하자 마자
▁회 사
▁M C
▁아닐 까?

▁써 도
▁됐 다.
▁안타깝 다.

▁몰랐 다.
▁m bc
▁맥 라이언
▁승 화
▁그때 는
▁흥미진진 하고
▁안타까 움
▁미안 하지만
대박 

▁연출력 도
▁완성도 를
▁대한민국 의
▁죽음 의
▁플 래
▁나라 가
▁정치 적
▁인상깊 은
▁심심 할때
▁러브 라
마음 을
일까 

▁역할 이
▁엑 스트라
▁슬픔 을
▁밝 은
▁용서 가
▁짠 한
▁보시길 

▁소녀 의
보여 주
▁꼽 을
▁풋풋 하고
▁연결 이
▁니콜 키드먼
괜찮 은
▁폴 워커
▁영화보는 내내
▁망쳐 놨
▁고마 워
▁비현실 적
▁초등학생 때
▁스크린 으로
로써 는
▁옥 의
▁됩 니다

▁위로 가
하고자 하는
▁최민 수
▁유아 용
▁여자친구 랑
▁브루스 윌리스
▁잊혀지 지않는
▁프레 데터
▁어리 석
비슷 한
안타 깝
▁기괴 한
▁박신 양
▁숨막 히는
▁스펙 타클
▁이모 양
▁어중간 한
▁눈요 기
▁닌 자
일라 잇
ᄏ1 ᄏ1
▁강혜 정
? !

a st
a in
e e
l t
ᄅ 

▁ ᅡ
▁ 롭
▁ 믹
▁ 쟁
▁ 다.

가 요
같 애
겁 고
것 만으로도
게 스트
경 의
계 에
공 의
공 이
괴 물
그 림
그 의
그 것도
끝 도
끼 고
낄 낄
남 긴
노 

느 님
다 이
단 순
대 본
대 장
더 군요

동 물
되 나
되 야
되 어야
드 리고
따 름
때 까지
라 !

랍 시고
레 쉬
렸 는데
로 게
로 버츠
리 화
마 에
마 의
만 해도
맛 에
맨 날
몇 번
모 루
모 자
무 어
물 고
바 뀌
방 에
버 려서
볼 게
봅 니다

봤 네
부 부
분 들도
비 의
사 

사 기
상 식
설 레
설 명
순 례
스 파이
시 로
시 장
시 지
실 한
씁 쓸
아 역
안 보
알 려
애 기
애 를
야 만
어 ?

없 다고
었 습니다
엔 틴
외 국
우 와
우 리가
운 동
으 라면
은 이
일 지
일 까?

있 어야
자 유
자 들을
적 도
져 도
죽 고
줄 알고
중 요
즈 를
지 던
진 씨
짝 퉁
착 한
총 사
탄 탄
탈 리
테 니
테 스크
투 자
파 는
판 타
편 에
평 범
풀 이
하 잖아
한 다..

햇 지만
회 를
회 부터
휴 

.. ᅲ
.. 이런
▁영화 다..

▁영화 들을
▁영화 만들
▁영화 보면
▁이 길
▁이 문
▁아 !
▁아 웃
▁아 일
▁그 나저나
▁나 갈
▁하 니까
▁하 시는
▁좋 겟
▁없 냐
▁없 을까
▁어 드벤
▁너무 지루
▁내 보내
▁재미 난
▁있 네요

▁지 브리
▁한 때
▁최 진실
▁안 감
▁안 의
▁안 질
▁안 드로
▁스 탈
.... 이
▁가 리
▁가 위
▁가 졌
에서 ,
▁대 다
▁봤 네요.

▁봤 음.

▁평 정
▁연기 나
▁무 려
▁무 성
▁여 주는
▁여 실히
▁생 겨
▁생 뚱
▁잘 난
▁주 체
습니 까?
▁평점 만
▁오 드리
▁제 한
▁이런 데
▁인 공
▁인 연
▁인 셉션
▁인 피니
▁생각 합니다
▁왜 봤
▁자 격
▁같 다는
▁못 만드
▁소 문
▁소 외
▁알 앗
▁알 지
▁알 수있는
▁본 후
▁본 질을
▁유 역
▁볼 땐
▁감동 ...
▁별 1
▁별 론
▁별 을
▁별 하나도
이라 지만
▁비 급
▁비 추천
▁것 들
▁것 으로
▁장 치
▁드라마 에서
▁많 다
▁중 고
▁중 구난
▁재미있 습니다.

▁그냥 ...
▁사람 으로서
▁2 개
▁조 디
▁조 명
▁조 커
▁내용 이나
▁역 부족
▁끝 남
▁고 수
▁재미없 네요
▁재미없 음..
▁쓰레기 도
▁쓰레기 영화.
▁명 예
▁되 길
▁반 짝
▁보는 듯한
▁웃 다
^^ ;

▁봐 라.

액션 도
▁좋아 했
▁시간 아깝다
▁시간 여행
▁싶 다는
▁싶 어지는
▁신 뢰
▁신 부
▁처 절한
다고 해서
▁불 만
▁작품 ..

▁작품 이었
▁작품 이라고
▁원 망
▁원 초
▁3 명
▁기대 하면서
▁액션 씬이
▁성 숙
▁때 리고
▁처음 본다
▁몰 려
▁한국 이
▁했 을까
▁나오 면서
▁아깝 네
▁극 을
▁극 의
▁별로 다.
▁강 시
▁강 철
▁관 리
▁초 라
연기 와
▁연출 .

▁분 석
▁로 버츠
▁짜 여진
▁명작 ...
▁명작 입니다.
▁이야기 로
!!!! !!!

!!!! !!!!

▁뭔 내용
▁아이 들도
▁그래 두
▁여자 들은
▁발 톱
▁와 ....
▁포 스
▁주인공 과
사람 들의
▁마음 속
▁줄 거리는
▁박 한
▁일본 판
▁망 치는
▁볼만 하던데
▁현실 성도
▁리 스트
▁속 상
▁걸 어
▁선 교
▁선 배
▁선 입견
▁절 라
▁짜증 남

▁모르겠 는데
▁모르겠 음

▁굿 !!

▁아름다 워
▁근 육
▁파 멸
▁치 우
▁재밋 네요
▁언 론
▁모두 들
▁7 번
▁버 티
▁5 점이
▁크 리
▁실망 .
▁공감 은
▁대박 !
▁된 다면
을때 가
▁먹 을
▁대단 하다.

▁가족 끼리
▁질 문
▁흥미 가
▁악 평
최고 !

▁카 타르
▁베 낀
▁만들었 다
▁진심 

▁시리즈 로
▁떠 난
▁케 이지
▁천 녀유혼
▁웃기 긴
▁노래 와
▁미국 에
▁목 표
▁디 자
▁통 찰
▁못한 다
▁못한 다.
▁글 구
▁그러 면
▁복 제
▁될 거
▁될 것
▁싶은 건지
▁출연 자
▁느끼 지
감동 적이고
~~~~ ~

▁특히 나
▁장난 이
거같 다.
거같 음

▁초반 은
인듯 ...
한데 ,
▁배경 ,
▁팬 티
▁둘 러
구만 ..
▁보았 지만
▁당시 의
▁애니메이션 을
▁예술 을
▁0점 도
▁후회 안
▁오래 오래
▁돌아 가고
▁어느 것
▁따라 서
▁불쌍 하다
▁풀 었
▁광 팬
▁괴 로
▁라 디오
▁돋 는
▁왕 따
▁걸작 .
▁얼굴 만
▁얼굴 을
▁로맨스 를
▁철 저히
군요 ...
재밋 다
▁흔 하디
노잼 노잼
▁벌 어지는
▁200 0년
그런 가
▁판타 지를
▁보니 깐
▁압 축
▁안된 다는
▁빈 디젤
▁보여준 다.

▁즐거 움
▁2점 부터
▁보여주 지
▁그녀 가
▁운 명을
▁필 모
▁감성 적인
▁돋보 였던
▁개연성 은
▁알겠 으나
▁안타깝 다.
▁능 력이
▁엉망 이고
줘야 지
▁놈 이
▁최고였 다.
▁안나 와
처음 부터
▁전설 이
▁법 칙
▁느꼈 다.

▁그림 이
작가 의
▁바보 로
▁신기 할
▁관계 가
▁중반 부
이에 요.
▁남아 돌
▁아마 도
▁예전 의
▁웬 만
▁메시 지는
▁늙 어
▁늙 었
▁속편 은
▁씬 이
▁하루 종일
▁꾸 준
소재 를
▁cg 가
지말 자
결말 도
▁굿굿 굿
▁괴물 이
▁밝 고
명이 서
▁밥 먹
▁어릴적 에
▁나타 난
▁칼 로
▁놀랍 다.

▁설레 는
▁뇌 리에
▁조잡 하고
▁선생 님이
▁났 다.
▁윌 스
▁농 락
▁아픔 이
▁뉴 스
▁생생 한
▁뒤로 갈수록
▁주변 에
하진 않
▁인내 심
om e
▁l ove
아무 것도
출연 진
요소 가
▁이민 기
▁무리 수
▁신비 로운
▁다루 는
▁디테일 한
▁하늘 을
▁최민 식
▁줍 니다.
바이 벌
▁앞뒤 가
▁끔찍 한
▁담겨 있는
▁빵터 짐
▁ᅳ.ᅳ 

▁다시보고싶 은
▁옹 박
▁14 0
▁기타 노
▁이성 재
▁평소 에
▁이종 석
▁르 네
▁이나 영
▁엽기 적인
▁모니 터
▁손꼽 히는
▁로멘 틱
카메 라
▁이순 신
▁잠수 함
▁이범 수
▁엉덩 이
▁쌍팔 년도
▁초콜 릿
3 

3 편
4 0
> <

@ @
E C
^ .
_ =
t h
u ck
w w
▁ 닫
▁ 므
▁ 뷰
▁ 앗
▁ 쩜
▁ ................
▁ 됨

★ 

가 도
같 지
거 지?
걸 작
검 색
겁 니다.
겠 음
겠 는데
겠 음

겠 지만,
겠 지?

관 리
관 에
그 닥
끝 이
너 스
네 ᄏᄏ
노 무
노 키
느 낀
니 잼
다 메
닫 는
답 니다
대 신
더 블
동 일
등 을
락 이
란 의
래 원
력 과
론 을
르 르
릴 뻔
메 세
면 도
무 협
민 을
받 아야
밤 에
버 렷
보 네
보 다

본 다.

본 건데
볼 타
봤 음

부 대
부 림
분 열
분 장
브 로
사 상
살 짝
상 관
세 번
스 오
스 토
슬 링
시 윤
신 경
싶 다

애 들도
어 든
없 구
없 어

엇 어요
여 친
예 상
왜 이래
유 천
의 사
이 즈
이 드라마
이 기도
인 기
일 듯
일 로
잉 

잘 하고
장 창
졌 음
조 의
주 

주 니
지 겹
지 난
지 지않는
차 고
처 리
최 강
침 을
팩 트가
포 장
한 이
할 머니
해 ...
해 ..

해 라.
했 다..

흐 흐
.. 아
영화 같
영화 ....
영화 임

▁영화 냐?

▁영화 ~!

▁이 와
▁이 지만
▁이 감독
▁이 것을
▁아 따
▁그 중
▁보 시는
▁정 글
▁나 게
▁나 나
▁나 같은
▁나 혼자
▁다 문화
▁하 지마라
▁하 야오
▁좋 네
▁좋 다!

▁없 구
▁어 거
▁너무 하네
▁내 리는
▁내 평점
▁진 하게
▁재미 업
▁있 네요.
▁있 기에
▁있 겠지
▁지 리
▁지 민
▁한 쪽
▁한 건지
▁최 종
▁시 키는
네요 ,
▁안 간
▁안 전
▁만 만
▁만 원
▁가 치는
▁가 운데
▁재밌 지
▁대 하여
▁봤 네
▁봤 는대
▁마 땅
▁마 세요.
▁무 작정
▁모 야
▁잘 라
▁잘 보았
어요 ?
▁않 습니다.
습니 당
▁평점 낮
▁평점 높
▁오 다
▁오 덕
▁오 른
▁개 빡
▁제 공
▁이런 쓰레기
▁인 과
▁배 슬
▁말 해준
▁말 하려고
~~ !!
~~ !

▁생각 과
▁왜 만들었
▁자 매
▁같 음.
▁못 되는
▁못 했지만
▁소 오
▁스토리 ..

▁스토리 텔링
▁알 고싶
▁본 영화중
▁본 시리즈
▁유 전
▁아니 다...

▁아니 었음
▁보고 또
하게 되는
▁쓰 지
▁장 근석
▁우 마
▁우 월
▁드라마 인데
▁많 지
▁작 살
▁작 업
▁작 작
▁작 정
▁중 심
▁재미있 네요.
▁재미있 던데
▁뭐 ...

▁뭐 냐

▁공 개
▁2 번째
▁조 악한
▁감독 

▁끝 .
▁고 릴
▁고 향
▁고 딩때
▁저 딴
▁해 냈
▁해 줘서
▁다시 보면
▁거 리는
▁좋아 하네요
▁싶 다..
▁신 성
▁바 꿀
▁바 래
▁실 력이
▁불 멸의
▁봤는데 

▁봤는데 .
▁봤는데 ....
하지 .
▁3 번째
▁기대 해
▁있는 것
▁의 아
▁할 것
▁때 우기
▁죽 어도
▁처음 보는
▁한국 식
▁지금 보니
▁나오 니
▁김 규
▁김 창
▁최악 ..
▁또 다시
▁10점 !

▁아깝 다!

▁별로 임

▁강 예
▁관 점에서
▁분 신
▁구 할
▁구 리고
▁따 지
▁심 장을
▁잼 났
▁들 려
▁들 었다.

▁당 할순
▁드 게
▁특 집
▁울 려
▁졸 립
을까 ...

▁무슨 생각으로
........ ...
▁서 세
▁볼만 했
▁볼만 합니다
하기 에는
▁흥 해라
▁과 감
▁짱 구
▁짱 !!

▁선 율
▁남자 들
▁짜증 나

▁짜증 난다

▁낮 다
▁눈물 나
이었 다면
▁인생 영화
재밌 는데
▁만들어 내는
▁전개 를
지않 을
▁모르겠 다..
▁한번 보고
▁적 합
▁피 디
▁하고 ..
▁욕 하면서
▁찾 았
▁파 헤
▁치 곤
▁외 치
▁찍 어도
▁경 쟁
▁영화였 습니다
▁영화였 습니다

▁5 ~
▁실망 을
▁실망 스럽
▁대박 .
▁대박 나
▁손 오
스트 너
▁약 을
▁약 빨고
▁놀 랄
▁먹 은
▁믿 음
▁질 러
▁질 이
최고 !
▁제목 도
▁베 르
▁만들었 다면
▁조금 더
▁조금 이라도
평점 에
▁만드는 게
▁웃기 기도
▁미국 은
▁이유 없이
▁형 태
▁그러 니
▁그러 니까
▁훌륭 하다.
▁살아 갈
▁수작 이다.
기를 

▁6 .5
이런 영화가
▁싫 다.
▁친구 와
▁무섭 다고
▁빼 놓
▁빨 아
부분 만
▁잡 을
▁총 질
▁오늘 은
▁들어 가는
▁예술 가
▁예술 이
▁책 이
▁브 라이언
▁히 틀러
▁주제 곡
들과 의
▁잔인 하기만
▁재밌어요 !
▁색 감이
▁광 해
▁이름 만
▁하지 말고
느낌 .
▁여주인공 도
▁티비 에
재밋 음
▁괜찮았 다.
▁트 와
▁네이버 는
▁네이버 에서
▁200 4년
▁200 3년
▁19 6
이였 다
이였 다.
이였 는데
▁ᄏᄏᄏᄏᄏᄏᄏᄏ ᄏ

▁ᄏᄏᄏᄏᄏᄏᄏᄏ ᄏᄏᄏᄏᄏᄏᄏᄏᄏᄏᄏᄏᄏᄏᄏᄏ
▁틀 리
▁어울 릴
모르 겠다
분들 께
▁에로 물
라니 ...
▁압 박
▁어쩌 라는
▁지루함 과
▁감독님 이
▁해야 하나
하자 는
▁놓 칠
▁빌 리
▁됐 는데
사회 의
▁급 하게
▁몰랐 다
▁a v
▁good !

시리즈 중
▁짧 지만
▁놈 들
▁안나 올
▁9점 

▁미안 하다
▁줄거리 도
▁줄거리 에
▁합 쳐
▁친 절
▁골 든
해라 .

▁멋지 다.

▁풀어 가는
▁ᄃᄃ ᄃ
▁촌 스럽고
▁노출 이
▁얻 은
▁미래 의
▁샤 말
극장 판
▁밑에 분
만으로 는
▁하루 하루
▁낚였 다
소재 는
▁cg 도
▁지루하다 ..

▁압권 

▁나타 나
bb bb
드립 니다

▁포장 한
▁썩 어
▁징 그
그렇 다고
▁등장인물 들이
▁해피엔딩 으로
캐릭터 가
▁죽여 버리고
▁꽃 보다
▁아버지 와
▁보인 다.
▁발견 한
▁18 세
보고있 는데
▁콘 서트
▁신파 극
원작 을
▁영혼 이
▁타이 밍
▁튀 어
뻔한 스토리
▁P D
▁장애 인
▁기대이상 으로
▁부끄 러
▁부실 한
▁언니 가
▁서부 극
▁하여 금
▁잊혀지 지가
▁열받 아서
▁익숙 한
▁새로 울
▁Good 

▁역량 이
▁불가능 한
▁기회 를
▁아담 들러
▁피터 팬
더라고 요
▁습 작
▁올레 티비
▁1회 부터
▁미션 임파서블
▁놀래 키
9999 9999
▁먹칠 을
▁매끄럽 지
▁노무 현
▁유치원 생
▁각각 의
▁이자 벨
▁친일 파
▁11점 을
▁ocn 에서
▁충무 로
▁어디선 가
. T
0 -
3 D
7 년도
8 0
S F
a p
g t
i r
u s
▁ 렁
▁ 렌
▁ 펑
▁ 험
가 끔
가 는데
각 기동
갖 고
개 뿔
거 

것 인지
광 수
국 을
군 데
그 럴
그 지
급 

기 리
기 전
길 바
꺼 라
났 다.
내 시간
닥 터
단 지
달 리는
대 결
데 기
데 리고
드 

들 인
들 때문에
듯 ,
딩 이
라 는데
라 ...

란 이
럽 다
레 터
리 암
맞 아
맥 스
멋 있
모 양
물 어
미 남
배 가
보 려
보 라고
보 자

봤 다..
부 일체
분 들의
비 행
뿐 ...

색 이
생 크
성 .
소 문
수 ,
쉬 는
시 즘
신 과
쏘 는
쓰 래
씬 을
아 픈
양 반
어 려
없 지
었 어
었 습니다.

에 비해
역 이
연 습
열 자
열 심히
오 른
온 다.
온 다

요 원
우 면서
울 고
으 려다
을 것같
일 지도
자 신을
잔 데
적 ,
점 으로
점 수를
정 신이
줘 요
지 상
집 니다

짜 고
찍 은
천 포
쳤 다
출 신
카 의
코 드가
터 지는
페 이지
편 도
포 스
폭 행
피 가
피 의
한 가
함 !
현 지
형 을
호 

호 는
흑 흑
힐 링
.. 뭐
.. 그래도
영화 와
영화 !!
영화 라니
▁영화 까지
▁영화 다...

▁영화 이지만
▁이 면
▁이 시
▁아 자
▁아 시는
▁그 걸로
▁재 연
▁재 일
▁나 갔
▁나 을듯

는데 ...

▁다 죽
▁좋 으
▁좋 다..

▁좋 네요.

▁좋 음.

▁없 습니다.

▁없 지만,
▁어 필
▁어 정한
▁너무 잘
▁사 정
▁사 소한
▁감 싸
▁있 다..
▁지 날
▁지 내
▁지 네
▁지 능
하고 있
▁안 티
▁안 간다.
▁가 지게
에서 부터
▁재밌 네요.

▁재밌 음.

▁기 반
▁대 구
▁대 여
▁봤 어도
▁봤 으나
▁전 범
▁수 영
▁무 뇌
▁무 방
▁모 래
▁모 처럼
▁여 고생
▁잘 해
▁잘 하시
어요 !!
어요 ^^
▁주 셔서
▁평점 테러
▁오 ~
▁오 줌
▁개 성이
▁개 짜증
▁배 웠
▁배 제
▁말 대로
▁생각 밖에
▁자 료
▁같 다...
▁못 잡
▁못 하
▁못 함.
▁소 비
▁남 김
▁남 네요

▁알 맹
까지 가
▁미 워
▁유 니
▁볼 걸
▁볼 거리는
▁감동 에
▁일 제
이라 이트
▁비 가
▁비 오는
▁장 기
▁우 베
▁우 정이
▁드라마 ~
▁드라마 !!
▁드라마 ...

▁그냥 

▁뭐 든
▁뭐 하냐
▁뭐 하러
▁공 격
보다 니
▁2 도
▁조 롱
▁고 집
▁애 쓴
▁해 병
▁쓰레기 다.
▁쓰레기 다

▁쓰레기 다.

▁사랑 .
▁사랑 할
▁참 ....
▁되 는지
▁반 항
▁보는 사람
▁좋아 하
▁좋아 했는데
▁상 당
▁싶 네요
▁신 동엽
▁눈 감
▁눈 은
▁작품 들
▁없는 ,
▁최고의 드라마
▁기대 보다
▁의 식
▁성 지
▁추 상
▁처음 이었
▁몰 고
▁했 다고
▁했 지만,
▁나오 다니
▁김 남길
▁이게 뭐야
▁아깝 네요
이나 마
▁멋 짐
▁초 점을
▁초 호화
▁연출 이나
▁분 은
▁짜 고
▁두 뇌
▁두 서
▁명작 중의
▁동 의
▁잼 씀
▁뭔 내용인지
▁들 었다

▁괜찮 다
▁괜찮 을
▁에 혀
배우 를
▁요 란
리는 게
▁포 커
재미 도없고
▁귀 한
▁드 리고
것도 아니고
▁울 뻔
▁공포 의
진짜 ..
▁박 용
▁박 철
ᄏᄏᄏᄏᄏᄏᄏᄏ ᄏ

........ .....

▁서 사
▁볼만 은
▁볼만 해요
▁현실 에서
하기 만한
다니 고
▁과 하게
▁속 아
▁반전 까지
▁매력 도
▁빠 르고
▁빠 르게
▁말이 되
▁걸 렸
ᅮᅮ ᅮ

▁스릴 감
▁가슴 으로
는지 ...
이었 으면
▁인간 에
▁있었 다
지마 라.
▁집 안
▁극장 개봉
▁굿 !
▁모든 면에서
▁한번 에
처럼 ,
▁아직 은
▁근 거
▁수준 도
▁욕 할
▁욕 하고
▁전혀 없는
▁재밋 음

▁7 ~
했던 거
▁갈 릴
▁여운 과
▁코미디 의
▁실망 스러웠
▁호 강
▁독 재
▁손 을
▁놀 람
만들 고
▁표현 된
▁표현 하는
던데 ...

▁야 마
▁야 쿠
최고 다
▁제목 부터
▁잼있 다

봤는데 도
봤는데 ...
▁나오는 게
▁베 일
▁만들었 나
▁스릴러 도
▁기분 나쁜
▁잠 재
▁자체 

▁자체 의
입니다 !

▁개인 적
▁니 다

▁보다 도
▁부족 

▁웃기 려고
▁디 지
▁나왔 음
▁국 뽕
ᄍᄍ ᄍ

▁보고싶 다.

▁못한 게
거리 며
▁느끼 는게
▁여운이 남는
▁뭘 말
▁변 명
▁변 함
▁갑 니다.

해야 만
▁친구 들이랑
▁무섭 지도않고
♥♥ ♥♥

▁용 기를
▁시청 자가
▁토 르
▁양 반
▁입 고
▁추억 돋
▁추억 에
▁깨 우
▁전쟁 에
▁엔딩 까지
▁힘들 어
▁들어 오
▁들어 왔
구만 .
▁종 결
▁종 북
▁임 수정
▁임 팩트가
▁보았 습니다.

시길 ..

▁클 리
건가 ..
▁몰입도 를
▁백 만
▁킬링타임 도
▁오래 전
▁o r
▁재밌어요 .

▁궁금 하게
▁빠져 들어
재미없 음

▁너 도
이야기 를
▁로맨스 도
자체 도
▁잘봤 어요

▁단순 하고
▁늘 어지는
▁딸 을
했지만 ..
▁쳐 다
아이 들이
▁상황 과
보고싶 다
보고싶 은
▁킬링타임용 

▁어울 려
▁소설 의
▁영화인데 ,
▁같은데 ...
▁다르 겠지만
▁했는데 ...
▁예상 되는
을듯 ...

을텐데 ...
▁윤 아
▁윤 제
버렸 다.

▁까 메오
▁잃 어
▁잃 었
▁멜로 영화
▁어쩌 고
▁금 지
▁금 치
▁어이없 게
▁그녀 를
▁크리스 마
▁해야 지
▁생각해 보면
▁만점 

▁중요 한건
▁개연성 없는
▁잘만들 었다
▁급 급
▁몰랐 던
▁엉망 인
▁망작 .
▁과거 에
▁최고였 다

▁미안 해
연출 이
▁힘든 데
▁법 한
▁사라 지고
▁바라 며
▁현재 의
▁적당 

▁노력 은
▁유머 와
▁바람 피
▁탈 을
▁면 도
▁사건 이
▁퍼 펙트
▁춤 을
▁다가 오
▁어렵 게
▁A V
▁딴 짓
▁시선 이
▁안봤 지만
▁헛 소리
▁슈퍼 액션
드립 니다.
무비 

티비 티
▁말이필요 없다
▁포기 한
▁해피엔딩 이
▁흡 사
▁이때 까지
▁아픔 과
▁섬세 하고
▁좌 절
▁밋밋 하고
▁쵝오 

▁나옴 .
▁e bs에서
▁ᄋ 

▁슬퍼 요
▁분들 께
노래 도
▁줌 .
▁놀랐 다.
▁쿠 바
▁쿠 엔틴
▁달달 하고
▁최강 의
▁조용 한
▁투자 한
▁봤을때 는
▁봉 태규
▁1,2 ,3
▁8점대 는
▁야동 을
▁k bs
▁싶을 정도로
▁떠올 랐
▁됩 니다.
▁됩 니다.

▁테러 리스트
아름 다
▁40 대
▁u p
▁효 민
▁드림 스
▁하여 간
▁주지 훈
▁한방 에
0000 0000
▁암걸 리는
▁콜린 퍼
▁밖 에는
▁쓸쓸 한
▁획 기
▁질질끌 고
★★★★ ★★★★
▁옴 니버스
▁민주 주의
채널 에서
▁아이디 어가
▁내취향 은
@강추@강추 @강추@강추
▁오유 에서
▁지상 파
개연 성
▁쥬라기 공
▁며 칠
▁신민 아
▁이선 균
▁샤를 리즈
▁여고 괴담
▁어벤져 스
스오 피스
, ..
, 음악
1 ,2
3 년도
7 점
8 년도
= =
b l
g m
u st
x x
ᅮ ᅲ

▁ *
▁ z
▁ ᄍ
▁ 껴
▁ 칙
▁ ,,,
▁ 님들
가 치가
거 임

거 에요
게 리온
고 만
고 어
길 .

나 은
내 인생
넘 치고
년 을
는 가

당 신
대 기
대 에서
데 가
됩 니다

두 개
둘 다
드 래곤
떄 문에
력 은
렸 다.

리 던
리 뷰
먹 어
모 로우
뭉 클
미 달
박 하고
받 지
보 셈
불 편
블 록
블 리
비 밀
빠 지고
뿐 ..
삶 을
상 처
새 로운
서 로
선 징
성 만
세 트
수 

수 종
시 걸
식 상
심 심
앤 더
어 나서
어 이가
엉 

에 의
여 ..
연 결
연 씨
였 을
영 원
온 다
욕 이
용 으로도
우 월
유 루
으 므로
음 ....

이 요
이 젠
이 어서
이 것도
이 지만,
인 것같
일 텐데
자 극
자 매
자 살
자 신이
장 하는
잼 잇
정 

종 교
주 도
주 려고
죽 은
줬 는데
지 구
지 노
지 라
진 한
쯤 은
천 만
츠 의
코 비
크 래
클 럽
탐 정
토 가
통 쾌
폐 지
포 기
포 드
하 도
하 려다
한 건지
해 낸
했 네요.
했 다...

했 었던
확 인
황 당
영화 네요
▁영화 ,,
▁영화 ~~

▁영화 평점
▁영화 보단
▁영화 보다는
▁영화 인가?
▁영화 한편
▁이 고
▁이 명
▁이 브
▁이 장
▁이 다.
▁이 스라
▁그 레
▁그 후
▁그 이하도
▁보 아야
▁정 점
▁정 적인
▁나 른
는데 ..

▁좋 구
▁좋 다는
▁좋 으면
▁없 어요.
▁없 잖아
▁어 을까
▁사 례
▁사 서
▁사 장
▁진 수를
▁재미 까지
▁있 다가
▁있 어요.
▁있 음.

▁지 껄
▁지 닌
▁한 게
▁시 킨
▁안 남
▁안 달
▁안 성
▁1 은
▁스 러
.... 너무
▁기 원
▁대 기업
▁봤 네

▁봤 건만
▁진짜 ..

▁마 련
▁마 르
▁마 피아
▁연기 들이
▁연기 들도
▁수 위
▁수 호
▁무 표정
▁무 개념
▁모 건
▁여 군
▁여 동생
▁주 의
▁최고 다..
▁최고 !!!
▁최고 입니다.
▁평점 올
▁평점 10점
▁이런 류
▁인 줄
▁배 두
▁말 인가
▁생각 날
▁생각 안
▁생각 함.
▁생각 한다
▁왜 냐
▁왜 들
▁왜 그러
▁못 했다

▁스토리 만
▁남 이
▁남 지
▁남 한
▁남 주인공
▁남 아도
▁알 만
▁알 겠다
▁본 드
▁본 다는
▁느 려
▁유 준
▁아니 다..

▁볼 까말까
▁감동 까지
▁비 긴
▁쓰 면
▁것 들은
▁지루 했던
▁지루 하네
▁중 심으로
▁재미있 습니다.
▁부 성애
▁배우 에
▁조 은
▁감독 .
▁감독 이나
▁끝 .

▁고 고
▁고 루
▁고 쳐
▁저 건
▁저 격
▁애 한
▁해 운
▁해 보고
▁명 량
▁되 버린
▁거 친
라고 

▁싶 다..

▁노 인
▁작품 !

▁작품 인데
▁액션 영화

▁도 움
▁성 질
▁처음 이다.

▁후 려
▁했 었는데
▁나오 네요
▁10점 주
▁세 번째
적으로 도
▁허 비
▁관 찰
연기 .
연기 자
▁두 가지
▁느낌 ...

▁구 석이
▁동 경
▁동 원
▁기억 하고
되는 게
▁우리 를
▁우리 와
▁우리 집
습니다 !!

습니다 ^^
▁당 할
▁에 디
▁에 스
▁발 암
▁만든 건지
▁그런 게
▁그런 대로
▁아까 워요
▁포 스가
▁꼭 봐라
▁차 인표
▁주인공 인
▁귀 요미
▁설 정도
▁슬 로우
▁유치 하기
▁유치 함.
▁유치 하긴
▁일본 영화가
........ ....

▁점 도
▁서 글
▁서 영
▁서 유
▁결말 의
▁다른 사람
▁누 워
인가 요
▁반전 ,
▁걸 려
▁절 묘한
▁짜증 날
▁원작 도
▁맞 고
▁긴 급
▁계 단
▁충 족
▁만들어 주세요
스러 움이
지않 음
▁간 다.

더라 ..

▁건 달
▁굿 ~
▁적 어
▁피 로
▁4 점대
▁새 드
정말 로
▁근 본
▁욕 설
▁욕 심이
▁8 점이
▁올 만에
떨어 지
▁치 면
▁외 에
▁경 기
▁영화였 음
▁영화였 음

▁먹 어
▁대단 하다고
생각 해
던데 .
▁영화에 요.
▁남는 다
▁대사 에
최고 최고
이지 ?
이지 ..
▁제목 처럼
이상 한
▁잼있 고
▁내용이 지만
▁조금 이나마
▁스릴러 는
▁기분 나
▁잠 만
▁긴장감 ,
▁자체 로
▁메 릴
▁요즘 엔
▁날 카
▁웃기 네
▁않았 고
▁나왔 을
▁나왔 다.
▁타 는
▁시작 한
▁각 성
▁나와 는
▁영화라고 ..
▁감정 표현
감동 적
기를 ...

▁희 극
▁안되 게
▁변 하는
▁좋겠 네요

▁산 타
▁갑 니다
▁만화 

▁용 의
사랑 하는
▁빨 려
합니다 ^^

▁봤던 건데
하네 ...

▁청 소
▁힘들 다.
▁분위 기만
▁이딴 영화
▁이딴 영화가
▁환 타지
구만 ...
▁찾아 가는
▁종 종
▁뿐 ...

▁뿐 이고
▁보세요 ..
보니 깐
▁포스터 를
▁""" 이
작품 이
▁얘 네
▁지나 가
▁폭 파
▁낫 겠
▁낫 다고
▁궁금 하다.

▁별점 은
재미있 어
▁T h
꿀잼 

▁나올 수
▁나올 법한
▁말도 안돼
▁끌 리는
▁얼굴 에
▁비슷 해서
▁영상미 에
▁재미있었 습니다.
▁첫 장면
▁사람들 에겐
▁비교 도
▁괜찮았 고
▁죄 책
▁발연기 가
이네 ...

▁s m
▁벌 레
▁네이버 에
▁알게 되
▁딸 의
▁ᄏᄏᄏᄏᄏᄏᄏᄏ ᄏᄏ
▁ᄏᄏᄏᄏᄏᄏᄏᄏ ᄏᄏᄏ

▁테 스트
▁c 급
▁있을까 .
구요 .

▁소설 이
▁다르 다
을텐데 ..
1점 준거
기대 를
을수 있는
▁묘 사가
▁즐거 워
던가 .
▁예쁘 다
▁벗 고
▁끝나 면
▁생각해 볼
▁회 복
▁흥행 을
▁향 수를
▁아닐 까?
이라니 ..
하지않 는
▁순간 순간
▁댓글 알바
▁나이 를
▁시절 을
▁시절 이
만이 쁨
▁-_- ;;
▁이리 저리
영상 미
연출 ,
▁줄거리 를
▁물론 이고
▁재밌는데 

▁설명 은
▁결혼 하고
▁있다는 걸
▁미화 시킨
▁사라 졌
▁덕 후
▁SF 영화
▁워 킹
▁진실 은
▁이러 면
▁천재 적인
▁놀라 게
▁짓 을
▁접 한
▁행동 을
▁어렵 다.
▁웬 지
▁4점 

▁곳 에
아아 아아
▁내생 의
결말 은
▁연예 인이
▁악역 이
▁안본 다

▁그럭저럭 

▁나타 내
제목 이
한국 영화
보지마 세요
▁싸이코 패
▁쇼 생크
▁채널 을
▁꼽 히는
▁미치 지
▁이루 는
▁지겹 다

▁섬세 하게
▁시사회 로
▁좌 빨
▁좌 좀
▁일반 인
▁고등 학교때
▁아까웠 다!!!

▁견자단 이
소설 을
▁외모 가
▁줌 .

▁반복 되는
▁치밀 하고
▁노답 

▁^ -
▁엠 비
▁이용 해
슬프 고
▁DVD 로
역사 상
▁강력 한
▁몇년 전에
,.,. ,.,.
OOO 기
▁여름 에
▁제외 하면
▁21 세
▁홀 로
▁안쓰 는데
▁열정 과
죽는 줄알았
▁근래 에
▁담겨 져
▁이수 근
▁편안 하게
▁개성 있는
▁로드 리게
▁어떨 까
▁기존 의
▁블루 레이
▁녹아 있는
무엇 보다
▁아기자기 한
케이 블
▁맙 소
▁그로 테스크
▁앞서 간
▁보석 같은
▁난무 하는
영화제 에서
▁지독 한
▁클로 즈
▁소소 하게
▁엉뚱 한
~10점 주는
미니 즘
▁은은 한
▁누구에게 나
▁식스 센스
▁안젤 리나
▁버금 가는
▁미성 년
본방 사수
▁이슬 람
▁중구난 방
▁트와 일라잇
선징 악
▁이스라 엘
. ?
3 분
> 

? ᄏᄏ
▁ @
▁ 껄
▁ 댓
▁ 았
▁ 큼
▁ 적인
▁ ♡

▁ 낄낄
같 네
개 막장
거 니
겁 니다.

겠 지..
겠 지.
경 ,
고 ...

구 성이
급 .
기 발
까 .

꿈 을
끝 날때
날 에
남 친
냐 ....
년 간
노 소
느 꼈
니 당
니 를
니 콜
니 다...

다 섯
더 군
데 요
동 영상
된 다고
드 럽게
들 게
들 ..

등 이
디 스
뜬 금
락 을
레 알
류 가
림 ..
마 

마 를
만 난
만 세
만 ..

망 

매 일
모 니
모 도
못 함
무 한
물 가
뭐 지
바 꿔
범 이
법 을
변 화
병 이
보 세요.
봣 다
봤 을때
브 이
사 투
산 으로
생 명
서 를
선 정
설 정이
성 형
세 대
세 월
소 린
소 서
시 각
시 디어
실 에서
심 

십 시오
애 씨
애 의
어 쩜
없 나
엇 지만
에 

여 ...
였 습니다

옥 빈
온 다.

완 성도
왜 케
외 엔
우 석
우 성
웠 음

음 과
응 원
이 더
이 었는데
인 들에게
일 드
있 다는
자 에게
정 돈
제 국
조 선
주 혁
줌 .

중 심
지 ~
지 경
지 면서
진 부
짜 리는
짝 짝
차 게
차 이가
천 히
축 구
콜 세
쿠 삭
타 

탄 생
통 을
투 성이
튼 의
포 트
폰 으로
하 ...
하 라

하 셔서
해 ...

햇 다

했 어야
했 어

했 나?
환 의
황 후
회 까지
흘 러
영화 인지
영화 보면서
▁영화 내용
▁영화 사에
▁이 뿌
▁이 서
▁이 기는
▁아 냐
▁그 정도
▁보 수
▁보 편
▁보 라는
▁보 시고
▁재 벌
... 이건
▁나 지
▁나 라는
▁하 였
▁하 이라이트
▁좋 습니다

▁없 네..
▁사 나이
▁진 자
▁있 어요

▁있 을때
▁있 나?
▁지 역
으로 ,
▁최 후의
▁안 믿
▁안 정
▁안 들어
▁안 보는데
▁정말 ..

▁정말 ....
▁스 럽
▁스 턴
▁가 문의
▁재밌 는거
▁기 어
▁기 절
▁대 립
▁전 파
▁진짜 ...

▁마 술
▁마 동석
▁마 모루
하는 걸
하는 건지
▁수 목
▁수 술
▁수 습
▁무 명
▁무 모
▁무 튼
▁무 리가
어요 ...

▁최고 ,
▁최고 ~

▁않 다는
▁평점 너무
▁오 리
▁오 디션
▁개 가
▁제 레미
▁인 위
드라마 의
~~ ^^
▁생각 하니
▁생각 한다면
▁자 의
▁자 기만
▁자 리를
▁못 알아
▁남 겼
▁남 들이
▁남 네요.
▁남 동생
▁미 묘한
▁유 대
▁아니 더라도
▁볼 까
▁감동 감동
▁일 은
▁비 둘
▁비 포
▁것 의
▁장 선
▁장 인
▁장 점
▁지루 했다

▁지루 하긴
▁지루 하기도
▁드라마 중에
▁드라마 에요
▁작 렬
▁부 재
▁뭐 ?
▁공 산
▁조 미
▁조 성
▁조 한
▁내용 없는
▁감독 아
▁고 만
▁애 는
리고 ,
▁해 라.
▁명 절
▁참 

▁참 혹
▁되 네요.
▁반 개
▁반 면
▁반 의
▁보는 건
▁매 끄
라고 ?
▁싶 습니다.
▁싶 네요.
▁눈 도
▁바 램
▁바 치는
▁이거 

▁노 다메
▁작품 입니다.
OO D
하지 ?
▁기대 하게
▁기대 하며
▁좋았 는데...
▁의 지가
▁하나 ?
▁하나 경
▁하나 씩
▁할 지
▁처음 이네
▁한국 영화를
▁지금 이
▁나오 지만
▁나오 길래
▁김 상
▁김 정은
▁극 대화
▁허 준
▁1점 준다

▁강 남
▁강 박
▁돈 에
▁로 로
▁두 렵
▁두 분
▁느낌 과
▁느낌 으로
▁명작 이네요
▁동 급
▁잼 난
▁잼 없음
▁이야기 ,
▁기억 속에
▁뭔 데
▁우리 도
이다 !!
▁괜찮 음
▁괜찮 다고
지도 ,
▁여자 애가
▁만든 다

▁막 힌
▁막 무가
▁주인공 으로
▁단 어가
▁슬 플
필요 가
▁유치 하게
▁유치 하다
▁졸 린
▁존 스
▁줄 줄
▁박 힌
▁박 유천
ᄏᄏᄏᄏᄏᄏᄏᄏ 

▁망 상
▁점 을
▁서 른
▁서 태
▁볼만 하고
▁볼만 하다.

▁리 부
▁리 브
▁누 굴
▁보면 ,
▁짱 나
▁매력 과
▁매력 적이고
▁말이 안
▁짜증 

▁짜증 난
▁짜증 난다.
▁원작 인
▁솔 찍
▁눈물 샘
▁눈물 나는
▁맞 나
▁높 고
이었 고
▁전개 로
▁있었 으나
▁간 다.
▁모르겠 으나
니까 ?

▁필요 도
▁필요 없음
▁한번 만
정말 

▁하고 자
▁편 히
▁파 치노
▁재밋 어
▁언 더
▁행 운
▁이제 그만
▁찍 어서
▁추천 해주고
▁호 감
▁호 평
▁호 화
감독 과
▁놀 라고
▁먹 었
▁나온 게
▁배우들 과
▁대단 하
생각 하고
생각 보다
생각 나서
▁가족 은
▁재미있게 봤
했는데 ...
▁물 리
이지 .

이지 나도
▁제목 으로
▁아쉽 네요.
▁떨어 져서
▁않고 

▁느껴 야
▁느껴 져서
▁네 이
▁데 이트
▁떠 들
▁부족 하다
▁부족 함이
이란 ..
▁내용도 없고
▁아까운 영화

▁정신 없이
▁정신 세계
▁이유 도
▁목 적이
▁목 소리는
▁디 비
▁나왔 다
▁타 입
▁시작 된
▁형 성
▁형 식
▁1편 보단
▁삼 각
▁킬 빌
▁글 래
▁그러 고
▁훌륭 하다
▁훌륭 하다.

이없 어서
▁뒤 돌아
▁따뜻 해
▁감정 에
▁영화로 만
▁영화로 써
▁20 여
▁나도 모르게
▁뭘 까?
▁안되 겠
▁장난 하냐?
▁변 질
이런 걸
▁친구 에게
▁행복 은
▁사실 은
▁용 가리
▁답답 하다
▁시청 율
▁토 할뻔
▁부분 에
▁없이 도
▁자신 에게
▁양 키
▁입 을
▁관객 은
하네 .

▁엔딩 도
▁어색 해서
▁어색 하지
▁팬 이라
▁잡 다
▁다큐 의
▁뿐 .
▁태 극
▁역사 는
▁코믹 도
▁아름답 다
▁캐스팅 ,
▁설정 을
▁후회 할
▁민 간
▁브 금
주의 에
▁지나 가는
▁히 스
▁히 치
▁보지 말고
▁터 짐
▁집중 하게
▁채 민서
▁빠져 든
▁먼 지
▁순수 하게
▁순수 함을
▁투 성이
▁중국 영화
▁끌 려
전개 도
▁걸작 을
▁걸작 이
▁걸작 .

▁똥 칠
느낌 의
▁재미있었 어요

▁B급 영화
▁키 드먼
▁맛 있는
▁전체 를
▁비디오 용
이였 다.

▁영화, 

▁꼬 아
▁꼬 라지
▁ᄏᄏᄏᄏᄏᄏᄏᄏ ᄏ
▁상황 에서
▁좋은데 ,
▁좋은데 ..
▁풍 부한
▁평가 할
▁애들 용
▁애들 한테
할때 마다
10 10
▁자연 의
▁뭐야 

봐야 지

▁겁 나게
▁기다 리는
▁각본 을
▁질질 끄는
▁누구 를
▁확실 하게
던가 

▁금 성
▁금 요일
▁화면 도
었음 ..

해주 세요

▁씨 리즈
▁감성 에
▁써 야
▁관람 가
▁TV 판
좋았 던
▁프랑스 영화
▁안타깝 다
▁안타깝 지만
▁든 다
▁맥 어보이
▁먹먹 하고
시리즈 는
▁흥미진진 하게
▁찌 푸
지금 은
▁진지 하고
▁견 디
▁후반부 는
▁갔 다가
▁내인생 에
▁그럴 듯한
▁골 라
▁대작 

▁유머 러스
▁촌 스럽지
▁멀 한
▁전작 을
▁그려 진
▁우울 하고
▁만큼 의
▁해주 길래
▁뜬금 포
▁철학 이
▁학 원
▁어찌 보면
▁얻 을
▁감동적 임
▁별로였 다.
▁잘생 김
▁성공 한
▁글쎄 요
▁프로그램 이
▁꾸 역
▁끊 어
무서 워
▁넘어 가는
▁아저씨 가
▁기본 적인
▁섹시 하고
▁슬픔 과
▁흥미롭 지
하지마 라

▁시원 시원
아주 아주
▁일상 의
▁I t
▁침 략
▁늦 은
▁몸매 가
▁쇼 킹
▁자막 이
▁자막 으로
▁사랑과 전쟁
▁ᄌ ᄅ
▁표정 연기
▁동생 이랑
▁꼽 는
▁잤 다
▁비극 을
▁이루 어진
▁뜻 이
▁시사회 에서
▁발전 이
▁싱 크로
▁스포 일러
▁바뀌 는
▁잭 슨
걸까 

▁시걸 의
▁떨어진 다.

▁안됨 .
▁극치 를
▁봅 니다
▁웨 슬리
▁김수 로
ar t
▁담아 내
▁그렇다 치고
▁역겹 고
관람 가
▁멋져 요
▁상관 없이
▁양심 도
▁정확 한
▁안쓰 러
아름 답
▁줍 니다.

죽는 줄
▁유아 인
여주 만이쁨
▁어쩔수 없이
선생 님
▁두려 워
귀여 워
▁부담 없이
▁이준 기
▁담백 하게
▁파격 적인
▁무난 한
▁개나 소나
▁th is
▁박신 혜
▁나중 에는
▁되돌아 보게
▁긴박 감
▁애잔 한
▁어거지 로
▁비참 한
▁방황 하는
▁놓치 지
▁음모 론
예쁘 고
▁벗어나 지
▁심리묘 사가
▁유익 한
▁숨어 있는
▁롱 테이크
▁저지 른
▁홍진 호
▁밍 밍
▁불면 증
▁멸 망
▁왔다 갔다
▁미개 한
▁소방 관
▁에반 게리온
▁에니 메이션
! ~
! ^^

' t
) 을
, 미
- _
- .-
. naver
1 도
1 때
2 일
5 년에
: )
d f
g e
r y
v 에서
ᄀ ᄀ

ᅲ _
▁ 득
▁ 랜
▁ 럭
▁ 셔
▁ 퀄
▁ .....

가 까
가 요?
감 성
감 정이
값 이
거 기다
겁 나
게 만드는
공 간
공 을
관 념
관 은
국 에
귀 가
그 거
그 대
기 만한
길 ..

깊 이
꼬 박
꼭 봐야
꾸 역
끈 한
나 입
나 이에
내 놔
내 요.
네 ;;
노 는
눈 빛
니 ...
다 녀
대 작
도 아닌
도 저히
되 네요
드 니
드 류
들 처럼
듯 ....
라 구
라 드
랜 든
러 지
력 의
련 한
릴 수
마 부
막 극
만 .
많 아
많 아서
망 작
매 매
멋 잇
무 조건
미 건
배 를
백 한
범 인
베 스
봄 ..
봅 니다.

봤 었는데
부 른
부 르는
비 도
빠 이
뻔 하고
사 무
사 장
세 의
시 하는
신 히
싫 다
아 웃
양 은
어 게
어 릴
언 젠
에 야
였 나
였 어요
였 습니다.
예 전
오 그라
요 일이
욕 을
용 석
웃 고
원 ,
웠 음
으 루
은 

을 줄
음 ?

음 ᄏ

의 도
이 .
이 언
이 와
이 형
인 디
인 터
인 건가
읽 어
임 은
있 지
자 본
작 가는
잘 만든
적 이라고
전 도
전 투
조 작
좀 더
종 의
줍 니다

지 리
지 는데
지 에서
질 러
찍 고
찾 기
찾 는
충 분히
춰 진
칼 립
콩 콩
크 를
키 가
트 랙
파 리
포 칼립
표 절
피 디
하 에
한 다...
합 이
해 여
해 줘
해 짐
해 보이
했 음..
행 위
호 강
환 을
.. 내
영화 ~
영화 입니다.
▁영화 다...
▁영화 라도
▁이 안
▁이 입
▁이 진
▁이 집
▁이 영화

▁아 르
▁아 아
▁아 휴
▁그 곳
▁보 지않
▁보 내는
▁재 활
... 참
... 완전
▁나 가고
너무 재밌
▁하 신
▁없 군

▁없 으며
▁어 낸
▁어 이상실
▁너무 좋아요
▁사 연
▁사 이에
▁진 작
▁연 구
▁있 도록
▁지 못
▁지 쳐
▁한 이
▁한 회
▁한 다..
▁최 신
▁최 우
▁안 웃
▁안 줄
▁안 보이
▁1 번
▁정말 .
▁스 들
▁스 키
▁스 테
▁가 자
▁재밌 지만
▁재밌 으면
▁재밌 고,
▁기 계
▁기 부
▁대 학교
▁봤 나
▁봤 지만,
▁평 가는
▁전 의
▁진짜 ....
▁연기 며
하는 건데
▁수 다
▁수 업
▁수 학
▁모 냐
▁모 범
▁모 아서
▁생 길
▁잘 되
▁잘 짜
▁주 려
▁주 식
▁주 저
▁최고 ..

▁최고 다...
▁않 나?
▁않 나?

▁평점 

▁평점 으로
드라 

▁개 쩔
▁개 명작
▁말 까
▁말 론
▁말 자

▁생각 되는
▁생각 난다.
▁자 빠졌
▁자 전거
▁같 았다.
▁못 하면
▁못 하다.

▁못 해도
▁소 나
▁소 수
▁알 면
▁본 적
▁본 사람
▁본 인은
▁유 년
▁유 산
▁유 선
▁아니 ,
▁아니 겠지
▁감동 .

▁감동 ..

▁감동 있는
하게 만
이라 ...
▁장 백
▁장 화
다는 ...
▁중 딩
▁뭐 지...
보다 더
▁사람 으로써
▁2 명
▁조 각
▁조 건
▁조 악
▁완 존
▁저 능
▁저 만
▁저 버리지
▁애 쓰
▁재미없 었다
▁재미없 었다

▁해 설
▁쓰레기 라는
▁사랑 이라는
▁참 ..

▁되 려
액션 ,
▁좋아 하던
▁싶 을때
▁바 른
▁이거 밖에
▁이거 보면
▁작품 성을
▁살 지
▁살 해
▁마지막 을
▁3 5
▁3 박
▁3 편이
▁기대 하는
▁액션 물
▁하나 만으로도
▁할 일
▁할 수있는
▁추 석
▁추 적
▁때 우
▁처음 본
▁한국 을
▁한국 인이
▁했 었
▁했 어도
▁하는 짓
▁김 두
▁김 아
▁김 래원
▁아깝 다고
▁세 대
ᅳᅳ ;
ᅳᅳ ;;
▁별로 다.

▁별로 네요

▁허 우
▁이해 불가

▁관 능
▁위 선
있는 게
▁명작 임
▁명작 ..
▁명작 으로
▁구 려
▁구 석
▁동 심
▁화 나는
▁역시 ..
▁잼 이
▁이야기 라
▁기억 남는
이다 ....
▁당 한
▁괜찮 다.
▁괜찮 던데
▁장면 들
▁발 악
▁발 차
▁요 한
"""" 의
"""" 라는
▁와 진짜
▁보여 지는
▁울 나라
▁울 트라
▁공포 영화.
▁유치 하다.
▁존 나게
▁박 상
▁박 재
▁일본 에
▁일본 영화의
ᄏᄏᄏᄏᄏᄏᄏᄏ ᄏ
▁망 한영화
▁서 우
▁힘 

▁리 더
▁이상 하다
▁짱 이에요
▁반전 영화
▁남자 친구
▁뻔 하디
▁절 절
▁짜증 을
▁낮 지
▁계 신
0년 도
▁만들어 버린
▁전개 ..
▁음악 까지
스러 웠던
▁있었 을
▁게 이는
▁간 다
▁간 접
▁돌 렸
▁돌 프
이고 ..
▁건 담
▁건 가?
▁필요 없다

▁억지 가
▁근 친
▁수준 .

▁수준 낮은
▁하지만 ..
▁받 았다.
▁파 일
▁열 정을
▁열 연이
▁7 년
▁추천 합니다.
▁경 쾌한
▁영화였 어요

▁갈 리는
아니 지만
▁크 로우
▁호 프
▁공감 대
▁달 랐
▁나온 건
▁개봉 작
▁개봉 할
▁믿 을수
▁준 수
▁등 에
▁영화에 요

스토리 .
▁물 체가
▁나오는 건
▁만들었 냐
▁만들었 다

▁만들었 을까
▁기분 .
▁않고 ..
▁봐야 될
입니다 !
▁요즘 에
▁떠 나는
▁오랜 만이
▁없었 음
▁케 미
▁케 로로
▁케 서방
▁감동적이 다.
▁홍 경
▁은 행
▁목 을
▁나왔 었
▁시작 해
▁1편 에서
▁삼 천포
▁복 귀
▁뒤 통수
▁살아 남
▁수작 이다.

▁수작 이라고
~~~~ ~
▁뭘 까?

▁도대체 가
해야 하나
▁만화 로
▁판 치는
▁친구 들이
▁친구 한테
사랑 의
거같 아서
▁입 에
▁관객 들이
▁전쟁 은
인듯 ...

▁청 순
▁힘들 다
▁팬 이지만
▁총 으로
▁슬프 다.

▁함께 한
▁범 인은
▁보았 다.

▁뿐 ,
들에게 도
▁역사 가
▁역사 와
▁애니메이션 .
▁코믹 영화
▁책 은
▁백 번
레이 터
▁오래 도록
▁브 리
작품 .
▁지나 면
▁더빙 판
▁충격 과
▁터 졌
▁터 질
▁엄마 를
▁엄마 한테
▁재밌어요 !

재미있 고
재미있 음
▁순수 함이
▁b ut
▁b gm
하겠 다.
▁얼굴 은
▁로맨스 

▁이정도 의
대한 민국
으니 깐
▁실화 라서
자체 는
▁죄 악
인생 을
▁없다 !
▁재밌다 !
▁s bs
시절 의
▁취 미
▁느낄 수있는
▁200 1년
▁딸 과
▁쳐 지는
▁시즌 4
아이 를
▁쓸 모
▁한국영화 에
다시 한번
▁교훈 적인
▁판타 스틱
거야 .
▁맘에 들
▁사회 가
▁영화인데 ..
▁세계 가
▁두번 이나
여자 는
▁휴 가
▁휴 지
▁윤 계상
▁아버 지는
▁좀비 가
▁좀비 물
▁볼수 없는
▁개그 는
▁해야 할
▁화면 에
▁ᄉ ᄉ
▁봄 .

▁왔 습니다.
▁필 립
▁만드 냐
▁만드 는데
▁살인 자
▁201 2년
▁순간 의
좋았 다
▁나이 먹고
▁식상 하고
▁자극 적이고
▁창 문
▁짧 고
// //
▁이어 지
▁아쉬운 건
▁-_- ;;

처음 으로
▁넣 어서
▁가능 성을
▁법 을
▁가볍 지
▁나쁘 지않
▁나쁜 놈
▁신기 하고
▁다행 이다
▁바람 에
▁웃겨 요
▁탈 락
▁리메이크 작
▁0 개는
▁만큼 이나
▁비추 .
▁안보 길
▁안맞 고
네요~ ^^

▁힐 러
▁메시 지도
re at
▁조연 들
▁조연 들의
▁글쎄 .
▁나서 도
▁G OOD
▁저예산 으로
▁w e
▁오락 영화
▁기본 적으로
▁곳 이
▁조폭 영화
해보 이는
▁스트 레
▁굿굿 굿

▁모자 이크
▁희생 을
▁종교 적인
▁보시길 ..

▁침 몰
보지마 라
▁필요한 가?
▁놀랍 다.
▁퇴 마
▁퇴 폐
▁그립 다

▁남녀 의
▁신경 을
▁드러 난
▁끄 고
or ing
▁활 동
▁악당 이
▁농 구
▁바뀌 고
▁묘사 한
▁올라 갈때
답답 하고
▁우주 전쟁
▁떨어진 다.
▁느껴진 다

▁결과 가
▁치밀 어
▁움직 이거나
▁찌질 이
▁대부분 의
▁슬펐 던
▁웃김 

▁끝났 으면
▁김민 준
▁이용 한
▁타이 타
▁튀 는
▁아닙 니다.

억지 로
▁기대했 건만
▁류승 룡
▁역겹 다

▁할머니 가
▁쩝 

이러 스
▁육 체
▁제외 한
▁상관 없는
▁성격 이
▁N o
▁정체 성을
▁무한 한
▁바랍 니다.
▁30년 전
▁감안 해도
▁사이코 패스
▁압도 적인
▁호기 심
▁담백 한
▁흡입 력이
따뜻 한
▁나무 랄
▁웅 장
질질 끌
해줬 으면
▁최소한 의
▁드라 큐
▁못본 게
dd dd
▁10번 도
▁형제 의
▁건질 게
▁한지 민
비추 

▁데스 노
▁잉 여
흥미 진진
▁스펙 터
▁모니 카
나다 라마
▁신은 경
▁탕 웨이
▁오페 라
▁유승 준
▁반지의 제왕
▁추구 하는
인줄알았 는데
ᄋᄋᄋᄋ ᄋᄋᄋᄋ
▁브로 디
▁가난 한
▁ᅲ_ ᅲ

!!♥!!♥ !!♥!!♥
▁클라이 막
▁씨네 21
▁정재 영
▁인터스텔 라
보비 치
해피 엔딩
▁여진 구
1점준것 중에
▁어렷 을때
▁자존 심
▁안드로 메다
▁인피니 트
▁김창 완
여주만이쁨 여주만이쁨
.naver .com/
' 라고
' 이라는
, 4
. 그리고
1 끼
1 분
1 이
2 를
3 번
7 분
_ ᅳ
e ct
n e
ᄆ 

▁ 랄
▁ 랑
▁ 째
▁ 켜
▁ 텔
▁ 톤
▁ ,,

▁ ᄍ

갑 니다.

거 도
거 다.
걸 음
것 과
것 들은
게 되는
겠 고
경 험
고 가
과 거
관 의
구 .
구 장창
군 을
귀 여운
그 가
그 려
극 .
기 본
기 ..
기 때문
길 ..
까 요?
끼 는
나 나
낼 수
넘 어
네 ᄏ

네 ;;

노 의
높 아
느 낄
는 지는
다 행
단 을
당 께
더 가
데 스
데 없는
되 었던
된 게
드 레
드 에
듬 .

등 급
딱 지
란 걸
람 이
래 서
레 스트
렸 을때
로 ,
로 페
를 린
릴 려고
릿 한
말 도안
맨 의
머 프
머 리가
모 험
목 을
뭐 니
뭐 라
미 소
미 야
밀 라
바 

밖 의
발 로
발 음
벗 고
보 기는
보 여서
본 적이
본 다면
봣 던
봤 다.

분 량
분 투
비 로
뿐 이다.

사 .
상 상
서 사
성 인
세 여

소 라
쇼 스키
수 현
스 톱
슨 과
실 제
싫 은
심 리
싸 이코
써 요
아 이는
안 보고
야 ..

얘 기가
어 찌
어 릴때
언 을
없 던
었 다..

었 습니다

에 나
에 노
역 겹
연 예
염 

였 어
영 

영 혼
울 이
움 에
워 싱턴
음 ;;

이 루
일 듯

읽 는
잘 생
잘 안
잘 하는
장 과
장 판
잼 있게
전 과
전 부
조 각
조 용
조 치
주 네
주 말
줄 만
줄 만한
진 리
짱 !!
차 드
찮 은
쳤 다.
출 한
치 

치 지
치 고,
칙 한
친 다
크 게
클 레
키 드
탄 을
터 지
토 벤
티 티
프 스키
하 군
하 도록
해 가
향 을
형 은
호 와
환 이
희 망
영화 입니다

▁영화 엿
▁영화 에는
▁영화 """

▁영화 여서
▁이 글
▁이 는
▁이 의
▁이 들의
▁이 들을
▁이 보단
▁아 부
▁그 치만
▁보 셨
▁보 느라
... ᄏᄏ

... ;;

... ᄏᄏᄏ

▁정 경
▁정 은
▁나 두
▁나 약
▁나 라면
▁나 한테는
▁다 짐
▁하 실
▁하 더니
▁하 면서도
▁없 나요?

▁어 풋
▁너무 재밌게
▁사 골
▁내 일이
▁감 안하고
▁재미 더럽게
▁연 령
▁연 살인
▁있 어요.

▁지 만
▁지 울
▁지 르고
▁한 영화
▁한 두번
▁최 지우
▁시 리
▁시 망
▁시 점에서
▁시 잖은
▁시 어머니
네요 !!
▁안 할
▁안 하는
▁스 텔
▁스 나입
.... ?
.... 정말
▁재밌 긴한데
▁봤 어
▁봤 다..

▁전 하고자
▁진짜 재밌
▁마 저
▁마 디로
▁수 천
▁무 도
▁무 고한
▁모 여서
▁여 느
▁여 인의
▁생 기는
▁잘 하는데
▁잘 하시고
어요 ~~
▁주 조연
▁최고 인듯

▁않 길
▁않 네요
▁더 해
▁개 도
▁개 운
▁개 실망
▁개 졸작
▁이런 드라마
▁말 처럼
▁말 장난
▁말 코비
▁생각 나고
▁왜 그래
▁자 가
▁자 녀
▁자 식을
▁자 비에
▁자 격이
▁같 습니다

▁같 으니
▁못 하다

▁못 했다
▁못 하고,
▁소 련
▁소 속
▁남 길
▁남 상
▁알 면서
▁본 다고
까지 ..

▁유 도
▁유 브
▁유 희
▁유 해진
▁아니 올
▁감동 이다
▁일 도
▁일 점
▁일 진
▁쓰 잘
▁것 같
▁것 보다
▁장 담
▁장 수
▁장 황
▁지루 한데
다는 ..

다는 ...

다는 건지
▁많 이나
▁중 견
▁부 패
▁배우 

▁뭐 ,
▁공 식
▁공 효진
▁공 각기동
▁2 2
▁조 아요
▁조 화가
▁10 년도
▁고 난
▁저 랑
▁저 번
▁재미없 었다.
▁해 소
▁쓰레기 네
▁쓰레기 라
▁쓰레기 영화는
▁사랑 스러워
▁예 정
▁결 투
▁거 미
▁거 다.
▁좋아 졌
입니 까?
▁상 승
▁매 니
▁싶 다...
▁처 리
▁바 랄
▁실 천
▁노 란
▁불 교
▁불 우이
▁작품 ...
▁작품 성도
▁최고의 영화

▁마지막 에는
▁마지막 장면은
▁3 .
▁액션 씬은
▁도 로
▁성 시
▁때 ,
▁때 리
▁때 로는
▁죽 어나
▁처음 이네요
▁한국 에도
▁지금 에서야
▁후 ..
▁나오 니까
▁하는 건지
▁김 유
▁김 준
▁김 옥빈
▁최악 인
▁최악 임
▁최악 ...
합니 다...

합니 까?
▁모르 나
▁또 하나의
▁아깝 게
▁아깝 네

▁세 이
▁세 기의
▁별로 지만
▁허 각
이나 는
▁1점 주
▁강 우석
▁위 협
▁명작 ...

▁구 린
▁따 분한
▁심 금을
▁이야기 ...

!!!! !!!
▁뭔 말
▁들 인
▁들 었던
▁괜찮 다.

▁아이 는
정도 ..
▁에 어
▁장면 

▁여자 도
▁그리고 ,
▁그런 걸
▁와 중에
▁차 기
▁차 이를
재미 

▁마음 도
▁울 먹
▁울 버린
▁공포 와
▁유치 함

▁유치 하다고
▁존 쿠삭
▁박 하
▁일본 을
▁표 출
▁서 동
▁서 지
▁서 커
▁볼만 했던
▁볼만 하다.
▁볼만 했다.
▁현실 감이
▁결말 만
▁몰입 감도
다니 엘
시간 을
시간 동안
▁이상 형
▁과 언이
▁짱 임
▁반전 

▁남자 랑
▁남자 인
▁남자 들은
▁남자 배우
▁뻔 뻔한
▁애니 .
▁애니 의
▁스릴 과
▁스릴 있
▁낮 네

▁눈물 은
▁눈물 나게
▁맞 는지
▁방 식으로
▁억 압
는지 .
는지 ...

이었 음

▁머 리는
지않 다.
▁모르겠 네
▁모르겠 네요.
더라 ...
▁건 드
▁건 지...
▁건 가?

▁순 위
▁필요 없이
▁굿 ,
처럼 

▁4 ,
▁억지 웃음
밖에 안
▁욕 나온다
▁8 0년
▁이제 껏
▁열 번
▁열 어
▁딱 봐도
▁버 스
▁5 0분
아니 다

▁연기력 으로
▁크 라
▁크 크
▁크 레이
▁코미디 ,
▁실망 시키지
는거 지
장면 에
▁손 이
▁달 린
▁약 하고
▁답 을
▁교 도
▁이걸 로
▁등 의
▁어디 에도
스토리 ,
스토리 에
▁알았 는데...
수가 없
▁싸 이
▁제목 보고
이상 으로
▁잼있 는데
▁떨어 짐

▁베 니
▁베 송
▁아쉬 웠던
▁만들었 을까?
▁잠 자
▁잠 이나
ᄃᄃ ᄃ
▁부족 하다

이란 ...

▁날 렸
것같 고
것같 네요
▁않았 다면
▁않았 을까
▁타 잔
▁글 쓰
▁그러 지
▁훌륭 하다

▁주는 건
▁좋겠 어요

소리 를
소리 만
▁B ad

▁B est
▁길 거리
▁옛 다
▁토 마
▁토 마스
지가 않
▁입 은
▁입 체
▁입 가에
▁관객 들의
▁관객 들을
▁깨 어
▁우리나라 도
▁인상 이
부분 을
좋아 

▁러 닝
지? ?

▁시나리오 

아깝 다.
▁패 스
▁힘들 고
▁잡 아먹
▁헐 ..
▁다큐 는
▁다큐 로
▁지루한 건
▁환 타
▁찾아 봤는데
▁졸작 을
▁종 말
▁뿐 ..
▁당시 에도
▁클 럽
▁클 레이
▁""" 영화
지루 해서
▁백 미
▁멋있 다

주의 의
▁몸 짓
▁제발 

▁히 고
▁주제 의
▁어느 하나
▁낫 지
▁보지마 라

▁재밌어요 ..
▁재밌어요 !!
▁궁금 하다.
▁별점 테러
▁미친 놈
▁따라 하기
▁불쌍 하다

▁광 주
만든 거
▁숨 겨
▁너 의
▁중국 이
▁상상 도
하네요 ..

느낌 ..
▁재미있었 다

▁ᅲ ᅮ
▁CG 와
굉장 히
▁B급 도
▁괜찮았 음

▁g o
▁전체 가
▁으 아
▁갖 는
▁200 8년
나온 다

▁송 중
▁귀엽 게
ᅲᅲᅲᅲ ᅲ

▁인물 을
▁꼬 박
▁이것 만
▁교훈 과
▁풍 기는
▁온 통
▁멍 때
▁소설 로
중간 중간
을듯 ..
▁휴 ...
봐야 겠
▁겁 니다.
버렸 다
시대 가
▁( 10자
▁슬픈 영화
▁머리 카
▁방송 에
▁권 하고
▁극장판 이
▁예쁘 다.
▁예쁘 다

▁화면 은
▁시청률 은
▁성우 들
▁흥행 이
▁만점 짜리
▁201 3년
▁빌 어
▁빌 려서
▁처음부터 끝까지
▁tv 로
시리즈 를
었어요 ..
▁깔 려
많은 데
▁편집 도
▁안나 왔으면
▁범죄 를
▁되었 습니다.
▁넣 고
▁합 리화
▁찬 란
▁되어 버린
▁동화 를
▁스타일 은
▁진실 된
▁진실 이
▁죽음 은
▁죽음 이
▁유머 도
▁부모 가
▁목소리 도
▁아닌가 요?
▁경찰 이
▁예고편 에
▁전달 하려는
▁전달 하고자
▁미래 는
▁다가 왔
▁한계 

▁보고있 어요
▁러브 레터
하고싶 다

지도않 은
▁고민 을
▁재미없음 ..

▁낚였 다.
▁실패 작
▁OST 는
▁곳 곳에
▁제작진 이
▁이하 의
▁쩔 고
▁일어 났
▁일어 나서
▁어린이 들이
▁분노 를
▁축 하
진심 으로
▁놀랍 고
▁아침 부터
▁보러 가
.2 5
▁꼽 으라면
▁정서 를
▁드러 나는
▁몇번을 봐도
▁무시 하고
▁시시 하고
▁깊이 있는
만점 에
▁지겹 고
▁지겹 다
▁쌍 벽
▁보인 다
▁느와르 의
▁닮 아
▁e ver
나보 네
▁상업 영화
▁시각 으로
▁볼수있 어서
▁섞 여
▁여행 을
▁떠오 르
▁업 그레이드
▁ᄀ ᄀ

▁어처구니 없는
▁우정 과
▁극치 

▁웨 스턴
▁떨어지 지만
!!!!!!!!!!!!!!!! !!!!!!!!
▁옆 에서
▁이정 현
▁내면 을
▁이민 정
▁기발 하고
▁전율 을
▁시간가는줄 모르고
▁씹 노잼
▁배역 이
▁묵 직
▁야한 장면
▁한명 도
어디 가
▁잘어울 리는
스크 린
▁일깨워 준
▁애국 심
▁재능 이
▁1인 칭
▁최고봉 

▁유발 하는
어색 한
▁붕 괴
▁밀려 오는
;;;;;;;; ;;;;;;;;
▁프리 퀄
▁시간때 우
▁선사 하는
▁중학생 때
▁안좋아 하는데
▁다시보기 로
▁평점조절 위원회
쓰레기쓰레기 쓰레기쓰레기
▁처절 하게
▁조지 클
▁빠순 이
▁호흡 이
▁무식 한
▁초월 한
▁위안 부
▁따스 한
▁순진 한
▁모호 한
드림 1개
전문 가
▁노골 적으로
▁ᅲ_ ᅲ
34 56
▁간직 하고
▁나비 효과
▁우스 꽝
▁매혹 적인
▁용두사 미
시네 마
▁어마어마 한
▁철저 한
▁지니 어스
▁오토 바이
▁토요 명화
▁토이 스토리
디에 이터
▁사춘 기
▁존1 나
▁색다 르고
▁박한 별
▁배슬 기
▁지날 수록
▁막무가 내
▁싱크로 율
, ...
, 너무
. ᅮ
. -

/ .
/ 3
1 6
1 99
9 0
: 

> .
B 급
O D
a b
h er
k 

l y
o s
s .
▁ v
▁ 낀
▁ 녀
▁ 램
▁ 료
▁ 륭
▁ 쎄
▁ 씩
▁ 퉁
▁ 년이
▁ 듬

▁ 땜시
가 득
갈 수
감 ..
갑 니다

개 월
겠 죠
겨 

격 투
공 룡
과 함께
관 심
광 이
구 ...
그 로
기 덕
길 을
까 ...

끝 났
끝 나서
나 네
남 매
너 는
넘 들
년 들
는 가?

능 

님 

님 도
단 계
답 지
대 상
덕 화가
데 서
됐 다.
됐 으면
두 는
드 와
드 네요
듣 는
들 었
들 에겐
디 아
디 의
따 로
라 블
래 이션
료 로
립 니다
마 조
만 화가
말 투
망 생
머 신
멍 청
목 숨
못 할
문 학
민 우
민 정
민 족
밀 한
바 사
베 스트
베 이터
별 반
보 네요
보 자고
본 능
본 영화중
봐 라.
부 여
북 한
불 패
비 와
빙 빙
빠 지게
빨 로
빵 빵
뿐 이다.
사 부일체
살 려
성 재
세 에
소 수
수 와
스 ..
승 리
시 사회
씬 만
안 이
안 나옴
았 을
어 제
없 음.

엇 음

에 ...
여 성
여 왕
여 주는
열 에
였 습니다.

오 와
옴 

와 닿
용 .
우 를
우 빈
움 .

원 씨
이 병
이 네.
이 네요..
이 네..
인 양
읽 고
임 ,
있 다고
있 음

자 리에
작 렬
작 으로
잔 아
잘 생겼
저 의
전 화
젊 은
져 있
조 폭
좋 겠다
죠 ~
주 셔서
준 비
줄 아
줬 다
지 요
지 좀
짱 이
차 를
참 신
채 영
청 소년
취 급
치 에
캐 리
커 녕
콘 서트
크 는
탄 이
테 랑
토 의
통 으로
트 리고
티 네
평 해
포 먼
폭 발
프 의
하 ..
학 대
한 명
한 숨
해 ~

해 보는
했 기에
호 크
혹 시
환 경
후 후
흔 한
.. 어
.. 근데
영화 보고
▁영화 -
▁영화 ?

▁영화 !!!!

▁영화 치곤
▁이 겼
▁이 국
▁이 긴
▁이 뭐
▁이 분
▁이 다

▁이 다.

▁이 어서
▁이 들에게
▁아 낌
▁아 트
▁아 포칼립
▁보 상
▁보 스
▁보 지만
▁보 겠다

▁보 내고
▁보 려면
... 뭐
▁정 성
▁정 이건
▁정 체가
▁정 준호
▁정 유미
▁나 음

▁나 네요.
▁다 고
▁다 봤는데
▁하 려
▁좋 네

▁좋 다...
▁없 냐?
▁없 네...
▁너무 하다
▁너무 재미있게
▁사 귀
▁사 냥
▁사 수
▁내 눈
▁내 린
▁내 보
▁연 개
▁연 락
▁있 냐
▁있 단
▁지 브
▁지 진
▁지 킬
▁지 들이
▁지 진희
▁최 루
▁1 기
▁1 박
▁1 4년
.... 아
▁가 는데
▁가 지는
▁기 생
▁기 묘한
▁대 니
▁대 상
▁대 화가
▁봤 어야
▁봤 더만
▁평 타
▁전 해지는
▁마 시고
▁마 니아
하는 것이
▁수 밖에
▁무 심
▁무 자
▁무 능력
▁무 미건
▁잘 보고있
▁주 민
▁주 주
▁주 어진
▁최고 네요.
▁최고 인듯
▁최고 다!

▁않 아

습니 까
습니 당

▁평점 과
▁평점 알바
▁오 죽
▁개 미
▁개 웃김
▁제 멋대로
▁인 연이
▁말 라고
▁말 하기
▁생각 .

▁같 음.

▁못 보는
▁스토리 며
▁스토리 전개가
▁알 지만
▁본 인의
▁미 지
▁미 치게
▁유 연
▁아니 다...
▁볼 께
▁볼 시간에
▁감동 이였
하게 하는
하게 만드는
▁비 열
▁비 춰
▁것 이다
▁우 상
▁우 정을
▁지루 했다
▁지루 하다는
▁드라마 라
▁많 네
▁작 년
▁부 천
▁뭐 이런
▁뭐 이리
▁공 동
▁사람 인데
▁2 .
▁2 ~
▁2 배속으로
▁내용 이라
▁10 ,
▁완 결
▁만들 엇
▁만들 었는데
▁만들 려면
▁감독 에
▁고 아
▁고 요
▁저 럴
▁저 한
▁좀 만
▁재미없 으면
▁해 석이
▁쓰레기 에
▁사랑 했던
▁참 내
▁되 니
▁되 고싶
▁보는 중
▁영 호
▁거 칠
▁시간 아까
입니 당
▁상 쾌
▁매 드
▁싶 음
▁신 발
▁눈 높
▁실 상을
▁이거 뭐
▁불 끄고
다가 ,
▁작품 이다
▁원 한다면
▁이건 

▁3 점대
▁기대 할게
▁액션 영화가
▁좋았 다..
▁좋았 는데..
▁있는 건
▁있는 듯
▁도 가니
▁의 리로
▁할 만한
▁할 텐데
▁넘 나
▁성 기
▁죽 어야
▁처음 .
▁처음 이자
▁한국 애니
▁했 어요
▁했 다...
▁나오 길
▁나오 지도
인데 ..

▁김 병
▁최악 은
▁이게 머
▁이게 영화
▁이렇게 나
▁모르 면
▁10점 준다

▁1점 준것
▁멋 짐

▁강 수
▁분 들도
▁분 들에게
있는 거
▁느낌 이었
▁명작 ..

▁구 입
▁화 이트
▁심 야
▁잼 없는
▁음 란
▁평점이 너무
▁기억 이나
▁들 으면
▁아이 랑
▁에 리카
배우 들은
▁장면 으로
▁장면 에선
▁이영화 로
▁발 버
▁발 랄한
▁만든 다는
▁막 막
▁막 히
▁와 나
▁포 스트
▁포 인트가
▁보여 줘야
▁드 림

▁슬 슬
▁울 린
▁울 었음
▁졸 음
▁존 예
을까 .
을까 ..

▁망 하는
하나 ..
........ .......

▁서 바이벌
▁리 스
▁리 차드
▁누 님
인가 ...

시간 가는
▁이상 우
▁속 시원
▁매력 있고
▁빠 지지
▁선 한
▁남자 지만
인지 ,
▁낮 을
▁낮 네요
▁맞 지만
▁맞 지않는
▁맞 먹는
▁방 어
는지 ..

▁만들어 주는
▁만들어 놓고
▁전개 의
▁영상 물
▁머 라
지않 아서
▁간 신히
▁집 합
▁모르겠 는
니까 .
▁9 0
▁9 .5
▁굿 .

▁굿 바이
▁적 을
▁피 노키
▁4 점이
정말 잘
▁억지 스러움
▁찾 게
▁찾 은
▁올 리기
▁올 바른
▁편 향
▁파 티
▁치 부
▁재밋 다고
▁행 위
▁경 각
▁갈 리
나라 의
▁5 살
아니 다.
▁대박 ..
▁대박 ...
▁놀 아
▁개봉 했을
생각 도
▁가족 들
▁답 습
▁질 주
만들 면
▁흥미 도
▁표현 의
▁등 을
▁어디 다
▁어디 가서
▁알았 네
▁알았 지만
▁대사 로
이지 ..

▁모습 에서
▁재밌었 어요.
▁아쉽 다..
▁잼있 음

내용 에
▁베 토벤
한테 도
▁막장 

▁네 임
▁자체 에
▁데 려다가
▁없었 다..
▁만드는 지
▁부족 하다.

▁천 천히
▁중간 쯤
▁웃기 다

▁아까운 데
▁정신 분열
것같 음
▁이유 .

▁않았 을
▁디 젤
▁타 워
▁형 이
▁보고싶 어서
할수 없
▁그러 다
▁복 싱
▁될 지
니다 !

▁6 점이
▁6 ~7
▁좋겠 습니다.
▁언제 적
▁용 감
사랑 과
사랑 에
사랑 이
▁토 토
거같 다.

▁자신 만의
▁추억 은
▁추억 으로
▁깨 고
인듯 ..

▁지루하고 ,
▁패 륜
▁팬 인데
▁팬 으로서
▁잡 지
▁오늘 의
▁환 상을
▁보았 습니다
해요 ~

▁애니메이션 의
▁예술 로
▁예술 적
쓰레기 영화

▁포스터 보고
▁아무리 봐도
▁설정 으로
▁돌아 간
작품 은
작품 을
▁멋있 다.

▁얘 들
▁히 스레
▁집중 을
▁보지마 

▁색 다르
▁괴 기
▁흘 릴
▁너 를
▁중국 인
▁있을 거
▁이름 에
이야기 .
▁걸작 이다.
▁똥 꼬
▁똥 싸
하네요 ~
하네요 ...
▁영상미 ,
▁CG 에
▁사람들 만
재밋 어요
▁비교 할
▁죄 없는
▁발연기 

▁발연기 는
▁트 렌
▁기억이 ..

마지막 회
▁꼬 맹이
▁한국영화 중
잖아 .
▁이것 밖에
하하 

▁c h
▁존재 감
거야 ..
▁직 원
▁그대로 의
▁거의 다
▁자연 스레
▁휴 잭
▁좋아요 ~

▁윤 은혜
▁어른 들을
▁기다 린
▁잃 게
▁이번 에는
을수 없는
▁권 투
▁금 발
▁어이없 다
▁어이없 음
▁꺼 버린
▁꺼 버림
▁201 0년
▁빌 린
▁평론가 들이
▁짝 이없
▁루 이
▁a n
▁자극 적이
시리즈 의
▁그닥 ...
▁엉망 .
// /

▁페 미니즘
▁더럽게 없다..
▁-_- ;

지금 봐도
영화로 는
▁줄거리 만
▁되었 으면
▁설명 도
▁미화 한
▁알려 진
▁알려 지지
▁골 랐
▁워 스트
▁워 싱턴
▁흘러 나오는
▁뭐냐 ..
▁현재 를
▁전편 을
▁전기 세
▁풀어 내
▁다행 

▁노력 을
▁2시간 을
▁면 을
▁노출 도
▁노출 은
역시 나
▁짓 거리
▁12 0
▁퍼 시
▁퍼 포먼
▁별로였 던
▁전달 하는
▁무엇보다 도
▁샤 워
▁싫어 하는데
▁나에게 도
▁피해 자가
예요 .

▁속편 

▁연애 의
▁딴 거
▁+ 1점
▁특별 히
▁제작진 은
▁거기 다가
▁상상력 에
▁필요한 가
▁고생 한
▁고생 하셨
▁현대 판
▁동생 이
▁그립 다
▁정서 에
▁북한 의
▁아련 하고
▁무시 무시
▁힐링 이
▁미치 겠다
엄마 가
의미 로
이며 ,
▁이때 부터
▁연결 고
▁발전 을
▁웃겼 다
▁연기자 들이
▁안돼 는
▁스스로 를
주고싶 다

▁갈등 과
▁국내 에서
▁f or
따구 로
▁제로 

▁고마 워요
▁주고싶 은
▁뭉클 한
▁비현실 적이고
▁경험 을
영환 줄
▁모른 다.
▁바꿔 서
▁카리스마 가
▁챙겨 보는
▁누군가 를
▁여태 껏
11 

▁콩 가루
▁이럴 수가
▁풍경 이
▁n ot
초반 에
▁느껴졌 다.
▁설득 력이
▁앉 아서
때문 인지
▁새끼 들
▁연극 을
▁감각 적인
▁휘 둘
▁거부 감
▁여자주인공 이
▁애매 한
▁적절 하게
▁dvd 로
▁무너 지는
▁언젠 가는
추억 의
▁하여 튼
▁덤 으로
.0 

웃김 

▁로빈 윌
▁빠른 전개
▁편안 한
▁두근 거
따뜻 해지는
▁공간 에서
▁제시카 알바
▁9점대 는
▁키스 신
귀엽 고
보인 다

▁질리 지않는
▁머릿 속에
▁마지막장면 에서
▁우디 런
지르 르
▁잼있어요 ...

▁돈아깝 고
▁민주 화
▁상태 에서
▁바이 블
▁어수선 하고
▁영화볼 줄
▁강요 하는
▁가슴아프 고
▁지저 분한
등장 인물
▁된장 녀
ᄉᄇ 

▁김윤 석
▁태권 도
▁골때 리는
▁춤추 는
▁서스펜 스
▁허무맹랑 한
▁눈부 신
▁대리 만족
▁OCN 에서
▁기막 힌
▁흔해 빠진
▁꾸준 히
▁뷰 티
1점준거 중
▁엠비 씨
▁클로즈 업
시디어 스
▁솔찍 히
▁꾸역 꾸역
! ?

' 으로
+ 1
, 유
2 도
2 역
3 때
6 년에
> 의
? ...
P D
^ 0
g 

o ck
r i
~ !!!
ᅡ 

▁ ★
▁ ♥
▁ 냈
▁ 둥
▁ 뻐
▁ 었
▁ 쯧
▁ 튼
▁ 들은
▁ 리는
▁ ??

▁ )

▁ !!!!!!!!
▁ ~~~

▁ ᅩ

가 .

감 정을
강 력
거 북
거 임
거 짓
걸 륜
검 사
것 .

겨 ?

고 ?
고 의
고 .

과 도
구 석이
그 루
기 며
긴 했는데
꾸 로
나 갔
나 중에
남 의
남 .

납 니다
났 음
났 다.

내 돈
내 요..
녀 는
노 동
느 라고
는 ,
능 력이
니 는
니 오
니 ..

다 ?
다 는데
대 .
대 소
더 

던 것
덴 티티
도 좋고
되 어서
되 네요

되 고,
되 었다.

됬 으면
두 가
드 .
든 데
딱 히
뜨 리는
란 게
란 다

람 쥐
래 쉬
량 한
러 드
루 미
림 의
마 니
마 라
마 무
마 누라
만 약
만 보고
많 다
말 아먹
맙 시다
맞 춰
매 력이
먼 이
멋 지
무 술
미 만
미 치
바 꾸
반 의
버 림.
벌 써
베 일
보 

보 가
보 나
보 드
보 로
보 리
보 기에
봐 요.
부 들
비 언
빈 이
사 바
서 가
석 천
성 격
세 연
섹 스
션 스
쇼 

수 리
수 아
스 넌
시 시
시 기를
신 지
심 하게
아 파
아 픔
앙 

앤 딩
야 하는
약 이
어 ,
없 네요

여 ?

연 속
였 는지
였 으나
예 모
예 쁜
예 회
오 르
오 의
오 면서
올 드
와 우
왠 만하면
용 을
우 마
원 

원 작이
윤 아
이 것
이 드
이 럴
이 용
이 정도면
인 .
인 종
입 장에서
자 한
작 의
작 이라고
잡 이
장 군
장 진
전 

정 ,
정 세
져 있는
졌 지만
조 로
존 스
졸 잼
좀 

좋 네요
좋 다고
좋 네요

죽 이
중 근
중 요한
줘 

줬 음
지 겨
지 션
진 모
질 뻔
질 은
질 하는
집 을
쩝 

찍 어
착 오
체 류
초 도
최 근
치 와
친 다

칠 때
카 와
컨 셉
코 난
코 를
크 레
통 이
통 사고
투 표
파 에
파 티
페 이스
펜 터
편 에서
픽 션
하 더군요
한 부
한 건가
할 지도
해 리
햇 음
했 다는게
했 을텐데
행 동
호 프
호 흡
혹 은
화 로
.. ᄏ
.. 왜
영화 입니다
▁영화 (
▁영화 지만,
▁영화 치고
▁영화 다!

▁영화 제작
▁영화 속의
▁영화 평론가
▁영화 예요.
▁이 틀
▁이 대로
▁이 처럼
▁이 라도
▁이 세상
▁아 른
▁아 청
▁아 냐?
▁아 내가
▁그 토록
▁보 나
▁보 듬
▁보 셨으면
▁재 생
▁재 판
... 차라리
▁정 권
▁정 복
▁나 까지
▁나 탈리
▁다 닐
▁다 보
▁하 지

▁하 네요.

▁하 려면
▁없 어요

▁없 지

▁없 다!

▁너무 한다
▁사 업
▁사 는게
▁사 이의
▁내 평생
▁감 출
▁감 회가
▁진 국
▁재미 에
▁있 지

▁있 습니다

▁있 기는
▁있 음을
▁있 나.
▁있 으신
▁지 르
▁지 연
▁한 것
▁한 영화의
▁한 니발
▁최 곤
▁최 상
▁최 수종
▁안 소
▁안 주는데
▁안 남기는데
▁1 .2
▁스 쳐
▁만 에
.... ᅲᅲ

▁가 고싶
▁가 물가
▁재밌 다!

▁대 처
▁봤 지
▁봤 다니
▁평 온
▁전 원
▁전 하는
▁연기 때문에
▁연기 너무잘
하는 듯
하는 듯한
▁무 진
▁잘 모르겠
▁주 신
▁주 요
▁주 는데
▁주 구장창
▁최고 다..

▁최고 예요
습니 다....

▁평점 1점
▁오 열
▁오 컬
▁개 고생
▁이런 일이
▁인 질
▁생각 함
▁생각 하면서
▁왜 자꾸
▁자 부
▁자 폐
들이 여
▁같 네
▁같 애
▁같 다...

▁스토리 라
▁남 았던
▁본 영화

▁미 남
▁미 련
▁미 인
▁유 인
▁아니 어도
▁보고 픈
▁감동 먹
▁일 기
▁별 10
▁장 사
▁장 엄
▁장 이
▁지루 하진
다는 

▁많 다.

▁부 풀
▁배우 .
▁뭐 냐?

▁공 군
▁사람 에
▁사람 한테
▁2 류
▁2 점은
▁조 마조
▁내용 만
▁10 

▁10 0년
▁만들 지마
▁끝 장
▁끝 없는
▁고 대
▁고 무
▁고 추
▁고 스트
▁저 를
▁저 학년
▁애 도
▁애 인
▁애 청
▁재미없 는데
▁재미없 어도
▁재미없 었다.

▁해 군
▁해 놨
▁해 본
▁쓰레기 ..

▁쓰레기 통에
▁명 배우들의
▁사랑 한
▁사랑 ...
▁사랑 스러웠
▁되 었던
▁되 었다
▁반 쪽
▁웃 어
▁웃 은
▁웃 었다
▁결 승전
보고 또
액션 의
▁거 참
▁거 시기
▁좋아 .
▁시간 

▁시간 이었
▁시간 아까움
▁매 료
▁싶 습니다.

▁바 비
▁이거 진짜
▁노 트
▁작품 입니다
▁작품 입니다.

적이 어서
▁원 한
▁살 다가
▁살 고싶
▁이건 ...
▁3 점이
▁좋았 지만,
▁도 서
▁하나 ,
▁하나 ...
▁하나 님의
▁할 려고
▁성 냥
▁때 묻
▁죽 이네
▁한국 영화

▁한국 공포
▁한국 전쟁
없는 영화

▁후 지
▁후 레쉬
▁했 음
▁했 습니다
▁했 는데..
▁현 장
▁나오 긴
인데 ...

▁김 종
▁김 진
▁최악 임

▁이게 무슨
▁아깝 단
▁아깝 네요

▁세 기
라는 건지
▁허 니잼
▁1점 .
▁이해 안되는
▁위 기
▁위 에서
▁돈 날
▁짜 맞춘
▁느낌 ?

▁명작 입니다

▁구 식
▁동 시
▁화 나
▁잼 게
▁잼 따
▁잼 없다

▁음 산
▁들 었지만
▁당 대
▁당 위
▁에 단
▁여자 랑
▁요 근래
▁만든 다
▁와 ~~
▁차 갑
▁드 팔
▁아닌 지
▁울 리
▁울 음
▁울 다가
▁울 림이
▁유치 

▁존 잘
▁박 물
▁박 준
ᄏᄏᄏᄏᄏᄏᄏᄏ ᄏᄏ

ᄏᄏᄏᄏᄏᄏᄏᄏ ᄏᄏᄏ

▁무슨 죄
하나 요?
▁볼만 했다

▁현실 적
▁결말 .

다니 .

▁다른 걸
인가 .

▁짱 입니다
▁보기 전에
▁속 을
▁속 지마
▁반전 이라고
▁매력 의
▁걸 릴
▁걸 까?

▁선 과
▁절 친
▁가슴 속에
▁가슴 뭉클
▁솔 로
▁눈물 날
스럽 지만
▁맞 을
▁맞 출
▁ᄒᄒ ᄒᄒ
▁높 지
▁전개 .

▁음악 으로
▁있었 다면
▁있었 지만,
▁간 에
더라 구요

▁필요 없고
▁아름다 워서
▁피 는
▁피 를
▁4 명
▁문 채
▁문 소리
▁문 화를
▁프 랑
▁8 0분
▁받 쳐
▁받 았던
▁파 리의
▁재밋 던데
▁버 디
▁추천 !!

▁여운 은
▁5 0년
▁연기력 

▁코미디 와
▁공감 

▁공감 하기
▁공감 되지
▁대박 이
스트 레스
▁달 라서
▁놀 이
▁놀 라는
▁대단 하고
▁가족 ,
▁가족 드라마
▁가족 들이
▁가족 들과
▁답 이없
▁교 양
▁야 한영화
▁알았 음

▁물 결
▁함 축
▁재밌었 습니다
▁- 100
▁삶 

▁베 끼
▁만들었 다고
▁조금 도
▁그렇 다.

▁기분 을
▁않고 ...
▁느껴 지고
▁자체 .
▁시리즈 중에
▁앞 부분
▁니 다.
▁보다 보니
▁케 미가
이란 ...
▁감동적이 다.

▁감동적이 네요
▁감동적이 었어요
▁천 년
▁정신 없는
▁정신 없고
▁정신 상태
▁이유 

▁은 유
▁은 희
▁않았 나
▁나왔 다고
▁티 라노
▁삼 촌
▁못한 다는
거리 게
▁영화라고 ...
▁따뜻 해지
▁살아 가고
▁의미 로
▁수작 을
▁수작 !

▁수작 이다
▁20 살
▁신선 함이
이야 .
이야 말로
▁장난 으로
▁변 하지
▁산 뜻
▁만화 같은
▁판 을
▁싫 다고
▁행복 해
▁황 제
▁확 신
▁답답 하게
사랑 해
▁토 미
▁첨 이네
거같 고
합니다 !!

하네 여
아깝 고
▁낚 여
▁1점도 아깝다
▁잡 탕
▁다큐 가
▁총 싸움
▁오늘 날
▁들어 가서
▁환 영
구만 .

▁찾아 보니
▁종 류의
▁보았 다

시길 ...
▁어릴 땐
▁보세요 !

▁코믹 물
▁코믹 으로
▁포스터 의
▁암 유발
지루 함

▁주연 을
▁오래 간만에
▁돌아 와
▁브 란
▁멋있 다.
▁멋있 어서
주의 자
▁o u
▁집중 할
▁낫 겠다

인줄 알고
▁병 사
▁블 레이드
▁순수 했던
▁커 트
이거 보고
▁불쌍 해
▁색 감도
▁괴 리
▁투 모로우
▁끌 지
▁왕 자
▁대체 적으로
▁공포영화 라고
느낌 ?
▁재미있었 음

▁티비 판
▁노잼 ...
군요 ..

재밋 고
▁비교 를
▁비교 적
▁비교 해도
▁S M
???? ?
▁늘 려
▁200 9년
보게 되는
▁송 새벽
▁다음 엔
▁다음 편이
▁이미 숙
▁꼬 집
er f
다시 는
잖아 .

▁한마디 만
▁존재 하지
보고싶 다

▁풍 부
건데 ..
▁직 설
▁직 쏘
▁다르 지
▁다르 다.

스타 일이
을듯 ..

▁구성 .
▁착 하고
▁O T
▁이번 에도
▁낮은 거
▁낮은 게
▁묘 미
음악 은
▁질질 끄
▁어쩌 구
▁지루함 ..
▁보여준 다

▁즐거 웠던
▁권 선징악
▁극장판 을
▁빛 나
던가 ..
▁봤지만 ..
▁영화다 !!

▁화면 만
▁흥행 실패
▁만드 네

▁감성 과
,. ,

남자 주인공
하지도 않
▁진행 도
좋았 다

▁리얼 리즘
▁댓글 이
▁능 청
▁홍콩 영화의
짜증 나서
▁망작 이
▁안타까 워
▁깔 깔
▁놈 은
하긴 하지만
많은 걸
▁편집 을
▁얘기 하고
▁최고였 다.

▁설명 할
방송 에서
▁전설 적인
▁d o
▁사라 지는
▁합 격
▁내인생 의
▁괜히 봤
▁나쁘 게
▁동화 책
▁해준 다.

▁바라 본
▁멋지 다.
▁팔 아
▁요소 도
▁풀어 내는
▁중반 까지는
▁바람 이
▁코메디 

강추 !!

▁류 덕
▁못보 겠다

▁짐 작
▁짓 게
지못 하고
▁경찰 은
▁뜨 거워
▁감동적 입니다.
▁춤 도
▁어렵 고
▁뒷 통수
랄까 ...
▁글쎄 ..
▁꾸 며
▁낚였 네
▁느낀 건
▁아닌데 ..
▁사극 

▁소름끼 치도록
하지마 세요
▁안본 다
▁일상 적인
▁지루하다 ...

▁어렸을 땐
▁겉 만
▁i m
▁짠 하고
▁톰 하디
▁이연걸 이
▁재밋게 봣
▁무지 하게
▁몸매 는
▁떠나 지
▁그립 다.

▁남녀 노소
▁비주얼 도
▁반성 해라
▁몽 골
▁메이 저
관계 를
▁능력 을
▁이해할 수가
▁생생 히
▁대표 작
▁웃겼 음
▁웃겼 다

▁여기서 도
▁ᅮ .ᅮ

나보 다

▁전반 적인
▁기대안하고 봤는데
▁기독교 인
▁무비 

▁한참 을
주세요 .

▁미모 와
▁센 세
▁대부분 이
▁코난 이
100 %
하세요 .

몰입 이
상황 이
▁정의 는
▁누군가 가
▁스크린 에
▁학생 들
▁봅 니다.

▁봅 니다

▁웨 스
▁커플 이
아쉽 지만
▁보여줬 는데
▁국가 대표
▁이럴 거면
▁필름 이
연기력 도
▁못하겠 다.
▁깨달 음을
▁느껴졌 다.

▁감명깊 은
▁옷 을
▁작위 적
▁깎 아내
다음 에
▁연기잘 하는
▁늘어 지고
▁보자 마자
▁에이 미
▁아름다움 과
▁귀여워 

아쉬 운
▁기준 이
▁사랑스럽 다
아빠 가
▁주윤발 의
▁팍 한
▁컬 러
아저씨 가
추억 이
▁난잡 한
최악의 영화
▁킹 왕
느끼 게
▁이해할수 없는
▁하품 만
▁안나온 다.
▁안나온 다

마이 갓
▁어떨 지
▁거품 이
▁웅 장한
미스 테
▁천국 의
▁포인트 를
▁폰 부
▁이쁨 

▁송강호 의
▁부자연 스러운
▁to p
하나하나 가
여기 서
▁섬뜩 한
▁스토 커
▁모아 놓고
▁갱 스터
▁불법 체류
▁런닝타임 이
▁넘쳐 나는
▁굳굳 

▁초월 하는
▁간단 한
ff ff
▁재치 있는
.ᄏ.ᄏ .ᄏ.ᄏ
▁고질 라
▁매미OO 있네

▁그와 중에
▁들여 다
▁과대평가 된
어설 픈
▁시사 하는
▁파이 널
▁도입 부
▁끝냈 어야
▁매트릭 스
▁불친 절
▁빠짐 없이
▁코엔 형제
▁리암니 슨
▁슴 가
▁오마 쥬
▁서인 국
▁삼국 지
▁어쩐 지
로게 로게
▁손오 공
▁샤말 란
▁우베 볼
▁성지 순례
▁긴급 조치
▁스펙터 클
나다라마 바사
드림1개 드림1개
▁조마조 마
! """

& lt
& gt
' 에서
) 를
* ^^*

, 신
, 여
. 이런
/ 2
1 7
1 을
? ᄏᄏ

G M
M D
a v
c c
d 

i a
i ve
s e
u p
~ 5
ᄂ ᄂ
ᄏ ᄀ
ᅵ 

▁ )
▁ ♡
▁ 렉
▁ 춰
▁ ,,,

▁ ᅩᅩ
갈 등
감 탄
강 의
강 이
같 지만
같 네요
같 다는
같 으면
거 가
거 기
거 같은
겠 지...
결 론은
경 씨
고 래
고 향
공 연
교 회
군 분투
궁 창
극 에
금 지
기 독교
김 태
까 ...
나 이가
낚 시
낚 였
난 해
난 후
남 고
났 는데
넘 넘
넣 어
네 트
노 가
노 쉬
는 듯
는 건지
니 ...

다 신
담 이
대 

던 게
덩 어
데 드
도 .
도 현
독 특
돼 서
되 기
될 지
든 다.

듣 기
듯 !
듯 ?

듯 ....

때 려
라 ~

라 운드
러 진
레 나
레 비
려 지는
력 으로
로 소
로 지
루 의
류 에
리 버
릴 께
마 미
마 법
만 ...

만 화를
말 할
메 시
멘 터리
몇 번을
모 션
물 과
미 랑
민 씨
민 주
박 스
반 대
반 성
방 금
방 영
방 학
배 로
변 태
보 기도
보 셈

본 데
부 에서
분 도
블 로
사 벽
사 이의
살 면서
삼 아
상 

상 에서
상 당히
새 키
성 장
성 없는
세 영
세 주
셔 도
소 개
소 중
수 면
수 술
시 ,
시 리
시 트콤
식 당
쓰 렉
쓰 는거
씬 ,
씬 과
씬 의
아 놔
아 동
아 래
아 를
아 카
안 본
안 을
안 됨

안 된다
알 게
알 렌
앗 다
야 되
양 심
어 져
어 !

엇 으면
었 지
에 비
역 활
영 활
오 를
와 

왜 이
요 ....
요 !!

요 ~~

우 며
우 리는
움 ,
움 은
월 에
위 의
윤 희
은 왜
음 !
의 로
이 네요.

이 뻐서
이 아니라
일 반
일 줄은
있 었는데
있 었지만
잘 어울
잡 은
잼 나
잼 잼
정 재
정 훈
제 이
제 라블
져 요

조 가
족 이
주 세요.
죽 음
줄 도
줄 이야

지 기
지 르고
짧 은
쯤 에
차 승
찮 게
처 드
첨 엔
초 월
치 다
치 로
치 며
치 면서
침 몰
콩 달
크 

크 라이
클 래
클 리
타 가
태 어나서
터 를
텐 츠
티 의
티 스트
포 함
포 르노
폭 탄
풀 어
프 가
피 해
하 노
하 튼
하 품
하 구나
하 세요.
한 듯

함 ?

해 놨
햇 으면
했 어요.

했 더라면
호 구
화 된
화 의
화 려한
확 실
회 사
히 로
히 지
.. 연기
.. ^^

영화 네
영화 들
영화 보는
▁영화 사
▁영화 엔
▁영화 네

▁영화 냐

▁영화 보기
▁영화 보는데
▁영화 치고는
▁이 빨
▁이 색
▁이 어가
▁아 서
▁아 유
▁그 랫
▁그 렸
▁그 보다
▁그 사람
▁보 낼
▁보 질
▁보 이나
▁보 려는
... 어
... 왜
... !

... (웃음)

▁정 선
▁정 지
▁나 인
▁나 음.
▁나 처럼
▁나 아가
▁다 봤
▁하 락
▁하 네

▁하 는데,
▁하 자면
▁없 으면서
▁없 나요
▁없 네.

▁사 운
▁내 놔
▁감 격
▁감 미
▁진 출
▁재미 나
▁연 평해
▁있 고..
▁있 나?

▁있 으니까
▁지 나고
▁한 시도
▁시 네
▁시 초
▁시 기에
▁시 한부
▁안 내
▁안 나고
▁안 들고
▁안 중근
▁정말 재미없
▁스 카
▁스 카이
▁스 콜세
▁스 머프
▁만 나면
.... 진짜
▁재밌 겠
▁재밌 습니다.

▁재밌 구만
▁기 름
▁기 업
▁기 초
▁대 견
▁대 만
▁대 인간
▁대 만족
▁대 서사
▁전 두
▁전 미
▁전 용
▁전 주
▁마 침
▁마 라.

▁연기 변
▁무 당
▁무 어
▁무 적
▁무 능한
▁모 리
▁여 인
▁여 정
▁여 기는
▁잘 찍
▁잘 해야
▁주 문
▁주 었
▁주 려다가
▁최고 지
▁최고 다!
▁않 으
▁개 척
▁개 허접
▁제 맛
▁제 국주의
▁제 2의
▁이런 것
▁이런 식
▁배 고
▁배 낀
▁말 한
▁말 아라
드라마 도
드라마 .

▁생각 난
▁생각 한다

▁생각 함.

▁왜 캐
▁자 칭
▁같 잖은
▁못 찾
▁못 만드는
▁남 주는
▁남 는거
▁알 콩달
▁본 듯

▁본 사람들은
까지 

까지 .

▁느 리
▁유 태
▁아니 냐
▁아니 었다.
▁아니 야

▁볼 일
▁볼 것도
▁비 트
▁장 점을
▁지루 했음
▁지루 했음

▁드라마 와
▁드라마 지만
▁드라마 틱한
▁많 네요
▁재미있 음.
▁재미있 음.

▁재미있 어요.

▁부 처
▁배우 에게
▁공 익
▁사람 ,
▁사람 이나
▁사람 에겐
▁2 6
▁2 D
▁2 기
▁2 회
▁조 셉
▁역 에
▁10 살
▁감독 들
▁고 기
▁고 르
▁고 군분투
▁저 에게
▁저 리가
▁애 써
▁애 쓰는
다.. 진짜
▁좀 ...

▁명 성
▁사랑 .

▁되 기
▁되 네요
▁보는 건지
▁영 어로
▁결 제
액션 영화
▁거 야
▁거 장의
▁좋아 도
▁매 기
▁매 길
▁매 춘
▁눈 꼽
▁눈 시
▁바 르
▁바 쁜
▁실 버
▁실 베
▁실 소
▁실 상은
▁불 태
▁작품 이다

▁작품 입니다

▁없는 영화
▁봤는데 ..

하지 못한
▁내가 슴
▁3 는
▁3 .1
▁기대 했지만
▁완전 재밌
▁액션 영화는
▁액션 영화의
▁좋았 어
▁좋았 다고
▁좋았 다..

▁코 너
▁코 폴
▁하나 만으로
▁할 게
▁성 동일
▁추 모
▁때 매
▁때 까지
▁때 리는
▁죽 어가는
▁처음 인
▁한국 말
▁후 배
▁후 ...
▁했 음

▁했 습니다.
같은 건
같은 게
▁나오 던
▁김 원
▁김 주혁
▁김 우빈
▁최악 으로
▁이렇게 도
▁또 한번
▁극 적
▁극 히
▁세 븐
▁관 점이
▁초 한지
연기 

▁분 류
하다 면
하다 못해
▁두 루
▁두 마리
▁느낌 ...
▁명작 중
▁명작 이라는
▁명작 입니다.

▁구 분이
▁따 지면
▁동 아리
▁심 정
▁잼 없다
▁잼 없음

▁이야기 지만
▁기억 

▁기억 상실
▁뭔 지도
▁캐 치
되는 지
▁들 었는데
▁들 었다
▁괜찮 지만
▁괜찮 네요

▁괜찮 아요
▁아이 에게
정도 .

정도 ...
▁발 정
▁발 가락
▁요 세
▁만든 영화

"""" 이
▁차 분한
▁주인공 들은
▁주인공 에게
재미 로
사람 이라면
▁설 수
▁드 려
▁드 러운
▁특 색
▁특 정
▁울 었다.

▁공포 감
▁공포 에
▁유치 하지
▁줄 수가
▁박 현지
▁박 스오피스
을까 .

▁무슨 ...
하나 ,
▁아무 렇
▁볼만 합니다.

▁힘 으로
▁소재 나
하기 를
하기 위해
▁몰입 할
▁다른 게
▁누 워서
▁흥 겹
▁이상 해서
▁과 도
▁짱 !!
▁짱 !!!

▁OO 이
▁얼 음
▁절 실히
하면 ,
구나 ....

▁짜증 난다.

인지 를
▁낮 다.
▁원작 으로
▁원작 이랑
▁영상 만
▁인간 과
▁있었 음
▁있었 음

▁있었 습니다.
▁있었 다니
▁있었 습니다.

▁몇 분
▁모르겠 음
▁돌 리고
이고 

▁건 물
▁건 전
▁필요 할
▁피 에
▁피 의
▁듯 ,
▁4 8
▁4 번
▁4 점은
▁4 44
▁4 000원
▁수준 으로
▁하지만 ...
▁올 리고
▁편 은
떨어 지고
▁파 도
▁치 매
▁치 중
▁재밋 어요

▁이제 부터
▁모두 의
▁열 받는
▁버 림
▁버 튼
▁추천 하는
▁갈 망
나라 를
▁5 년
▁5 점은
▁캐릭터 들은
아니 라고
아니 고

▁크 레
▁코미디 에
▁실망 이다
▁호 모
▁공감 되고
▁출 품
▁손 으로
▁달 인
감독 을
▁개봉 하고
▁개봉 한거
▁레 벨
▁가족 에
▁준 거
▁질 을
▁이걸 왜
▁악 한
▁표현 하고
▁잔잔 함
엔딩 이
▁대사 들
▁재밌었 음.
▁아쉽 

▁아쉽 게
▁아쉽 네요.

이상 의
▁잼있 었
▁잼있 어요

▁잼있 어요~
▁- _
▁카 우
▁베 댓
▁베 를린
▁만들었 네
▁그렇 고..
▁스릴러 ?
▁스릴러 로
▁스릴러 .

▁기분 나쁘
▁잠 안
▁봐야 지

▁막장 도
평점 보고
이라고 ?
▁떠 나고
▁니 다
▁알바 들아
이란 거
▁감동적이 다

ᄏᄏᄏ 근데
▁정신 이상
▁않았 습니다.
▁디 게
▁나왔 다는
▁나왔 는지
0년대 에
▁보고싶 지
▁그러 는데
▁보게 되었
▁따뜻 함이
▁영화로 는
감동 ,
더니 ..
▁그저 그렇
▁신선 함
니다 ~

이야 .

▁안되 면
▁무섭 긴
▁무섭 다.

▁무서 웠던
고싶 어서
▁황 진
▁용 가
▁용 감한
▁시청 자들
▁길 어서
사랑 해요
▁토 나올
▁첨 이다

▁부분 들이
▁허접 

▁허접 하게
거같 네요
▁입 곡
▁입 이
▁관객 들은
▁관객 들에게
▁우리나라 가
▁귀여 움

▁인상 적

▁완벽 하다.
▁깊 고
▁엔딩 을
▁OOO 기

▁패 틴
▁낚 일
▁팬 들
▁팬 심으로
▁다큐 

▁흐 를
▁흐 한
▁식 당
▁들어 갈
▁들어 갔
▁들어 와
▁슬프 다..

▁뿐 ...
▁뿐 이다

▁코믹 과
▁코믹 요소
▁캐스팅 만
▁캐스팅 을
▁설정 .
▁백 프로
▁킬링타임 으로
▁기억에 남
▁기억에 남는
▁주연 이
▁주연 들의
▁주연 배우의
▁후회 가
▁제발 좀
▁보지 못
▁어느 순간
▁보지마 셈

▁병 원
▁병 입니다
재미있 다

▁옛날 엔
▁미친 거
▁따라 가지
▁불쌍 하고
▁투 박
▁투 자를
▁흘 리게
▁중국 산
▁중국 판
▁b b

▁b oring
▁상상 이
▁CG 로
▁키 이라
군요 ...

▁죄 가
▁흔 들어
▁맛 은
▁S BS
▁트 로
▁으 악
▁밖에 

수준 을
▁초딩 도
▁취 권
▁취 해
▁200 4
마지막 까지
▁꼬 맹
▁꼬 꼬마
▁ᄏᄏᄏᄏᄏᄏᄏᄏ ᄏᄏᄏᄏᄏ

▁ᄏᄏᄏᄏᄏᄏᄏᄏ ᄏᄏᄏᄏᄏᄏᄏ

아이 들
▁쓸 때
▁테 일러
▁성룡 은
▁교훈 은
▁존재 의
▁아님 ?
▁전부 인
▁틀 린
▁틀 에
구요 ~
할때 는
▁~ !
▁예상 대로
▁뭐야 ?

여자 를
▁휴 대
▁윤 재
▁윤 시윤
▁어른 도
▁어른 을
▁기다 리
라니 

▁슬픈 영화

▁머리 속에
▁질질 짜
-_- ;
;;;; ;

▁보여주 기
▁보여주 는데
▁하게 하는
▁재미없는 건
▁벗 기
▁벗 는
▁벗 은
▁의도 로
▁끝나 기
▁회 자
▁운 전
▁흥행 은
▁만드 네
▁201 3
▁201 1년
▁향 기
▁한편 으로
▁이런영화 도
좋았 는데
▁어려 워
되어 있는
▁시절 에
▁a re
짜증 나는
▁그닥 

▁선택 은
▁엉망 이
▁유명 해서
▁불륜 은
▁망작 .

▁페 이스
▁과거 와
▁안나 왔
▁9점 을
처음 엔
연출 력
영화로 써
▁아빠 를
▁가능 성이
▁감상 평
▁^^ ;

따위 로
어진 다
▁3점 도
▁연출력 과
▁별루 다

▁워 쇼스키
▁영화임 에도
▁해준 다.
▁영화보다 도
▁요소 들이
▁관계 에
인간 들
▁노력 하는
▁서로 의
▁어설프 다
▁중반 까지
▁ost 는
▁성장 하는
▁전작 보다
▁아오 이유
▁우울 할때
▁100 배
...이 렇게
▁재밌게봤 던
▁게임 이
▁보이 는데
지못 하는
▁없음 ...

세계 를
▁뜨 거
▁뜨 고
하던 지
▁미래 에서
▁보고나서 도
▁붙 어
반전 도
▁인상깊 었던
re s
눈물 을
▁하루 에
을거 라
▁끊 기는
더만 

▁외국 영화
▁화가 나
▁느낀 게
▁w or
안되 서
▁제작진 의
▁블랙 코메디
▁소름끼 치게
▁좋을 듯

▁끝나고 도
▁재밌었는데 ...
▁다큐멘 타
▁푸 팬더
▁끝난 다.
▁종교 를
▁이건뭐 ..
▁후속 작이
▁아닐까 

▁영환 줄
▁상처 가
▁상처 받은
ou t
▁표정 과
▁폭력 을
그렇 지
▁등장인물 들
▁등장인물 이
아까운 영화
▁잤 다

▁드러 내는
▁무시 한
▁비주얼 은
▁설레 게
▁비극 적인
정신 병
ad e
▁오랫 만
▁광고 를
▁쪽 바리
▁연결 도
▁싱 거운
▁대표 적
▁고통 과
나와 

▁출연진 에
▁ᅮ ᅲ

▁폴 리스
답답 한
나보 다.
ing 

▁연속 

▁에휴 

▁망쳐 놓은
▁느껴진 다
▁섞 인
▁쩐 다

▁특이 하고
▁같았 다.

하다니 

나이 더
▁안됨 .

▁복잡 하고
▁최강 희
▁세월 호
▁제이 미
상황 에
비디오 로
▁스크린 에서
▁^ _
▁학생 들이
▁깜짝 깜짝
▁사랑이야기 

▁달라 진
▁시즌2 는
▁봉 준호
▁보여줬 던
▁류승 완
▁좋았을 걸
▁풍경 과
▁k n
▁주말 의
▁욕망 을
▁몇년 만에
▁오빠 들
▁위로 를
▁동성애 를
▁올리 버
▁인디 언
▁제외 하고는
▁홀 리
대단 한
▁결정 적으로
▁여러가지 로
▁여러가지 를
▁짜임새 가
긴장 감도
생활 을
▁N O
▁마세요 .

▁댄 싱
▁시키 지
▁바랍 니다

it h
▁영화이 긴
▁볼때 는
▁잠시 나마
▁목숨 걸고
▁굴 러
♡♡ ♡

▁감안 하면
▁뭐하자 는거
▁위대 함을
▁다섯 손가락
▁1인 2역
▁링 컨
▁염 정
▁킹 콩
▁현실적이 어서
▁망가 진
▁어우러 져
▁케릭터 가
▁리얼리티 가
▁이렇 다
▁아파 서
▁흔들 리는
▁짐캐 리의
▁불안 한
▁벗어 난
▁웅 얼
▁액 티비티
▁일으 킨
TV 에서
▁이승 기
재밋게 봣
,,,,,,,, ,,,,,,,,
ᅳ.ᅳ 

비에 르
▁키아누 리브
▁스피 드
▁~~~~ ~~

▁안무섭 고
▁진수 

▁상큼 한
▁안나옴 

▁그럴듯 하게
▁그림체 도
▁곤 란
신기 신기
▁주관 적인
▁소소 하고
▁귀찮 아서
▁2014 년에
▁부드 러운
▁러셀 크
▁아메 리카
▁유승 호
▁반응 이
▁파고 드는
▁마녀 사냥
▁일일 드라마
▁내세 운
▁기대안 했는데
▁매미OO 

▁에바 그린
▁서정 적인
▁톱 스타
▁겹 쳐
▁엇 갈
▁고소 영
▁크로 버그
▁떄 문에
▁토끼 를
▁비롯 한
▁극한 의
▁기념 비
▁시끄럽 고
▁박해 일
봤을 땐
▁스무 살
▁불친 절한
▁진솔 한
▁소리지 르
▁김동 완
▁빨리감 기
▁wh at
▁상식 적으로
>_ 신고

all y
▁고현 정
▁동방 불패
▁문근 영
아자 차
▁전무 후
▁파란 만
▁거침 없이
▁구로 사와
▁이문 식
▁윌스 미스
▁오다 기리
▁고릴 라
▁꼬박 꼬박
▁무심 코
▁발버 둥
▁아청 법
▁성냥 팔이
' 와
, 그리고
- )

. 너무
. !

. ᄏᄏᄏ
1 .
1 시간
1 점은
1 년도
2 .
2 5
2 0년
2 0분
4 0분
6 

6 0
8 점대
D 

o l
t er
w ay
~ ᄏ

~ ᄏᄏ

ᄉ ᄉ
ᄒ .
ᅮ .ᅮ

▁ ???

가 ,
가 휘
가 ..

가 보다
감 ,
감 만
감 있는
강 한
겟 지
겠 어요
결 과
계 인
고 있는
과 연
광 록
구 마
구 성도
국 내
근 하고
글 구
기 게
기 들
기 어
길 ...

김 기덕
까 요
끝 나는
나 ....
네 ;
네 는
네 스
누 님
는 가?
니 .
니 와
다 닌
다 보고
단 말
단 체
달 려
담 에
담 은
대 부
대 왕
대 해서
대 는거
데 없이
돈 아까워
동 원
돼 

돼 는
될 수
드 그
듯 한데
때 로
라 며
라 클
랜 드의
런 스
럽 다

레 .
려 구
룬 드그
리 시
리 에서
림 은
마 져
만 남
맘 대로
망 상
망 신
맨 을
머 가
머 리에
먹 먹
먼 의
면 에
면 에서는
모 드
모 호
묘 사
문 화가
바 랍
방 울
베 가
보 를
보 호
보 기가
본 적
본 후
본 드라마
본 영화중에
볼 라고
볼 거리
봐 요

부 리는
빠 져서
뿐 ...
뿐 이다

사 서
사 이에
산 을
살 짜리
선 은
선 으로
성 상
섹 시
셀 러
속 도
수 다
수 사
쉬 고
시 카
시 네요
신 교
심 지어
씨 리즈
씬 에
아 닙
악 당
안 녕
안 한
안 함
았 다...
앞 뒤
애 는
애 도
야 !
야 ~
야 한다
약 을
어 라

업 고
없 어요
었 네요
었 을때
에 요?
여 신
역 대
연 걸
였 다고
였 다..

예 뻐
예 요..
오 랫
올 림
와 도
외 에는
용 ~

우 어
움 직
원 숭
원 주고
으 시면
을 려고
을 수있
음 ;;
이 신
이 정도
인 다
인 정
인 즈
인 영화
인 다.
인 에게
일 어
임 창
있 네요
있 을까
자 라
자 주
자 ..

자 !

자 동차
장 구
재 석
잼 나게
전 으로
전 까지
정 치
제 임스
조 합
졸 작

종 을
좋 다.
죠 !

주 씨
중 딩
중 에서도
줬 다.

즐 거
지 덕
지 모르
진 부한
질 

질 로
질 주
짓 거리
짜 린
짜 리가
쪽 팔
참 다
창 석
채 플린
최 민
치 네
친 다.
친 다.

카 드
카 타
코 는
크 에
태 가
태 의
터 지고
토 를
통 해
통 하는
투 더
특 수
틀 어서
티 는
팀 이
파 이팅
패 닝
패 러디
팬 이지만
퍼 센트
표 가
풍 경
풍 의
프 라
피 식
하 겟
하 심
하 다....

하 였다.

한 

핵 노잼
했 네요

허 술
.. 참
.. ᅲ

.. ᅮᅮ

.. 이건
영화 관
영화 란
영화 인
▁영화 답
▁영화 들의
▁영화 이고
▁영화 네.
▁영화 입니다..
▁이 랑
▁이 럼
▁이 었
▁이 쯤
▁이 프로
▁아 는데
ᄏᄏ 진짜
▁그 루
▁그 놈의
▁보 냈
▁보 니다
▁보 는데..
▁재 조
▁재 구성
... 근데
... 역시
▁정 교
▁정 크
▁정 점을
▁나 치
▁나 약한
▁다 면
▁다 해
▁다 좋은데
▁하 냐
▁하 든
▁하 울
▁하 기도
▁하 는데...
▁좋 다...

▁좋 지만,
▁좋 네요..
▁없 습니다
▁없 습니다

▁없 음...
▁어 게
▁어 따
▁어 장
▁너무 많이
▁너무 좋고
▁내 사랑
▁감 

▁감 점
▁감 우성
▁재미 라도
▁연 설
▁지 성
▁지 인
▁지 향
▁지 혜
▁지 지부
지만 ..

지만 ...

▁한 일
▁한 사람의
▁시 장
▁시 코
▁시 궁창
▁안 개
▁안 됬
▁안 아
▁안 재
▁안 해
▁1 명
▁1 을
▁1 순위
▁정말 최고
▁정말 좋은
▁정말 재밌게
▁스 승
▁스 러운
▁만 으로
.... 이런
▁가 지가
▁가 나다라마바사
▁기 능
▁기 만
▁대 를
▁대 장
▁대 조
▁봤 음..
▁전 후
▁전 해주는
▁진짜 재미있
▁마 돈
▁마 인
▁연기 실력
하는 구나
▁수 상
▁수 염
▁수 잔
▁수 있는
▁무 력
▁모 가
▁모 조
▁여 균
▁여 우
▁생 동
▁생 명의
▁잘 알
▁잘 함
▁잘 해주
▁잘 나타
▁주 름
▁최고 ~
▁최고 입니다.

▁않 네요

▁않 으면서
▁않 을까?

▁오 멘
▁오 연
▁오 픈
▁오 정세
▁개 밥
▁개 재미없
▁개 소름
▁개 구리
▁제 격
▁제 타
▁제 점수는
▁이런 저런
▁말 곤
▁말 던가
▁말 았다.
▁생각 없는
▁왜 일까
▁자 화
▁자 다가
▁같 지도
▁같 으면서도
▁못 하나
▁못 하다.
▁못 하면서
▁못 봐서
▁못 했고
▁소 시
▁소 박한
▁남 .
▁남 들
▁남 북
▁남 우주연
▁알 라
▁본 사람이
▁미 혼
▁유 진
▁유 투
▁유 덕화가
▁아니 에요
▁보고 나
▁볼 건
▁감동 ...

▁감동 있고
▁일 에
▁별 개로
▁비 운의
▁장 국
▁장 학
▁장 예모
▁우 유
▁우 에노
▁지루 했고
▁드라마 나
▁드라마 다.
▁드라마 네요
▁많 을
▁작 고
▁작 성
▁중 화
▁중 에서는
▁중 심이
▁재미있 네
▁배우 님
▁배우 진
▁뭐 임?
▁뭐 든지
▁2 ,
▁2 9
▁2 ,3
▁조 종
▁조 화를
해서 ..
▁내용 .

▁내용 인지도
▁역 동
▁역 의
▁10 %
▁만들 겠
▁만들 다니..
▁감독 새끼
▁끝 에서
▁고 사
▁고 르는
▁고 평가
▁고 리타
▁저 에겐
▁애 처
▁애 정이
▁재미없 던
▁재미없 고,
▁재미없 었음
▁재미없 었어요
▁재미없 음...
▁재미없 네...

▁해 주고
▁해 줘야
▁쓰레기 임
▁쓰레기 중에
▁명 의
▁명 백한
▁사랑 합니다.

▁참 .
▁참 된
▁참 아
▁반 미
▁반 가운
▁웃 었던
▁영 감
▁예 나
▁다시 보니까
액션 을
▁거 라
▁거 지?
▁거 꾸로
▁좋은 게
▁좋은 영화가
▁좋은 작품
▁시간 대
▁시간 아까움

▁매 너
▁싶 었다.
▁싶 었다

▁처 벌
▁눈 알
▁바 디
▁바 를
▁바 라고
▁실 수를
다가 스카
▁작품 ...

적이 게
적이 면서도
▁살 게
▁살 았던
▁없는 듯

▁3 점은
▁액션 신이
▁액션 마저
▁도 배
▁의 심이
▁하나 ?

▁할 꺼
▁할 수가
▁할 까?

▁넘 었
▁성 에
▁죽 지
▁죽 었는데
▁한국 드라마
▁했 고
▁했 음.
같은 영화

▁현 주
▁김 대
▁김 용
▁김 일
▁이게 

▁이렇게 밖에
▁극 우
▁극 으로
라는 건
▁별로 라고
적으로 는
▁허 락
▁이해 하는
▁관 광
▁초 보
▁초 심을
▁돈 아깝다

▁돈 아까움
▁짜 게
▁짜 장면
하다 !
▁느낌 이다

▁명작 인데
▁구 해서
▁화 만
▁심 플
▁잼 께
▁잼 없어
▁이야기 ..
▁음 .
▁기억 으로
▁기억 난다
▁뭔 지..
▁우리 들
▁들 리는
▁들 여서
▁많이 들
▁당 첨
▁당 당히
▁에 잇
▁에 밀리
지도 록
▁포 레스트
▁보여 줌
▁귀 를
▁드 드
▁드 네요.
▁단 막극
▁공포 

▁유치 함의
▁졸 귀
▁줄 도
▁박 근
▁박 성
▁일본 어
▁표 방
하나 .
........ .....
........ ......

▁볼만 함.
▁볼만 했다
▁결말 로
▁힘 .
▁몰입 하고
▁리 처드
인가 ..

시간 만
▁이상 이
▁짱 깨
▁보기 를
▁속 으로
▁속 았다
▁반전 으로
▁매력 적으로
▁빠 지고
▁걸 고
▁뻔 하지
▁얼 어
▁절 실
보는 중
▁애니 도
인지 ?
스럽 고,
▁맞 았
▁맞 춤
▁맞 다.
▁높 여
재밌 었는데
재밌 어요

▁만들어 놓은
스러 워요
▁있었 을텐데
▁몇 달
▁간 결
▁간 의
▁모르겠 고,
▁돌 았
▁' 이
▁건 지..
▁순 식
▁9 0%
▁아름다 울
▁듯 이
▁4 .
▁4 개
▁욕 나올
나오 는데
▁올 린
▁받 지
▁파 는
▁전혀 없고
▁치 킨
▁이제 까지
▁이제 와서
▁외 노
▁외 설
▁외 전
▁아주 아주
▁찍 으면
▁추천 으로
▁경 주
▁영화였 지만
▁실망 도
▁실망 ..
▁공감 할수
▁대박 !!
▁대박 !

는거 보고
▁긴장 도
▁손 잡고
▁놀 라서
▁개봉 전
▁레 고
▁가족 영화

▁가족 영화로
▁믿 음이
▁교 통사고
만들 기
▁악 을
▁표현 은
▁표현 할수
▁표현 했다.
던데 ,
▁야 수
스토리 ..
▁알았 으면
▁알았 네

▁알았 는데,
▁물 에
▁물 이
▁즐 기고
최고 !!!

이지 난
이지 ...
▁싸 워
▁모습 으로
▁제목 이랑
▁재밌었 다..
이상 

▁카 펜터
▁만들었 나?
▁스릴러 ,
▁기분 .

▁막장 에
▁자체 .

입니다 ~

▁니 미
▁보다 말
ᄃᄃ ᄃᄃ

▁부족 .
▁감동적이 였
▁중간 까지
▁홍 상
▁웃기 게
▁제작 자
것같 지만
만한 게
▁나왔 다면
▁타 겟
▁타 인의
▁시작 을
▁국 회의
▁삼 박
▁보고싶 다.
▁보고싶 어요
▁보고싶 네요

▁통 속
▁통 일
▁통 제
라이 브
▁영화라고 

▁그러 면서
▁훌륭 함

▁복 고
▁될 까
▁뒤 집
▁뒤 쳐
▁감정 은
▁살아 나는
▁의미 에서
▁느끼 며
▁뻔한 내용
▁아니고 ..

하는데 ..
▁신선 했고
▁희 열
▁C F
▁변 한
▁변 화를
▁산 업
▁갑 니다.
해야 하는
▁만화 의
▁판 빙빙
▁친구 는
▁친구 의
▁친구 들과
▁행복 이
▁t r
▁t im
▁언제 부터
▁용 기에
▁용 기가
▁길 들여
▁멋진 영화

▁토 모
▁토 요일
▁첨 이다.
▁부분 만
▁자신 들의
▁양 자
좋아 지는
▁엔딩 에서
한데 ..
▁시나리오 의
▁배경 에
▁배경 의
▁힘들 었다.
▁팬 됐
▁식 겁
▁총 각
▁이딴 것도
▁문제 .

구만 ..

▁찾아 왔
▁찾아 보고
▁임 성한
▁진정 성이
시길 ...

▁보세요 !
건가 .
쓰레기 다
▁책 으로도
▁책 임을
지루 

▁백 성
▁맘 대로
▁멋있 어
▁멋있 어요
▁지나 지
▁주제 의식
▁터 뜨
▁잔인 하지만
▁재밌어요 !!

▁재밌어요 ~

▁충분 하다.

▁따라 올
▁뛰어 나고
▁괴 로웠
▁흘 리며
하겠 다

▁알고 있는
▁알고 보면
▁이름 도
▁이름 은
▁감사 하게
▁프로 가
▁프로 트
▁프로 파
이야기 는
▁누가 봐도
▁얼굴 과
▁똥 망
하네요 ...

▁후반 의
▁로맨스 로
느낌 은
으니 

▁노잼 ..
재밋 는
재밋 엇
재밋 음

▁비교 해서
▁괜찮았 다

▁괜찮았 다.

▁재밌다 !!
▁맛 없는
▁발연기 ,
▁발연기 와
▁기억이 ..
▁기억이 ...

▁2편 을
▁으 휴
▁s e
▁s n
▁s p
시절 이
▁200 7년
나온 다고
▁알게 해줬
보기 로
▁딸 은
▁송 일
▁다음 날
이였 음
마지막 은
▁ᄏᄏᄏᄏᄏᄏᄏᄏ ᄏᄏᄏ
▁ᄏᄏᄏᄏᄏᄏᄏᄏ ᄏᄏᄏᄏᄏᄏ

한번 더
한번 도
▁성룡 영화
라면 ,
▁좋은데 ...
▁독특 하게
▁멍 하니
▁여배우 는
▁여배우 도
▁잘못 을
▁있을까 .

▁틀 을
▁어울 렸
▁소설 도
▁소설 은
▁같은데 ...

▁ᅳ _ᅳ
▁다르 다.
▁다르 지만
▁예상 을
봐야 할
거나 ,
▁어른 들
▁어른 들은
▁기다 리며
▁봤어요 ^^

라니 .
▁밑 바닥
▁안된 다고
▁빈 틈
▁평범 하지
▁지루함 ...
▁방송 에서
▁권 장
▁권 총
▁어이없 어
▁2점 을
▁보여주 려
▁그녀 들의
▁상영 을
▁의도 한
▁생각해 보니
하자 .

▁가치 있는
▁회 를
▁시청률 을
해주 면
하니 깐
▁있지만 ..
▁씨 가
▁향 수
▁써 서
들아 .
▁한심 하고
▁순간 을
좋았 고
▁헤 드
▁헤 매
▁알겠 다

사회 에
▁프랑스 의
▁루 이스
▁댓글 에
▁급 이
▁훈훈 하게
▁a l
▁a m
▁분위기 ,
▁분위기 나
▁맥 아담
▁황당 하고
▁케이 온
▁선택 이
었어요 !
웃음 만
▁묻 힌
▁페 이
▁여전 사
▁검 사
▁편집 은
▁최고였 어요
▁안나 지만
▁멍청 하고
▁멍청 하게
영상 이
▁희망 한다.
▁아빠 랑
▁결혼 을
▁후반부 가
▁갔 던
지않는 다

▁골 드
따위 는
▁웃긴 건
▁웃긴 데
▁느끼게 해준
▁병맛 

▁무서운 영화
▁바보 같은
▁3점 짜리
▁대작 이
▁연출력 

▁되어 가는
▁되어 버렸
▁기대하고 봤는데
▁대한민국 에서
▁뭐냐 .
▁전편 과
▁복수 는
▁풀어 냈
▁죽음 에
-- ;

▁이러 지
▁앞으로 는
▁같아요 ~
강추 !

▁촬영 한
▁어렸을때 는
▁아프 게
▁아프 다.
▁아프 다

▁그려 냈
▁우울 증
▁못보 겟
▁나라 에
▁재미있어요 !
다운 받아
▁철학 을
▁게임 의
▁보이 려고
▁응 ?
▁없음 ..

▁귀신 은
▁15 년
알바 가
▁: )
▁OOO기 영화

▁논 란
▁그랬 지만
▁환상 적이
▁와닿 았
새끼 들은
▁자유 로
▁자유 와
▁글쎄 ...
▁군대 를
▁프로그램 

일뿐 .
▁해주는 거
시켜 서
▁찍은 거
▁젊은 이들의
도없고 

▁아저씨 의
▁까지 는
▁역할 에
▁역할 은
지말 자

지말 아야
▁다만 ,
▁폐 기
▁이기 적이고
▁스트 립
▁끝난 후
▁끔 

▁밥 도
▁십 분
▁그다 지...

▁톰 과
▁부터 가
무섭 고
으로서 의
무비 의
▁동물 의
▁상상력 과
▁상상력 은
▁10년 만에
▁놀랍 다
▁말이필요 없음
보여 준
▁정서 가
▁드러 나
▁무시 하는
▁설레 고
▁태어 났
▁선생 님의
관계 가
▁국민 이
▁올해 의
버리 면
▁납 니다.
영화라 지만
▁닥 쳐
▁싱 겁
▁때문 이
더군요 ...
▁냉 소
▁인도 영화
▁견자단 의
▁영국 식
▁상업 적
▁생각나 네요
만드 네
부족 한
▁무비 의
▁싶어 하는
▁갈등 이
▁콜 라
▁문화 적
▁편견 이
▁미모 는
▁아줌마 가
▁코난 은
▁로봇 이
▁[ 4점
▁경험 이
▁썼 으면
▁박수를 

▁허세 만
▁방법 을
▁탐 크루즈
문제 를
▁누군가 에겐
▁꽝 

▁재미잇 는
▁영혼 의
!!!!!!!!!!!!!!!! !!!!!!!!!!!!!!!!
▁아니었 다면
슬프 다
▁젠장 

▁세련 되고
▁감흥 도
▁1,2 편
이래 서
▁신비 롭고
▁왜이래 

▁보통 의
▁아내 의
▁좋네요 ~

▁지났 는데도
▁제외 하고
▁야구 를
▁비밀 을
▁결정 적인
▁다이 빙
▁다이 아
▁양심 적으로
▁정확 하게
▁스페 이스
▁남자주인공 이
▁됨 .

나봐 요
▁이해안 가
▁꼭보 세요

짱짱 맨
▁애기 들
▁X X
▁아름다웠 다.

▁애매 모호
▁배경음악 도
▁굴 곡
▁자세 한
▁극단 적으로
▁으리 으리
▁맞춰 서
▁두번째 로
▁잊혀지 질
언제 나
분위 기가
▁R EC
▁기억나는 건
▁땡 칠
▁영화자체 도
▁대가 리
▁6점대 는
▁헌 터
▁망가 지는
▁관련 된
▁집어 치
CG V
▁모르겟 다

▁듭 니다.
▁하지마 루
▁벗어 날
▁협 박
▁선정 적인
▁정상 인
▁보게되 었는데
▁th at
광고 를
▁아이디어 는
행복 한
▁괜찬 은
것같아 요.
▁시켜 서
▁단체 관람
▁방향 을
▁바이 올린
▁가시 지
▁오리지 날
참고 로
▁1~ 2
▁경악 을
▁그이상 도
▁오페 라의
▁거듭 할수록
▁개망 작
▁껏 다
▁혈 압
순수 한
▁박정 희
▁색깔 이
▁덴젤 워싱턴
▁자리 에서
▁노튼 의
▁쥐어 짜는
▁콤 비
▁기승전 결
oooo oooo
완벽 한
▁우아 한
OOOO OOOO
▁의학 드라마
▁냉정 하게
▁곱씹 어
▁이경 영
▁알렉 산
▁아야 세
▁김소 연
▁밀라 요
▁찰리 채플린
if e
▁잘나가 다가
▁로렌 스
^_ ^
▁여지 껏
▁돌고 래
▁돌이 켜
▁레즈 비언
▁황홀 한
▁믿겨 지지
▁나홀로 집에
기스 칸
▁어줍 잖은
▁가슴찡 한
▁쟁 쟁
▁아일 랜드
▁별론 데
▁선입견 을
▁웬만 해선
▁분신 사바
▁쥬라기공 원
bl og
▁잘짜 여진
▁저능 아
▁브리 짓
▁힐러 리
▁어풋 이
▁평점조절위원회 

3456 78
▁퍼시 픽
▁알콩달 콩
▁[4점 ]
% 는
) .
, 마
. ᄏᄏ

. 정말
2 9
3 3
5 

7 년에
8 점은
9 년에
> <
E R
S I
_ _
a ck
d e
k e
k m
k s
t r
w o
y e
~ 4
ᅳ ,.
▁ 깐
▁ 냄
▁ 벼
▁ 션
▁ 젠
▁ 네요
가 다
가 학
간 데
감 없이
거 늘
거 기에
것 두
게 

겨 우
견 자단
계 는
고 기
구 들
구 멍
국 제
그 걸
극 치
기 랑
길 동
길 레
길 ...
김 지
꺼 는
꺼 번에
꼭 보세요
끄 러
끔 찍
끝 

끼 리의
나 랑
나 봄
나 토
나 ??

난 다...
낮 게
내 리는
넘 는
넘 은
넣 기
네 ᄏ
네 !

녀 

녀 들이
노 력
노 예
놈 놈
놈 에
놓 으면
눈 만
다 구
다 나
다 다
다 란
다 크
다 해
단 한
답 니다

당 당
대 통령
더 군

덕 이
데 ..

도 망
돈 을
동 

돼 지
됐 는데
되 도
될 듯
두 준
두 번째
드 신
듯 해서
디 는
디 컬
딸 을
또 보고싶
뚱 한
뜨 린
라 시
라 면서
라 길래
락 으로
란 거
랄 라
래 ?

레 가
레 의
레 스타
력 ,
롭 지
료 가
루 치
르 신
르 트
린 다..

림 도
마 루
마 마
마 시
마 을
만 하다

말 라
말 하는
맞 음
매 한
먹 기
먹 지
모 메
목 소리가
문 화를
미 쳤
바 를
바 에
바 라기
방 이
배 급
배 역
버 가
별 이
보 냐
보 다.
보 아도
본 건지
볼 걸
볼 라
봐 주
봤 는지
부 활
불 러
붕 괴
비 한
뿐 이
뿐 더러
산 다
상 ,
상 블
서 양
성 이나
성 우가
세 끼
세 를
셔 널
속 편
수 입
쉬 튼
스 테
스 .

슬 펐
승 천
시 위
신 부
심 각
심 사
십 분
쌍 웅
써 도
아 키
악 

안 될
안 볼
안 은
안 하는
안 보는게
앗 던
애 서
어 ~
어 에
어 주는
어 렸을때
업 을
업 이
없 다는
없 네..
엔 탈
여 ~
여 .

연 령
였 구나
옆 에
예 련
오 .
오 면
오 .

올 랐
왕 자
왜 이렇게
외 모
요 새
요 ....

우 려
우 연히
우 뢰매
움 만
웃 는
웨 덴
위 안에
유 일
유 키
유 덕화
으 

은 ...
의 ,
의 식이
의 도가
이 ...
이 요

이 어가
익 은
인 만
있 네..

자 룡
자 ..
자 라는
잭 슨
저 래
적 에
적 을
전 ,
절 정
점 수가
정 권
정 지
조 잡
졸 려
졸 리
좋 지만
좋 다..
좌 왕
죠 ...

주 년
주 리
주 신
줄 께
줘 라
줬 던
지 지가
지 르는
직 원
진 웅
질 수
집 합
쩐 다

찬 은
철 한
체 능
쳐 먹
치 지만
카 다
카 스
커 의
케 릭터
코 스트너
크 릿
클 라
킬 머
태 를
토 미
티 나
티 시즘
팬 이라
팬 인데
퍼 의
표 를
품 달
하 ...

하 더라

학 을
할 땐
할 배
합 시다
해 내
해 ?

현 경
혈 쌍웅
혐 오
형 의
형 적인
형 님의
혜 진
홍 련
홍 철
화 한
후 

희 도
힘 내
힘 을
.. 전
.. 지루
.. 그래서
영화 같은
영화 네요

영화 치고
영화 에요
▁영화 광
▁영화 내
▁영화 든
▁영화 ᄏ

▁영화 만의
▁영화 네요~
▁영화 만드는
▁영화 인가?

▁영화 시작
▁이 득
▁이 따
▁이 익
▁이 청
▁이 화
▁이 들은
▁이 세상에
▁아 싸
▁아 ,,
▁아 냐?

▁아 ~~~
▁그 리는
▁그 시대
▁보 지는
▁보 아서
▁보 신분들
▁보 람이
... 고
... 난
... 돈
... ᅲᅲ
... ᄏᄏᄏ
... 지금
!! ♥

▁정 녕
▁나 대
▁나 이거
▁나 니아
너무 좋아
▁다 수
▁하 

▁하 류
▁하 지도
▁하 세요

▁하 자는
▁하 더라도
▁하 하

▁하 우스
▁하 비에르
▁없 을때
▁없 네요..
▁어 ?
▁어 봐서
▁너무 이쁘
▁사 사
▁사 자
▁사 촌
▁내 서
▁내 나이
▁감 도
▁감 추
▁진 작에
▁연 대
▁있 기
▁있 네

▁있 다...

▁있 지.
▁있 나요?
▁지 은
지만 은
▁한 스
▁한 창
▁한 판
▁한 고은
▁최 정
▁최 시원
▁시 티
네요 ᄏᄏ
네요 ᅲᅲ
▁안 경
▁안 대
▁안 하면
▁안 했으면
▁안 간다
▁안 간다

▁1 보다
▁스 님
▁스 폰
▁만 듭
▁가 면서
▁가 는게
▁재밌 을거
▁기 간
▁기 고
▁기 쁘
▁기 적이
▁대 답
▁대 명
▁대 성
▁대 세
▁봤 는
▁봤 다...

▁봤 네요..
▁평 에
▁전 사
▁전 직
▁전 적으로
▁진짜 ,
▁진짜 ....

▁마 더
▁마 징
▁연기 들
▁수 행
▁수 OO
▁무 법
▁무 인도
▁여 긴
▁여 학생
▁여 성을
▁생 김
▁생 물
▁생 의
▁생 명을
▁잘 하네
▁잘 했다는
▁주 된
▁주 로
▁주 무
▁주 셨
▁주 위
▁않 네

▁더 글
습니 까?

▁오 면
▁오 시
▁오 광록
▁개 는
▁개 발연기
▁개 쩌는
▁제 인
▁제 주도
▁인 가?
▁배 끼
▁말 해야
▁말 로는
▁말 자.
▁말 하자면
드라마 라고
~~ !
▁생각 남
▁생각 보단
▁생각 난다

▁왜 만드는
▁왜 그랬
▁자 동
들이 고
▁못 참
▁못 하다
▁못 하네
▁못 느끼
▁못 난이
▁소 란
▁소 모
▁남 네요
▁본 좌
▁본 영화인데
까지 !
▁유 괴
▁유 기
▁유 작
▁아니 네요
▁보고 잇
▁일 병
이라 며
이라 는데
▁비 겁
▁비 평
▁비 우고
▁비 노쉬
▁비 로소
▁쓰 리
▁것 만으로
▁장 모
▁우 수
▁지루 해요
▁지루 했어요
▁드라마 다
▁많 음
▁재미있 고,
▁부 셔
▁공 정
▁사람 에게는
▁2 월
▁조 센
▁조 안
▁조 으
▁조 형
▁내용 이랑
▁내용 없고
▁만들 수있
▁만들 수있는
▁만들 거면
▁감독 이랑
▁감독 한테
▁고 른
▁저 냥
▁저 리게
▁애 교
▁애 뜻
▁애 리
▁애 기가
▁좀 ..

▁재미없 는거
▁재미없 어요..
▁해 요
▁쓰레기 인
▁쓰레기 ...

▁쓰레기 네

▁쓰레기 영화..
▁명 탐정
▁사랑 ?
▁사랑 함
▁사랑 하지
▁사랑 스럽게
▁사랑 한다면
▁참 ~
▁참 담
▁반 은
▁반 해
▁보는 지
▁웃 었다.
,, ,,,
▁영 감을
▁예 를
▁예 외
▁결 여
▁거 다.

▁거 라고
▁좋아 한
▁상 기
▁상 위
▁상 어가
▁싶 고
▁싶 지도
▁싶 다...

▁싶 어도
▁신 나
▁신 중
▁눈 살
▁바 꼈
▁바 쁘
▁바 티
▁바 스코
▁이거 랑
▁이거 볼
▁이거 보면서
▁노 랑
▁노 린
▁불 리
▁불 협
▁작품 에서
적이 었던
▁원 인
▁원 피
▁살 리고
▁살 아서
▁없는 

하지 못
▁난 도
▁완전 재미있
▁액션 배우
▁액션 영화.
▁있는 가?
▁코 가
▁할 줄
▁성 폭행
▁추 악
▁추 지
▁죽 어라
▁처음 봄
▁처음 이네

▁한국 에선
▁지금 이라도
▁지금 와서
▁후 련
▁후 로
▁했 습니다.

▁현 상
▁현 란한
▁나오 겠지
▁김 준호
▁김 고은
합니 까
▁10점 준다
▁세 금
ᅳᅳ ᅳᅳ
▁별로 다..
▁별로 임.
▁이해 되지
▁이해 못하는
▁강 도
▁관 념
▁초 대
▁초 짜
▁초 대박
▁초 저예산
연기 ..
▁분 이라면
▁로 미
▁로 즈
▁두 배우
▁두 배우의
▁느낌 ,
▁느낌 이다.

▁명작 ,
▁명작 !!
▁명작 중에
▁구 성을
▁화 제
▁화 나서
▁심 도
▁심 해
▁잼 

▁잼 나는
▁이야기 들이
▁평점이 낮
▁기억 에서
▁들 지만
습니다 만
▁당 하기만
▁아이 엠
배우 ,
▁장면 .
▁그래 야
▁이영화 도
▁잔 상이
▁발 달
▁발 상이
▁만든 건
▁만든 게
▁꼭 한번
▁같은 거
▁설 교
▁설 리
▁드 네요
▁특 촬
▁단 ,
▁단 독
▁단 점은
▁슬 스틱
필요 없고
▁울 부
▁공포 ,
▁졸 음이
▁존 트라
진짜 로
진짜 ...
▁박 혀
ᄏᄏᄏᄏᄏᄏᄏᄏ ᄏᄏᄏᄏᄏ

▁망 신
▁망 칠
하나 요
........ ......
가는 거
▁현실 성을
▁결말 ,
▁결말 ..
▁몰입 되
▁몰입 할수
다니 ....
▁리 모
▁리 들리
인가 ??
▁과 분
▁과 소
▁과 감한
▁보기 좋은
▁속 에서도
▁매력 적

▁말이 다.

▁걸 음
▁절 규
▁애니 .

인지 ...

▁눈물 짜
▁눈물 까지
▁방 울
▁계 몽
▁정도 를
▁정도 다.
▁높 았
▁높 길래
는지 를
이었 습니다.
▁인생 과
▁전개 나
▁영상 에
▁영상 의
▁않는 게
▁음악 .
▁있었 다는
▁머 금
▁머 물
▁머 지
▁머 저리
▁몇 명
▁몇 OO
▁많은 생각을
지마 

▁집 으로
▁돌 파
이고 .
▁필요 하다

▁필요 하겠
▁필요 할까
▁9 점이
▁9 11
▁굿 잡
▁피 트
▁4 0년
▁ᅳᅳ ᄏ

▁문 명
▁문 어
▁근 대
▁하고 는
▁수준 에
▁욕 나옴
▁프 란
나오 게
▁8 .8
▁올 랐
▁편 .
▁편 성
▁편 승
▁편 협
▁파 탄
▁파 이트
▁치 즈
▁치 닫는
▁행 오버
▁뭔가 ..
▁7 살
▁아주 그냥
▁추천 한다.

▁경 비
▁경 쾌
▁영화였 음.

▁5 0년대
▁실망 ..

▁실망 스럽다.

▁호 주
▁공감 하고
▁출 시
▁독 고
▁손 해
스트 가
스트 립
스트 의
▁약 하다

▁개봉 한지
▁배우들 에게
▁레 미
▁레 지던
▁가족 이랑
▁답 게
▁답 지
▁답 없는
만들 엇
만들 어서
▁표현 하지
▁야 한거
▁어디 에서
▁알았 음
▁알았 다..
최고 ..

▁재밌었 습니다.

이상 하고
▁잼있 었음
봤는데 

없고 

▁카 드
▁카 이
▁베 꼈
▁베 플
▁만들었 다는
▁스릴러 라고
▁네 버
입니다 ^^

▁메 르
▁메 마른
▁없었 습니다.
▁알바 는
▁부족 함
▁부족 하지만
▁부족 했던
▁감동적이 지도
▁감동적이 었다.

▁감동적이 었고
▁날 리고
▁미국 을
▁은 혜
▁목 욕
▁타 격
▁시작 과
▁시작 하고
▁티 나는
▁보고싶 다면
▁보고싶 어지는
▁왜이 제
▁각 종
▁나와 라
라이 프
▁영화라고 는
▁보게 됬는데
▁될 수도
▁뒤 를
▁뒤 에서
▁감정 선을
▁살아 남은
▁영화로 서는
감동 과
▁아니고 .
~~~~ ~~
기를 ..

▁괜찮은 영화
하는데 ,
▁그저 그랬
이야 ?

학교 에서
▁안되 네
▁C C
▁무엇 하나
▁얼마 전
▁변 화가
▁변 해가는
이런 영화는
▁좋겠 다..
▁좋겠 습니다.

▁갑 니다

해야 지

▁B GM
▁판 에
▁어린 애들
▁사실 적이고
사랑 은
사랑 이야기
▁이해가 안되
▁재미가 없다
▁자신 에
▁양 념
▁양 심이
▁입 술
▁러 시
▁패 러
▁패 배
▁낚 이
▁힘들 었던
▁팬 으로써
▁잡 았
▁잡 혀
▁헐 

▁다큐 .
▁흐 트
▁식 민
▁총 기
▁총 체
▁시대 착오
▁들어 있는
▁슬프 네요
▁슬프 지도
▁함께 하는
▁졸작 이다

텐데 

▁임 수
▁임 요
▁진정 성
▁애니메이션 으로
▁재밌는 영화
▁보세요 ~
▁보세요 ~

▁진부 하다.
▁예술 의
▁예술 적인
▁혼 합
▁강추 !
▁안되는 거
▁주연 급
▁후회 는
▁오래 남는
▁브 레드
▁멋있 음
▁얘 기는
▁몸 부림
▁더빙 으로
▁충격 적이고
▁터 널
▁집중 하면서
▁폭 격
▁폭 소
▁궁금 하다

▁빠져 버렸
재미없 다.
▁불쌍 하게
▁풀 리는
▁색 감과
▁탄 압
▁말도 안되게
▁투 입
▁흘 려
▁엉성 하게
좋은 영화

▁감사 를
전개 ,
전개 와
▁여기 선
▁대체 로
▁비슷 비슷
▁똥 같은
▁번 지르르
▁로맨스 가
▁로맨스 는
느낌 을
▁티비 서
▁노잼 이다
▁괜찮았 음
▁괜찮았 음.
▁비디오 테
▁으 리가
이네 .

▁단순 하게
▁200 0
▁200 2
▁이미 연
▁이미 지를
이였 다

▁ᄏᄏᄏᄏᄏᄏᄏᄏ ᄏᄏᄏᄏᄏ
▁ᄏᄏᄏᄏᄏᄏᄏᄏ ᄏᄏᄏᄏᄏᄏᄏᄏᄏᄏᄏᄏᄏᄏᄏᄏᄏᄏᄏᄏᄏᄏᄏᄏᄏᄏᄏᄏᄏᄏᄏᄏ
▁ᄏᄏᄏᄏᄏᄏᄏᄏ ᄏᄏᄏᄏᄏᄏ
▁테 론
▁테 마
잖아 ?
▁c om
▁존재 는
▁아님 ..
거야 ...
▁맘에 안
▁여배우 들의
▁빵 점은
구요 ..
▁감동이 에요
▁같은데 ,
모르 겠지만
▁세계 적인
▁두번 다시
을텐데 .
▁자연 과
여자 랑
여자 의
▁좋아요 ~
▁좋아요 !

▁어이 없이
▁윤 리
▁봐서 는
▁어른 들의
▁봣 던
▁이영화를 보고
▁실제 로도
▁봤어요 ..
▁각본 에
▁머리 속에서
▁질질 끈
▁지루함 은
▁방송 을
▁즐거 움을
▁여주 도
▁누구 냐
▁누구 든
▁누구 인지
▁어이없 음.
▁개그 도
▁끝나 버린
▁화면 과
▁흠 

▁놓 치고
▁ᄉ ᄀ
▁너무너무 너무
▁씨 지
▁만드 셨
▁만드 신
그러 면
▁감성 은
▁감성 팔
▁중요 성을
▁평론가 들의
이라니 .
▁좋다 ~

▁헤 이
▁댓글 도
▁댓글 들
▁댓글 보고
▁어려 웠
▁소중 히
▁홍콩 식
▁죽는 줄알았
▁황당 무
▁그닥 ..
▁선택 의
▁찌 꺼
▁카메 오
▁안타까 웠던
▁페 이지
▁페 로페
▁여전 한
▁검 술
하긴 한데
▁과거 가
▁최고였 다
▁뮤 비
▁판타지 의
▁되었 지만
▁자꾸 만
▁결혼 식
▁로맨틱 한
▁로맨틱 코메디
▁감상 하고
▁사라 지
▁^^ *

▁그림 도
▁그림 체가
▁웃긴 다
▁병맛 같은
▁독립 영화가
어진 다.
▁3점 .
▁연출력 ,
▁연출력 은
해라 ..
▁흘러 간
▁없을 것
인간 이
▁다행 이다

▁중반 이후
▁핵 심
▁핵 꿀잼
▁코메디 .
▁코메디 .

▁다운받 은
▁다운받 았는데
▁부모 의
▁0 개
▁100 번
▁쓰레기영화 ...
▁재밌게봤 음
▁던 지고
▁학 예회
▁경찰 을
▁예고편 을
▁울었 습니다.
▁울었 어요.
대사 도
▁별로였 는데
▁샤 크
▁춤 출
▁어렵 다.

▁보고있 으면
▁7점 이나
랄까 

▁자유 로운
▁미소 짓게
▁속편 을
▁속편 의
▁하루 를
▁취향 에
▁딴 건
▁고민 하게
▁꾸 미
▁제작비 로
▁제작비 를
▁낚였 어
더만 ...

▁실패 작

▁아저씨 는
▁재미없어 ..
▁화가 나는
▁cg 는
나요? ?

▁가끔 은
▁사극 을
(? )

▁평생 을
▁연예 인들
아주 세요
▁용서 할
▁밥 을
유치 하고
▁난해 하고
▁종교 적
▁나타 낸
▁불쾌 하고
▁영화네요 ^^

▁재난 영화의
▁동물 농
▁소녀 들의
▁소녀 시대
▁영환 지
▁채널 에서
▁익 은
▁잇 고
이니 깐
▁그지 같
▁그지 없는
▁사이 프리
오빠 가
▁강렬 하게
▁해피엔딩 이라
▁소장 가치
▁스케일 은
▁비극 이
▁비극 적
▁반성 하게
▁반성 해야
▁디즈니 의
▁ᄋᄋ ᄋ

▁눈빛 은
▁찡 하게
▁흡 혈
▁그런가 ..
▁꽃 미남
▁펑펑 울었
▁받았 을
▁헐리우드 식
▁쌍 둥이
▁그것 만
▁싱 크
▁푹 빠져
▁어머니 가
▁일반 인이
▁때문 이다.
▁드립 니다
▁닮 아서
▁10분 만에
▁연기자 들도
▁우주 에
▁아까웠 다
▁아류 작

▁떨어진 다
at ion
▁찝찝 하고
▁외모 지상
주고싶 다
주고싶 은데
▁전문가 평점
▁갈등 을
▁13 일의
▁타임 킬링
▁결과 를
▁문화 의
12 세
제작 진
▁기술 이
▁노답 이다
▁초등학생 이
▁우정 ,
▁조합 

▁세월 을
▁필요없 다.

▁어휴 ...
▁7점대 가
▁7점대 는
▁일품 

▁겨울 에
▁챙겨 보고
문제 는
▁^ .
▁옆 집
▁더럽 다
▁전설의 고향
▁봤을때 도
▁주성치 의
▁착한 척
배경 이
▁보여줬 으면
▁많았 으면
▁뿌 듯
▁그렇다 쳐도
▁보지마세요 .

얼굴 이
▁남편 을
▁n e
▁왜이래 ?
▁그당시 엔
▁하다 못해
▁받을 만한
관람 불가
신분 은
사이 에서
▁단편 영화
▁올리 비아
▁대본 을
▁와.. 진짜
드리 언
▁보자 .

▁다이 애
▁부끄 러워
▁버렸 다

▁잘어울 려
▁사랑스럽 다

▁낭 패
구성 ,
▁생활 을
▁시즌1 부터
▁몬 가
거라 곤
▁그자체 

▁안습 

▁돌아가 신
▁줍 니다

▁집착 하는
▁핵노잼 

▁호구 로
버려 

스포 츠
▁짝이 없는
▁스티븐 시걸
장르 가
▁내게 는
▁해리포터 는
▁> _
▁살렸 다

▁으리 !

▁이소룡 의
▁고맙 습니다.
▁김혜 수의
▁부모님 께
▁헌 신
말도 안되는
▁만화책 을
▁루즈 한
▁유행 어
▁원조 격
▁부정 적인
ᄒᄒᄒᄒ ᄒᄒᄒᄒ
▁죄송 하지만
▁객관 적인
▁짜집기 한
▁개똥 철학
▁일으 키
▁일으 키는
▁고뇌 와
▁바란 다.

▁허허 허
▁따분 하고
▁빠지는 게
▁쏟아 져
▁빙 의
▁정상 적인
▁나았 을
▁절망 적인
▁짜릿 한
▁줄리 안
▁담담 한
선택 을
감사 합니다
▁만들어졌 으면
▁앙 상블
▁머릿 속을
▁한순간 에
▁베리 굿
▁황정 음
▁밑도 끝도
▁돋보인 다

▁습 격
▁향연 

▁엘리 베이터
▁연상 케
▁엔딩크레딧 이
▁우왕 좌왕
▁브라 질
>> >>
▁흉내 낸
▁시끄 러워서
▁고양 이가
ᅮᅮᅮᅮ ᅮᅮᅮᅮ
▁일어나 지
▁입장 에선
▁알바생 들
▁꼭봐야 할
▁버무 려진
▁평론 가는
▁공허 한
▁왕가위 의
▁줄리아 로버츠
▁목적 을
▁브로 스넌
▁발음 도
▁평점왜 이래
▁미치는 줄
▁구지 성
▁다큐멘터 리가
▁가해 자
▁무색 하게
▁우롱 하는
▁아끼 는
---- ----
▁숭 고한
구구 구구
어설 프
▁글로 리아
▁싸울 때
▁변호 사
▁물고 기
▁되도 않는
▁죽을때 까지
▁철저 하게
▁온몸 에
▁불러일으 키는
▁배틀 로
▁공존 하는
▁거창 한
▁남매 의
▁조인 성
▁속도 감
▁보게됐 는데
▁끝내주 게
^_ ^

리의리의리의리의 리의리의리의리의
▁렷 한
▁안목 이
▁유오 성
▁일방 적인
▁파트 너
▁경이 로운
▁ᅳ,. ᅳ
▁ᅳ,. ᅳ

▁릴 리
▁쓰레 긴
▁후유 증
▁간절 히
▁단언컨 데
▁어리석 은
▁어드벤 처
▁유역 비
▁중고 딩
▁카타르 시스
▁필모 그래
^. ^
▁소오 름
▁우마 서
▁서세 원
▁과감 히
▁야마 카시
▁디지 털
▁슈퍼액션 에서
▁콜린퍼 스
▁이명 박
▁해운 대
▁21세 기에
▁맙소 사
▁비둘 기
▁매끄 럽게
▁삼각 관계
▁재활 용
▁지못 미
▁주저 없이
▁김아 중
▁허우 적
▁쓰잘 데기
▁불우이 웃
▁교도 소
▁쌍벽 을
▁이뭐 병
▁1박 2일
크레 더블
▁가물가 물
▁오컬 트
▁노트 북
▁후레쉬 맨
▁센세 이션
아카 데미
▁설수 설
▁러셀크 로우
▁가나다라마바사 아자차
▁순식 간에
blog .naver.com/
▁레지던 트
! 이
' 로
' 만
' 보다
( 이
) 은
. ᄏᄏ
. 11
1 발
2 8
2 회
3 에
4 편
5 개
5 년도
? 이
A M
E ST
O P
_ +

b e
k d
l ow
m a
u r
~ ♥

ᄂ ᄋ
ᄌ ᄌ
▁ 뎁
▁ 론
▁ 텐
▁ ,,,,
▁ he
▁ 르노
▁ ................................
가 볍
가 와
가 에서
가 ??

각 을
감 명
갑 니다.
개 나
거 슬
거 냐?
것 으로
겠 다..

겠 죠?
결 제
계 가
고 마
고 와
고 ..

고 양이
공 감이
과 ,
과 학
과 이어
구 름
구 에
구 절
구 한
그 들
그 립
극 혐
극 으로
글 로
기 간
기 획
기 면서
긴 처음
길 .
까 는
깔 끔
꺼 임
꼭 보
끝 난
끼 가
나 갈
나 는데
내 리
내 린
냐 ᅳᅳ
네 ?

네 ᅳᅳ

녀 를
놈 을
는 것
님 ,
님 께
달 고
달 달
달 리
닮 은
담 

담 을
답 니다.
당 .
당 ..
당 신의
대 원
댄 스
더 러워
동 아리
됐 지만
되 지도
될 듯

될 수록
됨 ..
등 의
디 

디 도
디 즈니
딸 은
뚱 땅
라 ~
러 기
렁 뚱땅
렸 지만
로 니
로 부터
루 만
류 승
리 그
리 리
리 수
리 네

린 이
린 다고
림 ,
림 과
립 박
마 누
많 네
말 곤
말 의
맛 을
매 번
맹 숭
멘 토
모 독
모 리
모 어
목 이
무 

무 도
무 식
문 득
물 ...
미 로
미 한
민 폐
바 도
바 르
바 엔
반 응
방 식이
배 운
번 의
법 

보 시
보 아
보 통
보 지만
보 네

보 이가
본 다고
볼 땐
봤 지
봤 네요

봤 다면
봤 어요.
불 쾌
브 레이
빌 려
빠 다
빠 른
뿐 ,
뿐 이다
사 노
사 자
사 이코
사 나이
새 기
새 1끼
생 에
서 

서 울
선 도
셨 는데
소 에
소 유
소 지섭
수 만
수 씨
순 이
숭 맹숭
스 민
스 스
슬 립
슴 .

시 공
시 다..
신 혜
실 에
싫 다

심 오
심 장
심 형래
아 예
안 고
안 도
안 치고
애 미
어 ....
없 냐
없 엇
없 었던
었 네
었 어요.
었 나?
었 더라면
에 여
여 동생
여 주가
였 지
였 다는
였 다..
였 습니다
였 음.
오 ~
오 가
오 락
오 바
옴 .
용 .

우 주
우 진
우 는데
운 서
울 게
울 때
울 면서
움 도
웃 으면서
웃 기다
원 으로
웨 이가
웨 이의
위 거
유 

유 럽
유 아
으 실
은 채
을 땐
을 라
을 정도
을 수록
을 만한
의 상
이 너
이 브
이 블
이 쁜
이 예요
인 격
인 증
인 만큼
일 날
잇 게
잇 어서
있 고,
잊 지못할
자 ...

자 들에게
자 베스
작 ,
잠 깐
장 국영
장 대소
적 이라는
전 국
전 사
점 .
정 상
조 심
존 경
졸 업
종 이
좋 고,
죄 로
죠 ~

주 던
주 러
주 시
주 완
주 제가
죽 인
죽 이기
줍 니다.
즐 겁고
증 말
질 과
징 

짜 임
쩜 

찌 질
차 는
차 반
찬 이
채 로
책 으로
총 을
추 격
츠 가
츠 야
침 .
카 가
캐 릭
케 이지
코 타
코 스터
킬 러
태 권
터 가
터 진
통 수를
특 별
티 드
파 워
팍 팍
판 

평 균
하 더만
하 였다.
한 줄
한 다니
할 아버지
해 결
해 져서
했 단
했 다니
했 으니
했 을까?
허 나
현 씨
형 님이
화 까지
환 상
활 동
회 에서
후 에도
훈 의
히 면
.. ᄒ
.. 난
.. ;;
.. ᄍᄍ

영화 입니다.

▁영화 과
▁영화 여
▁영화 구나
▁영화 네..
▁영화 만든
▁영화 네요...
▁영화 네요..

▁영화 들에
▁영화 속에서
▁영화 감독이
▁영화 야?
▁이 끈
▁이 네
▁이 니
▁이 말
▁이 불
▁이 창
▁이 나라
▁이 만하면
▁이 보영
▁이 시대에
▁아 

▁아 껴
▁아 슬
▁아 씨
▁아 웅
▁아 다.

▁그 에게
▁그 들에게
▁보 영
▁보 다.

▁보 임

▁보 이게
▁보 더라도
▁보 셈

▁재 대로
▁재 기발
... 미
... 여
... 좀
... """

... 내가
... ;;;

▁정 려
▁정 무
▁정 식
▁정 을
▁나 로
▁나 라도
▁나 만의
▁나 로써는
▁다 스
▁다 투
▁하 정
▁없 기
▁없 네요...
▁없 네...

▁어 머
▁너무 한
▁너무 ..
▁사 채
▁내 다
▁내 생각
▁내 마음
▁감 춰진
▁진 구
▁진 상
▁진 리

▁연 걸이
▁있 네요.

▁있 네.
▁있 으면서
▁있 는데...
▁지 키는
으로 

하고 있는
▁한 껏
▁한 잔
▁한 명이
▁한 마리
▁최 선
▁시 계
▁시 급
▁시 에
▁안 갔
▁안 드
▁안 듬
▁안 올
▁안 봄

▁안 간다.

▁안 든다.
▁1 .5
▁정말 ,
▁정말 ...

▁스 론
▁스 킨
▁만 땅
▁만 이
▁만 듬

.... 그냥
▁가 네
▁가 다
▁가 려
▁가 에
▁가 관이
▁재밌 네.
▁기 교
▁기 묘
▁기 운
▁기 울
▁대 는
▁대 의
▁봤 었다.
▁봤 습니다..
▁전 하고
▁전 부터
▁전 까지는
▁전 우치
▁진짜 .

▁진짜 너무
▁진짜 재밌어요
▁마 스크
▁마 다가스카
▁연기 진짜
▁연기 자가
▁수 녀
▁수 지
▁무 능
▁무 분
▁무 신
▁무 용
▁무 장
▁생 산
▁주 몽
▁주 유
▁주 인
▁주 었던
▁주 진모
▁최고 급
▁최고 네요
▁최고 네요

▁않 던
▁않 습니다.

▁더 

▁더 락
▁더 블
▁더 티
▁평점 쓰
▁평점 의
▁평점 주기도
▁오 케
▁오 묘한
▁오 스카
▁오 션스
▁오 마이갓
▁개 를
▁개 재밌
▁개 같이
▁개 신교
▁제 리
▁제 압
▁제 프
▁제 정신이
▁제 라드
▁인 것
▁인 증
▁인 천
▁인 지도
▁인 기를
▁인 류의
▁인 시디어스
▁인 크레더블
▁말 하는데
~~ !!!

▁생각 좀
▁생각 했
▁왜 ?

▁자 국
▁자 리가
▁자 이언
▁같 다고
▁같 고,
▁못 믿
▁못 하네

▁소 망
▁소 박
▁소 수의
▁스토리 고
▁스토리 상
▁스토리 ...

▁스토리 에서
▁남 주의
▁알 거
▁알 겟
▁알 던
▁알 맞
▁알 지도
▁알 모도
▁본 래
▁본 성을
▁본 영화중에
▁미 ?
▁미 공
▁미 카
▁아니 네
ᅲᅲ 진짜
▁볼 라
▁볼 라고
▁감동 !

▁감동 이나
▁감동 입니다
▁일 류
▁일 장
▁별 생각없이
이라 면서
▁비 꼬
▁비 장
▁쓰 시
▁것 ..
▁것 이라고
▁장 식
▁우 연이
▁드라마 틱
▁드라마 입니다.

▁많 음

▁작 년에
▁중 년의
▁재미있 습니다

▁부 당
▁부 도
▁부 유
▁부 적
▁부 르고
▁부 부가
▁배우 나
▁배우 빨
▁뭐 ....
▁뭐 이딴
▁공 리
▁공 상과
▁사람 사는
▁사람 냄새
▁2 등
▁2 를
▁2 주
▁2 점대
▁조 로
▁조 장
▁내용 들이
▁내용 까지
▁내용 인데
▁역 설
▁10 초
▁만들 다가
▁감독 판
▁감독 들이
▁끝 남

▁고 갈
▁고 대로
▁저 두
▁저 번에
▁저 스틴
▁애 들과
▁좀 

▁재미없 었는데
▁재미없 던데
▁재미없 네.
▁해 가
▁해 답
▁해 줬으면
▁쓰레기 의
▁쓰레기 임

▁쓰레기 영화에
▁명 목
▁명 언
▁되 돌
▁반 대로
▁웃 을수
▁영 리
^^ ;;

▁예 비
보고 ,
보고 잇
▁봐 선
▁봐 왔지만
액션 

▁좋은 건
▁좋은 지
▁좋아 해요

▁상 품
▁상 대로
▁상 남자
▁상 대가
▁매 염
▁매 즈
▁싶 어요

▁싶 어요.
▁싶 으나
▁싶 었다.

▁신 사
▁신 을
▁신 고

으면 좋겟
▁눈 앞에
▁이거 슨
▁이거 보느니
▁불 을
▁작품 !
▁작품 이라는
적이 나
적이 고,
▁원 더
▁원 시
▁원 영의
▁살 면
▁살 인이
▁살 고있
▁없는 지
▁없는 ...

▁없는 건가
▁마지막 장면이
▁난 장판
▁기대 하겠
▁기대 된다
▁완전 감동
▁액션 이라도
▁도 그
▁도 달
▁도 를
▁의 구
▁하나 라도
▁할 짓
▁할 수도
▁넘 겼
▁넘 치게
▁성 취
▁성 범죄
▁죽 겠
▁죽 도
▁죽 임
▁죽 이지
▁죽 이기
▁처음 이다..
▁후 의
▁했 나
▁했 다가
▁했 을까?
▁현 대의
인데 ....
▁괜 한
▁하는 걸
▁김 청
▁김 승우
▁최악 !
▁최악 이다...
▁모르 겟다
▁또 라
▁10점 줌
▁10점 으로
▁10점 줌

▁아깝 습니다.
▁아깝 지않
▁세 뇌
▁세 심한
▁별로 엿
▁별로 네요
▁별로 다...
▁1점 줄
▁1점 줌
▁멋 대로
▁이해 하겠
▁강 아
▁강 용석
▁위 치
▁초 록
▁초 창
▁돈 의
▁돈 아깝다
▁돈 받고
▁돈 들여
연기 만
연기 의
연기 짱
▁분 들만
있는 영화

▁두 사람의
▁명작 !
▁명작 이지
▁명작 임

▁구 도
▁구 스
▁따 져
▁화 난
▁화 살
▁심 취
▁심 정을
▁잼 남
▁잼 씀

▁음 미
▁음 울
▁기억 안
▁뭔 소리
되는 영화

이다 ,
▁괜찮 아서
정도 ..

▁에 라
배우 님
▁장면 들은
▁그래 ,
▁여자 로
▁여자 분
▁여자 에게
▁발 상은
▁그런 가

"""" 가
"""" 라고
"""" """"
▁막 을
▁포 스를
▁차 가
▁차 려
▁차 에
▁주인공 ,
▁주인공 .
▁주인공 들도
재미 와
▁보여 줌.
사람 들도
▁마음 과
▁마음 아프
▁설 치
▁드 류
▁드 네요

▁드 릴게
▁단 점이
▁울 다
▁유치 함이
▁유치 해

▁졸 다
▁졸 렸
▁존 엄
▁박 살
ᄏᄏᄏᄏᄏᄏᄏᄏ ᄏᄏ
을까 요
00 만
▁서 늘
▁볼만 하네요
▁볼만 합니다

▁볼만 했지만
▁볼만 했다.

▁볼만 함.

▁결말 과
▁힘 겹
▁힘 도
▁ᅲᅲ ᅲᅲᅲᅲᅲᅲᅲᅲ
▁몰입 하기
▁리 가
▁리 듬
▁다른 데
▁누 드
▁누 르
인가 를
인가 요?

시간 도
▁이상 해

▁과 제
▁과 정은
▁속 았다.
▁OO 은
▁반전 ..
▁빠 지면
▁걸 까
▁걸 쳐
▁걸 친
▁남자 배우가
▁뻔 할
▁뻔 해
▁뻔 하다
▁뻔 하다.
▁절 묘
▁절 묘하게
보는 줄
▁애니 중
구나 ~
▁스릴 을
▁낮 다

▁눈물 과
하지만 ...
▁맞 는거
▁맞 아요
▁계 기로
봐도 봐도
▁높 다.

▁충 돌
는지 ,
이었 어
이었 을
재밌 어

▁만들어 지
▁만들어 라

▁영상 .
▁인간 들의
▁인간 관계
▁않는 다면
스러 움을
▁있었 나
▁머 피
▁몇 년전
▁솔직 하고
▁모르겠 네

▁모르겠 네요

▁모르겠 다...
▁돌 리다가
이고 ...
▁' 아
▁건 지.
▁9 2
▁굿 닥터
▁한번 보면
▁피 언
▁피 튀
▁피 어스
▁4 .5
▁4 .3
▁4 차원
▁억지 스럽게
▁하고 

▁욕 밖에
▁욕 심을
▁찾 으러
▁프 라
나오 네

▁8 0%
▁편 지
▁편 파
▁파 이터
▁재밋 네요

▁이제 훈
▁뭔가 요
▁7 광
▁추천 .
▁추천 할
▁추천 할만한
▁경 택
▁경 상도
▁갈 피를
▁5 명
▁캐릭터 로
▁실망 이다

▁공감 대가
장면 ,
▁긴장 의
▁출 근
▁독 이
▁달 래
을때 의
감독 도
▁레 니
▁레 슬리
▁레 슬링
생각 나는
▁준 다..
▁질 문을
▁악 령
▁야 만
▁야 하지
▁어디 갔
스토리 와
▁물 려
▁물 음
건지 .
최고 다

최고 !!

이지 ?

▁모습 만
▁재밌었 습니다.
▁아쉽 다..

▁아쉽 다...
▁잼있 다.
▁- 1점
▁떨어 트
▁떨어 지게
▁담 았
▁담 주
▁베 테랑
▁아쉬 워서
▁아쉬 움을
▁잊 어
▁잊 지못
▁그렇 다

▁스릴러 에
▁기분 이다.
▁잠 들어
▁잠 오는
▁않고 ..

▁봐야 한다.
▁진심 이
입니다 ~
▁시리즈 물
▁요즘 같은
▁떠 들어
▁근데 ,
▁니 들도
▁없었 음.
▁만드는 거
▁알바 의
▁부족 ,
▁감동적이 었다

▁천 장
▁천 정
▁홍 성
▁웃기 다.
▁웃기 면서
▁정신 과
▁제작 을
▁미국 영화
▁은 지원
▁목 이
▁디 스
▁디 자인
▁시작 이
▁시작 하자마자
▁국 정
▁1편 보고
▁티 격
ᄍᄍ ᄍᄍ
▁보고싶 어요

▁통 수
▁영화라고 ...

▁싶은 거
▁살아 가
▁살아 간
▁살아 온
▁살아 가야
▁수작 ..
▁출연 했다는
▁느끼 한
감동 도없고
▁뻔한 결말
▁작가 들이
이야 ..
▁6 년
▁6 .25
▁장난 치는
이런 영화를
▁좋겠 는데
▁갑 튀
해야 한다는
▁만화 도
▁점수 도
▁B ut
▁싫 고
▁싫 으면
▁친구 도
▁행복 할
▁행복 하고
▁행복 했던
▁무섭 다.
▁어린 애
▁어린 나이에
▁사실 

▁사실 과
▁무서 워요
▁훨 신
▁답답 함
▁토 렌
▁토 비
▁초반 부는
▁입 양
▁완벽 에
▁완벽 하다.

놓고 는
▁엔딩 에
▁시나리오 ..
▁배경 만
▁지루하고 ..
▁패 닝
▁힘들 때
▁힘들 어서
▁영화관 이
▁팬 들이
▁총 쏘
▁둘 은
▁스타 의
▁들어 온
▁환 호
▁찾아 보는
▁찾아 봐도
▁종 이
▁임 무
▁좋고 .
▁태 도
▁태 평
▁예술 은
▁클 릭
건가 요
건가 ...
건가 ??
▁코믹 하고
▁책 의
▁꿈 은
▁포스터 와
▁몰입도 와
▁캐스팅 과
▁설정 만
▁강추 !!
▁강추 합니다

▁백 퍼
▁킬링타임 으로도
▁영화라 기
▁영화라 기보다는
▁사람이 면
▁브 루
▁몸 개그
▁제발 ..
▁히 든
▁히 트맨
▁충격 

▁충격 적
▁터 지고
▁여러 분들
▁낫 지만
▁낫 겠다.
인줄 

▁군 사
▁궁금 증
▁블 러드
▁옛날 영화라
▁미친 듯
▁빠져 나올
재미없 다..
재미없 다고
▁, 

▁뛰어 났
▁광 대
▁광 팬이
만든 영화
▁나올 때마다
▁투 쟁
▁투 니버스
▁너 가
하겠 지
▁상상 하든
▁있을 것
▁있을 수
▁있을 지
▁있을 지도
▁왕 의
▁감사 한
▁감사 할
▁감사 하고
▁로맨스 ,
느낌 .

▁재미있었 습니다.

▁감동도 있고
▁실화 라는게
▁실화 바탕
▁키 운
재밋 다

이건 

▁g reat
▁전체 적
▁S N
▁트 레
▁2편 에
이네 ..

▁초딩 용
▁200 6년
나온 다.
보게 된
▁송 희
▁19 99
▁인물 에
▁꼬 라
아이 와
아이 들도
▁마이 크
다시 보니
▁성룡 ,
▁성룡 을
▁3류 영화
▁존재 감이
▁온 데
▁온 전히
▁평가 하는
▁애들 만
▁없어 지
▁없어 ..
구요 ,
▁다르 고
▁세계 관이
▁예상 이
▁예상 가능
▁예상 가능한
을텐데 ...

▁자연 을
▁자연 스럽지
▁몇번 씩
▁윤 진
▁실제 로는
▁착 하게
기대 안
라니 ....
▁O st
어가 고
▁흑 형
▁안된 다..
▁평범 하고
▁2점 도
▁보여주 면
▁상영 하는
▁슈 타
▁개그 가
▁끝나 나
▁불편 하다.

▁밀 고
▁화면 ,
하자 .
코미디 

코미디 의
▁놓 을
▁전형 적
▁운 지
해주 길래
현실 감
현실 적인
▁감성 의
▁중요 한지
▁평론가 의
남자 랑
▁한심 하다
▁순간 부터
▁좋다 ~
좋았 다.
▁헤 어지는
▁알겠 다.

▁알겠 는데,
▁안타깝 네요
▁루 시
▁루 크
▁댓글 을
▁만족 하고
▁급 작
▁훈훈 해지는
▁맥 이
▁맥 주
▁맥 그리
▁먹먹 하게
▁황당 해서
시리즈 가
▁그때 가
▁어쩔 수가
▁어쩔 수없는
▁선택 을
▁찌 르는
웃음 이
▁불륜 에
▁묻 어나
해진 다
▁이어 지지
▁최고였 던
인물 이
▁미안 한
▁끼 고
▁되었 습니다.

▁아빠 와
▁결혼 에
▁넣 지
가고 인의
▁가능 성
▁재밌음 !

▁아.. 진짜
▁느꼈 다

▁친 근
▁친 척
▁친 절한
▁골 라서
▁나쁘 지는
▁깜 빡
▁대작 을
▁연출력 의
▁워 터
▁보는데 도
▁팔 레스타
▁뭐냐 고
▁스타일 

▁아이들이 랑
▁복수 의
실망 .
▁관계 의
▁다행 히
▁어설프 다.
▁ost 만
▁바람 을
▁바람 둥이
▁성장 기
▁같아요 ..
▁멀 미
▁아프 다.

▁최고다 ~
▁0 .1
▁못보 겠다
▁D 급
~! ~!
...이 걸
▁짓 는
▁누군 가는
▁학 대
▁마음을 ...

▁15 년전
▁얻 는
▁별로였 지만
▁예전 부터
▁예전 에는
▁손발 오그라
재밌게 봤어요
▁어렵 지만
▁붙 인
반전 은
▁월 화
▁피해 를
▁늙 어서
▁자유 롭게
▁케이블 로
▁낭비 한
▁심리 적
가족 의
이해 안
▁끊 이지
무서 움
시켜 주는
▁봤습니다 ...
▁봤습니다 ~

▁봤습니다 ^^

▁저예산 영화
▁젊은 이
▁라이 토
▁화가 나서
▁w ith
▁엑 스파
▁제작진 들
▁꼴 

▁돼 서
▁호러 물
▁모자 랄
▁짜증나 네

▁시원 찮
▁일어 나고
▁지루하다 ...
▁녹 음
유치 한
▁그다 지...
▁나타 나서
▁이건뭐 ...
▁표절 을
무섭 지도
제목 을
▁보시길 .
▁챙 피
▁무협 영화
▁현대 인의
▁익 살
an g
▁퀄리티 는
▁보러 갈
▁흐름 도
▁징 기스칸
▁전투 씬
▁폭력 의
▁폭력 적인
▁소름돋 았
▁등장인물 들의
▁사이 비
▁마무리 

▁마무리 도
아까운 영화

▁꼽 힐
▁잤 다.

아님 ?
영화였 다

영화였 다.

▁남녀 가
▁북한 을
이유 를
▁반성 좀
▁소재로 한
▁의문 을
▁영화같 다.
▁역겨 울
▁가까 워
▁깨닫 고
▁지겹 다.
만화 

하신 분들
▁홍보 가
on g
▁나은 듯

▁출연진 이
걸까 ..
▁여기서 부터
더군요 .

▁아까웠 다.

▁e x
▁e bs
▁냉 혹한
▁앤 딩
▁시각 이
▁주변 에서
▁보길 잘
▁무비 .
▁에휴 ..
▁에휴 ...
▁망쳐 버린
이스 키
▁시트콤 

▁공부 좀
▁반복 해서
▁찍었 을까
▁결과 물
제작 비가
▁영화입니다 !

하다니 ...
▁꿈을 ...
▁주고싶 다

▁주고싶 은데
100 0
100 배
▁아역 배우
▁슬펐 다.
▁조합 이
▁박진 영
▁박진 희
▁모른 다
▁모른 다는
▁레전드 

▁탐 정
▁탐 험
▁픽 사의
▁김민 희
▁설마 설마
▁정의 가
▁교육 용
▁빌려 본
▁모를 까
▁뛰어넘 은
▁재미잇 게
하던데 

▁이끌 어가는
▁지겨 워서
▁도전 하는
▁콩 은
시즌 3
▁주성치 가
▁이해하기 엔
▁튀 어나
▁대해서 도
▁기대했 다가
▁기대했 었는데
▁국가 의
▁응원 하고
▁재밌던데 

▁할리 웃
▁악마 를
▁악마 의
▁맹 목
▁맹 탕
▁이민 호
▁역겹 다
▁역겹 다.
▁욕망 의
▁쩝 ...

▁그당시 에
▁;; ;;

▁작위 적이고
▁미스터 빈
▁둘이 서
▁연기잘 하고
▁아쉬움 .

▁홀 딱
▁배역 을
▁늘어 놓
▁짜임새 도
▁짜임새 있는
▁아름다움 에
▁선동 영화
▁남자주인공 의
▁버렸 다.
▁버렸 다.

오래 된
▁무한 반복
▁무한 도전
조금 은
▁시즌1 은
▁크리스마스 에
▁줍 니다
▁첩 혈쌍웅
▁조절 을
▁조카 가
▁특수효과 가
영화임 에도
▁사투 리가
▁교과서 

하길 

▁주윤발 이
▁때려 부
▁손색 없는
▁끼워 맞춘
▁정우 성이
▁감안 하더라도
▁극단 적
♥♥♥♥ ♥♥♥♥
▁으리 으
▁이소룡 이
19 8
포스터 에
화이팅 

▁별반 개
▁덤 덤
▁떼 지
▁남긴 다.
▁중독 성
▁아놀 드의
▁정보 석
▁하하하 

▁개념 이
▁개념 없는
▁이드라마 는
▁자랑 하는
▁찾아볼 수
▁거북 한
▁뚱 맞은
▁나레이션 이
▁어리 버리
▁부럽 다

▁극복 하는
데이 즈
▁외로 움을
잘봤 습니다

▁안어울 려
▁장동 민
▁호기 심에
▁인터넷 에서
15 세
장애 인
▁좋았을텐데 

좋겠 어요
질않 나
▁이동 진
▁안무서 움
▁암걸 릴
▁드라 만
노답 

드려 요
드려 요

▁여친 이
▁허허 

▁ᄏᄏᄏᄏᄏᄏᄏᄏᄏᄏᄏᄏᄏᄏᄏᄏ ᄏ

▁빙 자한
▁밖 엔
무엇 을
▁만들어주 셔서
로맨 틱
▁던져 주는
es s
▁부끄럽 지
▁부자연 스럽고
▁개그맨 들
**** )
잔인 한
▁우디 알렌
▁디카프리오 의
▁알파치노 의
▁아기자기 하고
▁movie 

▁드니 로의
▁데스 티네
▁그럴싸 하게
▁손가락 에
▁~~~~ ~~~

▁상태 로
시청률 이
▁멜 슨
▁별한 개
▁파워레인 져
▁최고최고 최고최고
▁코스 모
▁빠순 이들
▁포몬 스터
▁롤 러
옛날 에
▁감수 성
▁총체적 난
▁화질 도
00원 주고
▁번역 은
▁빠르 기.

▁안녕 하세요
▁수십 번
▁측 면에서
치않 은
▁애절 하고
▁노골 적인
ᄅᄅ ᄅᄅ
▁지배 하는
▁마스터 피스
▁모티브 로
▁별기대 없이
예고 편
▁느슨 한
▁비하 하는
누군 지
▁미키 루
▁2차 대전
▁할아버 지가
▁할아버 지의
▁두말 할
▁정신차 려
안타까 운
▁열린 결말
▁차분 하게
▁데미 무
▁있어보이 려고
야야 야야
▁상투 적인
▁희한 한
▁브래드피 트
▁갑작 스런
▁CGV 에서
▁참다 참다
▁고정 관념
▁당당 하게
▁단조 로운
▁산드라 블록
하트 넷
▁1화 부터
에효 

▁무덤 덤
▁미사 일
▁믹 스
스파이 더맨
▁제한 )

▁별1 개도
▁원초 적
▁140 자
▁유전 자
▁김규 리
▁5~ 6
▁썩어 빠진
어려 운
▁아시는 분
▁눈감 고
▁박용 우
▁평점올 리기
▁유준 상
▁빨려 들어
▁로드리게 즈
▁미성년 자
끝날때 까지
▁전파 낭비
▁오리 엔탈
▁남동생 의
▁리부 트
▁홍경 인
▁삼천포 로
▁데스노 트
▁서커 스
▁머리카 락
▁조지클 루니
▁씩 씩
시간가는 줄
▁방어 율
지겨 워
▁무진 장
▁애청 자
▁때묻 지
&lt 

MD B
▁3.1 4
▁김원 효
▁아오이유 우
룬드그 렌
▁모조 리
▁장국 영이
▁알게해줬 다!
▁존트라 볼타
▁레미 제라블
▁공상과 학
▁데스티네 이션
! ᄏ

! ~

' '
( 특히
) 에
, 소
, 제
, 정말
- 1
. n
/ 10
1 점이
2 7
2 탄
2 시간
4 는
5 4
7 

> 을
> 이
N G
T 

b 급
g g
h 

m bc
u u
z 

~ 진짜
~ 90년대
ᄉ ᄋ
ᄌ ᄂ
ᅳ ᅮ

▁ 넷
▁ 딘
▁ 에게
▁ 네

▁ ᄃ

▁ zzzz
가 르
가 시
가 시노
각 시
갔 다가
같 다고
같 네

같 으니
갠 적으로
거 만
거 보고
거 라는
것 이지
겟 네

겠 습니다
겠 네요.
겠 지?
겠 지..

겠 지.

겨 ?
격 한
견 을
결 론
경 삼
고 등
고 루
고 리
고 맙
고 민
고 요
곡 도
곡 을
공 에
공 유
공 짜
구 도
군 ,
군 과
굳 이
굿 굿

권 에
귀 한
그 만큼
그 나저나
극 이
극 중
극 .

금 술
기 용
기 어린
꺼 라고
껄 

끄 러운
끌 어
나 리
나 에게
나 ....

날 라
남 이
납 니다

낫 다
낫 다

네 가
네 의
네 ~~
네 유.

녀 와
년 

년 은
놀 랐
놀 래
놈 들아
눈 으로
는 

니 ,
니 ??
님 께서
다 진짜
당 에
당 황
당 신은
대 ,
대 만
대 하고
더 와
더 럽고
던 

던 건
데 이트
도 데체
돈 만
동 욱
동 의
되 

되 지만
됨 ?
두 리
득 이
들 !
들 ~
들 리스
들 여서
듯 ~
듯 하다

듯 하다.
딸 이
떠 나
떠 서
뛰 어
란 다.
랬 는데
레 니
레 어
레 옹
렌 스
력 

렸 음
루 는
루 션
리 지않는
리 메이크
린 다..
림 슨
립 니다

마 녀
마 르
만 하다.
만 나고
많 았
많 으셨
말 하고
말 밖에
맘 이
망 하고
매 가
매 주
먹 음
먹 으면서
멋 져
면 에선
멸 망
모 는
모 아
몬 드
몰 라
무 너
미 더
미 모
민 ,
민 영
밀 려
바 꼭
바 래
바 야
박 사
박 진
밖 으로
받 고싶
발 의
밝 혀
밥 에
백 만
백 이
버 리게
벌 레
법 도
베 르
보 다.

보 이지
보 느라
보 시면
보 소

본 건
본 듯
본 영화

볼 수없
봉 이
봐 .
봣 어요
봤 습니다
봤 습니다.
봤 어요

부 인
부 까지
분 간
불 명
브 루스
비 안의
빠 르
뿐 이고
사 만
산 의
색 기
색 히
설 정도
성 ?
성 근
성 유리
세 용
세 히
세 상을
소 드
속 에서도
손 을
수 빈
수 작

스 퍼
신 고
실 수
실 제로
심 하고
싶 다.
싸 고
쓰 면
씨 발
씨 엔
아 냐
아 련
아 류
아 미
아 슬
아 ..

아 요.
아 만다
악 의
않 은
앗 다

애 랑
애 애
야 구
야 한
얘 기만
어 !
어 휴
없 다...

없 어도
없 나?
었 다...
엑 소
여 태
여 튼
역 은
연 

연 변
연 주
연 희
열 받
열 정
열 자

였 고,
였 나?
영 방송
옆 에서
오 스
오 는데
온 나
올 로
올 리는
와 이프
왔 다.
왕 이
욕 만
우 나
원 생
웠 고
웠 는데
웠 다..
웨 폰
위 주의
유 혹
윤 재
음 ᄏᄏ
응 ?
의 식을
이 구
이 서
이 선
이 엿
이 현
이 ..

이 에게
이 따구
이 번에
익 준
인 저
인 다

일 줄
일 줄이야
일 지라도
임 ᄏᄏ
입 이
있 다가
있 을때
있 었다
있 나?
작 전
작 인데
잔 뜩
잘 봤어요
잠 을
잡 아
재 능
재 로
재 를
재 림
재 방
잼 씀
적 .
전 .
전 지현
접 한
정 체
제 도
제 욱
조 

조 직
좋 고

좋 겠다

주 먹
주 기가
준 다는
준 사람들
중 년
중 인데
중 하나
줬 다.
즈 링
지 요.
지 망생
진 국
짐 을
짐 ..
집 중이
짓 는
짜 릿
짜 피
짱 !!!

쩔 고
쪽 에
쪽 이
찍 었
차 기
차 도
차 서
찬 양
찾 아서
책 도
체 험
쳐 

쳤 다

출 동
치 는데
케 빈
코 도
클 로
키 고
타 의
태 격
터 져
터 미네이터
테 일이
트 레이
특 공
특 급
판 에서
패 션
팬 이라면
퍼 가
편 보다
포 인트가
표 정이
프 는
하 더
하 를
하 라.

학 적
한 회
한 다!

한 개도
한 다는게
할 말이
할 뿐

함 이란
해 ,
해 하는
허 세
헤 이
혜 영
호 사
호 씨
화 장
화 부터
황 금
회 는
획 을
훈 련
흐 규
희 라
희 생
.. 굿
.. 김
.. 넘
.. ;

.. ᄒ

.. ᄏᄏᄏ

.. ᄒᄒ

▁영화 '
▁영화 학
▁영화 ᄏᄏ
▁영화 에도
▁영화 때문에
▁영화 마다
▁영화 ,,,
▁영화 에서도
▁영화 속에
▁영화 ......
▁영화 와는
▁영화 예요

▁영화 입니다..

▁이 곳
▁이 대
▁이 데
▁이 르
▁이 무
▁이 방
▁이 벤
▁이 OO
▁이 시대
▁이 전의
▁이 현우
▁아 멜
▁아 수
▁아 즈
▁아 들은
▁아 .....
▁그 제
▁그 영화
▁보 도
▁보 라

▁보 자

▁보 도록
▁보 는데...
▁보 셔야
... 하지만
... 마지막
... 도대체
!! ^^

▁정 소
▁정 수
▁정 유
▁나 부
▁나 지만
▁나 네요

▁나 이는
▁다 닌
▁다 망
▁다 카
▁다 이나
▁다 짜고
▁다 코타
▁하 두
▁하 러
▁하 모
▁하 다..

▁하 지않
▁하 기에
▁하 네.
▁하 구만
▁하 시길
▁하 는데..
▁하 아...
▁하 희라
▁좋 다!
▁좋 을거
▁없 구만
▁없 어요..
▁없 지않아
▁어 가
▁어 한
▁어 후
▁어 루만
▁너무 한거
▁너무 하네요
▁너무 귀여
▁너무 감동적이
▁사 색
▁사 와
▁사 탕
▁사 후
▁내 포
▁내 친구
▁내 이름
▁진 리를
▁재미 .
▁연 발
▁있 냐?
▁있 음..
▁있 나

▁있 지?

▁있 다니

▁있 나요?

▁지 우고
▁한 경
▁한 류
▁한 마
▁한 발
▁한 꺼번에
▁시 갈
네요 ....

▁안 구
▁안 뜨
▁안 먹
▁안 잡
▁안 나는
▁안 드는
▁안 해도
▁안 했지만
▁안 보다가
▁안 감.
▁1 :
▁1 학년
▁스 멜
▁스 킬
▁스 웨덴
▁만 나게
.... 영화
.... ᅲᅲ
▁가 기
▁가 락
▁가 요
▁가 보고
▁가 졌던
▁가 필드
▁재밌 진
▁재밌 지는
▁재밌 을것
▁기 를
▁기 세
▁기 여
▁기 립박
▁대 화를
▁대 상이
▁봤 슴
▁봤 다는게
▁평 면
▁전 대
▁전 우
▁전 에는
▁진짜 개
▁마 누
▁마 인드
▁연기 하는거
하는 짓
▁수 능
▁수 수
▁수 없는
▁수 없이
▁무 사
▁무 차별
▁모 로
▁모 션
▁모 음
▁여 기가
▁잘 도
▁잘 지
▁잘 했다
▁잘 하는거
▁잘 했다고
▁주 장
▁주 다니
▁주 기가
▁주 려는
▁주 말이
▁최고 는
▁최고 엿
▁최고 작
▁최고 ...

▁않 다..

▁않 지만,
▁않 을까?
▁않 으면서도
▁더 운
▁더 좋은
▁더 스틴
▁더 러워서
▁개 개
▁개 못
▁개 선
▁개 지루
▁개 차반
▁이런 글
▁이런 말
▁이런 명작
▁인 거
▁인 격
▁말 과
▁말 라
▁말 리
▁말 지
▁말 들이
▁말 인가?
▁생각 난다
▁생각 난다.

▁생각 했었는데
▁생각 외로
▁왜 나온
▁자 유의
▁자 식이
▁같 던데
▁못 했다는
▁못 봤지만
▁남 에게
▁남 아서
▁남 다른
▁알 렌
▁알 린
▁알 콜
▁알 리기
▁본 연의
까지 ...

▁느 릿
▁미 끼
▁미 로
▁미 숙
▁미 적
▁유 우
▁유 효
▁아니 ..
▁아니 었지만
▁아니 였음
▁아니 였으면
▁보고 왔는데
▁볼 품
▁볼 가치가
▁감동 입니다.
▁감동 있게
▁일 주
▁일 치
▁일 케
▁일 하는
하게 

▁별 2
▁별 은
▁별 두개
▁별 다섯
▁비 상
▁비 약
▁비 어
▁비 위
▁비 스트
▁쓰 다
▁쓰 라고
▁쓰 세요
▁것 이라는
▁장 점이
▁우 

▁우 물
▁지루 했는데
▁지루 했지만
▁지루 할수도
▁드라마 !!!

다는 것을
▁많 고,
▁많 아요
▁ᄏᄏ 진짜
▁중 복
▁중 앙
▁중 경삼
▁재미있 지만
▁재미있 지도
▁재미있 다..

▁부 들
▁부 시
▁부 질
▁부 러워
▁부 수고
▁뭐 .
▁뭐 ..

▁뭐 하고
▁공 무
▁공 상
▁공 원
▁공 통
▁사람 들과
▁2 7
▁2 분
▁조 크
▁조 진웅
▁내용 자체가
▁만들 던
▁만들 수가
▁만들 려는
▁고 든
▁고 아라
▁저 걸
▁저 랬
▁저 당시
▁애 들을
▁재미없 네요

▁재미없 습니다.

▁재미없 어요.
▁재미없 네..
▁재미없 네..

리고 

▁해 골
▁해 바라기
▁해 품달
▁명 대사가
▁사랑 이라고
▁사랑 해

▁사랑 스러움
▁참 패
▁되 질
▁되 다니
▁반 을
▁반 점
▁보는 것도
▁보는 건데
▁웃 었음
▁예 .

▁예 체능
보고 도
보고 나면
▁봐 줘야
▁봐 왔던
▁다시 본
▁거 저
▁거 지만
▁거 장이
▁거 리도
▁좋아 용
▁좋아 지
▁좋아 해요
▁좋아 하긴
▁좋아 하네요

▁좋아 하시면
▁시간 ,
입니 까
입니 까?

▁상 술
라고 는
▁싶 다고
▁싶 음

▁싶 었다
▁싶 어요.

▁신 문
▁신 음
으면 ..

▁눈 깔
▁눈 엔
다고 는
다고 해도
▁바 는
▁바 이러스
▁실 질
▁노 르
▁노 아
▁노 인의
▁노 홍철
▁불 량
▁불 평
▁불 리는
다가 ..
적이 긴
적이 면서
▁원 본
▁살 인의
하지 .

▁이건 아니다
▁마지막 화
▁3 가
▁기대 하면
▁기대 됨

▁기대 된다.

▁기대 됩니다
▁액션 까지
▁액션 영화를
▁액션 스릴러
▁액션 신도
▁좋았 다...
▁좋았 어요~
▁있는 ,
▁도 자기
▁의 료
▁의 사가
▁의 한,
▁코 끼리
▁하나 에
▁하나 ..
▁할 정도로
▁할 때마다
▁할 꺼면
▁넘 어야
▁넘 사벽
▁성 숙한
▁추 는
▁추 운
▁죽 음.
▁죽 는거
▁처음 .

▁처음 입니다.
▁몰 두
▁몰 아서
▁한국 영화.
▁후 까
▁후 딱
▁후 벼
▁했 어요

▁했 나?
▁현 기
▁현 우
▁나오 미
▁나오 네

인데 요
▁하는 것도
▁김 새
▁김 연
▁김 해
▁김 흥
▁김 정화
▁김 대중
▁김 인권
합니 당
▁모르 면서
▁10점 주고
▁아깝 

▁아깝 네요.
▁아깝 습니다.

▁아깝 지않은
▁세 명
▁세 밀
▁세 탁
▁별로 네요.
▁허 황
이나 

이나 서
이나 ..
이나 와서
▁1점 이다
▁1점 이라도
▁멋 드러
▁이해 한
▁강 인
▁강 소라
▁관 우
▁위 원
▁위 태
▁돈 좀
연기 너무잘
▁분 들의
하다 !!

▁두 시간이
▁느낌 만
▁느낌 에
▁명작 도
▁명작 이고
▁구 름
▁구 속
▁구 해
▁구 현
▁구 할수
▁따 질
▁따 지고
▁동 거
▁동 반
▁동 성
▁동 떨어진
▁동 남아
▁화 보
▁화 신
▁화 나게
▁심 하고
▁심 한거
▁이야기 만
▁음 침
▁기억 의
▁기억 하는데
▁재밌게 봄
▁우리 모두
▁당 혹
▁당 할수
▁괜찮 음.
▁아이 큐
▁아이 덴티티
주는 것도
▁여자 배우
다면 ..
▁요 거
▁요 괴
▁요 리를
▁그런 영화
▁꼭 두
▁차 예련
▁주인공 처럼
재미 를
재미 업
▁보여 줘서
▁마음 까지
▁슬 레이터
필요 도
것도 없고
▁울 때
▁울 엇
▁울 었다

▁공포 스럽
▁공포 스릴러
▁유치 하다.

▁유치 해도
▁유치 한거
▁줄 어
▁일본 특유의
ᄏᄏᄏᄏᄏᄏᄏᄏ ᄏᄏᄏᄏ
▁망 각
▁망 함

▁무슨 ..
▁무슨 영화
▁무슨 말을
하나 도안
▁점 차
▁서 구
▁서 기
▁서 유리
▁서 비스
▁볼만 했음
▁볼만 해요

▁볼만 했음

▁현실 도
없이 는
▁결말 ...
▁결말 에서
▁힘 과
▁리 버
▁리 들리스
인가 봐
▁이상 함
▁이상 한거
▁보기 시작
▁OO 도
▁OO 들
▁반전 만
▁매력 없는
▁말이 야
▁남자 도
▁뻔 하게
▁뻔 해도
▁절 때
▁절 벽
▁애니 스톤
구나 !
ᅮᅮ ᅮᅮ

▁스릴 있는
▁가슴 은
▁없고 .

▁없고 ..

▁낮 음
▁낮 다.

▁낮 추기
▁원작 자가
▁눈물 만
▁눈물 물
▁맞 서
▁맞 나?

▁방 에
▁방 식은
▁긴 말
▁긴 박한
▁정도 ..
▁정도 ...

▁높 다고
▁충 만한
이었 어요
▁인생 이란
▁인생 최고의
▁만들어 지는
▁있었 기에
▁머 니
▁머 여
▁머 냐?
▁몇 십
지않 다

이다. 이
▁많은 지
▁간 만
▁모르겠 어요.
▁모르겠 고..
▁돌 을
▁돌 연변
니까 .

▁' 나
▁' 영화
▁순 결
▁순 애
▁9 9년
▁굿 !!!
▁아름다 움

▁적 게
▁적 벽
▁피 비
▁듯 !
▁4 대
▁4 회
▁새 키
▁새 로웠
▁하고 .
▁하고 있는
▁욕 은
▁욕 먹을
▁찾 다가
나오 면서
▁8 년
▁8 점을
▁올 렸
▁올 인
▁올 리는
▁편 이지만
떨어 져
▁치 켜
▁이제 라도
▁열 까지
▁7 0분
▁7 .8
▁7 .9
▁외 의
▁버 리지
▁버 틀러
▁갈 구
▁여운 에
▁5 .5
▁캐릭터 들과
▁코미디 라고
▁실망 ...
▁호 감이
▁공감 하는
▁대박 이고
▁대박 입니다
▁출 동
▁손 은
감독 ,
▁약 속
▁먹 방
▁먹 으면서
▁나온 지
▁배우들 에
이랑 은
주인공 은
▁대단 하다...
생각 해도
친구 들
▁교 감
▁교 수
만들 지
만들 었으면
▁어디 있
▁알았 던
▁알았 네요.
▁함 량
▁즐 겼
▁싸 인
▁모습 

▁모습 .
▁제목 부터가
▁재밌었 지만
▁아쉽 다...

이상 을
▁잼있 었는데
▁잼있 었어요
▁- -

▁떨어 짐.
▁카 지노
내용 도없고
▁베 껴
▁ᄏᄏᄏ 아
▁만들었 어야
▁만들었 을까?

▁그렇 듯
▁않고 .
▁봐야 한다
▁봐야 겠다.

▁느껴 짐

▁막장 스토리
▁네 오
▁메 디컬
▁요즘 영화
▁알바 도
▁부족 해
▁부족 해서
▁감동적이 었던
▁감동적이 었다.
▁감동적이 예요
▁천 하의
▁날 리는
▁홍 석천
▁아까운 건
▁정신 적
▁제작 사
것같 다..
▁노래 ,
▁노래 로
▁노래 에
▁노래 하는
▁미국 인이
▁목 적은
▁않았 지만,
▁나왔 다

▁나왔 어도
▁형 님의
▁형 님이
▁통 틀어
▁통 틀어서
거리 로
거리 를
▁그러 한
▁그러 려니
▁훌륭 했다.
▁보게 될
▁보게 됬
▁복 원
이없 어
이없 다

▁뒤 섞
▁뒤 틀
▁따뜻 해지고
▁감정 과
▁살아 남는
▁살아 가면서
▁세상 엔
▁작가 도
▁작가 야
▁작가 와
더니 ,
더니 만
▁안되 요
▁안되 고,
이런 쓰레기
▁좋겠 네요.

▁좋겠 어요.

요? ?

▁갑 

해야 되
▁싫 은데
고싶 다.
고싶 을때
고싶 은데
▁되는 것
▁훨 배
▁답답 함과
▁답답 하기만
▁길 은
▁길 지만
사랑 하고
▁허접 해서
▁빨 라서
▁양 들의
▁양 익준
▁입 증
▁입 에서
▁입 장이
▁관객 과
▁관객 수
▁추억 도
▁깨 한
▁봤던 거
▁완벽 하고
▁완벽 하다
▁완벽 하다

▁깊 이를
인듯 한
한데 ...
▁시나리오 로
▁어떤 지
▁청 불
▁영화관 을
▁다큐 .

▁흐 미
▁총 도
▁둘 을
▁이딴 영화를
▁시대 상을
▁들어 오는
▁슬프 지
▁슬프 다...
▁슬프 기도하고
▁범 인을
아까 울
▁찾아 가
▁찾아 보
▁찾아 야
▁졸작 으로
▁졸작 이다.
▁보았 습니다

▁좋고 ..
▁역사 적인
▁재밌는 게
▁예술 과
▁예술 성
수있 게
▁꿈 같은
▁암 만
▁암 시
▁암 흑
▁암 것도
▁설정 의
▁강추 .

▁강추 입니다
▁강추 강추
▁0점 

▁백 야
▁백 점
▁백 투더
▁주연 배우들의
▁후회 함
▁오래 됬
▁히 가시노
▁주제 ,
▁같이 봤는데
▁집중 력
▁폭 망
▁폭 탄
한거 지
▁어느 나라
▁잔인 함
▁잔인 한거
▁보지마 삼
▁엄마 도
!!!!!!!! !
!!!!!!!! !!!!

▁궁금 하지
재미있 어요
▁블 럭
▁채 운
▁따라 가는
재미없 어요
▁커 다란
▁불쌍 

▁불쌍 할
▁풀 어가
▁광 기를
꿀잼 꿀잼
▁위한 ,
▁괴 상
▁괴 짜
▁투 척
▁흘 리고
▁너 므
▁너 에게
▁라 젤
하겠 네
하겠 다
▁엉성 하기
▁왕 짜증
이야기 도
▁여기 까지
▁걸작 은
▁걸작 !

▁이쁘 다.
▁얼굴 로
▁하지 원의
▁하지 원은
▁번 은
▁번 째
▁로맨스 와
▁로맨스 영화
▁훨씬 더
▁재미있었 어요.
▁CG ,
▁실화 가
▁B급 영화

▁키 우는
▁노잼 .
▁비교 하는
▁괜찮았 다
▁괜찮았 지만
▁없다 ,
▁맛 있게
노잼 노잼

▁전체 관람가
▁발연기 의
▁트 릭
▁으 으
???? ?

시절 에
수준 도
수준 으로
▁취 업
▁200 3
▁보여주는 게
▁19 4
▁쳐 맞
▁다음 작품
이였 던
▁ᄏᄏᄏᄏᄏᄏᄏᄏ ᄏᄏ

▁ᄏᄏᄏᄏᄏᄏᄏᄏ ᄏᄏᄏᄏ

아이 유
아이 들과
▁한국영화 보다
▁테 이프
잖아 ..
나요 ..
▁화려 하게
▁존재 를
▁존재 한다는
▁킬링타임용 으론
거야 .

▁맘에 드는
▁그리 도
▁평가 절
건데 

▁잘못 됐
▁없어 .
▁없어 지고
▁없어 져야
아닌 가?

할때 가
▁다르 다

▁세계 에
▁세계 의
▁세계 에서
................ .

들어 간
▁예상 외로
을듯 ...
▁자연 스럽
여자 들이
▁휴 ..
년이 면
▁볼만한 게
▁.... .....
▁당신 들이
▁당신 에게
▁봣 지만
▁까 고
▁자기 네
겠지만 ...
▁봤어요 !

▁봤어요 ~

▁에로 티시즘
라니 ...

▁밑 의
▁맨 오브
▁멜로 도
▁멜로 물
▁머리 아프
▁질질 짜는
▁어쩌 다가
;;;; ;;
▁보여준 다
▁권 태
▁누구 보다
▁빛 났
던가 ...
▁예쁘 다.

▁어이없 다.
▁2점 준다

▁감독님 은
▁못하는 게
▁개그 콘서트
▁해야 하는
▁생각해 봐도
▁화면 으로
▁가치 관을
▁같아 

▁생각하게 하는
▁뭐가 뭔지
▁감성 으로
▁살인 범
▁중요 하지
▁중요 하다
▁관람 후
▁TV 용
▁한심 하다

▁한심 하다.
▁순간 에
▁한편 으론
▁돋보 임

한영화 .

▁개연성 ,
▁헤 어나
▁알겠 다.
사회 를
▁만족 

▁tv 판
되어 가는
▁식상 하다

▁젊 음의
▁a r
▁a s
▁분위기 

▁승 승
짜증 남
짜증 난다
▁그때 도
▁어쩔 수없
▁묻 고
▁놈 의
최악 이다

▁이어 진
▁끝내 는
▁끝내 지
다.... ..

추천 !

▁9점 .

▁9점 이상
▁판타지 로
▁끼 리
▁끼 친
연출 도
▁줄거리 ,
▁줄거리 와
▁줄거리 의
▁희망 은
▁되었 고
▁아빠 는
▁갔 으면
▁넣 었
▁넣 어주
없음 ...

▁미화 가
▁감상 한
▁감상 하는
▁법 .
▁느꼈 다
▁느꼈 습니다.
▁그림 자
▁웃긴 게
▁병맛 이
▁영웅 으로
▁독립 영화의
▁연출력 에
▁대한민국 을
▁인정 한
▁인정 하는
▁진실 

실망 이다
▁허술 하다.
▁풀어 낼
▁다행 이
▁다행 이다.

▁영원 하라
▁죽음 과
▁죽음 으로
▁서로 에게
▁어설프 다

▁이러 케
▁코메디 가
▁앞으로 의
▁웃겨 

최고의 영화
▁탈 북
▁전작 과
▁청춘 을
▁청춘 이
▁청춘 들의
▁목소리 를
▁리메이크 가
▁아오 

▁0 .
▁못보 겠다.
...이 제
▁정치 에
▁재밌게봤 어요

▁철학 적이고
▁안보 신분들
배우들 로
▁던 진
▁응 징
▁행동 은
▁전체적으로 는
▁예고편 보고
▁울었 네요
▁울었 다..
▁얻 고
▁아는 척
▁감동적 

▁감동적 입니다
▁감동적 임

▁미래 에
▁예전 엔
하냐 .
▁춤 이
▁어렵 다
▁시도 가
▁OOO기 영화
▁애들이 랑
re e
▁조연 으로
▁와닿 는다.

▁글쎄 ...

▁속편 .
▁연애 를
▁꾸 는
▁꾸 르
을거 다
일뿐 .

▁끊 기고
시켜 준
▁젊은 시절
▁카메라 로
▁감탄 이
▁느낀 다.
▁느낀 다.

▁오락 영화

▁아닌데 ,
▁있다면 ,
▁기본 은
▁사극 이
▁봤었는데 ..
▁슬픔 

이제 야
▁예쁜 데
▁악역 도
▁악역 으로
한것 만
▁안본 사람
▁용서 는
▁용서 와
▁겉 도는
▁쓰래 기

▁칼 을
▁칼 싸움
▁보시길 ..
▁덜 떨어진
▁개판 으로
▁뮤지컬 로
▁축 복
보지마 세요

▁아닐까 .

▁소녀 를
▁쇼 를
▁감명 을
▁오그라 든다
▁자막 을
▁쩌 네
▁쩌 러
ou nd
▁보러 갔는데
▁흐름 에
▁전투 기
그렇 지만
▁오버 하는
▁포기 하고
▁맡 았던
▁남녀 간의
▁드러 낸
▁북한 이
▁스크 림
▁비주얼 이
▁힐링 되는
▁미치 겠
엄마 랑
오글 오글
오글 거리는
▁의심 스럽
▁국민 학교
▁영화같 다
▁본방 사
▁통쾌 하고
버리고 싶
▁역겨 워
▁깊이 도
▁능력 은
▁이때 는
▁존경 스럽
▁평이 한
▁30분 은
▁뜻 을
▁뜻 밖의
잼있 음
▁마이너 스가
▁명작이 다..
▁새벽 의
▁느와르 

▁단연 코
▁대표 작

▁때문 이다.

아까워 

▁나옴 .

▁남겨 진
▁웃겼 음

▁잭 블랙
답답 해서
▁안돼 고
▁과장 되
▁앤 드류
▁상업 적인
▁생각나 네
▁떡 칠
▁외모 와
▁보길 

▁가져 야
▁18 금
▁18 ..
보고있 어요
▁쥐 게
▁말았 으면
▁타임 슬립
▁같았 는데
▁편견 과
▁움직 임
12 3
▁척 하는
제작 비
▁미모 만
▁찍어 라
▁검색 해서
▁센 스가
스러웠 다.
▁주고싶 다
▁인내 심이
▁인내 심의
▁섹스 신
▁틀어 주
용으로 는
▁조합 .
▁조합 은
요~ ^^

▁어휴 

▁모른 다

▁탁 재
▁좋았어요 !

▁멘 트
▁좋았으나 ,
▁어지 럽고
▁못생 김
20 1
▁p l
살다 살다
▁포르노 를
더라구요 .

가슴 에
▁아니었 나
▁먹고 살
▁l e
▁l i
▁이정 진
▁김수 미
아무 런
▁감흥 을
▁감흥 없는
▁뿌 리
▁뿌 린
▁됬 는데
▁개뿔 

▁k t
▁남편 의
▁쩝 ..

▁몇년 간
▁다루 고
▁하다 하다
▁받을 만
▁기다려 지는
▁옷 벗
▁아내 를
▁아내 와
▁사진 을
,.,. ,.
해졌 다.
▁지났 는데
▁우려 먹는
▁바꾸 는
▁디테일 하게
▁모험 을
부를 때
▁도망 가
▁아쉬움 .
▁아쉬움 은
▁결정 체
▁새끼 들이
사건 을
▁부끄 럽게
▁N G
▁사고 방식
▁많은데 ,
▁스트레스 만
나봐 요..
▁사랑스럽 다.

▁이해안 가는
▁댄 서
▁무서워 

▁영화이 기도
▁조절 이
▁조카 랑
▁명화 

▁집착 이
▁다를 바
▁앞뒤 도
▁여자친구 가
▁평점조 작
▁u n
▁타고 난
▁끼워 맞추
▁추격 씬
▁배경음악 이
▁살렸 다.
▁살렸 다.

▁언젠 간
▁헤어 지고
보았 습니다
선생 님이
▁조니뎁 의
▁ᄅ ᄀ

▁다섯 개
▁열받 아
▁여러번 봐도
▁배급 사가
▁혹시나 해서
▁따위 는
as s
스케 일
▁하시 는데
▁사운드 트랙
▁폭풍 눈물
▁뚱 맞
▁무겁 고
▁외로 움
▁달콤 하고
▁왜이러 지
▁리얼리티 를
마이 클
잘봤 습니다
▁이렇 지
▁장국영 의
▁과대 포장
▁호기 심을
▁담백 하고
소름 끼
▁책임 감
오오 오
▁기존 에
▁보기싫 은
▁V OD
▁안무서 운
▁강간 을
▁즐길 수
아닌가 요?
▁여친 이랑
▁개똥 같은
▁소화 해
▁고독 과
▁혐오 스러운
▁빙 빙
▁장진 영
▁몽환 적
발연기 발연기
▁트랜 스
보인 다.
▁다녀 왔
▁박중훈 의
맘에 안
▁오글오글 

ic e
▁이종 혁
▁돋보인 다.

▁말투 가
▁타란티노 의
▁닿 는
▁닿 지
녀석 들
▁실감 나는
▁억울 하게
▁왠만 해서
▁긴박 감이
▁숨막 히게
▁본것 중에
▁유덕화 의
▁그럴싸 한
▁스토 린
▁방향 으로
ost 도
tv 에서
▁진수 .
▁작화 도
▁놀래 키는
▁시끄 러
▁시끄 러운
▁고양 이는
▁설경 구의
▁놓치 면
▁지독 하게
▁먹칠 한
▁니네 가
▁찬양 하는
에휴 

▁추천합니다 !

▁팅 

▁안보는 걸
▁차승 원의
▁김명 민의
▁앉아 있
▁위트 있는
▁버무 린
▁떨어짐 .

▁낭만 적인
▁배드 신
▁모독 하는
▁망설 임
▁짱짱맨 

오로 라
▁안겨 준
▁지루하지않 게
▁김선 아
▁믿기 지가
▁내리 막
▁관대 하다

▁표현해 낸
▁끊임 없는
▁쥐어 짜
▁욱 일
▁원작소설 을
▁못살 린
▁총격 전
▁츠 마부
▁이태 임
▁배워 야
▁일생 을
▁여기저기 서
▁미니 언
▁조조 로
기억에 남는
▁정화 되는
▁어떡 해
▁on e
▁잘표현 한
▁우습 게
▁퓨 전
뿐만 아니라
▁이재 은
▁김정 훈
▁채플린 의
▁깜짝놀 랐
▁비정상 적인
인상 깊
▁박지 윤
▁치열 한
▁가르쳐 준
hh hh
▁나왓 으면
▁일대 기를
▁오만 과
>_ <
▁갖추 고
▁깜찍 한
▁어지간 한
▁어지간 하면
나머 지
▁가미 된
▁쓰나 미
▁김보 성
▁로긴 하게
▁트라 우마
▁치명 적인
▁스며 드는
▁러브라 인이
▁조디 포스터
▁크리 쳐
▁카타르 시
▁보고또 보고
▁울려 퍼
최고! 최고!
▁해병 대
유루 이
▁지껄 이는
▁무표정 으로
▁비긴 어게
▁청소 년이
▁Th is
▁쇼생크 탈출
▁^- ^
▁그로테스크 한
▁인위 적인
▁조미 료
▁조한 선
▁눈물샘 을
▁글래 디에이터
▁금성 무
▁장화 홍련
▁간접 적으로
▁쓸모 없는
클레 멘타
▁성시 경
▁에어 컨
▁송중 기
▁빌어 먹을
▁램 버트
별반 개도
▁넘나 드는
▁휴잭 맨
▁로빈윌 리엄
마무 리가
▁안소 니
▁문채 원
▁저리가 라
▁발정 난
▁휴대 폰
▁다큐멘타 리
▁kn ow
▁전무후 무한
▁파란만 장한
임창 정
▁지지부 진
▁쟁쟁 한
▁불협 화
▁임요 환
▁매염 방
▁천정 명
▁티격 태격
▁다짜고 짜
' ,
' 은
, 정
, 애니
- 0
- 0-
. 나
. ᄏ

1 로
1 보다
1 년에
2 4
3 2
3 명
4 년도
8 .5
8 년에
: :
= _=
? ᄏᄏᄏᄏ
@ @

B I
L L
M BC
T X
a ut
c m
c tv
d b
i v
i le
m ovie
o .
s f
u e
w e
~ ?
~ 이
~ !!!!
~ ᄒᄒ

ᄀ ᄀ
ᄉ -

ᄉ ᄋ

ᄏ .

ᅡ ᅡ
ᅮ .ᅮ
▁ 겼
▁ 꾼
▁ 적으로
▁ 는거
▁ _-
▁ 룬드그렌
가 이
가 ...

가 ??
가 치도
감 옥
감 의
값 도
갔 다.

거 래
거 린
거 품
건 아니
겁 니까?
게 이트
겟 네
겠 네요

겠 습니다.
결 코
고 전
고 질
공 략
공 식
공 중
과 정이
관 도
구 여
군 대
굳 

귀 요미
그 레이
금 지

급 을
기 부
기 시작
긴 박
까 고
깜 놀
껄 렁
끝 나면
나 ???
날 을
날 정도로
남 ...
납 치
내 게
내 에
내 일
내 에서
내 려는
내 스타일
네 ᅳᅳ
놀 랍
놈 이랑
높 게
높 다

누 구나
느 리
니 컬
님 .
다 지
닥 다리
달 까
답 고
답 니다.

당 초
당 에서
대 여
더 는
더 를
더 러운
덕 후
던 ..
데 라스
돈 과
돈 내고
돋 는
동 호
되 네
되 니
되 던
되 며
되 요
되 나?

된 장
된 다...
될 까
됨 ...
두 시간
들 갑
들 일
듭 니다
듯 ?
듯 하고
듯 !

등 ..
따 라가
때 리고
때 리는
똑 같
똑 같은
뚝 뚝
뛰 는
란 드
랑 ,
러 가
러 블
려 지
려 는거
력 .
력 있는
렸 을
로 와
로 워
롭 다.
롭 다

룡 이
루 

리 려고
림 ..

마 땅
만 치
만 이라도
말 씀
맞 아서
머 스
머 피
먼 가
멋 지고
멋 있고
멋 있다
멘 트
면 은
면 으로
면 에서도
명 하게
모 레
목 사
몰 아
무 적
물 리
뭐 고
미 ,
미 션
미 스터
민 아
바 웃
받 아라
발 을
배 

백 을
법 칙
보 낸
보 지도
보 이게
보 지말고
복 입고
본 듯한
볼 껄
볼 께
볼 루션
봤 고
봤 어야
부 실
부 부의
분 으로
붙 은
비 주얼
빠 짐
뻔 함
뻔 했다.
뿌 리
사 과
사 능
사 위
사 일
사 태
사 운드
산 만
산 업
산 에
삼 총사
새 가
새 는
생 기
생 김
서 부
서 인
서 준
선 ,
선 씨
설 명이
섬 세한
섭 외
셈 .
소 통
손 이
슈 

스 나
슴 .
시 던
시 다!

신 에
신 파
신 이랑
실 험
십 대
십 쇼
십 점
싶 어서
싸 우
쓴 다
씨 ,
씨 만
아 우
아 .

아 ...

아 ~~
아 가는
아 시아
안 가는
안 봐도
암 걸
앗 고
았 음

았 음.
야 ,
야 마
야 겠다
어 두
어 와
어 우
어 ~

억 울
없 다...
없 었는데
없 을때
없 음..
엇 다.
었 다가
었 고,
었 음.

었 음..
엉 엉
엉 성한
에 바
에 에
에 프
에 피소
에 플렉
여 인
역 도
연 ,
연 을
열 이
였 다...
였 다니
였 음..
였 는데..
오 도
오 분
오 에
오 프
올 수
올 해
왜 ?
욕 망
욕 은
용 의
우 롱
우 슬
울 나라
울 었다
워 야
워 터
유 도
유 불
유 지
유 희
은 희
을 만큼
음 은
이 민
이 하고
이 ...

이 영화가
이 냐?

이 냐

이 프로
인 대
인 류
인 형
인 들을
일 것
일 만에
잃 은
임 ....
있 어도
있 나

자 ?
자 니
자 ...
자 보다
자 기가
작 인
작 중
잘 함
잘 해
잘 만들었
잠 시
장 .
장 가
적 임
전 엔
전 유
전 환
정 과
정 리
정 부
정 에
족 을
좀 ...
종 영
죄 송
죠 !
줄 때
즐 거운
지 존
지 켜
지 나가
진 호
질 의
질 .

집 단
집 안
징 글
징 어
짜 집
쩌 네
찌 푸
차 지
철 이
쳤 다.

초 초
최 초
출 현
충 우
치 킨
치 네

치 는거
커 서
케 이션
코 리아
코 드를
크 와
키 

키 우
타 란티노
탄 의
터 졌
테 고
트 ,
트 렉
파 가
판 도
팬 들이
팬 으로서
편 까지
편 이라
편 이나
포 드의
품 을
품 이
프 를
하 .
하 시길

한 수
한 태
할 라고
할 려면
할 거면
함 ....

해 를
해 에
해 !

해 버리는
했 습니다..
행 님
헐 리우드
호 준
호 텔
호 호
혹 시나
화 ,
화 .
화 나
화 에
화 .

확 실히
흐 르
흐 르는
흠 ..

희 경
.. 저
.. 시간
.. 평점
.. """

.. 역시
영화 ?
영화 찍
영화 네

영화 ....

영화 처럼
▁영화 ᄏᄏ

▁영화 만큼
▁영화 다!
▁영화 ~~~

▁영화 네.

▁영화 같은데
▁영화 ~!
▁영화 일까
▁영화 내용은
▁영화 보러
▁영화 끝나고
▁영화 감상
▁이 던
▁이 로
▁이 만
▁이 토
▁이 하나
▁이 빠이
▁아 랍
▁아 려
▁아 플
▁아 하
▁아 들도
▁그 간
▁그 라
▁그 랜
▁그 해
▁그 중에
▁그 들도
▁그 들과
▁그 정도로
▁그 마저도
▁보 삼
▁보 셔
▁보 겠다
▁보 물을
▁보 십시오
▁재 가
... ᄏ
... ᅲ
... 기
... ^^
... ᅮᅮ

... 일본
▁정 겹
▁정 적
▁정 정
▁정 부가
▁정 겨운
▁나 영
▁나 는데
▁나 가서
▁나 은데
▁나 한텐
▁나 로선
▁나 락으로
는데 ?
너무 좋
▁다 물
▁다 본
▁다 봄
▁다 있어
▁다 람쥐
▁다 필요없고
▁하 구
▁하 질
▁하 다..
▁하 네..
▁하 아..
▁없 겠
▁없 긴
▁없 더라
▁어 난
▁어 지는
▁어 는지
▁너무 잼있
▁너무 질질
▁너무 하잖아
▁사 는데
▁사 는거
▁내 기
▁내 심
▁내 공이
▁감 을
▁진 중
▁재미 두
▁연 인과
▁연 정훈
▁연 제욱
▁있 기를
▁있 길래
▁있 고

▁있 나요
▁있 는데..
▁있 나..
▁있 구나

▁지 효
▁지 혼자
▁지 현우
으로 부터
▁한 복
▁한 세
▁한 을
▁한 단계
▁한 획을
▁시 공
▁시 답
네요 ;;
네요 ᄒᄒ
▁안 면
▁안 봣
▁안 찍
▁안 한
▁안 해서
▁안 보게
▁안 남는
▁안 감

▁안 웃기
▁안 올때
▁1 에
▁정말 .

▁만 남

▁가 나
▁가 도
▁가 부
▁가 는거
▁가 수가
▁가 려진
▁재밌 음..
▁재밌 는데...
▁재밌 네여
▁기 이한
▁대 적
▁대 하
▁대 하는
▁봤 다!

▁봤 는디
▁전 광
▁전 나
▁전 수
▁전 시
▁전 역
▁전 지
▁전 현
▁전 까지
▁전 하려는
▁진짜 ᄏᄏ
▁마 는
▁마 른
▁마 자
▁마 시길

▁마 르소
▁연기 .

▁연기 하고
▁연기 만으로도
하는 줄
▁수 단
▁수 박
▁무 교
▁무 언
▁무 죄
▁무 참
▁무 팍
▁무 장한
▁모 던
▁모 모
▁모 텔
▁여 성이
▁잘 났
▁잘 하면
▁잘 함

▁잘 한다.

▁잘 하는지
▁잘 나가는
어요 ?

어요 !!

▁주 입
▁주 장하는
▁주 걸륜
▁최고 가
▁않 기
▁않 네
▁않 다..
▁않 으며
▁더 군
▁더 할
▁더 구나
▁평점 들이
▁평점 이나
▁평점 주는
▁평점 믿고
▁평점 등록
드라 고
▁오 달
▁오 염
▁오 후
▁오 르는
▁오 기로
▁오 구리
▁오 씨엔
▁개 구
▁개 이
▁개 유치
▁개 OOO
▁개 노답
▁개 병맛
▁개 쩐다
▁제 게
▁이런 지
▁인 사
▁배 달
▁배 용
▁말 같
▁말 좀
▁말 하는게
▁말 인가?

▁말 해주고
▁말 밖엔
▁말 밖에는
드라마 ,
드라마 중
드라마 ...
▁생각 

▁생각 .
▁생각 들
▁생각 할수
▁생각 했다.
▁생각 된다.
▁왜 죽
▁자 지
▁자 폭
▁자 기는
▁자 무시
▁같 긴
▁못 가
▁못 말
▁못 함.

▁못 하다는
▁못 하냐
▁소 송
▁소 용
▁소 원
▁스토리 야
▁남 

▁남 았다.
▁알 리는
▁알 포인트
▁본 영화.
▁본 거지
▁본 사람은
▁본 인들이
▁미 

▁미 덕
▁미 생
▁미 센
▁미 쳐서
▁미 확인
▁유 다
▁유 이
▁유 동근
▁아니 게
▁아니 자
▁아니 네

▁아니 었다

▁아니 자나
▁아니 에요.
▁보고 말
▁보고 ..
▁볼 빠
▁일 인
▁일 이다.
▁일 그러
▁별 그대
이라 더니
이라 기엔
▁비 견
▁비 웃
▁비 키
▁쓰 .
▁쓰 지마
▁것 일까
▁장 점은
▁장 가휘
▁우 러
▁우 웨
▁지루 할수
▁지루 해도
▁지루 합니다.
▁지루 하네요
▁드라마 임
▁드라마 다

▁드라마 ~

▁드라마 같은
▁드라마 보면서
다는 사람
▁많 으면
▁작 전
▁작 지만
▁중 단
▁중 립
▁중 3때
▁재미있 네요.

▁공 공
▁공 평
보다 보면
▁사람 보다
▁2 배
▁2 에서
▁2 년전
▁2 5년
해서 인지
▁내용 이었
▁역 :
▁만들 다.

▁만들 지를
▁만들 수도
▁감독 ..
▁감독 이다
▁감독 이었
▁끝 에는
▁고 조
▁저 때
▁저 래
▁애 미
▁애 착
▁재미없 을거
▁재미없 었음

▁해 당
▁해 변
▁해 은
▁해 체
▁사랑 해서
▁사랑 입니다
▁사랑 하고싶
▁사랑 한다고
▁되 냐
▁되 지만
▁되 네요

▁되 가는
▁반 동안
▁보는 걸
▁보는 순간
▁웃 을때
,, .

,, ..

▁예 스
▁예 언
▁봐 

▁봐 온
▁거 랑
▁거 라는
▁좋은 영화.
▁좋은 소재
▁좋아 합니다
▁좋아 한다.
▁시간 끌
▁시간 날
▁시간 떼
▁시간 대가
▁상 반
▁상 속
▁상 을
▁매 국
▁매 긴
라고 만
▁싶 음.
▁싶 더니
▁싶 었지만
▁신 랑
▁신 소
▁신 유
▁신 나고
▁눈 동
▁눈 의
다고 

다고 ..
▁실 로
▁실 체
▁실 현
▁이거 ..
▁이거 ...
▁이거 보다는
▁노 리
▁불 릴
▁불 체
▁불 신지
▁작품 들이
▁작품 들을
▁작품 이지만
▁원 나잇
▁살 을
▁살 이
▁살 리는
▁없는 건
▁없는 ..
▁이건 정말
▁3 가지
▁3 시간이
▁기대 만
▁기대 합니다
▁기대 할께
▁완전 짱
▁액션 이나
▁액션 신은
▁좋았 고..
▁있는 지...
▁도 끼
▁도 마
▁도 우
▁도 중
▁의 리가
▁코 리
▁코 피
▁코 끝이
▁코 스트너
▁하나 ..

▁하나 !

▁하나 라고
▁하나 부터
▁할 로
▁할 까

▁넘 길
▁넘 지
▁넘 었는데
▁성 대
▁성 준
▁때 로
▁죽 게
▁죽 이러
▁처음 과
▁처음 은
▁처음 ..
▁처음 인데
▁몰 상식
▁한국 에서도
없는 거
▁후 보
▁후 쿠
▁후 후
▁후 ....
▁했 네
▁했 는가
▁현 혹
▁현 저히
▁현 명한
▁나오 고,
▁나오 던데
인데 ?
▁김 범
▁김 승
▁김 효진
▁최악 ,
▁최악 입니다.
▁최악 중의
▁최악 이다..
▁10점 !
▁극 에
▁극 도로
▁세 얼
▁세 워
▁세 대를
▁별로 네
▁별로 에요
▁허 드
이나 오는
▁1점 주고
▁이해 되는
▁강 대
▁강 해서
▁관 음
▁위 노
▁위 주로
▁초 특급
▁연출 ..
▁로 그
있는 듯
있는 척
▁짜 여
하다 ~
하다 !!!

▁두 는
▁두 리
▁명작 의
▁명작 인
▁명작 !!

▁명작 이다..

▁구 질
▁동 갑
▁동 기
▁동 심의
▁화 내
▁화 난다
▁화 딱지
▁심 하다

▁잼 슴
▁이야기 하는
▁음 ...

▁기억 되는
▁캐 롤
▁캐 안습
▁재밌게 봣
▁재밌게 봐서
▁들 썩
▁들 게하는
▁당 근
▁괜찮 다

▁아이 스
▁아이 콘
정도 ?
배우 들을
▁장면 들을
▁장면 들도
▁장면 마다
▁장면 에서는
▁그래 ..
▁발 광
▁발 라
▁발 매
▁발 킬머
▁만든 다고
▁만든 건가?
▁와 이
▁와 일드
▁포 가
▁포 도
▁포 토
▁차 이는
▁주인공 에
사람 으로
사람 들을
▁같은 건
▁마음 껏
▁드 럼
▁드 네요.

▁특 선
▁단 단
▁아닌 게
▁아닌 듯.
▁아닌 듯...
▁울 기도
▁공포 스럽지
▁유치 하
▁유치 하다..
▁유치 함에
▁졸 리고
▁졸 리의
▁존 레
▁줄 여
▁줄 려고
▁줄 수있
▁박 기
▁박 사
▁박 선
▁박 은혜
▁박 장대소
▁일본 영화를
▁일본 영화중
ᄏᄏᄏᄏᄏᄏᄏᄏ ᄏᄏᄏ
ᄏᄏᄏᄏᄏᄏᄏᄏ ᄏᄏᄏᄏ

▁망 하게
▁무슨 말
▁무슨 짓을
하나 ..

▁아무 생각
었는데 ...

▁서 투
▁볼만 하
▁볼만 하지만
▁현실 로
없이 도
▁소재 .
▁소재 라
▁ᅲᅲ ᅲᅲᅲᅲ
하기 라도
하기 때문에
▁몰입 감은
다니 까
▁리 그
▁리 턴
▁리 틀
▁다른 나라
▁누 적
인가 ,
▁흥 얼
▁이상 

▁이상 적인
▁이상 하다.
▁이상 함

▁이상 해지
▁과 장이
▁짱 개
▁짱 !!!
▁짱 임

▁짱 인듯
▁보기 위해
▁보기 힘든
▁속 이는
▁속 지마세요
▁OO 들이
▁반전 .

▁걸 리
▁걸 까?
▁걸 맞는
▁뻔 함

▁뻔 하다.

▁얼 렁뚱땅
보는 것
보는 것도
▁애니 에
▁스릴 있게
▁스릴 만점
▁짜증 나요
▁없고 ....
▁낮 네..
▁원작 에서
▁원작 만화
▁눈물 나고
▁맞 물
▁맞 는데
▁맞 나?
▁맞 나요?
▁방 귀
▁방 치
▁방 대한
▁방 사능
▁계 승
▁정도 ?
▁높 지?
이었 다..
이었 음.
▁만들어 질
▁전개 ...

▁영상 

▁인간 도
▁인간 으로써
▁않는 다..
▁않는 다...

▁있었 는지
▁머 하자는
▁몇 이나
▁몇 명이
지않 은데
▁간 직한
▁모르겠 다...

▁모르겠 네.
▁돌 려서
▁' '
▁건 조
▁건 지..

▁극장 을
▁순 풍
▁순 전히
▁9 살
▁9 ~10점
▁굿 !!
▁아름다 워요
▁적 어서
▁피 만
▁피 스
▁피 아니
▁듯 !

▁4 류
정말 정말
▁끝까지 보는데
밖에 못
밖에 없는
▁문 성근
▁근 디
▁하고 픈
▁수준 ..
▁수준 ...
▁수준 이다.
▁수준 미달
▁욕 이나
▁찾 았다.
▁찾 을수가
나오 네
나오 지
▁8 천원
▁8 .6
▁받 게
▁파 커
▁치 가
▁치 닫
▁열 등
▁열 혈
▁7 세
▁7 월
▁외 치는
▁버 리게
▁버 리스트
▁버 러지
▁찍 었으면
▁추천 은
▁추천 함

▁영화였 고
▁여운 

▁여운 남는
▁5 번은
▁캐릭터 들

▁코미디 인지
▁실망 만
▁실망 .

▁실망 이다.

▁실망 시키
▁실망 했다.

▁실망 스럽고
▁호 랑
▁호 빵
▁공감 가
▁대박 ~
▁대박 날
▁대박 인
▁대박 !!

▁대박 이다.
▁대박 대박
▁대박 이에요
▁된 다..

▁달 리고
▁놀 고
▁먹 여
▁먹 어라
▁개봉 된
▁개봉 안
▁배우들 ,
주인공 들
▁레 아
생각 나
생각 이들
▁가족 간의
▁가족 들이랑
▁답 은
▁믿 으
▁준 건
▁준 사람들
▁재미있게 봤어요
▁질 린
▁이걸 영화라고
▁계속 되는
▁흥미 있게
했는데 .
▁표현 도
▁표현 해서
▁잔잔 해서
▁잔잔 함이
▁영화에 요..
▁알았 습니다.
▁알았 음.
▁알았 는데..
▁물 량
▁물 로
▁남는 다..
▁남는 것도
건지 ,
▁대사 만
▁대사 에서
▁대사 하나하나
▁싸 웠
▁싸 가지
▁재밌었 어요.

▁아쉽 지만,
▁아쉽 네요..
▁아쉽 게도
▁잼있 었다
봤는데 ,
▁떨어 질
▁카 르
▁카 오
▁카 밀라
▁삶 에서
▁않은 ,
내용 의
▁만들었 다는게
▁만들었 니?

▁잊 게
▁그렇 다.
▁스릴러 인데
▁잠 못
아요 ?
▁진심 ..
▁느껴 져
▁긴장감 있는
▁긴장감 있고
▁시리즈 .
▁시리즈 에
▁개인 이
▁데 가
▁데 레
▁메 기
▁떠 날
▁니 키
▁알바 를
▁케 릭
▁케 스팅
▁케 미도
▁감동적이 게
▁감동적이 네요

▁천 박
▁천 사의
▁천 박한
▁천 상의
▁천 안함
▁날 개
▁날 림
▁날 의
▁홍 길동
▁웃기 면
▁웃기 지만
▁정신 적으로
▁제작 사가
것같 네요

▁어설 펐
▁디 테일이
▁타 케
▁시작 되는
▁시작 할때
▁형 용
▁형 사가
▁1편 으로
▁삼 성
▁삼 총사
▁삼 가고인의
▁통 통
▁훌륭 

▁복 사
▁복 습
▁될 듯

▁뒤 는
▁따뜻 하다.

▁싶은 게
▁살아 보고
▁의미 하는
▁의미 없이
▁의미 부여
▁영화로 도
▁수작 !
▁수작 이다

▁수작 입니다.
감동 은
▁뻔한 데
▁20 번
▁뭘 보고
▁안되 네

▁안되 나?
▁주는 것도
▁C SI
▁얼마 든지
▁장난 도
▁변 해
▁좋겠 습니다
▁좋겠 다..

▁좋겠 어요.
소리 에
▁점수 준거
▁B e
▁B EST
▁싫 음
▁행복 의
▁행복 했습니다
▁무섭 진
고싶 다.

▁되는 게
▁언제 끝나
▁용 기와
▁답답 

▁답답 하다.

▁답답 함을
▁시청 자들이
▁시청 자들의
▁길 다

▁길 다.

▁첨 본
▁첨 이다
▁첨 본다

▁허접 .
▁빨 고
▁빨 랑
거같 아요

▁입 으로
▁관객 에
▁깨 는
▁우리나라 에선
▁전쟁 과
▁전쟁 영화를
▁인상 을
▁소름 

▁완벽 했던
▁깊 었던
▁엔딩 의
▁생각이 들
▁어색 하게
▁어색 하다.
▁시나리오 .
▁OOO 들아
▁힘들 다..

▁힘들 었지만
▁팬 을
▁팬 들은
▁들어 왔는데
▁문제 지만
▁슬프 다...

▁환 자
▁찾아 온
▁찾아 가서
▁찾아 보기
▁종 족
▁뿐 더러
▁태 민
시길 .

그냥 그래
이지만 ..
▁예술 가의
▁클 루니
건가 ..

▁코믹 ,
▁책 이나
▁아름답 지만
▁암 으로
▁캐스팅 한
▁캐스팅 으로
▁혼 났
▁백 설
▁안되는 게
▁주연 은
▁후회 하는
▁후회 되는
▁후회 된다.

▁개연 성을
▁돌아 다니
▁돌아 가서
▁민 호
▁웃음 ,
▁웃음 밖에
▁웃음 코드
작품 ..
▁얘 긴
▁몸 은
▁몸 으로
▁제발 ...
▁매우 매우
▁더빙 때문에
▁터 진
▁집중 력이
▁잔인 하기만한
▁낫 다...
▁엄마 ,
▁재밌어요 ~~
▁재밌어요 ^^

▁충분 하다

!!!!!!!! !!!!!!

재미있 다
▁채 우기
▁옛날 꺼
재미없 다.

한다 !!

▁색 시공
▁나올 줄
▁나올 수가
▁위해 선
▁숨 기고
▁숨 바꼭
▁괴 작
▁투 영
▁투 박한
▁너 ~
▁너 나
▁중국 은
▁b 

▁b r
▁b om
▁그만 

▁굳 !

하겠 다.

하겠 다는
하겠 습니다.

▁있을 줄
▁있을 법한
▁왕 창
▁감사 드립니다.

전개 .
▁이쁘 다.

▁비슷 하고
▁공포영화 도
▁로맨스 의
▁영상미 로
▁재미있었 습니다

▁ᅲ ᅳ
▁CG 를
▁첫 방
▁첫 째
했다 ....
▁실화 는
▁실화 라
▁노잼 노잼노잼
재밋 어요

▁괜찮았 으나
▁괜찮았 음.

~~~ ^^

인생 에
▁g od
▁맛 도
▁발연기 .
▁발연기 ..
▁비디오 를
▁비디오 가게
▁S t
▁트 렁
▁2편 부터
이네 여
▁장르 도
▁s ee
▁갖 은
수준 .
▁초딩 들이
▁200 2년
보기 에는
▁딸 리는
▁19 5
▁쳐 서
▁다음 편
▁다음 부터
▁인물 간의
잖아 ?

▁섹 스로
▁등장 한
▁c ctv
▁존재 할
▁풍 자가
▁온 가족이
▁독특 해서
▁판타 지

▁판타 지가
▁판타 지.
거야 ...

▁맘에 든다

▁그리 울
건데 ,
건데 ...
▁잘못 이
▁사회 는
▁보니 ,
▁없어 ,
아닌 듯
아닌 가?
▁어울 림
▁어울 리고
▁어울 린다.
▁~ !

나오는 건
▁높은 게
▁허무 하다

▁예상 했던
10 대
▁뭐야 ..
▁뭐야 이거
▁뭐야 이게
▁좋아요 !!
년도 를
▁윤 성
▁윤 발이
▁구성 

▁겁 내
▁봣 는데...
▁까 진
▁잃 어가는
▁봤어요 ...
▁봤어요 !!
▁에로 비디오
▁이번 이
▁이번 시즌
▁맨 몸
▁멜로 로
▁멜로 를
▁멜로 의
▁각본 .
▁각본 도
▁빈 틈이
▁어쩌 자는
▁있어서 는
▁평범 하게
▁누구 의
던가 ?

▁금 고
▁어이없 다

▁보여주 려고
▁그녀 에게
▁영화다 !!!

▁개그 를
▁끝나 네
▁해야 지.
▁밀 리
▁화면 을
▁듣 던
코미디 가
▁놓 지
▁운 명의
▁꿀잼 .
▁성우 는
▁씨 의
▁왔 으면
현실 성
그러 고
그러 니까
▁중요 한데
▁중요 한게
▁중요 하다는
▁써 라
▁써 먹
남자 를
남자 와
하는거 지
in e
▁한심 하다.

▁한편 으로는
내가 본
▁진행 과
▁소리 로
좋았 다.

▁개연성 과
▁쉽 고
별로 다

▁프랑스 영화는
▁안타깝 네요

▁잘만들 었고
▁식상 하다.
▁몰랐 다

▁맥 락
▁먹먹 하다.
▁먹먹 함이
▁홍콩 영화는
짜증 나게
시리즈 로
시리즈 중에
▁선택 에
▁선택 하는
▁엉망 

▁찌 라시
▁묻 는
▁묻 히
▁놈 놈놈
최악 최악
하긴 했지만
▁어릴때 부터
▁편집 ,
▁끝내 준다.
▁과거 로
▁얘기 하는
▁최고였 고
다.... ..
▁멍청 이
▁미안 하다..
▁끼 칠
▁끼 치는
영화로 도
막장 드라마
▁견 줄만한
▁설명 할수
▁아빠 어디가
▁후반부 의
▁그래픽 과
▁재밌음 ᄏᄏ

▁법 이
시는 걸
▁그럴 거면
▁그림 과
▁골 빈
▁찬 성
▁찬 란한
▁영웅 이
▁무서운 게
어진 다.

▁대작 은
▁연출력 .
▁연출력 을
▁ᅮᅮ ᅮ
▁영화임 ..
▁팔 아서
▁인정 할
▁인정 하지만
▁스타일 도
보는데 도
▁없을 만큼
▁적당 할
▁적당 하다고
인간 은
▁다행 이다.
▁노력 과
▁노력 에
▁서로 가
-- -
▁중반 에
▁바람 난
▁코메디 를
▁앞으로 가
▁천재 감독
▁다운받 았
▁플 레
최고의 드라마
▁멀 어
▁청춘 은
▁목소리 로
▁촬영 을
▁아닌가 

▁그려 내
▁못보 겠다.

▁나라 에서
▁뜬금 없고
▁이래 야
▁사건 에
▁사건 은
아먹 는
▁재밌게봤 다
▁짓 은
▁12 년
▁보이 고,
▁안보 신
▁안보 여
▁안보 이는
▁해피 앤딩
▁귀신 을
▁짱짱 !

▁행동 에
▁예고편 은
▁뜨 겁게
▁아는 만큼
▁안나오 면
▁아마 존
▁전달 되는
▁예전 에도
▁였 지만
▁나만 당
▁성공 하는
▁월 요일
▁논 하지
▁그랬 는데
▁애들이 나
▁늙 고
▁뒷 맛
▁뒷 모습
▁재밌어 지
▁심심 하고
▁7점 짜리
새끼 들이
▁자유 가
▁낭비 .

▁군대 가
▁증 언
특히 나
▁아까움 ..
▁아까움 ...
▁속편 .

▁4점 도
▁4점 짜리
▁씬 을
▁하루 카
▁고민 이
가족 을
이해 불가
▁재미없음 ...

마음 으로
▁영화보고 나서
▁낚였 다

▁낚였 다..
더만 .
무서 울
▁카메라 를
소재 가
▁느낀 다
▁느낀 다

▁w ant
▁오락 영화로
▁역할 도
▁기본 도
▁기본 이
▁80년대 에
▁봤었는데 ,
▁꼴 보기
▁밤 새
네여 ..

▁리뷰 에
▁스트 리트
▁3편 까지
▁소름끼 칠
▁안봤 다면
▁모자 르
▁흥미롭 지도
▁괴물 같은
▁좋을 것
▁짜증나 네요
하지마 

▁밝 히는
▁희생 과
▁안본 게
▁일상 에
▁일상 생활
▁끝난 다.

▁분노 ,
▁압권 .
▁슈퍼 스타
▁I P
▁십 대
▁정말로 

▁레이 놀
한국 영화의
으로서 는
▁포장 된
▁보시 기
▁뮤지컬 을
▁축 축
보지마 라

▁동물 을
▁상상력 의
▁소녀 가
▁필요한 가?

▁쇼 크
▁떠나 질
▁떠나 보내
진심 

▁표정 은
▁표정 으로
▁흐름 과
▁퇴 색
▁엘 렌
그렇 다
▁소름돋 게
줄알았 더니
▁포기 하지
영화였 다.
▁그립 고
▁그립 다.
▁정서 적
▁끄 덕
▁스케일 만
▁받아 들여
▁디즈니 가
▁뇌 를
의미 가
▁이루 지
▁이루 어지
▁의심 스러울
▁런 던
전쟁 의
평점이 낮
▁국민 을
▁났 다
고있 는데
▁시시 껄렁
캐릭터 는
▁지구 가
▁지구 는
▁지구 에
▁흡 사한
▁이때 가
▁깨닫 는
만점 

▁이쁜 거
하신 다면
▁30 여
하시는 분들
▁영화라는 걸
▁30분 만에
on 't
▁줬 을
다는거 

▁쪽 으로
여운 도
▁단연 최고
▁베스트 에
▁일반 적인
▁남겨 주는
▁올라 갈
▁올라 가는
▁안돼 

ie s
으로써 의
at ch
나보 다.

나보 네

▁빡 치게
▁와우 ~
▁와우 ..
▁연속 .
▁지켜 야
▁재밌었어요 !
▁재밌었어요 !

▁슬프고 도
▁h at
▁않아 요

▁5점 짜리
▁놀랐 다.

▁시트콤 이
▁공부 하고
시작 부터
▁없다는 걸
▁말았 다

▁타임 용
▁타임 머신
지마라 ..
▁치밀 하게
▁제로 ,
▁제로 .
▁미모 에
▁관심 도
▁센 과
다만 ,
스러웠 다.

▁인상적이 다.
▁인상적이 다.

▁주고싶 다.

▁주고싶 지만
▁에피소 드의
▁뭉클 하고
▁007 의
▁매력적이 다.
기분 

▁복잡 하게
▁조선 시대
▁조선 미녀
▁거슬 렸
▁필요없 음

▁극치 .
영환 지
▁모른 척
▁모른 다.

▁많아 지는
▁웃김 .
▁바꿔 야
▁카리스마 는
상황 을
상황 에서
▁끝났 어야
▁무서웠 는데
▁정의 를
▁어지 간히
▁누군가 에게
▁스크린 을
▁스크린 터
20 대
▁p erf
▁비판 하는
더라구요 ..
▁엠 버
▁엠 씨
▁커플 의
▁콩 콩
▁사랑이야기 가
▁죽이고 싶
▁세련 되게
▁감흥 은
▁많았 고
▁필름 을
▁술 먹고
요소 를
라기 보단
▁못하겠 다

▁못하겠 다.

▁역겹 다.

▁어린시절 에
▁깨달 았
▁끈 끈한
오늘 도
▁죽이는 게
▁떠올 라서
▁엿 볼
▁효과 가
모든 게
야할 지
▁비밀 이
▁낙 으로
아쉬 워요
허접 한
▁영화화 한
▁최민 수의
▁부실 하고
▁사고 가
▁감각 이
매력 에
▁생활 이
▁샘 레이
▁봐줄 만한
▁바랍 니다
▁읽어 보고
▁시리즈중 에서
▁플롯 ,
▁여자친구 와
▁40 자
▁거짓말 을
▁가르 침
▁죽인 다
▁첫사랑 을
▁린 제
▁린 치
▁린 즈링
▁아름다웠 고
▁혀 를
▁이야 긴
▁베드 신이
▁빵터 지는
▁> .
♡♡ ♡♡

느껴 지는
화이팅 !
▁대통령 의
▁난잡 하고
모르겠 고
▁폐지 해라
▁ᄅ ᄀ
언제 까지
▁재능 을
▁개노잼 

▁클레멘타 인이
느끼 는
▁현실적이 지
▁R e
▁따위 로
▁빵점 !
▁붕 가
▁혁 신
엄청 난
▁반담 과
▁반담 의
▁극복 해
▁각색 을
불쌍 한
▁다보고 나면
▁안어울 리는
▁원조 교
▁김지 운
▁호기 심이
▁살인마 가
▁아파 트
▁마무 리를
▁케빈 코스트너
개인적으로 는
▁널 리
od y
▁다있 냐
▁말아야 할
▁즐기 기
▁즐기 면서
▁갖다 붙
▁사무 라
▁사무 엘
▁개나 줘
▁고뇌 하는
▁예뻐 요
▁예수 님
▁시간아깝 고
▁님 들이
▁님 들아
보인 다.

웃겨 

▁이병헌 의
▁보낸 다.

▁단어 에
▁평화 로운
▁따름 

▁임창 정의
▁치유 가
▁향연 .
am e
▁실감 나고
▁장난아니 게
▁엘리 자베스
▁어딘 가에
▁연상 시키는
▁ᄆ 

이딴 걸
▁기대이하 

▁90분 이
▁90분 동안
▁ᄂ ᄂ
▁그로 인해
▁소유 진
▁감동적이었 습니다.

▁~~~~ ~~~~

▁방해 가
▁가족애 를
▁브라 운
▁관점 에
▁흉내 만
궁금 해서
▁고양 이를
▁본능 을
▁실수 로
▁듣기 싫
▁니콜라스 케이지
어른 이
▁감수 성이
▁부드 럽게
▁흉내내 는
▁지경 

▁보고난 후
▁공연 을
▁버무 려
여러 분
▁기적 을
▁노무 노무
▁인상적 .

킬링타임 용으로
il m
▁지워 지지
▁생기 면
▁박시 환
▁박시 후
▁흠잡을 데
▁박평 식이
▁어울리 지도
▁기가막 히
남아 돌
▁못따라 가는
▁카메론 디아
▁장동건 의
22 22
어이 없는
전체 적인
▁값 진
▁영화제 에서
▁일관 성
▁종합 선물
주제 에
▁모성애 를
▁흥미로 웠던
▁타이틀 을
▁숭 고
▁기승전 병
▁져 버리지
▁이외 엔
▁생각났 다.
▁비중 을
▁예쁨 

▁색감 ,
▁뮤직비디오 를
▁훌 룡
누군 가
▁이라 크
▁무관 심
▁3d 로
▁타락 한
▁쪽팔 리
▁알렉 스
▁똑똑 한
▁믿어 지지
▁징그러 운
아닐 까
정서 에
▁웃길 려고
▁묻혀 버린
▁구역질 나는
분명 히
▁대책 없는
▁넘기 면서
▁돈아까 워서
▁빨리감 기로
▁덩 달아
줄알 앗
▁동일 한
▁보러갔 다가
초등 학생
▁최곱 니다
▁미루 다
▁요구 하는
▁순정 만화
▁터무니 없이
▁옹호 하는
▁이주 승
▁무거 울
▁낮춰 야
▁톰행크 스
▁균 형을
▁삭 막
▁슨 상
▁한물 간
ᄏ1ᄏ1 ᄏ1ᄏ1
평범 한
▁어드벤 쳐
▁7번 방의
▁정글 의
▁작정 하고
▁해냈 어
▁신성 일
▁징그 럽
쓰래 기
▁알맹 이는
▁암걸리는 줄
@강추@강추@강추@강추 @강추@강추@강추@강추
유루 유루이
▁왜냐 하면
▁새드 엔딩
▁메릴 스트립
▁싸이코패 스가
▁^- ^

소린 지
완성도 가
▁스턴 트맨
▁장선 우
▁공산 당
▁정신세계 가
▁히스 클리
ᅲ_ ᅲ
가까 이
언젠 가
▁이집 트
▁최우 식
▁김두 한
▁박상 민
▁퇴마 록
▁드라큐 라
▁정경 호
▁남상 미
▁공각기동 대
▁서동 요
/. /.
▁연개 소문
▁최루 성
▁비열 한
▁김병 만
▁경각 심을
▁놀아 나는
▁킹왕 짱
덩어 리

수면 제
▁시네 마
▁전두 환
▁실베 스타
▁잠안 올때
▁재조 명
▁어장 관리
▁여균 동
▁유투 브
▁송일 국
▁하지마루 요
▁사촌 동생
▁로미 오와
▁과소 평가
▁황당무 계
▁흡혈 귀
▁초창 기
▁온데 간데
▁롤러 코스터
▁총체적난 국
▁140자 까지
▁오리엔탈 리즘
▁다이나 믹
▁한경 직
▁별다섯 개
▁츠마부 키
▁불신지 옥
% 

' 과
' 도
' 이란
) +
) 는
* _
+ +
, 7
, 우
, ..

, 일본
- .-

. 내
. ,.
. ♥♥♥♥
1 의
1 회
1 편이
2 3
2 때
2 점

3 은
4 분
4 점

6 %
9 

> 를
A T
D VD
G ood
O T
R E
T A
_ 

a g
a u
a re
a ce
b ut
g k
k f
m e
o k
s i
t m
y j
~ ,
ᄇ 

ᄏ ᄒ
ᄏ ?

▁ 겟
▁ 냥
▁ 팩
▁ 팩트
▁ 합니다..
▁ 덩어리
가 네요
가 네

가 지가
간 을
감 히
갔 던
갔 을
갔 다.
강 호가
같 음.
거 렸
거 탑
거 다.

거 지

걸 리
겁 니까
것 다
것 다

것 없는
게 한
겠 냐
격 의
견 이
계 에서
고 고
고 문
고 수
고 양
공 익
과 장
교 사
구 ?
국 에서
권 상
귀 신이
규 리
그 것
그 랫
그 들의
그 당시
근 히
근 석이
글 자로
금 ,
금 은
기 한
기 회
기 에서
길 고
길 에
꺼 야

나 부
나 지
나 가고
난 다..

날 리며
남 성
내 요.

냐 면
너 가
넘 이
넣 고
년 대
노 ?
노 노
논 란
놈 아
놓 았
놨 네
놨 네

는 뎁
니 버
니 .

님 ...
님 이랑
다 닐
다 페
다 한
다 ,

단 게
담 당
당 함
대 며
대 생
대 없이
더 라는
더 구만
던 지..
던 지...
데 .
데 ?

도 시
도 ...
도 에서
도 없이
돈 아깝
동 포
됐 던
되 구
되 었다

되 었지만
된 다..
된 다면
된 다..

두 려
둘 째
뒤 의
드 네
득 한
등 은
따 .
땡 이
떠 는
또 봐도
또 라이
똑 같이
뛰 어난
라 스트
라 기엔
랍 니다.

래 가
랜 턴
러 

레 븐
렌 할
련 의
로 보
로 그인
록 을
루 가
루 야
류 

르 가
르 타쿠
름 을
리 라
리 씨
리 플
리 ..
리 .

린 건
린 의
림 픽
립 니다.
립 니다.

마 스터
말 해
말 해서
매 를
맥 그리
머 

멘 탈
명 수
명 품
몇 년
몇 몇
목 에
못 한다
무 는
무 대
무 언가
문 탁
묻 은
물 ,
뭐 지?
뮤 직
미 란
민 망
밀 어
박 시
반 에
반 짝
방 지
백 의
뱀 파이어
버 는
벌 리고
법 에
법 이
법 으로
베 리아
벨 이
변 화가
병 기
병 을
보 살
보 스
보 이지만
보 자.
본 것
본 인
봤 네요.
봤 음.
부 르고
분 하고
불 명의
브 는
비 ,
비 안
빈 의
빛 나
빠 르고
뻔 했네
사 탕
사 이트
산 부
산 은
살 을
삶 에
삶 의
상 승
상 업
서 ,
선 에
성 님
성 인이
세 윤
세 하게
세 상이
소 .
소 는
소 릴
소 영
송 희
쇼 셔
수 영
수 지
숙 히
숨 겨진
스 들
스 어
스 무리
슬 러
시 즈
시 피
시 험
시 황
시 기에
시 는게
시 다!!

식 과
식 에
신 

신 ,
실 때
싸 구려
써 라
씬 

아 랑
아 진짜
아 이랑
아 라

안 경
안 좋
안 질
압 권
애 

애 정
야 동
야 ??
약 간의
어 여

어 용

없 네.
없 나

었 나
었 지

었 어도
었 지만,
엠 씨
여 ,
여 정
연 장
엽 기
였 어도
였 음을
올 드만
와 ..
왔 고
왕 의
용 과
용 에
용 한
움 ..
워 도
웨 인
위 는
위 안
위 주
을 위해
음 ᄏ
음 도
음 향
의 가
이 ~
이 있
이 치
이 스트
이 기는
인 식
인 애
인 ..
인 다.

인 건지
인 블랙
일 과
일 색
일 세

임 에
임 ??
잇 다
잇 는데
있 긴
있 냐
있 네요.
있 어요

있 지?
있 었다

자 국
자 루
자 서
자 라고
자 는거
자 신의
작 ..

잘 한
잘 보고있
잡 이로
장 으로
재 료
재 앙
재 의
잭 슨이
저 가
적 절
적 한
적 어도
적 임

전 작
전 하는
전 형적인
점 ,
정 기
정 사
조 기종
좀 그만
종 옥
좋 을
죠 ??

주 ,
주 길
준 의
준 다..
중 엔
중 은
중 ..
줬 다

즈 와
즈 음
즈 베리
증 ,
지 매
지 수
지 역
지 연
지 ᄏᄏ
직 장
진 

진 을
진 정
짓 은
짱 이에요
참 패
참 ..
처 리가
천 사
철 ,
첫 사랑
체 의
초 딩때
최 대의
추 는
추 리
추 어
춤 을
치 다.

카 리스마
컴 퓨터
케 릭
코 스
코 어
쿠 르
크 ᄏ
크 라
크 리
타 를
타 인
태 어나
택 시
터 스
터 의
투 를
트 롤
트 만
튼 이
틀 리
틀 을
티 를
파 악
파 탈
편 .
편 으로
풀 한
풋 풋
플 래
플 레이
필 립
필 로그
하 차
하 구요
하 듯이
하 죠?
하 우스
학 적인
한 걸
한 대
한 방
한 의
한 사람
한 장면
한 듯한
할 려
할 아버
함 ᄏ

함 이나
해 오
해 요?
해 줘야
햇 다.

했 네요..
했 으며
했 어요..
허 슬
혁 명
현 오빠
형 편
화 끈
화 신
화 와
활 한
회 상
회 장
효 

훈 은
흑 인
힘 이
.. 돈
.. 안
.. 욕
.. 장
.. !!
.. 이게
.. 재미도
영화 랑
영화 다..
영화 이다

▁영화 긴
▁영화 안
▁영화 적인
▁영화 정말
▁영화 지

▁영화 들도
▁영화 ᄏᄏᄏ
▁영화 구만
▁영화 들과
▁영화 수준
▁영화 음악
▁영화 ,,

▁영화 ~!!

▁영화 군요.
▁영화 내용이
▁영화 초반
▁영화 선택
▁이 땅
▁이 른
▁이 윤
▁이 천
▁이 치
▁이 현
▁이 에요
▁이 영환
▁이 끄는
▁이 요원
▁아 녀
▁아 라
▁아 랑
▁아 멘
▁아 기가
▁아 기를
▁아 들에게
▁그 날
▁그 분
▁그 이
▁그 대는
▁그 이후
▁그 시간에
▁그 시대의
▁보 드
▁보 리
▁보 복
▁보 세
▁보 앗
▁보 태
▁보 다.
▁보 겠지만
▁보 다니..
▁보 다니...
▁보 지도않고
▁보 너스
... 나
... 내
... !!

... 시간
... 최고
... 내용
... 이거
... 이게
!! """"
▁정 색
▁정 직
▁정 책
▁정 태
▁정 해진
▁나 눈
▁나 니다.
너무 나도
▁다 되
▁다 방
▁다 채
▁다 한
▁다 수의
▁다 분한
▁다 중인
▁다 이스키
▁하 균
▁하 느
▁하 수
▁하 염
▁하 와
▁하 ...

▁하 냐?
▁하 네요..
▁하 지.
▁하 겠지만
▁하 다니..
▁하 던지
▁좋 던데
▁없 어야
▁없 냐?

▁없 다....

▁없 네요..

▁없 구나

▁없 구나...

▁어 때
▁어 내는
▁어 르신
▁너무 뻔
▁너무 심
▁너무 했다
▁너무 하네

▁사 각
▁사 납
▁사 명
▁사 치
▁사 상을
▁사 이를
▁사 만다
▁사 형제
▁내 어
▁내 적
▁감 방
▁감 칠
▁진 영
▁진 리다
▁진 가를
▁재미 의
▁재미 진
▁재미 ..
▁있 엇
▁있 다..

▁있 던데
▁있 지?
▁있 다니..
▁지 방
▁지 운
▁지 휘
▁한 들
▁한 반도
▁한 채영
▁시 달
▁시 린
▁시 킬
네요 ᄒᄒ

▁안 주
▁안 토
▁안 함
▁안 치고
▁안 봐야
▁안 그래도
▁안 난다.
▁스 노
▁스 리
▁스 물
▁스 시
▁스 코
▁스 터
▁스 미스
▁스 론의
.... 이건
▁가 발
▁가 오
▁가 지만
▁가 다가
▁가 정을
▁가 레스
▁가 정의
▁재밌 는지
▁재밌 고

▁재밌 겠다
▁기 관
▁기 로
▁기 미가
▁기 황후
▁기 네스
▁대 게
▁대 동
▁대 런
▁대 머리
▁봤 기에
▁봤 음...
▁평 들이
▁전 라
▁전 편이
▁진짜 잼
▁진짜 재밋
▁마 네
▁마 루
▁연기 두
하는 드라마
▁수 를
▁수 출
▁무 례
▁무 민
▁무 었
▁무 대고
▁모 레
▁모 름
▁모 차
▁여 겨
▁여 잔
▁여 기도
▁생 방
▁잘 될
▁잘 보
▁잘 라서
▁잘 만드
어요 ᅲ
어요 ᄏᄏ
어요 ᅲᅲ
▁주 겠
▁주 근
▁주 니
▁주 르
▁주 시
▁주 면서
▁주 기는
▁주 세요

▁주 기엔
▁주 위에
▁최고 야
▁최고 !!!!

▁최고 에요

▁않 다고
▁않 습니다

▁않 네요.

▁않 을까

▁더 나
▁더 듬
▁더 재밌
▁평점 보다
▁평점 높은
▁평점 올려
▁평점 남겨
▁오 !
▁오 고
▁오 를
▁오 웬
▁오 점
▁오 천
▁오 호
▁오 가는
▁오 즈의
▁오 스틴
▁개 시
▁개 입
▁개 취
▁개 OO
▁개 답답
▁개 억지
▁제 3
▁제 기
▁이런 ..
▁이런 스타일
▁인 민
▁인 육
▁인 식을
▁말 안
▁말 의
▁말 고,
▁말 라

▁말 고

▁말 할때
▁말 해주
▁말 하기도
▁말 자.

드라마 에
▁생각 하나
▁생각 해야
▁생각 해요
▁생각 했다
▁생각 했지만
▁생각 보다는
▁왜 안
▁왜 만든
▁왜 만드
▁왜 그리
▁자 다
▁자 질
▁자 면서
▁자 리에
▁자 질이
들이 는
▁같 음...
▁같 음..

▁못 잊
▁못 보는데
▁못 된다.
▁못 참고
▁소 린
▁소 위
▁소 년이
▁소 시오
▁소 심한
▁스토리 ....
▁스토리 까지
▁스토리 진행
▁남 게
▁남 여
▁남 음.
▁남 네요.

▁남 았다

▁알 것
▁알 찬
▁알 수없
▁알 맹이
▁본 걸
▁본 질
▁본 받을
▁본 기억이
▁본 질에
까지 ,
▁느 리게
▁미 라
▁미 란다
▁유 죄
▁유 코
▁아니 잖
▁아니 면서
▁아니 네요.
▁아니 라도
▁아니 었다
▁아니 지..

▁아니 다,
▁아니 잖아요
▁보고 만
▁볼 려
▁볼 맛
▁감동 !
▁감동 ....
▁감동 ~

▁감동 이고
▁감동 스러운
▁감동 입니다.

▁감동 받은
▁감동 받아서
▁감동 깊게
▁일 로
▁일 들이
▁일 들을
▁일 일이
이라 해도
▁비 도
▁비 밥
▁비 범
▁비 싸
▁비 애
▁비 스무리
▁쓰 라
▁쓰 여
▁쓰 는지
▁쓰 는거
▁것 ...
▁장 례
▁우 는거
▁우 주의
▁지루 ...
▁지루 하던데
▁드라마 다.

▁드라마 ....

▁드라마 입니다
▁드라마 스페
다는 것은
▁많 음.
▁많 았다.
▁작 곡
▁중 에는
▁중 이병
▁재미있 다는
▁부 린
▁부 리는
▁배우 인데
▁배우 라는
▁뭐 다
▁뭐 람
▁뭐 길래
▁뭐 죠?
▁뭐 래도
▁공 권
▁공 영방송
▁사람 .
▁사람 만이
▁사람 과의
▁사람 죽이는
▁2 학년
▁2 년전에
▁조 이
▁조 문탁
▁내용 이고
▁역 행
▁만들 면서
▁만들 겠다.
▁감독 만
▁감독 ...
▁감독 이라고
▁끝 낸
▁끝 이다
▁끝 가지
▁고 준
▁고 흐
▁고 향이
▁저 에
▁저 여자
▁애 완
▁애 환
▁애 쉬튼
▁좀 ....
▁해 대
▁해 부
▁해 줘
▁쓰레기 란
▁쓰레기 영화를
▁쓰레기 영화.

▁사랑 합니다

▁사랑 한다는
▁사랑 얘기
▁사랑 타령
▁참 가
▁참 으면서
▁되 나
▁되 고,
▁되 기를
▁되 겠다
▁되 버렸
▁반 공
▁반 에
▁반 이
▁반 데라스
▁영 문
▁영 ..
▁영 ...

▁영 애씨
^^ *
^^ ;
▁예 

▁예 다.
▁예 수의
보고 왔
보고 있는
▁봐 봐
▁다시 보는
지막 지
액션 .
액션 에
▁거 냐
▁거 물
▁거 절
▁거 냐?

▁거 리를
▁거 게임
▁좋아 야
▁좋아 해
▁좋아 함

▁좋아 한다
▁좋아 했었는데
입니 다....

▁매 장
▁매 치
▁매 들린
라고 해서
▁싶 지는
▁싶 다!

▁싶 으신
▁신 용
▁신 호
▁신 화를
으면 ..
다고 ?

▁바 랐
▁실 소가
▁실 체를
▁실 소를
▁이거 ?
▁이거 를
▁이거 뭐야
▁노 조
▁노 민우
▁불 구
▁불 문
▁작품 중에
▁살 벌
▁살 자
▁이건 ..
▁이건 ...

▁마지막 부분
▁내가 봤던
▁내가 이걸
▁3 년
▁3 ~4
▁기대 치
▁기대 할
▁기대 만큼
▁기대 한다면
▁기대 된다.
▁기대 된다

▁완전 ...
▁완전 재밌어요
▁액션 .

▁액션 연기
▁액션 영화로
▁액션 물

▁좋았 음..
▁있는 척
▁있는 ..
▁있는 영화

▁있는 듯한
▁도 가
▁도 화
▁도 움을
▁코 네
▁하나 인
▁하나 입니다.
▁넘 흐
▁성 유
▁성 을
▁성 적인
▁추 기
▁죽 을수
▁죽 도록
어서 ..
▁처음 ...

▁처음 봤는데
▁처음 봤다
▁처음 본다.
세요 !
▁지금 ,
▁지금 에
▁지금 보기엔
▁후 세
▁후 퇴
▁했 어
▁했 을때
▁했 음..
▁나오 질
▁나오 코
▁나오 네요.
▁김 예
▁김 은
▁김 사랑
▁최악 중에
▁최악 이네
▁최악 이네요
▁또 래
▁아깝 지만
▁아깝 더라
▁아깝 다....

▁세 가지
▁별로 ,
▁별로 ....

적으로 만
▁허 울
▁허 세가
이나 올
▁1점 만
▁1점 !

▁1점 이나
▁1점 준다
▁멋 집니다
▁이해 와
▁이해 하게
▁이해 도가
▁강 연
▁강 풀
▁강 하다.
▁강 제로
▁강 인한
▁강 성재
▁위 엄
▁위 의
▁돈 ,
▁돈 많은
▁분 만
▁분 장이
▁로 건
▁로 다
▁로 또
▁로 저
▁로 리타
있는 영화
하다 보면
▁느낌 있는
▁느낌 이었다.
▁구 제
▁구 축
▁구 출
▁구 하는
▁따 온
▁따 지는
▁따 르는
▁동 굴
▁동 심으로
▁화 를
▁화 산
▁화 합
▁화 나고
▁심 판
▁심 하네
▁심 했다
▁심 정이
▁음 ..

▁평점이 높
▁기억 남
▁기억 .

▁기억 난다.
▁뭔 죄
▁뭔 놈의
▁뭔 데?
되는 건
▁들 면
▁들 어야
▁들 었음
이다 ~
이다 !!!

▁당 분간
▁괜찮 네요.
▁에 미
▁에 머리
▁에 필로그
배우 에게
▁장면 ..
▁장면 까지
▁그래 

주는 것
▁이영화 만
▁여자 라면
▁엄 지
▁엄 연히
▁요 런
▁요 시
▁그런 가?

▁막 내
▁막 혀
▁포 근한
▁꼭 봐
▁차 례
▁차 를
▁차 오르는
▁주인공 들을
▁보여 줌

▁설 계
▁설 도현
▁특 성상
▁단 면
▁단 발
▁단 절
▁울 렁
▁울 림을
▁공포 .

▁유치 할
▁유치 함.

▁유치 함과
▁졸 았던
▁졸 았다
▁졸 잼

진짜 .
▁줄 만
▁줄 수있는
▁줄 이야

▁박 희
▁일본 과
▁일본 꺼
▁일본 인이
▁일본 만화
ᄏᄏᄏᄏᄏᄏᄏᄏ ᄏᄏᄏᄏᄏ
ᄏᄏᄏᄏᄏᄏᄏᄏ ᄏᄏᄏᄏᄏᄏ

다... 진짜
을까 봐
을까 ??

▁망 정
▁망 하고
▁망 가지
▁망 한다는
▁망 해가는
▁무슨 생각
▁무슨 내용
▁점 령
▁볼만 하나
▁볼만 하네
▁볼만 했고
▁현실 .
▁현실 에선
▁현실 성은
▁현실 적이라
▁결말 ...

▁힘 듬
▁힘 찬
하기 전에
하기 보단
▁몰입 에
▁몰입 감을
▁다른 것
▁누 를
인가 ??

▁흥 겨운
▁이상 해요
▁짱 잼
▁짱 !!!!
▁짱 재밌
▁짱 이다

▁짱 이지
▁짱 구는
▁속 빈
▁빠 는
▁말이 다.
▁걸 리면
▁걸 출한
▁선 우
▁선 이
보는 편인데
▁애니 에서
▁애니 라고
구나 ,
구나 ....
구나 라고
▁스릴 도없고
▁가슴 만
▁짜증 유발
인지 ..

▁낮 네요.
▁낮 지..
▁낮 지?

▁눈물 난다
▁맞 다
▁맞 다

▁맞 아야
▁방 학
▁높 네
▁높 을
▁높 아

▁충 동
▁충 성
▁인생 ,
▁인생 도
재밌 었어요
▁전개 ...
▁인간 에게
▁인간 극장
▁않는 다..

▁있었 지
▁있었 고,
▁머 하는
▁머 하나
▁몇 회
지않 나
지않 다
지않 지만
지않 음

지않 을까
지않 아요
▁많은 거
지마 요
지마 시고
▁간 혹
▁간 히
▁간 절한
▁모르겠 습니다.
▁모르겠 고...
▁돌 아서
▁돌 리다
▁' 내
▁건 졌
▁극장 용
▁9 년
▁9 4년
▁9 7년
▁9 7년도
▁9 ~10점주는
▁적 에
▁피 리
▁피 티
▁피 폐
▁4 년
▁새 가
정말 ..
정말 재밌게
▁억지 스럽다
▁문 자
▁수준 ..

▁수준 ...

▁8 살
▁8 ~10점주는
▁올 가
▁올 리지
▁편 을
▁편 한
▁파 라
▁치 고,
▁치 더라도
▁재밋 네
▁언 어로
▁7 0%
▁딱 인
▁딱 좋은
▁버 겁
▁버 이
▁찍 으면서
▁추천 해요
▁추천 한다.
▁추천 한다

▁추천 하고싶
했던 건
▁경 고
▁경 향이
▁영화였 는데,
▁영화였 던거
▁갈 갈
▁갈 라
▁갈 질
나라 

▁5 월
▁캐릭터 

▁캐릭터 .
아니 었다

▁연기력 의
▁엄청 나
▁크 다
▁크 래
▁크 면
▁크 다.
▁크 림슨
▁코미디 물
▁코미디 ..
▁실망 했던
▁호 랑이
▁공감 하지
▁공감 하며
▁공감 가지
0점 이
장면 들이
▁긴장 과
▁긴장 하게
▁출 생의
▁독 일의
스트 를
감독 이라
감독 님의
▁약 빨
▁약 해서
▁약 하지만
▁약 하다.
▁약 하다.

▁최악의 영화

▁먹 는거
▁먹 어야
▁먹 으며
▁나온 걸
▁나온 다...
▁개봉 도
▁개봉 했
▁개봉 후
▁개봉 하면
▁개봉 했으면
▁개봉 하자마자
▁대단 

▁대단 해요
▁대단 하다는
생각 에
▁가족 도
▁가족 이란
▁재미있게 본
▁재미있게 봤는데
▁교 황
▁교 묘하게
▁질 풍
▁이걸 보느니
▁어떻게 보면
했는데 

했는데 도
했는데 ..

▁악 순
▁악 중에
▁표현 .
▁표현 에
▁표현 해야
던데 ?

▁야 마다
▁알았 어
▁알았 다...
▁알았 음.

▁알았 네.
▁물 든
▁물 러
▁물 을
▁물 타
▁남는 영화

▁대사 의
▁대사 까지
최고 임

▁싸 대기
▁제목 그대로
▁아쉽 기만
▁잼있 어요.
▁- 0-
▁떨어 지지
▁카 모메
▁삶 ,
▁삶 이란
▁않은 게
▁담 임
▁베 일의
보면 ,
▁잊 은
기에 만
▁스릴러 와
▁기분 은
▁잠 

▁잠 도
▁봐야 만
▁봐야 겠다

▁막장 ..
▁자체 다.
▁자체 ...

▁자체 만으로도
▁자체 만으로
▁자체 로도
▁아름다운 영화
▁데 니스
▁메 타
▁요즘 도
▁요즘 의
▁떠 들고
▁니 노
▁없었 다..

▁없었 음.

이란 

▁감동적이 면서
▁감동적이 네요.
▁천 하
▁날 리
▁날 아가
▁웃기 지도않
▁웃기 기라도
▁... 진짜
것같 네요.
▁노래 들도
▁은 정
▁은 주
▁않았 어요
▁나왔 다.

▁나왔 지만
▁타 령
▁시작 .
▁시작 하는
▁형 식의
▁1편 만
▁1편 부터
▁영화.. ...
ᄍᄍ ᄍ
▁왜이 렇
▁각 시
▁못한 거
▁못한 다면
▁나와 

라이 트
▁글 자
▁절대 적인
▁절대 적으로
▁훌륭 하게
▁훌륭 함.
▁훌륭 했고
▁될 뻔
▁될 수있
▁뒤 흔
▁의미 와
▁수작 이라
▁출연 자들
▁느끼 기
감동 의
▁세상 

▁세상 과
▁세상 에는
▁아니고 .

▁작가 ,
~~~~ ~~

~~~~ ~~~

▁신선 해서
스러운 데
이야 ...
▁안되 고..
▁안되 나?

▁안되 고...
▁C g
▁C h
▁얼마 만에
▁6 번
▁장난 하는것도
▁장난 해?
이런 건
▁산 다
▁산 악
▁산 다는
▁B O
▁싫 지만
▁친구 로
▁어린 애들이
▁사실 상
▁확 보
▁확 장
▁시청 하는
▁길 에
▁길 다.
▁길 었으면
▁멋진 데
▁멋진 영화
▁옛 다!
▁토 막
▁토 할
▁토 대로
▁토 나온다
▁허접 하다
▁허접 쓰레기
▁빼 어난
▁자신 도
▁양 쪽
▁양 심을
합니다 ~
▁전쟁 으로
▁전쟁 영화중
▁귀여 니
▁봤던 게
▁인상 에
하네 ?

▁완벽 

▁엔딩 

▁엔딩 으로
▁엔딩 장면
한데 도
한데 다가
▁청 각
▁패 는
▁패 트릭
▁패 밀리
▁낚 임
▁유쾌 했던
▁힘들 지만
▁힘들 듯

▁잡 으면
▁잡 아서
▁다큐 영화
▁식 탁
▁총 쏘는
▁스타 쉽
▁스타 이
▁스타 크래
▁스타 트렉
▁지루한 감이
▁시대 는
▁문제 의
▁환 각
▁환 장한
▁졸작 ..

▁종 려
▁종 료
해요 ...
해요 ^^

▁좋고 ...
▁뛰 는
▁뿐 ..

▁애니메이션 에
▁애니메이션 중
▁애니메이션 .

▁재밌는 걸
그냥 

▁보세요 ^^

▁진부 하게
▁진부 하지
▁진부 하다

▁진부 하다.

▁예술 도
쓰레기 ,
▁코믹 하게
▁코믹 적인
▁코믹 하면서도
▁책 과
▁꿈 도
▁꿈 의
▁몰입도 ,
▁강추 ~

지루 해

▁백 제
▁맘 껏
▁맘 을
▁후회 함

지.. ?

▁돌아 갈
▁돌아 보는
▁돌아 다니는
▁브 리트
▁브 랜든
▁멋있 었다.
▁얘 기도
주의 가
▁몸 부
▁지나 니
▁히 는
▁더빙 만
▁o ut
▁주제 와
▁터 트
▁폭 동
▁폭 력이
▁어느 날
▁낫 다는
▁낫 다..

▁낫 겠다
▁낫 겠다.

▁군 데
▁군 국주의
▁충분 하다고
!!!!!!!! !

▁궁금 해
▁궁금 하다
▁궁금 하지도
▁궁금 증을
재미있 음

재미있 어요

▁블 런
▁채 울
▁채 시라
▁아깝다 !!

▁T OP
▁순수 함
▁순수 함과
재미없 네
▁불쌍 하다.
한다 면서
▁말도 안되
▁투 명
▁투 성
▁흘 리
▁흘 리는
▁중국 을
▁b b
하겠 습니다.
▁있을 텐데
▁영화중 의
▁끌 려서
▁엉성 하다.

▁돋 았
말이 되
▁프로 포
기만 을
전개 

하시 네요
▁걸작 이다.

▁걸작 이다

▁읽 을
▁비슷 하지만
▁똥 이
▁번 개
▁번 도
▁번 뜩
▁공포영화 보다
▁철 철
▁재미있었 지만
▁재미있었 습니다
▁재미있었 어요.

▁티비 를
▁B급 이
▁사람들 .
자체 를
군요 !

▁흔 치
▁흔 하지
~~~ !!!

▁없다 ....
▁재밌다 ᄏᄏᄏ
▁발연기 를
▁S o
▁트 위
▁트 라이
▁기억이 

▁으 

▁밖에 ...

▁갖 춰
ᄋᄋ ᄋ

▁취 지는
▁알게 되어
▁송 윤
▁송 강호가
▁쳐 박
▁쳐 들어
▁이미 지는
이였 으면
마지막 엔
마지막 장면
▁ᄏᄏᄏᄏᄏᄏᄏᄏ ᄏᄏᄏᄏ
er e
▁테 크
잖아 요.
▁이것 두
▁이것 보다는
▁이것 이야말로
나요 ...
▁섹 스를
보고싶 은데
▁풍 광
▁풍 요
▁아님 ...
▁판타 지는
▁판타 지도
거야 ??
▁잔잔한 게
▁여배우 를
▁여배우 들이
▁사회 에서
▁있을까 ..
▁있을까 ..

▁있을까 ...

▁직 시
▁다운 로
▁없어 지는
▁삼류 영화

▁혹 해서
▁틀 고
겠다 ....
▁ᅳ ,
▁ᅳ ᅮ

▁세계 로
................ ..

▁예상 은
▁예상 보다
▁뭐야 ...
▁좋아요 !
▁몇번 봐도
▁윤 발
▁어른 은
▁어른 인
▁어른 들도
▁기다 리다
▁기다 렸던
▁봣 다
▁까 야
▁자기 들
▁자기 들이
▁봤어요 !
▁봤어요 ,
기대 이상
라니 ..

▁O h
▁이번 주
▁이번 편은
▁맨 처음
어가 지고
▁각본 은
▁낮은 듯
▁머리 도
▁어쩌 란
▁평범 하지만
▁지루함 만
▁지루함 ...

▁지루함 없이
▁방송 은
▁권 유
▁권 력에
▁극장판 도
▁극장판 중
▁극장판 으로
▁새로운 게
▁확실 이
▁볼수 도
▁어이없 음

▁감독님 도
▁하게 되는
▁상영 시간이
▁의도 도
▁크리스 파
▁영화다 ....
▁해야 지

▁불편 하게
▁밀 도
▁밀 폐
하자 는거
▁회 가
▁회 장
▁흠 ....
▁흠 이라면
코미디 영화
▁꺼 버림

▁너무너무 너무너무
▁운 이
▁일단 은
해주 셔서
▁성우 도
▁왔 습니다.

▁왔 습니다

▁왔 어요.
▁필 리
현실 은
▁있어 보이는
▁감성 적
▁201 5
▁향 기가
▁향 기를
▁아닐 텐데
▁중요 하지만
이라니 ..

▁한편 에
▁짝 사랑
▁짝 짝짝
좋았 음
좋았 어요

좋았 으나
▁헤 헤
별로 다.
사회 에서
하다고 ?
▁리얼 하고
▁영화인 건
▁만족 할
▁만족 스럽
▁잘만들 어
▁잘만들 었다.
▁나이 도
▁나이 든
▁나이 들어
▁식상 하다
영화중 하나
▁몰랐 다.

▁a ll
▁자극 적
▁자극 적으로
▁자극 적이지
▁m c
▁맥 아
▁소중 하게
▁먹먹 해
▁홍콩 에서
▁홍콩 느와르
▁승 리는
▁승 부를
시리즈 

▁그닥 ..

▁찌 든
▁안타까 웠
▁깔 아
▁검 사가
▁이어 질
▁최고였 음
▁최고였 습니다
▁최고였 습니다.
▁-_- ;;;

▁이것도 영화라고
처음 에는
영상 도
▁희망 의
보이 는데
알았 는데
▁되었 을
▁되었 습니다
대박 나
▁재밌는데 ?
▁재밌는데 ?

▁설명 을
▁아빠 도
▁결혼 의
▁결혼 한
▁후반부 엔
▁북 괴
▁북 미
방송 을
방송 으로
애니 

▁가능 할
▁전설 

▁미화 시키는
▁재밌음 !
▁재밌음 ...
▁법 은
▁사라 질
▁사라 지지
▁느꼈 습니다
▁합 창
▁내인생 에서
▁가볍 지도
▁골 목
따위 가
▁웃긴 다.
▁덕 분
▁독립 영화를
▁독립 영화도
▁무서운 건
공포 영화는
명작 을
▁나쁘 진않
▁3점 준다

▁별루 고
▁완성도 도
▁동화 

▁워 낭
▁워 커
▁영화임 ?
▁영화임 을
▁영화임 ..

▁영화임 ...

▁영화임 ?

▁대한민국 에
▁팔 마
▁인정 하고
▁뭐냐 ...
▁현재 에
▁현재 까지
▁스타일 을
▁없을 듯

▁관계 와
▁죽음 ,
▁어설프 기
▁화이팅 !!!

▁이러 냐
같은데 ...
▁유머 ,
▁유머 코드
▁성장 을
▁촌 스러움
▁촌 스러워
▁플 랜
▁같아요 ~

최고의 영화

▁멀 히
▁놀라 움
he n
▁여성 들의
▁그려 냈다.
▁0 

▁말하고 싶은
▁재미있어요 !

▁재미있어요 ^^

▁재미있어요 !!!
▁해주 는데
▁해주 셔서
▁이래 도
했음 ...

다운 받
▁정치 를
▁시간낭비 한
▁귀여운 데
▁철학 과
▁응 급
놓은 거
▁퍼 니
▁퍼 레이드
해준 다.

▁짱짱 짱
▁뜨 는
▁울었 습니다
▁울었 는지
대사 는
대사 를
대사 의
▁감동적 입니다

▁별로였 음
▁별로였 다

▁샤 이
▁샤 이니
▁였 어요
▁였 습니다.
▁어렵 지
▁한계 에
▁잘생 겨서
▁왠지 모르게
▁붙 이는
▁월 광
거지 같은
▁A NG
▁논 할
▁논 스톱
▁피해 자는
▁환상 적이고
▁심심 할
▁조연 이
▁조연 들이
▁조연 들도
랄까 .
새끼 가
▁미소 지
▁군대 에
▁증 오
▁증 폭
▁하루 가
지도않 는
▁고민 과
일뿐 ...
마음 은
▁낚였 다...
더만 ...
시켜 야
▁봤습니다 ~
▁외국 에
▁카메라 의
▁라이 브
▁라이 트
