{"<pad>":0,"<unk>":1,"<bos>":2,"<eos>":3,"\n":4,"!":5,"\"":6,"%":7,"&":8,"'":9,"(":10,")":11,"*":12,"+":13,",":14,"-":15,".":16,"/":17,"0":18,"1":19,"2":20,"3":21,"4":22,"5":23,"6":24,"7":25,"8":26,"9":27,":":28,";":29,"<":30,"=":31,">":32,"?":33,"@":34,"A":35,"B":36,"C":37,"D":38,"E":39,"F":40,"G":41,"I":42,"K":43,"L":44,"M":45,"N":46,"O":47,"P":48,"R":49,"S":50,"T":51,"V":52,"X":53,"[":54,"]":55,"^":56,"_":57,"`":58,"a":59,"b":60,"c":61,"d":62,"e":63,"f":64,"g":65,"h":66,"i":67,"j":68,"k":69,"l":70,"m":71,"n":72,"o":73,"p":74,"r":75,"s":76,"t":77,"u":78,"v":79,"w":80,"x":81,"y":82,"z":83,"~":84,"ᄀ":85,"ᄂ":86,"ᄃ":87,"ᄅ":88,"ᄆ":89,"ᄇ":90,"ᄉ":91,"ᄋ":92,"ᄌ":93,"ᄍ":94,"ᄏ":95,"ᄒ":96,"ᅡ":97,"ᅩ":98,"ᅮ":99,"ᅲ":100,"ᅳ":101,"ᅵ":102,"▁":103,"★":104,"♡":105,"♥":106,"가":107,"각":108,"간":109,"갈":110,"감":111,"갑":112,"값":113,"갓":114,"갔":115,"강":116,"갖":117,"같":118,"개":119,"객":120,"갠":121,"갱":122,"걍":123,"거":124,"건":125,"걸":126,"검":127,"겁":128,"것":129,"겉":130,"게":131,"겐":132,"겟":133,"겠":134,"겨":135,"격":136,"견":137,"결":138,"겹":139,"겼":140,"경":141,"계":142,"고":143,"곡":144,"곤":145,"골":146,"곱":147,"곳":148,"공":149,"과":150,"관":151,"광":152,"괜":153,"괴":154,"굉":155,"교":156,"구":157,"국":158,"군":159,"굳":160,"굴":161,"굿":162,"궁":163,"권":164,"귀":165,"규":166,"균":167,"그":168,"극":169,"근":170,"글":171,"금":172,"급":173,"기":174,"긴":175,"길":176,"김":177,"깊":178,"까":179,"깎":180,"깐":181,"깔":182,"깜":183,"깝":184,"깨":185,"꺼":186,"껄":187,"껏":188,"께":189,"껴":190,"꼈":191,"꼬":192,"꼭":193,"꼴":194,"꼽":195,"꽃":196,"꽝":197,"꽤":198,"꾸":199,"꾼":200,"꿀":201,"꿈":202,"꿔":203,"뀌":204,"끄":205,"끈":206,"끊":207,"끌":208,"끔":209,"끝":210,"끼":211,"낀":212,"낄":213,"낌":214,"나":215,"낙":216,"낚":217,"난":218,"날":219,"남":220,"납":221,"낫":222,"났":223,"낭":224,"낮":225,"낳":226,"내":227,"낸":228,"낼":229,"냄":230,"냈":231,"냉":232,"냐":233,"냥":234,"너":235,"넌":236,"널":237,"넘":238,"넣":239,"네":240,"넷":241,"녀":242,"년":243,"념":244,"녕":245,"노":246,"녹":247,"논":248,"놀":249,"놈":250,"농":251,"높":252,"놓":253,"놔":254,"놨":255,"뇌":256,"누":257,"눈":258,"뉴":259,"느":260,"는":261,"늘":262,"늙":263,"능":264,"늦":265,"니":266,"닌":267,"닐":268,"님":269,"닙":270,"닝":271,"다":272,"닥":273,"단":274,"닫":275,"달":276,"닮":277,"담":278,"답":279,"당":280,"닿":281,"대":282,"댄":283,"댓":284,"더":285,"덕":286,"던":287,"덜":288,"덤":289,"덩":290,"데":291,"덴":292,"뎁":293,"도":294,"독":295,"돈":296,"돋":297,"돌":298,"동":299,"돼":300,"됐":301,"되":302,"된":303,"될":304,"됨":305,"됩":306,"됬":307,"두":308,"둘":309,"둥":310,"뒤":311,"뒷":312,"드":313,"득":314,"든":315,"듣":316,"들":317,"듬":318,"듭":319,"듯":320,"등":321,"디":322,"딘":323,"딧":324,"딩":325,"따":326,"딱":327,"딴":328,"딸":329,"땅":330,"때":331,"땐":332,"땜":333,"땡":334,"떄":335,"떠":336,"떡":337,"떤":338,"떨":339,"떻":340,"떼":341,"또":342,"똑":343,"똥":344,"뚝":345,"뚱":346,"뛰":347,"뜨":348,"뜩":349,"뜬":350,"뜻":351,"라":352,"락":353,"란":354,"랄":355,"람":356,"랍":357,"랐":358,"랑":359,"래":360,"랙":361,"랜":362,"램":363,"랫":364,"랬":365,"략":366,"량":367,"러":368,"럭":369,"런":370,"럴":371,"럼":372,"럽":373,"렁":374,"렇":375,"레":376,"렉":377,"렌":378,"려":379,"력":380,"련":381,"렬":382,"렵":383,"렷":384,"렸":385,"령":386,"례":387,"로":388,"록":389,"론":390,"롤":391,"롭":392,"롯":393,"롱":394,"뢰":395,"료":396,"룡":397,"루":398,"룬":399,"류":400,"륜":401,"률":402,"륭":403,"르":404,"른":405,"를":406,"름":407,"리":408,"릭":409,"린":410,"릴":411,"림":412,"립":413,"릿":414,"링":415,"마":416,"막":417,"만":418,"많":419,"말":420,"맘":421,"맙":422,"맛":423,"망":424,"맞":425,"맡":426,"매":427,"맥":428,"맨":429,"맹":430,"머":431,"먹":432,"먼":433,"멀":434,"멋":435,"멍":436,"메":437,"멘":438,"멜":439,"며":440,"면":441,"멸":442,"명":443,"몇":444,"모":445,"목":446,"몬":447,"몰":448,"몸":449,"못":450,"몽":451,"묘":452,"무":453,"묵":454,"문":455,"묻":456,"물":457,"뭉":458,"뭐":459,"뭔":460,"뭘":461,"뮤":462,"므":463,"미":464,"믹":465,"민":466,"믿":467,"밀":468,"밋":469,"밌":470,"밍":471,"밑":472,"바":473,"박":474,"밖":475,"반":476,"받":477,"발":478,"밝":479,"밤":480,"밥":481,"방":482,"배":483,"백":484,"뱀":485,"버":486,"번":487,"벌":488,"범":489,"법":490,"벗":491,"베":492,"벤":493,"벨":494,"벼":495,"벽":496,"변":497,"별":498,"볍":499,"병":500,"보":501,"복":502,"본":503,"볼":504,"봄":505,"봅":506,"봇":507,"봉":508,"봐":509,"봣":510,"봤":511,"부":512,"북":513,"분":514,"불":515,"붕":516,"붙":517,"뷰":518,"브":519,"븐":520,"블":521,"비":522,"빅":523,"빈":524,"빌":525,"빗":526,"빙":527,"빛":528,"빠":529,"빡":530,"빨":531,"빵":532,"빼":533,"뻐":534,"뻔":535,"뽑":536,"뽕":537,"뿌":538,"뿐":539,"뿔":540,"쁘":541,"쁜":542,"쁨":543,"사":544,"삭":545,"산":546,"살":547,"삶":548,"삼":549,"상":550,"새":551,"색":552,"샘":553,"생":554,"샤":555,"서":556,"석":557,"섞":558,"선":559,"설":560,"섬":561,"섭":562,"섯":563,"성":564,"세":565,"섹":566,"센":567,"셀":568,"셈":569,"셉":570,"셔":571,"션":572,"셨":573,"소":574,"속":575,"손":576,"솔":577,"송":578,"쇼":579,"수":580,"숙":581,"순":582,"술":583,"숨":584,"숭":585,"쉬":586,"쉽":587,"슈":588,"스":589,"슨":590,"슬":591,"슴":592,"습":593,"슷":594,"승":595,"시":596,"식":597,"신":598,"실":599,"싫":600,"심":601,"십":602,"싱":603,"싶":604,"싸":605,"쌍":606,"써":607,"썩":608,"썼":609,"쎄":610,"쏘":611,"쏟":612,"쓰":613,"쓴":614,"쓸":615,"씀":616,"씁":617,"씨":618,"씩":619,"씬":620,"씹":621,"아":622,"악":623,"안":624,"앉":625,"않":626,"알":627,"암":628,"압":629,"앗":630,"았":631,"앙":632,"앞":633,"애":634,"액":635,"앤":636,"야":637,"약":638,"양":639,"얘":640,"어":641,"억":642,"언":643,"얻":644,"얼":645,"엄":646,"업":647,"없":648,"엇":649,"었":650,"엉":651,"에":652,"엑":653,"엔":654,"엘":655,"엠":656,"여":657,"역":658,"연":659,"열":660,"염":661,"엽":662,"엿":663,"였":664,"영":665,"옆":666,"예":667,"옛":668,"오":669,"옥":670,"온":671,"올":672,"옴":673,"옷":674,"옹":675,"와":676,"완":677,"왓":678,"왔":679,"왕":680,"왜":681,"왠":682,"외":683,"요":684,"욕":685,"용":686,"우":687,"욱":688,"운":689,"울":690,"움":691,"웃":692,"웅":693,"워":694,"원":695,"월":696,"웠":697,"웨":698,"웬":699,"위":700,"윌":701,"유":702,"육":703,"윤":704,"율":705,"으":706,"은":707,"을":708,"음":709,"응":710,"의":711,"이":712,"익":713,"인":714,"일":715,"읽":716,"잃":717,"임":718,"입":719,"잇":720,"있":721,"잉":722,"잊":723,"자":724,"작":725,"잔":726,"잖":727,"잘":728,"잠":729,"잡":730,"잤":731,"장":732,"재":733,"잭":734,"잼":735,"쟁":736,"저":737,"적":738,"전":739,"절":740,"젊":741,"점":742,"접":743,"정":744,"제":745,"젠":746,"젤":747,"져":748,"졌":749,"조":750,"족":751,"존":752,"졸":753,"좀":754,"종":755,"좋":756,"좌":757,"죄":758,"죠":759,"주":760,"죽":761,"준":762,"줄":763,"줌":764,"줍":765,"중":766,"줘":767,"줬":768,"쥐":769,"쥬":770,"즈":771,"즌":772,"즐":773,"즘":774,"증":775,"지":776,"직":777,"진":778,"질":779,"짐":780,"집":781,"짓":782,"징":783,"짜":784,"짝":785,"짠":786,"짧":787,"짱":788,"째":789,"쩌":790,"쩐":791,"쩔":792,"쩜":793,"쩝":794,"쪽":795,"쫌":796,"쯤":797,"쯧":798,"찌":799,"찍":800,"찝":801,"찡":802,"차":803,"착":804,"찬":805,"찮":806,"찰":807,"참":808,"창":809,"찾":810,"채":811,"책":812,"챙":813,"처":814,"척":815,"천":816,"철":817,"첨":818,"첩":819,"첫":820,"청":821,"체":822,"쳐":823,"쳤":824,"초":825,"촌":826,"총":827,"촬":828,"최":829,"쵝":830,"추":831,"축":832,"춘":833,"출":834,"춤":835,"충":836,"춰":837,"취":838,"츠":839,"측":840,"치":841,"칙":842,"친":843,"칠":844,"침":845,"칭":846,"카":847,"칸":848,"칼":849,"캐":850,"커":851,"컨":852,"컬":853,"컴":854,"컷":855,"케":856,"켜":857,"코":858,"콘":859,"콜":860,"콤":861,"콩":862,"쾌":863,"쿠":864,"퀄":865,"큐":866,"크":867,"큰":868,"클":869,"큼":870,"키":871,"킨":872,"킬":873,"킹":874,"타":875,"탁":876,"탄":877,"탈":878,"탐":879,"탑":880,"탓":881,"탕":882,"태":883,"택":884,"터":885,"턴":886,"털":887,"테":888,"텐":889,"텔":890,"토":891,"톤":892,"톰":893,"톱":894,"통":895,"퇴":896,"투":897,"퉁":898,"튀":899,"트":900,"특":901,"튼":902,"틀":903,"틈":904,"티":905,"틱":906,"틴":907,"팀":908,"팅":909,"파":910,"팍":911,"판":912,"팔":913,"패":914,"팩":915,"팬":916,"퍼":917,"펐":918,"펑":919,"페":920,"펙":921,"펜":922,"편":923,"평":924,"폐":925,"포":926,"폭":927,"폰":928,"폴":929,"표":930,"푸":931,"푹":932,"풀":933,"품":934,"풋":935,"풍":936,"퓨":937,"프":938,"픈":939,"플":940,"픔":941,"피":942,"픽":943,"필":944,"하":945,"학":946,"한":947,"할":948,"함":949,"합":950,"항":951,"해":952,"핵":953,"햇":954,"했":955,"행":956,"향":957,"허":958,"헌":959,"헐":960,"험":961,"헛":962,"헤":963,"혀":964,"혁":965,"현":966,"혈":967,"혐":968,"협":969,"형":970,"혜":971,"호":972,"혹":973,"혼":974,"홀":975,"홍":976,"화":977,"확":978,"환":979,"활":980,"황":981,"회":982,"획":983,"효":984,"후":985,"훈":986,"훌":987,"훨":988,"휘":989,"휴":990,"흉":991,"흐":992,"흑":993,"흔":994,"흘":995,"흠":996,"흡":997,"흥":998,"희":999,"히":1000,"힌":1001,"힐":1002,"힘":1003,"..":1004,"영화":1005,"▁영화":1006,"▁이":1007,".\n":1008,"▁아":1009,"ᄏᄏ":1010,"▁그":1011,"▁보":1012,"▁재":1013,"다.":1014,"...":1015,"!!":1016,"다\n":1017,"다.\n":1018,"▁정":1019,"▁나":1020,"는데":1021,"너무":1022,"▁다":1023,"▁하":1024,"▁좋":1025,"..\n":1026,"▁없":1027,"▁어":1028,"▁너무":1029,"▁사":1030,"▁내":1031,"▁감":1032,"▁진":1033,"▁재미":1034,"▁연":1035,"▁있":1036,"▁지":1037,"으로":1038,"지만":1039,"하고":1040,"▁한":1041,"▁최":1042,"▁시":1043,"네요":1044,"▁안":1045,"▁1":1046,"▁정말":1047,"▁스":1048,"▁만":1049,"....":1050,"▁가":1051,"...\n":1052,"에서":1053,"▁재밌":1054,"▁기":1055,"▁대":1056,"▁봤":1057,"▁평":1058,"▁전":1059,"▁진짜":1060,"▁마":1061,"▁연기":1062,"하는":1063,"\"\"":1064,"▁수":1065,"▁무":1066,"▁모":1067,"▁여":1068,"!\n":1069,"▁생":1070,"▁잘":1071,"어요":1072,"▁주":1073,"▁최고":1074,"▁않":1075,"▁더":1076,"습니":1077,"▁평점":1078,"ᄏᄏᄏᄏ":1079,"드라":1080,"토리":1081,"▁오":1082,"▁개":1083,"▁제":1084,"▁이런":1085,"▁인":1086,"▁배":1087,"▁말":1088,"드라마":1089,"~~":1090,"▁생각":1091,"?\n":1092,"▁왜":1093,"▁자":1094,"들이":1095,"▁같":1096,"▁못":1097,"▁소":1098,"▁스토리":1099,"▁영화\n":1100,"▁남":1101,"▁알":1102,"▁본":1103,"까지":1104,"▁느":1105,"▁미":1106,"▁유":1107,"▁아니":1108,"ᅲᅲ":1109,"▁보고":1110,"▁볼":1111,"▁감동":1112,"▁일":1113,"하게":1114,"▁별":1115,"이라":1116,"▁비":1117,"▁쓰":1118,"▁것":1119,"▁장":1120,"▁우":1121,"▁지루":1122,"▁드라마":1123,"다는":1124,";;":1125,"▁많":1126,"▁ᄏᄏ":1127,"▁작":1128,"▁중":1129,"▁재미있":1130,"레기":1131,"▁부":1132,"▁그냥":1133,"▁배우":1134,"▁뭐":1135,"▁공":1136,"보다":1137,"▁사람":1138,"▁2":1139,"▁조":1140,"해서":1141,"면서":1142,"▁내용":1143,"▁역":1144,"▁10":1145,"▁완":1146,"▁만들":1147,"▁감독":1148,"▁끝":1149,"▁고":1150,"▁저":1151,"▁애":1152,"다..":1153,"▁좀":1154,"적인":1155,"▁재미없":1156,"렇게":1157,"리고":1158,"▁해":1159,"▁쓰레기":1160,"▁명":1161,"▁사랑":1162,"▁참":1163,"▁되":1164,"▁반":1165,"▁보는":1166,"??":1167,"ᄏ\n":1168,"▁영화를":1169,"!!\n":1170,"▁웃":1171,",,":1172,"▁영":1173,"^^":1174,"▁예":1175,"▁결":1176,"보고":1177,"▁봐":1178,"ᄒᄒ":1179,"▁다시":1180,"지막":1181,"액션":1182,"▁거":1183,"▁좋은":1184,"▁좋아":1185,"▁시간":1186,"입니":1187,"▁상":1188,"▁매":1189,"라고":1190,"▁싶":1191,"~\n":1192,"▁신":1193,"으면":1194,"▁처":1195,"▁눈":1196,"다고":1197,"▁바":1198,"▁실":1199,"▁이거":1200,"음\n":1201,"▁노":1202,"▁불":1203,"들의":1204,"다가":1205,"▁영화가":1206,"▁작품":1207,"▁영화는":1208,"적이":1209,"지는":1210,"▁원":1211,"OO":1212,"▁살":1213,"▁없는":1214,"▁봤는데":1215,"▁영화.":1216,"하지":1217,"▁이건":1218,"인공":1219,"▁최고의":1220,"▁마지막":1221,"▁난":1222,"▁내가":1223,"▁3":1224,"▁기대":1225,"▁완전":1226,"▁액션":1227,"▁좋았":1228,"▁있는":1229,"▁도":1230,"▁의":1231,"▁코":1232,"▁하나":1233,"▁할":1234,"▁넘":1235,"▁성":1236,"야기":1237,"▁추":1238,"▁때":1239,"▁죽":1240,"어서":1241,"▁처음":1242,"▁몰":1243,"▁한국":1244,"세요":1245,"없는":1246,"▁지금":1247,"▁후":1248,"▁했":1249,"같은":1250,"▁현":1251,"▁나오":1252,"인데":1253,"들은":1254,"▁괜":1255,"▁하는":1256,"▁김":1257,"▁최악":1258,"합니":1259,"▁이게":1260,"▁이렇게":1261,"에게":1262,"▁모르":1263,"▁또":1264,"▁10점":1265,"▁아깝":1266,"▁극":1267,"▁세":1268,"ᅳᅳ":1269,"라는":1270,"▁별로":1271,"대로":1272,"적으로":1273,"▁허":1274,"이나":1275,"▁1점":1276,"▁멋":1277,"▁이해":1278,"부터":1279,"▁강":1280,"▁관":1281,"▁위":1282,"▁초":1283,"▁돈":1284,"연기":1285,"▁연출":1286,"▁분":1287,"▁로":1288,"있는":1289,"▁짜":1290,"하다":1291,"▁두":1292,"▁느낌":1293,"▁명작":1294,"▁구":1295,"▁따":1296,"▁동":1297,"네\n":1298,"▁화":1299,"▁역시":1300,"▁심":1301,"▁잼":1302,"▁이야기":1303,"▁음":1304,"....\n":1305,"▁평점이":1306,"!!!!":1307,"▁기억":1308,"▁뭔":1309,"네요\n":1310,"▁캐":1311,"▁재밌게":1312,"되는":1313,"^^\n":1314,"영화\n":1315,"▁우리":1316,"▁들":1317,"이다":1318,"습니다":1319,"▁많이":1320,"▁당":1321,"▁괜찮":1322,"▁아이":1323,"정도":1324,"▁에":1325,"배우":1326,"▁장면":1327,"▁그래":1328,"주는":1329,"▁이영화":1330,"지도":1331,"습니다.":1332,"고,":1333,"▁여자":1334,"▁잔":1335,"▁그리고":1336,"▁아름":1337,"▁엄":1338,"▁발":1339,"다면":1340,"▁요":1341,"문에":1342,"▁만든":1343,"네요.":1344,"▁그런":1345,"\"\"\"\"":1346,"▁아까":1347,"▁막":1348,"▁와":1349,"리는":1350,"▁포":1351,"▁꼭":1352,"▁차":1353,"▁주인공":1354,"재미":1355,"요\n":1356,"▁보여":1357,"사람":1358,"▁영화.\n":1359,"▁귀":1360,"▁같은":1361,"▁마음":1362,"▁설":1363,"▁드":1364,"▁특":1365,"▁단":1366,"▁슬":1367,"다..\n":1368,"만에":1369,"▁아닌":1370,"필요":1371,"것도":1372,"▁울":1373,"▁공포":1374,"▁유치":1375,"▁졸":1376,"▁존":1377,"진짜":1378,"▁줄":1379,"▁박":1380,"▁일본":1381,"ᄏᄏᄏᄏᄏᄏᄏᄏ":1382,"다...":1383,"▁표":1384,"을까":1385,"▁망":1386,"▁무슨":1387,"하나":1388,"아서":1389,"........":1390,"가는":1391,"▁점":1392,"00":1393,"▁아무":1394,"었는데":1395,"▁서":1396,"▁볼만":1397,"▁현실":1398,"없이":1399,"▁결말":1400,"▁힘":1401,"▁소재":1402,"▁가장":1403,"▁ᅲᅲ":1404,"하기":1405,"▁몰입":1406,"다니":1407,"▁리":1408,"▁다른":1409,"▁누":1410,"인가":1411,"▁흥":1412,"시간":1413,"▁이상":1414,"▁보면":1415,"▁과":1416,"▁짱":1417,"▁보기":1418,"!!!\n":1419,"▁속":1420,"▁OO":1421,"나는":1422,"▁반전":1423,"▁매력":1424,"▁빠":1425,"드는":1426,"▁말이":1427,"▁걸":1428,"▁선":1429,"▁남자":1430,"음.":1431,"▁뻔":1432,"▁얼":1433,"▁절":1434,"보는":1435,"▁애니":1436,"하면":1437,"\"\"\"":1438,"구나":1439,"ᅮᅮ":1440,"▁스릴":1441,"▁가슴":1442,"▁짜증":1443,"인지":1444,"▁없고":1445,"▁낮":1446,"▁원작":1447,"미디":1448,"▁솔":1449,"▁눈물":1450,"하지만":1451,"스럽":1452,"▁맞":1453,"▁방":1454,"▁ᄒᄒ":1455,"▁긴":1456,"▁억":1457,"▁계":1458,"봐도":1459,"▁정도":1460,"▁대한":1461,"▁높":1462,"0년":1463,"▁충":1464,"는지":1465,"이었":1466,"▁인생":1467,"릭터":1468,"재밌":1469,"▁만들어":1470,"려고":1471,"▁전개":1472,"▁영상":1473,"요.":1474,"▁인간":1475,"습니다.\n":1476,"▁않는":1477,"▁ᄏᄏ\n":1478,"▁음악":1479,"스러":1480,"▁있었":1481,"▁게":1482,"▁머":1483,"▁몇":1484,"▁솔직":1485,"지않":1486,"이다.":1487,"▁많은":1488,"지마":1489,"▁간":1490,"▁집":1491,"▁모르겠":1492,"▁돌":1493,"더라":1494,"에는":1495,"이고":1496,"니까":1497,"▁'":1498,"어요\n":1499,"▁건":1500,"리즈":1501,"ᄏᄏ\n":1502,"▁극장":1503,"▁순":1504,"▁필요":1505,"▁9":1506,"▁굿":1507,"나서":1508,"▁모든":1509,"▁아름다":1510,"▁한번":1511,"▁적":1512,"▁피":1513,"▁듯":1514,"처럼":1515,"▁4":1516,"▁아직":1517,"지고":1518,"▁새":1519,"정말":1520,"▁억지":1521,"메이":1522,"▁끝까지":1523,"▁ᅳᅳ":1524,"밖에":1525,"▁문":1526,"▁근":1527,"▁하고":1528,"이다.\n":1529,"▁수준":1530,"▁욕":1531,"▁찾":1532,"▁프":1533,"▁..":1534,"나오":1535,"▁하지만":1536,"▁8":1537,"▁올":1538,"▁편":1539,"떨어":1540,"▁봐도":1541,"들을":1542,"▁솔직히":1543,"▁받":1544,"▁파":1545,"▁전혀":1546,"▁.":1547,"▁치":1548,"다...\n":1549,"▁재밋":1550,"▁언":1551,";;\n":1552,"중에":1553,"하다\n":1554,"▁행":1555,"스터":1556,"▁이제":1557,"▁모두":1558,"▁뭔가":1559,"▁열":1560,"▁7":1561,"▁외":1562,"떻게":1563,"▁아주":1564,"▁딱":1565,"▁버":1566,"▁찍":1567,"▁추천":1568,"했던":1569,"▁경":1570,"▁영화였":1571,"▁갈":1572,"이는":1573,"▁여운":1574,";\n":1575,"나라":1576,"▁5":1577,"▁캐릭터":1578,"지\n":1579,"아니":1580,"▁연기력":1581,"▁엄청":1582,"▁크":1583,"!!!":1584,"▁코미디":1585,"리가":1586,"타임":1587,"▁실망":1588,"▁호":1589,"하다.":1590,"함\n":1591,"▁공감":1592,"▁대박":1593,"▁ᄏᄏᄏᄏ":1594,"0점":1595,"▁된":1596,"는거":1597,"장면":1598,"기도":1599,"▁긴장":1600,"이다\n":1601,"▁출":1602,"▁독":1603,"▁손":1604,"듯\n":1605,"스트":1606,"▁달":1607,"을때":1608,"감독":1609,"▁약":1610,"주고":1611,"▁최악의":1612,"▁놀":1613,"▁먹":1614,"▁나온":1615,"▁개봉":1616,"▁배우들":1617,"이랑":1618,"주인공":1619,"▁레":1620,"었던":1621,"▁대단":1622,"생각":1623,"에도":1624,"▁가족":1625,"▁답":1626,"▁믿":1627,"▁준":1628,"친구":1629,"▁영화의":1630,"▁재미있게":1631,"라도":1632,"▁교":1633,"▁질":1634,"▁이걸":1635,"▁어떻게":1636,"▁엉":1637,"만들":1638,"▁내내":1639,"ᅲ\n":1640,"때문에":1641,"수록":1642,"▁계속":1643,"▁흥미":1644,"했는데":1645,"영화는":1646,"▁악":1647,"▁표현":1648,"이가":1649,"▁등":1650,"던데":1651,"▁잔잔":1652,"▁영화에":1653,"▁야":1654,"▁어디":1655,"스토리":1656,"습니다\n":1657,"▁알았":1658,"이라는":1659,"엔딩":1660,"▁물":1661,"▁함":1662,"▁즐":1663,"▁남는":1664,"▁아니라":1665,"건지":1666,"▁대사":1667,"~~\n":1668,"수가":1669,"최고":1670,"이지":1671,"▁싸":1672,"▁모습":1673,"▁제목":1674,"▁재밌었":1675,"냐?":1676,"▁아쉽":1677,"이상":1678,"▁잼있":1679,"봤는데":1680,"내내":1681,"기는":1682,"▁그래도":1683,"없고":1684,"▁-":1685,"▁떨어":1686,"▁카":1687,"▁삶":1688,"▁않은":1689,"▁나오는":1690,"내용":1691,"ᄒ\n":1692,"어요.":1693,"어야":1694,"▁담":1695,"▁베":1696,"보면":1697,"▁아쉬":1698,"전에":1699,"▁연기가":1700,"▁ᄏᄏᄏ":1701,"▁만들었":1702,"라리":1703,"하다.\n":1704,"▁내용이":1705,"▁잊":1706,"한테":1707,"기에":1708,"▁조금":1709,"▁그렇":1710,"▁스릴러":1711,"▁기분":1712,"성이":1713,"▁잠":1714,"아요":1715,"영화가":1716,"▁않고":1717,"▁봐야":1718,"▁진심":1719,"▁느껴":1720,"▁막장":1721,"▁네":1722,"리오":1723,"라\n":1724,"▁긴장감":1725,"▁자체":1726,"입니다":1727,"▁제대로":1728,"만큼":1729,"어도":1730,"평점":1731,"하면서":1732,"▁시리즈":1733,"▁개인":1734,"▁아름다운":1735,"▁데":1736,"들도":1737,"▁메":1738,"이라고":1739,"▁요즘":1740,"▁제일":1741,"▁떠":1742,"▁오랜":1743,"▁앞":1744,"대체":1745,"입니다.":1746,"으나":1747,"리스":1748,"▁연기도":1749,"▁근데":1750,"네요.\n":1751,"▁나는":1752,"▁니":1753,"▁없었":1754,"▁보다":1755,"▁만드는":1756,"▁알바":1757,"ᄃᄃ":1758,"▁부족":1759,"▁케":1760,"이란":1761,"ᅲᅲ\n":1762,"▁감동적이":1763,"▁천":1764,"▁중간":1765,"▁날":1766,"▁홍":1767,"훌륭":1768,"▁웃기":1769,"▁재미도":1770,"▁내용도":1771,"ᄏᄏᄏ":1772,"▁아까운":1773,"▁정신":1774,"▁제작":1775,"▁스토리가":1776,"▁...":1777,"음.\n":1778,"▁보다가":1779,"것같":1780,"▁노래":1781,"▁미국":1782,"▁이유":1783,"▁나름":1784,"▁은":1785,"기가":1786,"▁목":1787,"▁않았":1788,"만한":1789,"▁어설":1790,"▁디":1791,"▁나왔":1792,"▁타":1793,"▁시작":1794,"▁형":1795,"▁국":1796,"▁1편":1797,"▁티":1798,"임\n":1799,"지만,":1800,"0년대":1801,"▁삼":1802,"▁영화..":1803,"ᄍᄍ":1804,"▁때문에":1805,"▁보고싶":1806,"▁왜이":1807,"▁감독이":1808,"▁통":1809,"▁각":1810,"치는":1811,"▁못한":1812,"거리":1813,"▁나와":1814,"▁킬":1815,"라이":1816,"할수":1817,"해도":1818,"▁영화라고":1819,"▁글":1820,"▁그러":1821,"▁로맨":1822,"▁절대":1823,"▁훌륭":1824,"▁보게":1825,"▁복":1826,"마다":1827,"▁너무나":1828,"▁될":1829,"이없":1830,"▁뒤":1831,"영화를":1832,"스팅":1833,"▁따뜻":1834,"▁싶은":1835,"▁감정":1836,"▁살아":1837,"▁의미":1838,"▁영화로":1839,"▁수작":1840,"▁아직도":1841,"▁출연":1842,"▁느끼":1843,"감동":1844,"▁뻔한":1845,"ᄏᄏᄏ\n":1846,"▁시간이":1847,"▁세상":1848,"▁아니고":1849,"▁작가":1850,"▁20":1851,"~~~~":1852,"▁여운이":1853,"▁ᄏ\n":1854,"나리오":1855,"기를":1856,"로운":1857,"▁괜찮은":1858,"더니":1859,"▁차라리":1860,"으로도":1861,"하는데":1862,"▁나도":1863,"▁스토리도":1864,"나고":1865,"▁그저":1866,"▁신선":1867,"스러운":1868,"\"\"\"\n":1869,"▁희":1870,"니다":1871,"이야":1872,"▁뭘":1873,"학교":1874,"▁안되":1875,"네.":1876,"▁주는":1877,"▁C":1878,"▁무엇":1879,"▁특히":1880,"▁얼마":1881,"▁보면서":1882,"▁6":1883,"▁장난":1884,"▁변":1885,"▁걍":1886,"이런":1887,"▁좋겠":1888,"▁산":1889,"요?":1890,"▁도대체":1891,"▁갑":1892,"해야":1893,"소리":1894,"▁만화":1895,"▁점수":1896,"▁B":1897,"▁판":1898,"▁싫":1899,"▁친구":1900,"▁감독의":1901,"▁행복":1902,"▁무섭":1903,"▁어린":1904,"▁사실":1905,"▁무서":1906,"♥♥":1907,"고싶":1908,"▁ᄏᄏᄏ\n":1909,"▁황":1910,"▁확":1911,"▁되는":1912,"▁t":1913,"▁\"\"\"\"":1914,"메이션":1915,"▁언제":1916,"▁오랜만에":1917,"▁용":1918,"▁훨":1919,"▁답답":1920,"▁시청":1921,"▁ᅲᅲ\n":1922,"▁길":1923,"▁멋진":1924,"사랑":1925,"▁이해가":1926,"▁옛":1927,"▁토":1928,"▁첨":1929,"것이":1930,"지가":1931,"▁부분":1932,"▁허접":1933,"_-":1934,"▁마지막에":1935,"▁빼":1936,"▁빨":1937,"거같":1938,"▁재미가":1939,"▁없이":1940,"▁좋아하는":1941,"입니다.\n":1942,"▁자신":1943,"▁초반":1944,"▁양":1945,"▁입":1946,"▁관객":1947,"▁추억":1948,"합니다":1949,"▁깨":1950,"▁우리나라":1951,"▁전쟁":1952,"▁귀여":1953,"나게":1954,"어\n":1955,"▁봤던":1956,"▁인상":1957,"부분":1958,"하네":1959,"▁소름":1960,"▁완벽":1961,"▁깊":1962,"성도":1963,"좋아":1964,"▁러":1965,"놓고":1966,"▁엔딩":1967,"지?":1968,"▁생각이":1969,"인듯":1970,"한데":1971,"▁어색":1972,"▁시나리오":1973,"▁배경":1974,"아깝":1975,"▁지루하고":1976,"▁OOO":1977,"▁어떤":1978,"▁궁":1979,"▁청":1980,"▁패":1981,"▁킬링":1982,"▁ᄏ":1983,"▁낚":1984,"인이":1985,"▁1점도":1986,"▁유쾌":1987,"▁힘들":1988,"디오":1989,"▁영화관":1990,"▁팬":1991,"니다.":1992,"영화.":1993,"▁분위":1994,"▁잡":1995,"동안":1996,"네요..":1997,"▁헐":1998,"▁다큐":1999,"▁흐":2000,"▁안타":2001,"▁식":2002,"▁총":2003,"▁둘":2004,"▁스타":2005,"▁오늘":2006,"▁없다.":2007,"▁지루한":2008,"▁배우들의":2009,"▁이딴":2010,"▁시대":2011,"▁들어":2012,"▁문제":2013,"▁슬프":2014,"▁함께":2015,"▁환":2016,"구만":2017,",,,":2018,"▁범":2019,"아까":2020,"▁찾아":2021,"▁졸작":2022,"oo":2023,"▁결국":2024,"▁종":2025,"텐데":2026,"▁ᄒᄒ\n":2027,"▁임":2028,"▁큰":2029,"▁보았":2030,"해요":2031,"▁좋고":2032,"▁개인적으로":2033,"▁뛰":2034,"▁왠":2035,"럽게":2036,"었다.":2037,"▁뿐":2038,"들에게":2039,"치고":2040,"▁진정":2041,"▁태":2042,"▁보는내내":2043,"시길":2044,"▁어릴":2045,"▁당시":2046,"▁역사":2047,"▁애니메이션":2048,"리지":2049,"▁재밌는":2050,"??\n":2051,"그냥":2052,"▁보세요":2053,"▁진부":2054,"낭비":2055,"보니":2056,"이지만":2057,"▁예술":2058,"▁얼마나":2059,"▁클":2060,"건가":2061,"수있":2062,"쓰레기":2063,"▁코믹":2064,")\n":2065,"▁책":2066,"▁꿈":2067,"그래":2068,"보단":2069,"▁포스터":2070,"▁아름답":2071,"▁몰입도":2072,"나마":2073,"▁아무리":2074,"▁암":2075,"▁캐스팅":2076,"▁설정":2077,"▁혼":2078,"다!\n":2079,"▁강추":2080,"▁\"\"\"":2081,"▁0점":2082,"지루":2083,"▁백":2084,"▁킬링타임":2085,"▁연기는":2086,"▁없다.\n":2087,"▁기억에":2088,"▁맘":2089,"점대":2090,"▁안되는":2091,"네..":2092,"▁주연":2093,"▁후회":2094,"지..":2095,"▁개연":2096,"레이":2097,"▁영화도":2098,"▁영화라":2099,"▁오래":2100,"▁돌아":2101,"▁민":2102,"▁사람이":2103,"▁영화...":2104,"하며":2105,"▁웃음":2106,"었다":2107,"함을":2108,"▁브":2109,"려는":2110,"작품":2111,"▁멋있":2112,"st":2113,"▁얘":2114,"주의":2115,"▁꽤":2116,"▁몸":2117,"▁지나":2118,"▁제발":2119,"▁히":2120,"▁보지":2121,"▁매우":2122,"자기":2123,"▁더빙":2124,"ᅮᅮ\n":2125,"▁충격":2126,"▁o":2127,"▁주제":2128,"▁그렇게":2129,"니다.\n":2130,"들과":2131,"당히":2132,"▁터":2133,"▁여러":2134,"▁같이":2135,"▁집중":2136,"▁폭":2137,"나?":2138,"이버":2139,"한거":2140,"했다.":2141,"▁어느":2142,"▁잔인":2143,"▁낫":2144,"▁보지마":2145,"▁엄마":2146,"인줄":2147,"▁군":2148,"▁재밌어요":2149,"▁충분":2150,"!!!!!!!!":2151,"▁궁금":2152,"▁병":2153,"♥\n":2154,"르는":2155,"▁별점":2156,"재미있":2157,"▁블":2158,"▁채":2159,"▁하나도":2160,"▁옛날":2161,"같이":2162,"▁아깝다":2163,"영화의":2164,"적이고":2165,"▁T":2166,"▁미친":2167,"▁따라":2168,"학생":2169,"▁빠져":2170,"▁먼":2171,"▁순수":2172,"재미없":2173,"▁,":2174,"마디":2175,"▁것이":2176,"▁커":2177,"ᄒᄒ\n":2178,"함.":2179,"이거":2180,"▁불쌍":2181,"▁극장에서":2182,"▁풀":2183,"한다":2184,"▁색":2185,"0분":2186,"▁뛰어":2187,"▁탄":2188,"▁광":2189,"꿀잼":2190,"만든":2191,"▁나올":2192,"▁위해":2193,"▁숨":2194,"에요":2195,"▁위한":2196,"▁괴":2197,"지.":2198,"▁말도":2199,"▁투":2200,"길래":2201,"▁흘":2202,"음..":2203,"▁너":2204,"▁중국":2205,"▁마음이":2206,"▁b":2207,"▁없다\n":2208,"▁그만":2209,"!!!!\n":2210,"▁굳":2211,"▁라":2212,"고\n":2213,"하겠":2214,"함이":2215,"▁상상":2216,"▁느낌이":2217,"는게":2218,"자가":2219,"해지는":2220,"▁있을":2221,"합니다.":2222,"고..":2223,"▁영화중":2224,"▁끌":2225,"버린":2226,"▁알고":2227,"▁약간":2228,"▁엉성":2229,"성을":2230,"이라도":2231,"▁돋":2232,"말이":2233,"듯한":2234,"▁왕":2235,"워서":2236,"좋은":2237,"▁이름":2238,"▁감사":2239,"▁프로":2240,"기만":2241,"력이":2242,"전개":2243,"이야기":2244,"하시":2245,"▁여기":2246,"가지":2247,".....":2248,"▁내용은":2249,"합니다.\n":2250,"▁걸작":2251,"▁이쁘":2252,"▁대체":2253,"▁누가":2254,"▁얼굴":2255,"▁읽":2256,"▁비슷":2257,"▁똥":2258,"▁하지":2259,"▁번":2260,"하네요":2261,"▁후반":2262,"▁공포영화":2263,"▁로맨스":2264,"냐?\n":2265,"▁ᅳᅳ\n":2266,"그리고":2267,"▁철":2268,"▁이정도":2269,"입니다\n":2270,"▁영상미":2271,"▁훨씬":2272,"느낌":2273,"▁재미있었":2274,"▁가슴이":2275,"▁ᅲ":2276,"대한":2277,"으니":2278,"▁감동도":2279,"▁갈수록":2280,"▁여주인공":2281,"▁존나":2282,"▁눈물이":2283,"▁티비":2284,"▁CG":2285,"▁첫":2286,"굉장":2287,"했다":2288,"▁그나마":2289,"▁실화":2290,"▁B급":2291,"▁사람들":2292,"▁키":2293,"것을":2294,"자체":2295,"리를":2296,"▁노잼":2297,"가서":2298,"군요":2299,"재밋":2300,"▁비교":2301,"▁괜찮았":2302,"▁똑":2303,"한다.":2304,"▁죄":2305,"▁흔":2306,"이건":2307,"~~~":2308,"냐\n":2309,"인생":2310,"점이":2311,"▁없다":2312,"▁재밌다":2313,"▁연기를":2314,"▁g":2315,"▁맛":2316,"노잼":2317,"▁전체":2318,"▁발연기":2319,"▁^^\n":2320,"▁잘봤":2321,"▁비디오":2322,"▁S":2323,"니다\n":2324,"지...":2325,"▁트":2326,"멜로":2327,"▁어렸":2328,"합니다\n":2329,"▁기억이":2330,"▁2편":2331,"▁그래서":2332,"▁으":2333,"▁밖에":2334,"라서":2335,"이네":2336,"▁장르":2337,"????":2338,"▁s":2339,"▁갖":2340,"▁벌":2341,"▁단순":2342,"▁어설픈":2343,"▁늘":2344,"시절":2345,"▁것도":2346,"▁굉장":2347,"수준":2348,"▁사람들이":2349,"▁초딩":2350,"▁네이버":2351,"ood":2352,"ᄋᄋ":2353,"▁취":2354,"▁있고":2355,"▁느낄":2356,"▁200":2357,"나온":2358,"이라면":2359,"까?":2360,"시키":2361,"▁알게":2362,"▁보여주는":2363,"보게":2364,"보기":2365,"지를":2366,"▁딸":2367,"▁송":2368,"했지만":2369,"▁다들":2370,"▁귀엽":2371,"개도":2372,"▁19":2373,"▁쳐":2374,"▁다음":2375,"▁오글":2376,"ᅲᅲᅲᅲ":2377,"지지":2378,"▁이미":2379,"라.":2380,"이였":2381,"▁영화..\n":2382,"마지막":2383,"스가":2384,"▁시즌":2385,"▁인물":2386,"▁것을":2387,"▁영화,":2388,"▁꼬":2389,"▁ᄏᄏᄏᄏᄏᄏᄏᄏ":2390,"아이":2391,"정이":2392,"한번":2393,"▁마이":2394,"er":2395,"▁쓸":2396,"▁상황":2397,"려서":2398,"▁한국영화":2399,"▁결말이":2400,"▁간만에":2401,"▁테":2402,"으면서":2403,"▁영화관에서":2404,"다시":2405,"잖아":2406,"▁이것":2407,"▁성룡":2408,"그런":2409,"나요":2410,"라면":2411,"었다\n":2412,"하하":2413,"▁섹":2414,"머니":2415,"인의":2416,"▁한마디":2417,"짜리":2418,"는데..":2419,"▁주고":2420,"▁좋은데":2421,"▁등장":2422,"▁.\n":2423,"▁3류":2424,"▁교훈":2425,"▁c":2426,"었다.\n":2427,"▁화려":2428,"▁존재":2429,"완전":2430,"▁이후":2431,"보고싶":2432,"▁킬링타임용":2433,"▁풍":2434,"다른":2435,"땜에":2436,"자\n":2437,"▁바로":2438,"▁온":2439,"▁훈":2440,"아야":2441,"있고":2442,"▁독특":2443,"론가":2444,"움\n":2445,"▁아님":2446,"▁재밌고":2447,"▁생각을":2448,"▁감동적인":2449,"▁판타":2450,"▁멍":2451,"거야":2452,"▁잔잔한":2453,"▁맘에":2454,"▁그리":2455,"▁평가":2456,"▁여배우":2457,"▁스토리는":2458,"▁애들":2459,"세요\n":2460,"▁전부":2461,"건데":2462,"▁잘못":2463,"▁배우들이":2464,"나\n":2465,"연히":2466,"▁사회":2467,"▁있을까":2468,"다는게":2469,"▁직":2470,"감이":2471,"▁보니":2472,".....\n":2473,"▁다운":2474,"점은":2475,"▁없어":2476,"▁삼류":2477,"ᅮ\n":2478,"▁혹":2479,"▁대해":2480,"▁진정한":2481,"▁틀":2482,"▁빵":2483,"아닌":2484,"이팅":2485,"구요":2486,"할때":2487,"▁어울":2488,"▁상당히":2489,"고는":2490,"▁그대로":2491,"▁감동을":2492,"했다.\n":2493,"▁거의":2494,"정도로":2495,"▁정도로":2496,"▁재미는":2497,"▁소설":2498,"▁~":2499,"▁영화인데":2500,"겠다":2501,"수를":2502,"▁생각보다":2503,"▁감동이":2504,"▁같은데":2505,"나오는":2506,"▁ᅳ":2507,"▁해서":2508,"모르":2509,"▁다르":2510,"▁높은":2511,"▁항":2512,"중간":2513,"▁허무":2514,"▁세계":2515,"................":2516,"들어":2517,"보다는":2518,"스타":2519,"▁재미있는":2520,"▁했는데":2521,"▁ᄍᄍ":2522,"리의":2523,"▁예상":2524,"▁두번":2525,"▁중간에":2526,"을듯":2527,"을텐데":2528,"▁나와서":2529,"10":2530,"없다":2531,"▁자연":2532,"▁뭐야":2533,"에서도":2534,"여자":2535,"▁영화!\n":2536,"▁휴":2537,"봐야":2538,"▁좋아요":2539,"가?":2540,"년도":2541,"년이":2542,"▁어이":2543,"▁드라마\n":2544,"▁볼만한":2545,"▁....":2546,"댓글":2547,"▁영화...\n":2548,"▁당신":2549,"▁몇번":2550,"▁윤":2551,"▁구성":2552,"거나":2553,"분들":2554,"이게":2555,"임.":2556,"다....\n":2557,"▁봐서":2558,"▁겁":2559,"▁어른":2560,"▁기다":2561,"▁최고\n":2562,"ᅳᅳ\n":2563,"▁봣":2564,"버렸":2565,"지?\n":2566,"▁영화다.":2567,"▁나의":2568,"▁이영화를":2569,"▁까":2570,"▁자기":2571,"▁실제":2572,"▁혼자":2573,"겠지만":2574,"▁잃":2575,"시대":2576,"▁봤어요":2577,"▁에로":2578,"1점":2579,"▁(":2580,"▁착":2581,"기대":2582,"되고":2583,"라니":2584,"▁평점을":2585,"▁O":2586,"▁밑":2587,"어나":2588,"저히":2589,"▁이번":2590,"▁맨":2591,"▁압":2592,"▁멜로":2593,"어가":2594,"여서":2595,"했다\n":2596,"▁아버":2597,"???":2598,"을수":2599,"에서는":2600,"▁각본":2601,"▁흑":2602,"때마다":2603,"▁안된":2604,"▁제가":2605,",,,,":2606,"▁마음에":2607,"▁빈":2608,"▁...\n":2609,"▁슬픈":2610,"▁굿\n":2611,"▁굉장히":2612,"다!":2613,"에선":2614,"▁좀비":2615,"▁장면이":2616,"▁낮은":2617,"▁묘":2618,"음악":2619,"▁더욱":2620,"▁머리":2621,"▁질질":2622,"▁어디서":2623,"▁갑자기":2624,"-_-":2625,"▁어쩌":2626,"▁있어서":2627,"▁평범":2628,"사가":2629,";;;;":2630,"랑스":2631,"이트":2632,"하고,":2633,"▁지루함":2634,"▁원작을":2635,"▁저런":2636,"▁보여준":2637,"▁방송":2638,"▁즐거":2639,"▁빨리":2640,"▁권":2641,"보면서":2642,"는데,":2643,"▁여주":2644,"▁누구":2645,"▁극장판":2646,"▁새로운":2647,"▁확실":2648,"▁빛":2649,"네...":2650,"던가":2651,"▁볼수":2652,"▁금":2653,"네요...":2654,"▁봤지만":2655,"▁예쁘":2656,"▁작품\n":2657,"▁어이없":2658,"▁2점":2659,"▁감독님":2660,"▁보여주":2661,"▁그녀":2662,"▁하게":2663,"▁못하는":2664,"▁재미없는":2665,"▁상영":2666,"▁벗":2667,"▁슈":2668,"▁..\n":2669,"말고":2670,"▁의도":2671,"▁크리스":2672,"▁영화다":2673,"▁개그":2674,"▁끝나":2675,"▁해야":2676,"▁불편":2677,"▁훌륭한":2678,"▁밀":2679,"일이":2680,"~~~\n":2681,"▁생각해":2682,"▁같다.":2683,"▁화면":2684,"하자":2685,"▁가치":2686,"▁같아":2687,"▁믿고":2688,"▁겨":2689,"▁듣":2690,"▁회":2691,"▁흠":2692,"우드":2693,"코미디":2694,"▁생각하게":2695,"▁꺼":2696,"▁놓":2697,"근데":2698,"에겐":2699,"▁자체가":2700,"▁ᄉ":2701,"었음":2702,"유의":2703,"해\n":2704,"▁너무너무":2705,"▁전형":2706,"▁뭐가":2707,"▁저는":2708,"▁시청률":2709,"▁운":2710,"와서":2711,"▁일단":2712,"▁항상":2713,"▁M":2714,"해주":2715,"어요.\n":2716,"▁꿀잼":2717,"지게":2718,"하니":2719,"▁있지만":2720,"▁역대":2721,"▁예고":2722,"▁성우":2723,"▁흥행":2724,"▁대단한":2725,"▁탄탄":2726,"▁봄":2727,"▁씨":2728,"▁왔":2729,"▁필":2730,"현실":2731,"▁있어":2732,"▁만드":2733,"▁그러나":2734,"여\n":2735,"진진":2736,"그러":2737,"봐서":2738,"조건":2739,"▁감성":2740,"▁만점":2741,"보다가":2742,"▁살인":2743,"▁201":2744,",.":2745,"▁빌":2746,"▁향":2747,"도록":2748,"▁아닐":2749,"▁가지고":2750,"▁중요":2751,"▁써":2752,"군\n":2753,"▁없어서":2754,"▁평론가":2755,"▁수가":2756,"▁비해":2757,"▁사람은":2758,"▁주인공이":2759,"메디":2760,"속에":2761,"▁관람":2762,"▁ᄒ\n":2763,"남자":2764,"하는거":2765,"이라니":2766,"하지않":2767,"▁처음부터":2768,"▁TV":2769,"in":2770,"▁충분히":2771,"들아":2772,"리티":2773,"▁한심":2774,"▁아깝다\n":2775,"▁순간":2776,"~!\n":2777,"한다.\n":2778,"▁한편":2779,"▁이런영화":2780,"▁것은":2781,"하지도":2782,"▁돋보":2783,"▁짝":2784,"한영화":2785,"▁좋다":2786,"내가":2787,"무리":2788,"▁진행":2789,"▁있다.":2790,"▁소리":2791,"▁참고":2792,"▁ᄏᄏᄏᄏ\n":2793,"▁헐리":2794,"나?\n":2795,"좋았":2796,"▁해도":2797,"▁개연성":2798,"▁됐":2799,"▁헤":2800,"▁알겠":2801,"▁점점":2802,"▁쉽":2803,"별로":2804,"사회":2805,"하다고":2806,";;;":2807,"▁그런지":2808,"▁리얼":2809,"▁프랑스":2810,"▁안타깝":2811,"▁루":2812,"▁댓글":2813,"▁영화인":2814,"조차":2815,"▁영화!":2816,"▁만족":2817,"▁잘만들":2818,"▁tv":2819,"이코":2820,"▁어려":2821,";;;\n":2822,"10점":2823,"▁급":2824,"되어":2825,"스의":2826,"▁나이":2827,"▁시절":2828,"스럽고":2829,"▁식상":2830,"▁젊":2831,"영화중":2832,"▁몰랐":2833,"▁훈훈":2834,"▁a":2835,"만이":2836,"만으로도":2837,"는데...":2838,"▁자극":2839,"▁good":2840,"▁능":2841,"▁든":2842,"▁섬":2843,"히려":2844,"▁분위기":2845,"▁m":2846,"▁맥":2847,"▁소중":2848,"▁참신":2849,"▁먹먹":2850,"▁홍콩":2851,"▁승":2852,"만의":2853,"으며":2854,"짜증":2855,"▁봤다.":2856,"▁죽는":2857,"▁황당":2858,"시리즈":2859,"저씨":2860,"▁그닥":2861,"▁이영화는":2862,"▁케이":2863,"▁창":2864,"러운":2865,"신이":2866,"▁그때":2867,"▁어쩔":2868,"▁짧":2869,"▁쓰레기\n":2870,"▁선택":2871,"▁전개가":2872,"▁엉망":2873,"▁흥미진진":2874,"▁찌":2875,"었어요":2876,"촬영":2877,"▁유명":2878,"▁한마디로":2879,"//":2880,"리게":2881,"웃음":2882,"줘야":2883,"한게":2884,"효과":2885,"▁평점은":2886,"▁불륜":2887,"▁도저히":2888,"▁망작":2889,"▁카메":2890,"▁안타까":2891,"▁깔":2892,"▁묻":2893,"▁페":2894,"▁가는":2895,"▁무조건":2896,"▁여전":2897,"▁엄청난":2898,"▁검":2899,"▁놈":2900,"아도":2901,"최악":2902,"하긴":2903,"▁더럽게":2904,"▁어릴때":2905,"많은":2906,"민국":2907,"영화..":2908,"ᄏᄏᄏᄏ\n":2909,"▁감독은":2910,"▁다시봐도":2911,"▁편집":2912,"이면":2913,"해진":2914,"▁이어":2915,"▁끝내":2916,"▁지금까지":2917,"▁과거":2918,"▁아쉬운":2919,"▁얘기":2920,"▁쓴":2921,"파이":2922,"▁있다.\n":2923,"▁최고였":2924,"▁모르고":2925,"다....":2926,"인물":2927,"지..\n":2928,"▁사랑을":2929,"▁-_-":2930,"▁뮤":2931,"기고":2932,"지금":2933,"한다\n":2934,"▁이것도":2935,"▁그게":2936,"▁안나":2937,",\n":2938,"요..":2939,"추천":2940,"▁이리":2941,"▁진지":2942,"▁9점":2943,"▁범죄":2944,"▁멍청":2945,"들\n":2946,"처음":2947,"▁사람들은":2948,"▁원래":2949,"▁돈주고":2950,"겠다\n":2951,"▁미안":2952,"▁판타지":2953,"영상":2954,"영화.\n":2955,"▁끼":2956,"연출":2957,"영화로":2958,"▁영화다.\n":2959,"▁하면":2960,"▁줄거리":2961,"▁물론":2962,"▁희망":2963,"그램":2964,"막장":2965,"당시":2966,"보이":2967,"알았":2968,"▁되었":2969,"▁초등":2970,"▁견":2971,"대박":2972,"편이":2973,"▁재밌는데":2974,"▁자꾸":2975,"▁설명":2976,"▁힘든":2977,"어로":2978,"▁아빠":2979,"▁최근":2980,"▁평점에":2981,"▁결혼":2982,"▁후반부":2983,"▁?":2984,"▁갔":2985,"▁넣":2986,"▁뜬":2987,"▁북":2988,"▁!\n":2989,"가고":2990,"방송":2991,"애니":2992,"없음":2993,"▁가능":2994,"▁전설":2995,"▁그래픽":2996,"지않는":2997,"▁로맨틱":2998,"▁따뜻한":2999,"까?\n":3000,"▁있다는":3001,"▁미화":3002,"▁유치한":3003,"스런":3004,"이하":3005,"▁감상":3006,"▁재밌음":3007,"▁알려":3008,"▁저질":3009,"???\n":3010,"▁액션도":3011,"▁분명":3012,"▁전형적인":3013,"▁d":3014,"▁법":3015,"▁아..":3016,"▁사라":3017,"▁느꼈":3018,"▁합":3019,"님의":3020,"시는":3021,"▁내인생":3022,"네요..\n":3023,"▁가볍":3024,"▁괜히":3025,"▁친":3026,"▁^^":3027,"내는":3028,"하여":3029,"▁그럴":3030,"▁그림":3031,"▁배우가":3032,"▁\n":3033,"▁골":3034,"따위":3035,"함.\n":3036,"▁오히려":3037,"▁웃긴":3038,"▁예전에":3039,"▁억지로":3040,"▁느끼게":3041,"▁병맛":3042,"▁는":3043,"▁있는데":3044,"▁덕":3045,"▁찬":3046,"작가":3047,",,\n":3048,"▁영웅":3049,"▁이야기를":3050,"메이크":3051,"▁독립":3052,"▁무서운":3053,"▁완벽한":3054,"▁오글거":3055,"공포":3056,"명작":3057,"▁나쁘":3058,"▁바보":3059,"▁인간의":3060,"▁깜":3061,"▁학교":3062,"어진":3063,"하는게":3064,"▁3점":3065,"▁듯한":3066,"나면":3067,"네..\n":3068,"대의":3069,"지의":3070,"프로":3071,"▁대작":3072,"▁연출력":3073,"그래도":3074,"▁SF":3075,"▁ᅮᅮ":3076,"자의":3077,"해라":3078,"......":3079,"▁별루":3080,"▁우연히":3081,"▁완성도":3082,"▁되어":3083,"▁동화":3084,"▁!":3085,"▁워":3086,"것은":3087,"오는":3088,"은데":3089,"▁영화임":3090,"▁보는데":3091,"▁해준":3092,"▁바라":3093,"▁기대하고":3094,"▁멋지":3095,"▁대한민국":3096,"▁흘러":3097,"▁팔":3098,"네.\n":3099,"님이":3100,"스를":3101,"▁나쁜":3102,"▁봤다":3103,"▁인정":3104,"▁뭐냐":3105,"▁현재":3106,"▁모르는":3107,"인가?":3108,"▁스타일":3109,".5":3110,"ST":3111,"워요":3112,"평가":3113,"함과":3114,"▁영화보다":3115,"▁돈이":3116,"▁요소":3117,"보는데":3118,"움이":3119,"▁없을":3120,"▁진실":3121,"▁전편":3122,"▁좋은영화":3123,"▁신기":3124,"▁아이들이":3125,"▁아무것도":3126,"▁적당":3127,"▁복수":3128,"▁을":3129,"실망":3130,"▁전기":3131,"▁이런거":3132,"▁지금도":3133,"▁ᄒ":3134,"예산":3135,"웠던":3136,"지...\n":3137,"▁허술":3138,"▁관계":3139,"▁풀어":3140,"심이":3141,"인간":3142,"▁다행":3143,"▁영원":3144,"▁노력":3145,"▁죽음":3146,"▁처음으로":3147,"▁서로":3148,"▁잊혀":3149,"▁메세":3150,"▁어설프":3151,"--":3152,"심을":3153,"우는":3154,"영화에":3155,"▁중반":3156,"▁화이팅":3157,"안되는":3158,"▁이러":3159,"▁이런걸":3160,"▁같다.\n":3161,"같은데":3162,"▁특유의":3163,"▁부족한":3164,"▁ost":3165,"▁핵":3166,"내고":3167,"리아":3168,"시고":3169,"▁전문":3170,"▁유머":3171,"▁바람":3172,"▁코메디":3173,"▁ᄃᄃ":3174,"이네요":3175,"▁2시간":3176,"▁성장":3177,"▁즐겁":3178,"▁앞으로":3179,"▁천재":3180,"▁다운받":3181,"▁촌":3182,"▁플":3183,"기엔":3184,"▁웃겨":3185,"했고":3186,"▁같아요":3187,"최고의":3188,"▁멀":3189,"▁탈":3190,"▁라는":3191,"리에":3192,"있게":3193,"▁전작":3194,"▁저도":3195,"▁연출이":3196,"▁놀라":3197,"▁청춘":3198,"강추":3199,"드가":3200,"안하고":3201,"어울":3202,"음...":3203,"이에":3204,"▁영화다\n":3205,"▁영화에서":3206,"▁부모":3207,"▁장면은":3208,"▁목소리":3209,"he":3210,"▁촬영":3211,"♡\n":3212,"상을":3213,"스로":3214,"한건":3215,"한다는":3216,"▁여성":3217,"▁아닌가":3218,"ᄏᄏᄏᄏᄏᄏᄏᄏᄏᄏᄏᄏᄏᄏᄏᄏ":3219,"▁리메이크":3220,"▁면":3221,"세가":3222,"▁아니다.":3223,"▁왜이리":3224,"▁어렸을때":3225,"기\n":3226,"년에":3227,"▁아오":3228,"▁아프":3229,"▁그려":3230,"▁최고다":3231,"▁우울":3232,"▁0":3233,"▁류":3234,"년전":3235,"화가":3236,"▁지난":3237,"▁못보":3238,"▁비슷한":3239,"▁D":3240,"▁나라":3241,"▁만큼":3242,"▁않을":3243,"▁말하고":3244,"▁중에":3245,"▁재미있어요":3246,"▁해주":3247,"▁노출":3248,"▁또한":3249,"~!":3250,"도,":3251,"▁남아":3252,"소한":3253,"식이":3254,"▁영화입니다.":3255,"▁100":3256,"▁쓰레기영화":3257,"▁유치하고":3258,"▁졸라":3259,"▁모습이":3260,"▁뜬금":3261,"▁ᅲ\n":3262,"▁ᅮᅮ\n":3263,"다,":3264,"았던":3265,"역시":3266,"인거":3267,"▁이래":3268,"▁그의":3269,"▁사건":3270,"▁말고":3271,"많이":3272,"했음":3273,"▁이연":3274,"...이":3275,"▁스토리에":3276,"▁비추":3277,"▁짐":3278,"그라":3279,"다운":3280,"됨\n":3281,"려면":3282,"무슨":3283,"아먹":3284,"치게":3285,"▁정치":3286,"▁가득":3287,"▁시간낭비":3288,"▁재밌게봤":3289,"▁귀여운":3290,"▁철학":3291,"▁짓":3292,"개봉":3293,"점을":3294,"정을":3295,"▁12":3296,"▁이상한":3297,"▁게임":3298,"나..":3299,"없다\n":3300,"장이":3301,"▁보이":3302,"▁안보":3303,"▁드라마를":3304,"배우들":3305,"▁누군":3306,"▁접":3307,"가\n":3308,"자는":3309,"▁봤습니다.":3310,"▁돌려":3311,"▁진부한":3312,"▁던":3313,"▁응":3314,"▁학":3315,"놓은":3316,"라.\n":3317,"어지는":3318,"자들":3319,"지못":3320,"지.\n":3321,"▁없음":3322,"▁어찌":3323,"▁안맞":3324,"▁재미있고":3325,"▁해피":3326,"▁귀신":3327,"▁퍼":3328,"세계":3329,"야\n":3330,"인은":3331,"져서":3332,"하다는":3333,"해준":3334,"▁좋다\n":3335,"▁스케":3336,"▁아깝다.":3337,"▁마음을":3338,"▁짱짱":3339,"▁행동":3340,"▁경찰":3341,"▁전체적으로":3342,"▁화려한":3343,"▁예고편":3344,"▁뜨":3345,"기억":3346,"하던":3347,"▁15":3348,"▁그런데":3349,"▁울었":3350,"하면서도":3351,"▁얻":3352,"대사":3353,"이의":3354,"▁아는":3355,"네요~":3356,"▁안나오":3357,"▁감동적":3358,"▁지루해":3359,"▁눈이":3360,"▁별로였":3361,"▁너무나도":3362,"감을":3363,"▁아마":3364,"▁전달":3365,"▁마치":3366,"▁미래":3367,"▁보고나서":3368,"▁드라마가":3369,"▁예전":3370,"▁손발":3371,"▁삶을":3372,"▁먼저":3373,"심히":3374,"아\n":3375,"알바":3376,"았다.":3377,"자를":3378,"하냐":3379,"▁소재는":3380,"재밌게":3381,"▁무엇보다":3382,"^\n":3383,"▁샤":3384,"▁였":3385,"▁춤":3386,"네...\n":3387,"르고":3388,"수도":3389,"수있는":3390,"없다.":3391,"해주는":3392,"▁나만":3393,"▁다가":3394,"▁어렵":3395,"▁한계":3396,"▁대충":3397,"▁잘생":3398,"▁성공":3399,"▁명작\n":3400,"▁이야기가":3401,"▁반전이":3402,"▁왠지":3403,"▁붙":3404,"리도":3405,"만하면":3406,"반전":3407,"▁이런게":3408,"▁드라마.":3409,"▁재미없다":3410,"▁여자가":3411,"▁:":3412,"▁월":3413,"거지":3414,"난다":3415,"분에":3416,"▁시도":3417,"면서도":3418,"▁작품이":3419,"▁아깝다.\n":3420,"▁이영화가":3421,"▁싫어":3422,"▁OOO기":3423,"▁A":3424,"▁논":3425,"▁웬":3426,"▁힐":3427,"마저":3428,"모습":3429,"▁그랬":3430,"▁나머":3431,"▁나에게":3432,"▁다소":3433,"▁애들이":3434,"▁지금봐도":3435,"▁피해":3436,"▁메시":3437,"▁인상깊":3438,"▁환상":3439,"re":3440,"▁늙":3441,"▁뒷":3442,"예요":3443,"▁영화중에":3444,"▁이젠":3445,"▁재미없고":3446,"▁8점":3447,"▁자신의":3448,"▁깊은":3449,"극장":3450,"인을":3451,"▁재밌어":3452,"▁보고있":3453,"▁눈을":3454,"▁심심":3455,"구나\n":3456,"▁허접한":3457,"▁확실히":3458,"순간":3459,"스는":3460,"▁조연":3461,"▁와닿":3462,"▁7점":3463,"▁러브":3464,"▁어이없는":3465,"▁밑에":3466,"닝타임":3467,"랄까":3468,"새끼":3469,"스릴":3470,"▁보이는":3471,"▁자유":3472,"사람이":3473,"▁매력적인":3474,"▁모습을":3475,"▁케이블":3476,"▁낭비":3477,"번째":3478,"했으면":3479,"▁잘만든":3480,"▁미소":3481,"▁했던":3482,"▁글쎄":3483,"▁군대":3484,"▁증":3485,"눈물":3486,"들만":3487,"말로":3488,"절한":3489,"▁스토리,":3490,"▁내용을":3491,"세요.":3492,"▁맞는":3493,"▁90년대":3494,"▁젤":3495,"만으로":3496,"지컬":3497,"퀄리티":3498,"터리":3499,"특히":3500,"하다..":3501,"하고싶":3502,"▁심리":3503,"▁아까움":3504,"▁속편":3505,"스럽게":3506,"▁4점":3507,"▁왜이렇게":3508,"▁프로그램":3509,"**":3510,"▁씬":3511,"고...":3512,"었지만":3513,"하네\n":3514,"▁아...":3515,"▁나를":3516,"▁하루":3517,"▁연애":3518,"지도않":3519,"▁취향":3520,"▁딴":3521,"과는":3522,"로서":3523,"줘서":3524,"▁나서":3525,"▁좋다.":3526,"▁고민":3527,"하기만":3528,"▁꾸":3529,"가족":3530,"려다":3531,"성애":3532,"을거":3533,"이해":3534,"일뿐":3535,"▁아놔":3536,"▁스토리와":3537,"▁재미없음":3538,"▁제작비":3539,"▁G":3540,"▁끊":3541,"마음":3542,"▁영화보고":3543,"▁못하고":3544,"▁남주":3545,"▁사람을":3546,"▁해주는":3547,"▁의외":3548,"▁10점\n":3549,"▁있었던":3550,"▁느껴지는":3551,"▁감정이":3552,"▁부분이":3553,"▁낚였":3554,"▁겁나":3555,"▁ᄉᄇ":3556,"▁+":3557,"더만":3558,"로는":3559,"무서":3560,"시켜":3561,"일까":3562,"▁그럼":3563,"▁봤습니다":3564,"▁연기에":3565,"▁저예산":3566,"▁실패":3567,"▁넘어":3568,"▁외국":3569,"▁찍은":3570,"▁세상에":3571,"▁어색한":3572,"▁순수한":3573,"▁젊은":3574,"▁카메라":3575,"▁라이":3576,"구려":3577,"도없고":3578,"듯.":3579,"소년":3580,"소재":3581,"었으면":3582,"▁아저씨":3583,"▁재밌네요":3584,"▁재미없어":3585,"▁화가":3586,"사람들":3587,"▁떨어지는":3588,"▁OST":3589,"저럭":3590,"하네요\n":3591,"▁영화입니다.\n":3592,"▁감탄":3593,"▁재밌다\n":3594,"▁느낀":3595,"▁싶다.\n":3596,"▁중간중간":3597,"▁cg":3598,"▁<":3599,"▁w":3600,"▁까지":3601,"나요?":3602,"만드는":3603,"아버":3604,"▁오락":3605,"▁사랑이":3606,"▁좋았다.":3607,"▁아닌데":3608,"▁유쾌한":3609,"▁여전히":3610,"으론":3611,"하려는":3612,"▁가끔":3613,"▁아니면":3614,"▁역할":3615,"▁보는게":3616,"▁역시나":3617,"▁소재를":3618,"아니고":3619,"▁알았는데":3620,"▁엑":3621,"사는":3622,"와르":3623,"움을":3624,"이를":3625,"지말":3626,"▁있다면":3627,"▁기본":3628,"▁아니다":3629,"▁드라마는":3630,"▁액션은":3631,"▁액션이":3632,"▁아까워":3633,"▁특별":3634,"▁80년대":3635,"▁곳":3636,"▁씁":3637,"림\n":3638,"안되":3639,"한다면":3640,"▁사극":3641,"▁봤었는데":3642,"어요~":3643,"▁조폭":3644,"▁드는":3645,"▁제작진":3646,"▁섹시":3647,"▁꼴":3648,"▁돼":3649,"▁밤":3650,"가?\n":3651,"해보":3652,"▁어이가":3653,"▁시선":3654,"▁스토리를":3655,"▁유일":3656,"▁슬픔":3657,"▁블랙":3658,"▁독특한":3659,"나올":3660,"네여":3661,"럭저럭":3662,"아아":3663,"이제":3664,"▁이하":3665,"▁다만":3666,"▁내생":3667,"▁전에":3668,"▁알아":3669,"▁볼때마다":3670,"▁저렇게":3671,"▁결론":3672,"▁할말":3673,"▁리뷰":3674,"▁매력이":3675,"▁연기력이":3676,"▁호러":3677,"▁이유가":3678,"▁평범한":3679,"(?":3680,"▁폐":3681,"결말":3682,"영화도":3683,"▁이기":3684,"▁그들의":3685,"▁스트":3686,"▁가진":3687,"▁평생":3688,"▁거지":3689,"▁3편":3690,"▁굿굿":3691,"▁소름끼":3692,"▁쩔":3693,"겠지":3694,"니아":3695,"이렇게":3696,"▁안봤":3697,"▁모자":3698,"▁미스":3699,"▁예쁜":3700,"▁기대를":3701,"▁흥미롭":3702,"▁괴물":3703,"레스":3704,"위해":3705,"트가":3706,"▁좋을":3707,"▁아니지만":3708,"▁끝나고":3709,"▁뭔지":3710,"▁짜증나":3711,"▁헛":3712,"식으로":3713,"요.\n":3714,"펑펑":3715,"했을":3716,"▁연예":3717,"▁안하고":3718,"▁재밌었는데":3719,"▁연기와":3720,"이라서":3721,"▁살짝":3722,"하지마":3723,"▁악역":3724,"▁다큐멘":3725,"▁밝":3726,"끼리":3727,"화를":3728,"▁시원":3729,"하는지":3730,"▁몰입이":3731,"▁보기엔":3732,"▁그렇고":3733,"▁통해":3734,"▁희생":3735,"▁깔끔":3736,"▁푸":3737,"라가":3738,"명이":3739,"시아":3740,"았다":3741,"즈니":3742,"한것":3743,"▁봤다가":3744,"▁일어":3745,"▁고전":3746,"▁작품.":3747,"▁했지만":3748,"▁어린이":3749,"▁풋":3750,"나가":3751,"남는":3752,"먹고":3753,"아주":3754,"원이":3755,"▁영화지만":3756,"▁하는데":3757,"▁안본":3758,"▁일상":3759,"▁지루하다":3760,"▁끝난":3761,"▁사랑하는":3762,"▁분노":3763,"▁이야기\n":3764,"▁과연":3765,"▁용서":3766,"▁굳이":3767,"▁끔":3768,"▁녹":3769,"▁밥":3770,"디어":3771,"유치":3772,"좋고":3773,"......\n":3774,"▁만들지":3775,"▁난해":3776,"▁주인공의":3777,"▁음악이":3778,"▁종교":3779,"▁어릴적":3780,"▁어렸을":3781,"▁압권":3782,"▁슈퍼":3783,"99":3784,"▁I":3785,"▁겉":3786,"▁십":3787,"주얼":3788,"▁그다":3789,"▁그럭저럭":3790,"▁나타":3791,"▁정말로":3792,"에서의":3793,"▁거기":3794,"▁이건뭐":3795,"▁하나하나":3796,"▁현실을":3797,"▁짜증나는":3798,"▁레이":3799,"▁티비에서":3800,"bb":3801,"▁i":3802,"▁짠":3803,"▁톰":3804,"걸로":3805,"까진":3806,"되지":3807,"듯이":3808,"씨가":3809,"었고":3810,"▁사랑에":3811,"▁불쾌":3812,"▁만들어진":3813,"▁잼있게":3814,"▁나왔으면":3815,"▁신선한":3816,"▁전기세가":3817,"~!!\n":3818,"▁뭉":3819,"서야":3820,"요?\n":3821,"▁영화네요":3822,"▁재난":3823,"▁재미를":3824,"▁쓰래":3825,"▁부터":3826,"▁작품성":3827,"▁처음엔":3828,"▁표절":3829,"을까?":3830,"▁열심히":3831,"▁이연걸":3832,"▁칼":3833,"군요.":3834,"드립":3835,"무섭":3836,"작\n":3837,"제목":3838,"한국":3839,"▁보시길":3840,"으로서":3841,"▁더이상":3842,"▁같다\n":3843,"▁재미없다\n":3844,"▁후속":3845,"▁막판":3846,"▁포장":3847,"▁덜":3848,"▁썩":3849,"▁챙":3850,"▁침":3851,"봐라":3852,"이터":3853,"▁보시":3854,"▁사기":3855,"▁사는":3856,"▁있다\n":3857,"▁개판":3858,"▁봐라":3859,"▁나오고":3860,"▁아름답고":3861,"▁귀엽고":3862,"▁뮤지컬":3863,"▁축":3864,"기의":3865,"끄럽":3866,"다!!\n":3867,"무비":3868,"보지마":3869,"분이":3870,"줌마":3871,"어요..":3872,"▁동물":3873,"더라도":3874,"▁재밋게":3875,"▁공감이":3876,"▁싸이코":3877,"▁진심으로":3878,"▁감동적이고":3879,",,,\n":3880,"▁상상력":3881,"▁아닐까":3882,"▁늦":3883,"와는":3884,"▁무지":3885,"▁무협":3886,"▁소녀":3887,"▁배우의":3888,"▁20년":3889,"▁10년":3890,"▁영환":3891,"▁필요한":3892,"▁이유는":3893,"▁몸매":3894,"▁쇼":3895,"겠다.\n":3896,"류의":3897,"사를":3898,"없어":3899,"▁없음\n":3900,"▁감명":3901,"▁오그라":3902,"▁자막":3903,"▁고생":3904,"▁사랑과":3905,"▁상처":3906,"▁현대":3907,"지않은":3908,"▁떠나":3909,"▁채널":3910,"▁ᄌ":3911,"▁익":3912,"▁쩌":3913,"들에":3914,"죠?":3915,"진심":3916,"티비":3917,"하다가":3918,"했다는":3919,"▁되게":3920,"시간이":3921,"▁크게":3922,"▁놀랍":3923,"▁기분이":3924,"▁형편":3925,"▁혹시":3926,"(?)":3927,"an":3928,"ou":3929,"▁격":3930,"▁퀄리티":3931,"구하고":3932,"대는":3933,"돌아":3934,"수는":3935,"시킨":3936,"해지":3937,"▁아침":3938,"▁보러":3939,"▁말로":3940,"▁감동과":3941,"▁표정":3942,"▁소재가":3943,"다니..":3944,"▁말이필요":3945,"▁추억의":3946,"아깝다":3947,"▁흐름":3948,"▁이정도면":3949,"▁ᄍᄍ\n":3950,"▁잇":3951,"▁징":3952,"▁퇴":3953,"쵝오":3954,"▁가서":3955,"▁봤으면":3956,"▁전투":3957,"▁수도":3958,"연기가":3959,"▁두고":3960,"▁폭력":3961,"▁쓸데":3962,"▁엘":3963,"가능":3964,"그렇":3965,"보여":3966,"이니":3967,"이크":3968,"표현":3969,"▁그지":3970,"▁봤음":3971,"▁오버":3972,"▁생각나는":3973,"▁동생":3974,"▁삶의":3975,"▁소름돋":3976,"▁등장인물":3977,"▁쉽게":3978,"-\n":3979,"겠다.":3980,"들고":3981,"명의":3982,"안에":3983,"줄알았":3984,"▁좋다.\n":3985,"▁어제":3986,"▁사이":3987,"▁마무리":3988,"▁볼수록":3989,"▁지루해서":3990,"▁지루하지":3991,"▁별로\n":3992,"▁연출,":3993,"▁포기":3994,"보는게":3995,"아까운":3996,".2":3997,"▁꼽":3998,"▁맡":3999,"▁잤":4000,"아님":4001,"오빠":4002,"영화였":4003,"▁그립":4004,"▁정서":4005,"는데\n":4006,"▁말할":4007,"▁남녀":4008,"▁남을":4009,"▁신경":4010,"▁좋았던":4011,"▁강렬":4012,"▁우리가":4013,"▁드러":4014,"▁필요없는":4015,"▁봐야할":4016,"▁몇번을":4017,"▁북한":4018,"▁해피엔딩":4019,"▁끄":4020,"보세요":4021,"수의":4022,"이유":4023,"이자":4024,"임.\n":4025,"▁아련":4026,"▁나중에":4027,"▁스크":4028,"▁무시":4029,"▁소장":4030,"까지는":4031,"▁비주얼":4032,"▁사람의":4033,"▁설레":4034,"▁수준이":4035,"▁보고싶은":4036,"▁태어":4037,"▁가볍게":4038,"▁스케일":4039,"▁힐링":4040,"or":4041,"▁컨":4042,"▁활":4043,"남\n":4044,"도가":4045,"따라":4046,"▁미치":4047,"▁비극":4048,"▁끝나는":4049,"▁반성":4050,"▁봤는데..":4051,"▁소재로":4052,"▁반전도":4053,"▁받아":4054,"▁디즈니":4055,"▁산만":4056,"▁뇌":4057,"▁몽":4058,"▁ᄋᄋ":4059,"기로":4060,"독교":4061,"르노":4062,"속에서":4063,"언가":4064,"엄마":4065,"오글":4066,"의미":4067,"정신":4068,"▁이루":4069,"▁그린":4070,"▁나가":4071,"▁하면서":4072,"▁있게":4073,"▁조잡":4074,"▁거짓":4075,"▁눈빛":4076,"▁의심":4077,"▁몰라도":4078,"▁느낌\n":4079,"▁선생":4080,"▁제목이":4081,",2":4082,".ᅳ":4083,"▁런":4084,"▁움":4085,"▁메이":4086,"관계":4087,"전쟁":4088,"▁없고,":4089,"▁좋아서":4090,"▁의문":4091,"▁싸구려":4092,"평점이":4093,"▁국민":4094,"난다\n":4095,"당\n":4096,"리기":4097,"에만":4098,"이며":4099,"중의":4100,"해요\n":4101,"히는":4102,"▁영화같":4103,"▁말을":4104,"▁본방":4105,"▁일부":4106,"▁뭐지":4107,"▁김기":4108,"▁심각":4109,"하기도":4110,"▁음악도":4111,"▁올해":4112,"▁통쾌":4113,"▁똑같":4114,"▁났":4115,"▁찡":4116,"거운":4117,"고있":4118,"다~":4119,"밋밋":4120,"버리고":4121,"인듯\n":4122,"일본":4123,"자단":4124,"짐\n":4125,"찝찝":4126,"했어요":4127,"▁시시":4128,"▁역겨":4129,"▁시간을":4130,"인가?\n":4131,"▁점수를":4132,"▁깊이":4133,"▁엉성한":4134,"▁쉬":4135,"▁윌":4136,"▁라고":4137,"그인":4138,"대가":4139,"캐릭터":4140,"했는지":4141,"영화라고":4142,"▁영화....":4143,"▁있다":4144,"▁지구":4145,"▁가까":4146,"▁지루할":4147,"▁다시한번":4148,"▁좋아할":4149,"▁좋았고":4150,"▁연출도":4151,"▁인생을":4152,"▁능력":4153,"▁흡":4154,"듯..":4155,"라스":4156,"마스":4157,"였던":4158,"트콤":4159,"▁이때":4160,"▁않게":4161,"▁죽여":4162,"연기도":4163,"▁그런가":4164,"사람은":4165,"지않고":4166,"▁이제야":4167,"▁악당":4168,"▁언제나":4169,"▁깨닫":4170,"ad":4171,"▁꽃":4172,"▁농":4173,"▁펑펑":4174,"구니":4175,"만점":4176,"상이":4177,"우리":4178,"영화...":4179,"▁이쁜":4180,"▁아픔":4181,"▁지겹":4182,"▁스티":4183,"▁최고!\n":4184,"▁오랫":4185,"▁인터":4186,"▁아니다.\n":4187,"▁이해할":4188,"▁존경":4189,"▁듯\n":4190,"▁받았":4191,"▁광고":4192,"▁헐리우드":4193,"4년":4194,"▁쌍":4195,"드의":4196,"만화":4197,"뻐서":4198,"이후":4199,"하신":4200,"▁영화~":4201,"▁그것":4202,"▁생애":4203,"▁사랑스러운":4204,"▁30":4205,"▁방금":4206,"▁홍보":4207,"▁안되고":4208,"▁뛰어난":4209,"하시는":4210,"▁뉴":4211,"▁쫌":4212,"버리":4213,"▁영화라는":4214,"▁그걸":4215,"지만..":4216,"▁평이":4217,"습니다..":4218,"▁못할":4219,"▁30분":4220,"▁낮아서":4221,"▁어려운":4222,"▁섬세":4223,"▁풋풋":4224,"on":4225,"▁납":4226,"▁뜻":4227,"▁줬":4228,"음..\n":4229,"잼있":4230,"학년":4231,"▁시사회":4232,"다는거":4233,"▁드럽게":4234,"▁눈물을":4235,"▁딱히":4236,"감독이":4237,"▁잊을":4238,"▁산으로":4239,"▁마이너":4240,"▁씁쓸":4241,"▁E":4242,"▁쪽":4243,"나왔":4244,"난다.":4245,"하셨":4246,"영화라":4247,"▁연결":4248,"▁좋았는데":4249,"▁최악\n":4250,"▁명작이":4251,"▁아이들":4252,"▁발전":4253,"▁결말도":4254,"▁결말은":4255,"▁새벽":4256,"▁니콜":4257,"▁둘다":4258,"▁아버지":4259,"▁쓰래기":4260,"▁닥":4261,"▁싱":4262,"▁좌":4263,"▁체":4264,"▁밋밋":4265,"리\n":4266,"물\n":4267,"식을":4268,"여운":4269,"이션":4270,"하구":4271,"▁이따위":4272,"▁보인":4273,"▁무언가":4274,"▁생생":4275,"▁느와르":4276,"▁불구하고":4277,"▁살다":4278,"▁느낌을":4279,"▁단연":4280,"아니라":4281,"▁베스트":4282,"▁정신병":4283,"▁푹":4284,"▁쵝오":4285,"괜찮":4286,"되었":4287,"음을":4288,"작이":4289,"한다고":4290,"▁영화!!\n":4291,"▁나은":4292,"▁다니":4293,"▁하이":4294,"▁어머니":4295,"▁스포":4296,"▁대표":4297,"▁일반":4298,"▁고등":4299,"▁고통":4300,"▁좀더":4301,"▁바뀌":4302,"▁때문":4303,"▁지금은":4304,"▁드립":4305,"007":4306,"▁느끼는":4307,"아까워":4308,"▁닮":4309,"나와":4310,"느라":4311,"두고":4312,"봤다":4313,"성에":4314,"이\n":4315,"하네요.":4316,"▁나옴":4317,"▁남겨":4318,"▁10분":4319,"▁웃겼":4320,"▁성인":4321,"▁몰입해서":4322,"▁남자가":4323,"장면이":4324,"▁배우들도":4325,"▁출연진":4326,"▁죄다":4327,"▁묘사":4328,"▁잭":4329,"거리는":4330,"걸까":4331,"나도":4332,"아가":4333,"용\n":4334,"자고":4335,"준다\n":4336,"피소":4337,"함..":4338,"▁보니까":4339,"▁연기자":4340,"▁아니다\n":4341,"▁봤는데...":4342,"▁올라":4343,"▁여기서":4344,"ver":4345,"▁ᅮ":4346,"▁폴":4347,"답답":4348,"더군요":4349,"로우":4350,"봣는데":4351,"사의":4352,"▁한데":4353,"▁시걸":4354,"▁안돼":4355,"▁스스로":4356,"▁우주":4357,"이다...":4358,"▁발로":4359,"▁아까웠":4360,"▁현실적인":4361,"▁과장":4362,"▁외계":4363,"▁0점은":4364,"▁헐리웃":4365,"ie":4366,"▁e":4367,"▁ᄋ":4368,"▁냉":4369,"감도":4370,"고.":4371,"캐스팅":4372,"하려고":4373,"▁아류":4374,"으로써":4375,"▁재밌다.":4376,"▁인도":4377,"▁같아서":4378,"▁재미없다.":4379,"▁로그인":4380,"▁슬퍼":4381,"▁아직까지":4382,"▁떨어진":4383,"▁떠나서":4384,"▁작가가":4385,"▁시대를":4386,"▁단순한":4387,"▁견자단":4388,"at":4389,"▁뽑":4390,"▁앤":4391,"나보":4392,"셔서":4393,"소설":4394,"이냐":4395,"죠.":4396,"▁재밌음\n":4397,"▁전반":4398,"▁생각없이":4399,"▁영국":4400,"▁상업":4401,"▁처럼":4402,"▁이거보고":4403,"▁분들":4404,"▁모든게":4405,"▁무엇을":4406,"자체가":4407,"ing":4408,"스릴러":4409,"▁빡":4410,"▁찝찝":4411,"★★":4412,"계의":4413,"도안":4414,"수없는":4415,"영이":4416,"함에":4417,"▁영화보는":4418,"▁아들":4419,"▁생각나":4420,"▁하는거":4421,"▁와우":4422,"▁집에서":4423,"더라\n":4424,"▁레전":4425,"▁뒤로":4426,"▁러닝타임":4427,"▁옛날에":4428,"▁흔한":4429,"▁벌써":4430,"▁good\n":4431,"▁떡":4432,"노래":4433,"만드":4434,"봄\n":4435,"인트":4436,"임?":4437,"▁없지만":4438,"▁연속":4439,"▁지켜":4440,"▁시각":4441,"▁안보고":4442,"▁연기,":4443,"▁이런영화가":4444,"▁볼수있":4445,"▁명품":4446,"▁작품을":4447,"▁좋았다.\n":4448,"▁단지":4449,"▁누구나":4450,"▁뻔하고":4451,"▁외모":4452,"주고싶":4453,"▁재밌었어요":4454,"내용도":4455,"▁은근":4456,"▁슬프고":4457,"▁전문가":4458,"▁즐겁게":4459,"BS":4460,"▁h":4461,"▁줌":4462,"▁흉":4463,"과의":4464,"나옴":4465,"먹는":4466,"이리":4467,"▁주변":4468,"▁않아":4469,"▁기대안하고":4470,"▁1점\n":4471,"▁위대한":4472,"▁느낌.":4473,"▁발견":4474,"▁않는다.":4475,"▁5점":4476,"▁청소년":4477,"▁빠져들":4478,"▁!!\n":4479,"가락":4480,"된다.":4481,"듯..\n":4482,"러디":4483,"로도":4484,"받는":4485,"부족":4486,"씬은":4487,"양이":4488,"처구니":4489,"▁보길":4490,"▁가져":4491,"▁기독교":4492,"▁무비":4493,"▁들었":4494,"▁에휴":4495,"▁망쳐":4496,"▁속에":4497,"▁놀랐":4498,"▁느껴진":4499,"리스마":4500,"▁섞":4501,"이스":4502,"젠장":4503,"영화인데":4504,"▁한다.":4505,"▁시트콤":4506,"▁18":4507,"▁공부":4508,"▁반복":4509,"보고있":4510,"▁싶어":4511,"▁싶다\n":4512,"▁아이돌":4513,"배우들의":4514,"을까?\n":4515,"▁갈등":4516,"▁믿을":4517,"▁잔잔하고":4518,"▁대사가":4519,"▁웃기고":4520,"~~~~~~~~":4521,"▁초반에":4522,"▁유쾌하고":4523,"▁맨날":4524,"▁탄탄한":4525,"▁김기덕":4526,"▁쥐":4527,"▁쩐":4528,"소리가":4529,"시에":4530,"시작":4531,"언니":4532,"였는데":4533,"인들":4534,"죠\n":4535,"▁없다는":4536,"▁한참":4537,"▁13":4538,"▁말았":4539,"▁만들고":4540,"▁시간가는":4541,"▁특수":4542,"▁특이":4543,"▁일본영화":4544,"▁인생의":4545,"▁찍었":4546,"시키는":4547,"▁마이클":4548,"*\n":4549,"ᄃ\n":4550,"▁콜":4551,"▁쿠":4552,"▁타임":4553,"물을":4554,"미가":4555,"불어":4556,"석이":4557,"장난":4558,"주세요":4559,"호가":4560,"▁다양":4561,"▁있어야":4562,"▁봤다\n":4563,"▁같다":4564,"▁같았":4565,"▁볼게":4566,"▁결과":4567,"▁음악과":4568,"지마라":4569,"▁문화":4570,"▁편견":4571,"▁치밀":4572,"ᄃᄃ\n":4573,"▁국내":4574,"▁움직":4575,"12":4576,"▁f":4577,"▁척":4578,"간의":4579,"당한":4580,"되서":4581,"따구":4582,"아프":4583,"애들":4584,"어.":4585,"였다.":4586,"와의":4587,"제작":4588,"지어":4589,"하려":4590,"했음\n":4591,"▁영화입니다":4592,"네요...\n":4593,"▁여행":4594,"▁제로":4595,"▁생각하고":4596,"▁미모":4597,"▁보고나면":4598,"▁봤는데,":4599,"▁관심":4600,"하다니":4601,"하다..\n":4602,"▁모르겠다.":4603,"더라면":4604,"▁찍어":4605,"▁아쉬웠":4606,"▁그렇다고":4607,"▁떠오":4608,"▁\"\"\"\"\"\"\"":4609,"▁꿈을":4610,"▁찌질":4611,"▁유명한":4612,"▁검색":4613,"▁멍청한":4614,"ll":4615,"▁센":4616,"계속":4617,"나이":4618,"날때":4619,"다만":4620,"설정":4621,"차라리":4622,"키는":4623,"하진":4624,"..그":4625,"▁아나":4626,"▁아줌마":4627,"▁없음.":4628,"▁있으면":4629,"▁대부분":4630,"▁무척":4631,"▁고마":4632,"▁해리":4633,"▁불러":4634,"▁코난":4635,"▁로봇":4636,"스러웠":4637,"▁인상적이":4638,"▁잔인한":4639,"▁끌어":4640,"▁즐거운":4641,"▁덕분에":4642,"▁독립영화":4643,"ov":4644,"▁[":4645,"▁컴":4646,"봤던":4647,"야말로":4648,"우고":4649,"을것":4650,"이에요":4651,"트맨":4652,"▁내려":4653,"▁기술":4654,"▁주고싶":4655,"▁우와":4656,"▁사랑의":4657,"▁되고":4658,"▁노답":4659,"▁3D":4660,"▁에피소":4661,"▁달달":4662,"▁따뜻해지는":4663,"▁의외로":4664,"▁뭉클":4665,"100":4666,"▁낳":4667,"▁업":4668,"▁007":4669,"가지고":4670,"씨의":4671,"으니까":4672,"정한":4673,"쳐서":4674,"편은":4675,"하세요":4676,"▁아역":4677,"▁좋게":4678,"▁말하는":4679,"▁왜케":4680,"▁싶다.":4681,"▁나오면":4682,"▁아깝지":4683,"▁슬펐":4684,"시간에":4685,"▁매력적이":4686,"▁새롭":4687,"▁표현한":4688,"▁히어로":4689,"bs":4690,"▁ᄀ":4691,"▁콘":4692,"기분":4693,"성은":4694,"이네\n":4695,"짱\n":4696,"▁안됨":4697,"▁기가":4698,"▁봤더니":4699,"▁인내":4700,"▁자살":4701,"▁본거":4702,"▁일이":4703,"▁비현실":4704,"하다...":4705,"▁동안":4706,"이다..\n":4707,"다니...":4708,"▁짱\n":4709,"▁경험":4710,"▁긴장감도":4711,"▁복잡":4712,"▁보세요\n":4713,"▁섹스":4714,"▁이후로":4715,"▁틀어":4716,"▁봣는데":4717,"-_-\n":4718,"▁짝퉁":4719,"▁초등학생":4720,"om":4721,"로만":4722,"몰입":4723,"불가":4724,"사수":4725,"용으로":4726,"장에서":4727,"..이":4728,"▁어처구니":4729,"▁최강":4730,"▁우정":4731,"▁조선":4732,"▁조합":4733,"▁사랑은":4734,"▁거슬":4735,"▁신파":4736,"▁눈에":4737,"▁죽은":4738,"▁세월":4739,"▁필요없":4740,"▁감정을":4741,"▁the":4742,"▁빼고는":4743,"▁암튼":4744,"▁썼":4745,"관이":4746,"버트":4747,"성치":4748,"요~":4749,"저도":4750,"테일":4751,"▁그거":4752,"▁없었던":4753,"▁어휴":4754,"▁1시간":4755,"▁만나":4756,"▁않지만":4757,"▁오바":4758,"▁쓰레기같은":4759,"▁되지":4760,"▁극치":4761,"▁장면에서":4762,"▁박진":4763,"▁박수를":4764,"▁남자의":4765,"▁원작의":4766,"▁인간이":4767,"▁7점대":4768,"▁흥미로운":4769,"▁신선하고":4770,"▁민망":4771,"▁손발이":4772,".4":4773,"▁?\n":4774,"갈수록":4775,"것만":4776,"만을":4777,"영환":4778,"한지":4779,"▁어우":4780,".......":4781,"▁모른":4782,"▁더러운":4783,"▁많아":4784,"▁작은":4785,"▁좋았다\n":4786,"▁허세":4787,"\"\"\"\"\"\"\"\n":4788,"▁힘이":4789,"▁방법":4790,"재밌어요":4791,"▁연기력도":4792,"▁빼고":4793,"▁레전드":4794,"▁탁":4795,"▁~\n":4796,"듯.\n":4797,"버스터":4798,"수없":4799,"에대한":4800,"원작":4801,"을듯\n":4802,"이로":4803,"준것":4804,"체가":4805,"함은":4806,"▁가면":4807,"▁더불어":4808,"▁제이":4809,"▁일품":4810,"▁지루하게":4811,"▁웃김":4812,"▁싶었":4813,"▁바꿔":4814,"▁좋았어요":4815,"▁하나의":4816,"사람들이":4817,"▁카리스마":4818,"▁개연성이":4819,"▁웃음이":4820,"▁직접":4821,"▁겨울":4822,"▁학교에서":4823,"▁갠":4824,"▁멘":4825,"▁뱀":4826,"▁탐":4827,"▁픽":4828,"상황":4829,"어지":4830,"였다.\n":4831,"적은":4832,"▁최고다\n":4833,"~~~~\n":4834,"▁생각하는":4835,"▁본다면":4836,"▁끝났":4837,"▁완전히":4838,"▁좋았으나":4839,"▁김민":4840,"▁설마":4841,"▁데이":4842,"ᄍᄍ\n":4843,"▁의미를":4844,"▁무서웠":4845,"구만\n":4846,"ᅲᅲᅲᅲᅲᅲᅲᅲ":4847,"▁역대급":4848,"▁그다지":4849,"▁챙겨":4850,"VD":4851,"나...":4852,"문제":4853,"받은":4854,"비디오":4855,"세상":4856,"임을":4857,"주기도":4858,"▁영화들":4859,"▁정의":4860,"▁다룬":4861,"▁어지":4862,"▁가벼":4863,"▁재밌다고":4864,"▁못생":4865,"▁기대했는데":4866,"▁아이가":4867,"▁높아":4868,"▁게다가":4869,"▁한번쯤":4870,"▁교육":4871,"▁삶에":4872,"▁이유를":4873,"▁범인":4874,"▁빌려":4875,"▁누군가":4876,"▁다큐멘터리":4877,"▁스크린":4878,"20":4879,"▁^":4880,"▁p":4881,"▁꽝":4882,"▁학생":4883,"감은":4884,"거면":4885,"그대로":4886,"나.":4887,"동생":4888,"레딧":4889,"살다":4890,"성의":4891,"요...":4892,"음이":4893,"▁모를":4894,"▁평점보고":4895,"▁미드":4896,"▁비판":4897,"▁포르노":4898,"▁졸작\n":4899,"▁지나치게":4900,"▁뛰어넘":4901,"▁이쁘고":4902,"zz":4903,"▁봅":4904,"▁웨":4905,"긴한데":4906,"끝까지":4907,"아라":4908,"아직":4909,"요일":4910,"있다":4911,"좋아요":4912,"주가":4913,"지,":4914,"▁보긴":4915,"▁보며":4916,"▁재미잇":4917,"지만...":4918,"▁봤을":4919,"▁여태":4920,"보다도":4921,"▁끝이":4922,"▁영혼":4923,"▁좋아해서":4924,"▁화끈":4925,"배우가":4926,"▁게이":4927,"더라구요":4928,"▁떨어지":4929,"▁패러디":4930,"!!!!!!!!!!!!!!!!":4931,"▁깜짝":4932,"▁잊혀지지":4933,"11":4934,"5년":4935,"ᄍ\n":4936,"▁엠":4937,"▁엽":4938,"▁옆":4939,"가슴":4940,"야지":4941,"운드":4942,"하던데":4943,"▁이끌":4944,"▁이용":4945,"▁지겨":4946,"▁진짜\n":4947,"▁않다.\n":4948,"▁더럽":4949,"▁아니었":4950,"ᅲᅲᅲ\n":4951,"▁사람들의":4952,"▁조용":4953,"▁도전":4954,"▁죽을":4955,"▁모르게":4956,"▁당연":4957,"▁아까울":4958,"▁빠진":4959,"▁영화였다.":4960,"▁먹고":4961,"내용이":4962,"▁싶은데":4963,"♥♥\n":4964,"아깝다\n":4965,"▁커플":4966,"▁투자":4967,"▁전설의":4968,"▁l":4969,"▁콩":4970,"냐고":4971,"루스":4972,"명을":4973,"부작":4974,"시즌":4975,"아쉽":4976,"요즘":4977,"정은":4978,"제발":4979,"함의":4980,"▁봤을때":4981,"▁주성치":4982,"들이랑":4983,"▁감동의":4984,"▁해결":4985,"▁사랑이야기":4986,"▁반개도":4987,"▁죽이고":4988,"▁이해하기":4989,"▁우리의":4990,"▁전개도":4991,"▁몇몇":4992,"▁모르겠다":4993,"▁달라":4994,"▁없었다.":4995,"▁타이":4996,"학교때":4997,"▁시즌2":4998,"▁착한":4999,"▁튀":5000,"▁팀":5001,"냄새":5002,"는건":5003,"니깐":5004,"들.":5005,"듯...":5006,"로써":5007,"배경":5008,"버리는":5009,"비가":5010,"솔직":5011,"슬프":5012,"시다":5013,"신은":5014,"우기":5015,"음...\n":5016,"▁영화!!":5017,"▁이정":5018,"▁아닙":5019,"▁재미와":5020,"▁재밌어요\n":5021,"▁대해서":5022,"▁봤습니다.\n":5023,"▁못해":5024,"▁좋아하는데":5025,"▁한국영화는":5026,"▁김수":5027,"▁관한":5028,"▁따로":5029,"▁울고":5030,"▁가슴에":5031,"▁ᄒᄒᄒ":5032,"▁모두가":5033,"▁레알":5034,"▁잠깐":5035,"이야\n":5036,"▁봉":5037,"▁쏘":5038,"▁탑":5039,"▁젠장":5040,"냐..":5041,"대를":5042,"라인":5043,"물이":5044,"삭제":5045,"아무":5046,"야?":5047,"억지":5048,"이기":5049,"이다..":5050,"임스":5051,"출연":5052,"토록":5053,"회가":5054,"▁영화~\n":5055,"▁영화네요.":5056,"▁아기":5057,"▁봤네요":5058,"▁개막장":5059,"▁인기":5060,"▁볼거리":5061,"▁영어":5062,"▁내가본":5063,"▁기대했":5064,"▁넘치는":5065,"▁세련":5066,"▁이야기.":5067,"▁보여줬":5068,"사람들은":5069,"다니\n":5070,"구나.":5071,"감독의":5072,"▁국가":5073,"▁괜찮은데":5074,"▁무섭지도":5075,"▁진부하고":5076,"▁그녀의":5077,"ar":5078,"▁빅":5079,"▁쏟":5080,"▁!!":5081,"겨진":5082,"러워":5083,"머리":5084,"받고":5085,"받았":5086,"뻔한":5087,"식의":5088,"자들이":5089,"▁이럴":5090,"▁보려고":5091,"▁감흥":5092,"▁1,2":5093,"▁스파이":5094,".......\n":5095,"▁대중":5096,"▁스토리\n":5097,"▁미쳤":5098,"다는걸":5099,"▁많았":5100,"▁공짜":5101,"▁재미없음\n":5102,"▁참으로":5103,"▁작품.\n":5104,"▁짜임":5105,"▁점수가":5106,"▁8점대":5107,"▁올려":5108,"▁담아":5109,"▁앞으로도":5110,"▁웃기지도":5111,"▁변태":5112,"좋아하는":5113,"▁왠만하면":5114,"그래서":5115,"▁똑같은":5116,"▁필름":5117,"▁응원":5118,"▁P":5119,"▁뿌":5120,"▁옥":5121,"▁찰":5122,"기다":5123,"어여":5124,"인들이":5125,"주연":5126,"포터":5127,"▁이도":5128,"▁재밌던데":5129,"▁말아먹":5130,"▁볼거":5131,"▁뭐라":5132,"ᄒᄒᄒ\n":5133,"▁작품은":5134,"▁할리":5135,"▁10점을":5136,"▁우리는":5137,"▁이제서야":5138,"▁그렇다":5139,"▁수작\n":5140,"▁보지마세요":5141,"????????":5142,"▁류승":5143,"▁됬":5144,"▁술":5145,"려다가":5146,"버그":5147,"시청":5148,"씬이":5149,"요소":5150,"이래":5151,"자연":5152,"▁아동":5153,"▁내면":5154,"▁감히":5155,"▁대화":5156,"▁개뿔":5157,"▁스토리의":5158,"▁액션영화":5159,"▁좋았을":5160,"▁하는지":5161,"연기력":5162,"▁ᄒᄒᄒ\n":5163,"▁악마":5164,"▁야동":5165,"▁잊지":5166,"▁알바들":5167,"▁행복한":5168,"▁199":5169,"▁풍경":5170,"스타일":5171,"▁겨우":5172,"▁DVD":5173,"~!!":5174,"▁k":5175,"▁y":5176,"▁맹":5177,"▁줘":5178,"감\n":5179,"구요.":5180,"느니":5181,"라기":5182,"뭔가":5183,"소녀":5184,"얼굴":5185,"없어서":5186,"▁영화보면서":5187,"▁이민":5188,"▁무리":5189,"▁주말":5190,"▁제시":5191,"▁못하겠":5192,"▁남편":5193,"▁지루함\n":5194,"▁역겹":5195,"▁싶을":5196,"▁신비":5197,"▁할머니":5198,"▁심하게":5199,"000":5200,"▁정도의":5201,"▁듯.":5202,"▁욕망":5203,"▁캐릭터가":5204,"▁블록":5205,"▁말도안되는":5206,"▁장르가":5207,"▁빈약":5208,"ᄋ\n":5209,"▁n":5210,"▁쩝":5211,"까\n":5212,"더빙":5213,"드시":5214,"만은":5215,"어라":5216,"역사":5217,"우가":5218,"이러":5219,"인것":5220,"임..":5221,"초반":5222,"후반":5223,"▁아픈":5224,"하고..":5225,"▁한다.\n":5226,"▁무술":5227,"ᄏᄏᄏᄏᄏ\n":5228,"▁오로":5229,"▁자주":5230,"▁강력":5231,"습니다..\n":5232,"▁몇년":5233,"▁긴장감이":5234,"▁왜이래":5235,"▁6점":5236,"▁어린시절":5237,"▁깨달":5238,"▁중요한":5239,"▁한심한":5240,"▁끈":5241,"▁육":5242,"는다":5243,"루즈":5244,"본다":5245,"속의":5246,"오늘":5247,"원의":5248,"제가":5249,"했다고":5250,"▁그건":5251,"▁그당시":5252,"▁보통":5253,"...그":5254,"▁다루":5255,"▁하다":5256,"▁어두":5257,"▁최초":5258,"▁만한":5259,"▁인해":5260,"ᅲᅲᅲ":5261,"▁감동\n":5262,"▁지루하다\n":5263,"▁배우를":5264,"▁재미없게":5265,"▁쓰레기영화\n":5266,"▁싶다":5267,"▁좋았다":5268,"▁하나\n":5269,"▁죽이는":5270,"을까\n":5271,"▁원작이":5272,"▁않는다.\n":5273,"▁모르겠지만":5274,"▁받을":5275,"▁느껴졌":5276,"▁세상을":5277,"▁답답한":5278,"▁기다려":5279,"▁감명깊":5280,"▁깨닫게":5281,"▁;;":5282,"▁놓고":5283,"관람":5284,"굿\n":5285,"된다\n":5286,"드로":5287,"신분":5288,"애가":5289,"얘기":5290,"어떻게":5291,"은거":5292,"▁안볼":5293,"▁기발":5294,"▁살고":5295,"▁살려":5296,"▁멋져":5297,"▁위해서":5298,"▁아까움\n":5299,"▁설득":5300,"보는내내":5301,"이었다.":5302,"▁수준의":5303,"장면은":5304,"▁떠올":5305,"▁노래도":5306,"▁관객을":5307,"▁개연성도":5308,"▁훈훈한":5309,"▁죽는줄":5310,"▁영원히":5311,"▁막판에":5312,"▁됩":5313,"▁옷":5314,"개인":5315,"님들":5316,"력을":5317,"리카":5318,"뿐\n":5319,"사이":5320,"없다.\n":5321,"있어":5322,"있었":5323,"점\n":5324,"▁이소":5325,"▁아내":5326,"▁좋지만":5327,"▁좋네요":5328,"▁사진":5329,"▁전율":5330,"▁수고":5331,"▁생각하면":5332,"▁지루했":5333,"▁작위":5334,"▁분들은":5335,"▁만든거":5336,"▁보여주고":5337,"▁방영":5338,"만들었":5339,"▁자신을":5340,"▁자신이":5341,"▁낚시":5342,"▁문제가":5343,"마지막에":5344,",.,.":5345,"ᅳ\n":5346,"▁깎":5347,"▁를":5348,"▁엿":5349,"▁칭":5350,"▁효과":5351,"는대":5352,"다큐":5353,"모든":5354,"스\n":5355,"야할":5356,"인과":5357,"줌\n":5358,"티브":5359,"해졌":5360,"▁보다는":5361,"▁있었는데":5362,"▁지났":5363,"하는건":5364,"▁오빠":5365,"▁생각나서":5366,"▁미스터":5367,"▁장애":5368,"▁우려":5369,"▁바꾸":5370,"OOO":5371,"▁위로":5372,"▁동성애":5373,"▁단편":5374,"▁몰입감":5375,"▁않는다\n":5376,"▁올리":5377,"▁달리":5378,"▁디테일":5379,"▁분위기가":5380,"▁둘이":5381,"▁비디오로":5382,"▁가치가":5383,"▁못보겠":5384,"▁시간가는줄":5385,"▁앉":5386,"▁;;\n":5387,"그리":5388,"는가":5389,"다음":5390,"된다.\n":5391,"어린":5392,"있다.":5393,"취향":5394,"하라":5395,"해라\n":5396,"영화..\n":5397,"▁하늘":5398,"▁없는데":5399,"▁있던":5400,"▁대놓고":5401,"▁모험":5402,"▁이런영화를":5403,"▁인디":5404,"▁것이다.\n":5405,"▁해석":5406,"▁잔뜩":5407,"이었다.\n":5408,"▁만들어도":5409,"▁추천\n":5410,"▁등등":5411,"건가?":5412,"▁테러":5413,"군요\n":5414,"기지":5415,"기에는":5416,"놈들":5417,"린다":5418,"부를":5419,"세포":5420,"유.":5421,"장을":5422,"▁아예":5423,"하고자":5424,"▁대본":5425,"▁연기잘":5426,"▁여름":5427,"▁제외":5428,"▁유지":5429,"▁비하면":5430,"▁드라마.\n":5431,"▁21":5432,"▁조니":5433,"▁만들면":5434,"▁다시는":5435,"▁도망":5436,"배우들이":5437,"▁와..":5438,"▁현실성":5439,"인가\n":5440,"▁속에서":5441,"▁듯.\n":5442,"▁억지스러운":5443,"▁영화였다.\n":5444,"▁야구":5445,"▁아쉬움":5446,"만큼은":5447,"▁의미가":5448,"▁추억이":5449,"▁M창":5450,"▁안타까운":5451,"en":5452,"▁씹":5453,"▁홀":5454,"건만":5455,"겠다는":5456,"내요":5457,"냐??":5458,"대단":5459,"드를":5460,"드리":5461,"미네":5462,"복을":5463,"볼만":5464,"없음\n":5465,"이들":5466,"있는데":5467,"절대":5468,"형래":5469,"▁영화인듯":5470,"▁배역":5471,"▁비밀":5472,"▁결정":5473,"▁상관":5474,"▁돈을":5475,"▁연출과":5476,"▁심오":5477,"▁높게":5478,"▁노래가":5479,"▁클레":5480,"▁여러가지":5481,"▁색다른":5482,"▁늘어":5483,"▁소중한":5484,"▁짜임새":5485,"▁L":5486,"▁낙":5487,"▁묵":5488,"긴장":5489,"나니":5490,"냐.":5491,"된다":5492,"때문":5493,"리다":5494,"멘타":5495,"모두":5496,"무지":5497,"번은":5498,"세기":5499,"신을":5500,"아..":5501,"연이":5502,"있어서":5503,"장한":5504,"종일":5505,"영화다":5506,"▁보자":5507,"▁다이":5508,"▁정말이지":5509,"하는것":5510,"▁남은":5511,"▁뭐하나":5512,"▁조작":5513,"▁애들은":5514,"▁거기에":5515,"▁기대이상":5516,"▁좋았지만":5517,"▁하나같이":5518,"▁할말이":5519,"▁에이":5520,"▁결말을":5521,"▁반전은":5522,"▁매력을":5523,"▁가슴을":5524,"더라.":5525,"▁극장가서":5526,"▁아름다움":5527,"▁새끼":5528,"▁여운을":5529,"생각없이":5530,"▁야한":5531,"▁그저그런":5532,"▁양심":5533,"▁귀여워":5534,"▁지나도":5535,"▁sf":5536,"▁킬링타임용으로":5537,"▁이래서":5538,"▁/":5539,"겨서":5540,"그만":5541,"년의":5542,"능력":5543,"로웠":5544,"바로":5545,"빨리":5546,"사건":5547,"생활":5548,"아는":5549,"아쉬":5550,"알고":5551,"통령":5552,"허접":5553,"▁영화화":5554,"▁정확":5555,"▁한명":5556,"▁최민":5557,"네요^^\n":5558,"▁안쓰":5559,"▁스페":5560,"▁기준":5561,"▁소소한":5562,"▁부끄":5563,"▁부실":5564,"▁성격":5565,"▁또다른":5566,"▁이야기는":5567,"▁잔혹":5568,"▁와...":5569,"▁주인공은":5570,"▁선동":5571,"▁남자주인공":5572,"스러움":5573,"▁집에":5574,"▁버렸":5575,"스토리도":5576,"건지..":5577,"▁둘째":5578,"레이션":5579,"▁굳\n":5580,"▁최근에":5581,"▁감정이입":5582,"▁연예인":5583,"솔직히":5584,"▁블록버스터":5585,"▁N":5586,"▁택":5587,"간다":5588,"과서":5589,"다!!!\n":5590,"듬\n":5591,"림.":5592,"보니까":5593,"씨는":5594,"았다\n":5595,"어디":5596,"었음\n":5597,"▁어쩜":5598,"▁사고":5599,"▁연극":5600,"▁마세요":5601,"▁잘어울":5602,"▁최고로":5603,"▁제임스":5604,"▁생각한다.":5605,"▁일깨":5606,"▁결코":5607,"▁충실":5608,"▁많은데":5609,"▁5분":5610,"▁ᄏᄏᄏᄏᄏ":5611,"▁아쉽다\n":5612,"▁막장드라마":5613,"▁무엇인지":5614,"▁길게":5615,"▁오래된":5616,"▁먼가":5617,"▁나쁘지":5618,"▁스트레스":5619,"▁됨":5620,"나봐":5621,"니\n":5622,"님은":5623,"던지":5624,"들..":5625,"리로":5626,"스크":5627,"았는데":5628,"어리":5629,"오래":5630,"제로":5631,"▁아래":5632,"▁정체":5633,"▁감각":5634,"▁무한":5635,"ᄏᄏᄏᄏᄏ":5636,"▁스토리.":5637,"▁재미있다":5638,"▁10대":5639,"▁사랑스럽":5640,"▁이해안":5641,"연기는":5642,"하다...\n":5643,"▁잼나게":5644,"▁적당히":5645,"▁열정":5646,"▁데리고":5647,"▁소름이":5648,"▁느낄수":5649,"▁참신한":5650,"▁본방사수":5651,"vd":5652,"▁=":5653,"▁낭":5654,"▁넌":5655,"▁떨":5656,"▁틈":5657,"▁....\n":5658,"구성":5659,"나와서":5660,"니퍼":5661,"되면":5662,"르게":5663,"매력":5664,"이쁘":5665,"이영화":5666,"인도":5667,"조금":5668,"후의":5669,"▁아~":5670,"▁그만큼":5671,"...정말":5672,"▁봤다.\n":5673,"▁생활":5674,"▁주기도":5675,"▁못봐":5676,"▁지루하다.":5677,"▁한국의":5678,"▁10점이":5679,"▁느낌의":5680,"▁명작을":5681,"▁구성이":5682,"▁잼잇":5683,"▁망한":5684,"▁치고":5685,"▁준다.\n":5686,"▁집중해서":5687,"▁탄생":5688,"▁시즌1":5689,"▁크리스마스":5690,"▁식상한":5691,"파이어":5692,"▁다운받아":5693,"아버지":5694,"▁댄":5695,"▁몬":5696,"▁샘":5697,"강호":5698,"개그":5699,"거라":5700,"겟다":5701,"묘한":5702,"서는":5703,"아름":5704,"준다":5705,"추기":5706,"팩트":5707,"피스":5708,"▁그자체":5709,"▁시키":5710,"▁안습":5711,"▁재밌네":5712,"▁재밌을":5713,"▁수많은":5714,"▁생각했는데":5715,"들이나":5716,"▁본게":5717,"▁봐줄":5718,"▁좋아요\n":5719,"▁바랍":5720,"▁넘게":5721,"▁한국인":5722,"▁했으면":5723,"▁하는게":5724,"▁아무런":5725,"▁낮게":5726,"▁언니":5727,"▁70년대":5728,"▁ᄏᄏᄏᄏᄏ\n":5729,"▁손에":5730,"만들어":5731,"▁아쉽다.\n":5732,"▁살아가는":5733,"▁무서워":5734,"▁빼면":5735,"부분이":5736,"▁책을":5737,"▁몰입도가":5738,"▁돌아가":5739,"전개가":5740,"▁읽어":5741,"미네이터":5742,"it":5743,"▁줍":5744,"▁첩":5745,"기전에":5746,"동차":5747,"부가":5748,"였다":5749,"였음":5750,"좋다":5751,"커플":5752,"티즌":5753,"퓨터":5754,"▁영화이":5755,"▁영화입니다\n":5756,"▁이것이":5757,"▁좋음":5758,"▁1위":5759,"▁가지":5760,"▁재밌다.\n":5761,"▁마라":5762,"▁잘하고":5763,"▁주기":5764,"▁않다.":5765,"▁못했":5766,"▁볼때":5767,"▁조절":5768,"▁조카":5769,"▁명화":5770,"▁웃고":5771,"▁살린":5772,"▁살면서":5773,"▁봤는데도":5774,"▁여자의":5775,"▁이상하게":5776,"▁보기에는":5777,"▁영상이":5778,"▁집착":5779,"▁연기력은":5780,"▁질리지":5781,"▁담배":5782,"▁시리즈중":5783,"▁없었다.\n":5784,"▁부분도":5785,"▁b급":5786,"▁ᅲ.":5787,"▁실제로":5788,"▁여주가":5789,"▁볼수있는":5790,"▁핵노잼":5791,"▁다양한":5792,"▁F":5793,"▁뽕":5794,"▁쥬":5795,"▁휘":5796,"국영":5797,"니?":5798,"도대체":5799,"라의":5800,"만다":5801,"바이":5802,"빼고":5803,"셈\n":5804,"신의":5805,"아나":5806,"윤발":5807,"점도":5808,"치가":5809,"▁다를":5810,"▁기자":5811,"▁생긴":5812,"어요!":5813,"▁자식":5814,"▁감동은":5815,"▁영향":5816,"▁거부":5817,"▁마지막까지":5818,"▁로버트":5819,"▁꼭보":5820,"▁망친":5821,"▁짜증만":5822,"▁있었다.":5823,"▁호구":5824,"▁자체는":5825,"▁시리즈는":5826,"▁앞뒤":5827,"▁보세요.":5828,"▁꽤나":5829,"▁주제를":5830,"▁약간의":5831,"▁엉성하고":5832,"▁2편은":5833,"▁교훈을":5834,"▁소설을":5835,"년도에":5836,"▁플롯":5837,"▁놀라운":5838,"▁특수효과":5839,"▁K":5840,"로드":5841,"린다.":5842,"문화":5843,"분한":5844,"빠진":5845,"싸움":5846,"아빠":5847,"어..":5848,"이걸":5849,"자들의":5850,"죽는":5851,"짱짱":5852,"치곤":5853,"영화임":5854,"▁없네":5855,"▁사투":5856,"▁있구나":5857,"▁안에":5858,"▁최고!":5859,"▁않아서":5860,"▁생각으로":5861,"▁유아":5862,"▁쓰는":5863,"▁많고":5864,"▁애기":5865,"인데,":5866,"인데..":5867,"▁위험":5868,"▁심지어":5869,"이다...\n":5870,"▁장면도":5871,"▁여자친구":5872,"▁서부":5873,"▁40":5874,"▁교과서":5875,"▁만들었는지":5876,"▁친구가":5877,"▁답답하고":5878,"▁포스터가":5879,"▁0점이":5880,"▁be":5881,"▁갖고":5882,"▁짧은":5883,"지도않고":5884,"▁특별한":5885,"▁끔찍":5886,"▁거짓말":5887,"ᄀ\n":5888,"▁X":5889,"▁객":5890,"개는":5891,"관객":5892,"누나":5893,"래곤":5894,"뢰매":5895,"리며":5896,"버려":5897,"봤어요":5898,"선을":5899,"속으로":5900,"스포":5901,"시오":5902,"어용":5903,"여행":5904,"이도":5905,"있다\n":5906,"잡고":5907,"치노":5908,"트의":5909,"하길":5910,"할까":5911,"혼자":5912,"▁영화와":5913,"▁영화인지":5914,"▁하다가":5915,"▁좋음\n":5916,"으로는":5917,"▁가르":5918,"▁무료":5919,"▁배우들은":5920,"▁반드시":5921,"▁매일":5922,"▁죽인":5923,"▁처음에는":5924,"▁나오지":5925,"▁짜집":5926,"▁원작에":5927,"▁있었지만":5928,"▁한번도":5929,"▁20분":5930,"▁역사를":5931,"▁강추\n":5932,"▁어느정도":5933,"▁첫사랑":5934,"나요?\n":5935,"▁혹은":5936,"▁어울리는":5937,"▁시청률이":5938,"▁한편의":5939,"▁에피소드":5940,"▁가벼운":5941,"▁일깨워":5942,"(웃음":5943,"▁벤":5944,"거든":5945,"덕화":5946,"로의":5947,"리면":5948,"박한":5949,"심으로":5950,"웃기":5951,"이어":5952,"정의":5953,"주면":5954,"▁그야말로":5955,"▁정작":5956,"▁한숨":5957,"네요~\n":5958,"▁안가":5959,"▁무게":5960,"▁주윤발":5961,"▁평점조":5962,"▁비행":5963,"▁감독을":5964,"▁때려":5965,"▁멋졌":5966,"▁여자주인공":5967,"▁소재도":5968,"▁짜증나서":5969,"스러워":5970,"▁손색":5971,"감독님":5972,"최고\n":5973,"▁오랜만":5974,"▁출연한":5975,"▁작가님":5976,"아까움":5977,"▁아름답게":5978,"▁보지말":5979,"▁당신은":5980,"▁예쁘고":5981,"▁짝이":5982,"▁묻어":5983,"▁말하고자":5984,"▁태어나서":5985,"▁스티븐":5986,"▁살다살다":5987,"~^^\n":5988,"▁u":5989,"▁린":5990,"▁혐":5991,"▁합니다.":5992,"겠네":5993,"기까지":5994,"나..\n":5995,"도를":5996,"듯...\n":5997,"봤지만":5998,"상수":5999,"시면":6000,"싶은":6001,"악한":6002,"았다.\n":6003,"애들이":6004,"여주":6005,"였다\n":6006,"일을":6007,"작.":6008,"장르":6009,"지말고":6010,"프닝":6011,"함,":6012,"후회":6013,"영화!\n":6014,"▁다크":6015,"▁내게":6016,"▁드라마..":6017,"▁저급":6018,"▁할수":6019,"▁처음에":6020,"인데도":6021,"!!!!!\n":6022,"▁당황":6023,"▁당연히":6024,"▁이상의":6025,"▁많은걸":6026,"▁모르겠고":6027,"▁아름다웠":6028,"▁받는":6029,"▁준다\n":6030,"▁나름대로":6031,"▁타고":6032,"▁형사":6033,"▁20대":6034,"▁첨엔":6035,"▁러시아":6036,"▁이딴걸":6037,"▁브루스":6038,"▁of":6039,"▁듣고":6040,"▁끼워":6041,"▁희망을":6042,"▁쓸데없이":6043,"▁일부러":6044,"▁해리포터":6045,"2점":6046,"▁록":6047,"▁팍":6048,"▁혀":6049,"▁효":6050,"▁줘야":6051,"나,":6052,"나의":6053,"대해":6054,"보영":6055,"부는":6056,"스에":6057,"점에서":6058,"정우":6059,"했을때":6060,"형님":6061,"▁이야":6062,"▁이따구":6063,"▁나랑":6064,"▁있지":6065,"▁한다":6066,"▁한다\n":6067,"▁안될":6068,"▁재밌다는":6069,"▁진짜..":6070,"▁수입":6071,"▁잘하는":6072,"▁배트맨":6073,"▁생각할":6074,"▁남기":6075,"▁본지":6076,"▁내용과":6077,"▁10년이":6078,"▁재미없었":6079,"▁재미없어서":6080,"입니다..":6081,"▁30년":6082,"▁추격":6083,"▁했다.":6084,"▁이해를":6085,"▁로코":6086,"▁심형래":6087,"▁음...":6088,"▁장면을":6089,"▁소재와":6090,"▁영상과":6091,"▁모든걸":6092,"▁근래":6093,"▁파워":6094,"▁담겨":6095,"▁베드":6096,"▁잠시":6097,"▁재미도없고":6098,"▁목숨":6099,"▁1편은":6100,"▁1편보다":6101,"▁엔딩이":6102,"▁충격적이":6103,"▁빵빵":6104,"▁어쩔수":6105,"▁-_-\n":6106,"▁나머지":6107,"▁유일하게":6108,"ut":6109,"▁ᄇ":6110,"▁땜에":6111,"게임":6112,"게하는":6113,"긴하지만":6114,"니다..":6115,"도는":6116,"또한":6117,"리와":6118,"린다.\n":6119,"뭐야":6120,"상의":6121,"성과":6122,"스키":6123,"슨이":6124,"쟁이":6125,"정화":6126,"지현":6127,"영화보다":6128,"영화중에":6129,"▁영화만":6130,"▁이수":6131,"▁나에겐":6132,"▁하길래":6133,"▁없다..":6134,"▁있다고":6135,"▁만남":6136,"▁제니퍼":6137,"▁이런건":6138,"▁아니라고":6139,"▁많아서":6140,"▁중에서":6141,"▁배우는":6142,"▁애국":6143,"▁애매":6144,"▁웃으면서":6145,"▁다시보니":6146,"▁시간만":6147,"▁지금의":6148,"에게는":6149,"부터가":6150,"▁여자들":6151,"▁드림":6152,"▁모르겠다.\n":6153,"▁적절":6154,"스토리가":6155,"▁싸우는":6156,"▁확인":6157,"▁배경음악":6158,"▁꼬마":6159,"▁빵터":6160,"▁ᅳ.ᅳ":6161,"▁dvd":6162,"▁유일한":6163,"▁내생에":6164,"▁강렬한":6165,"▁you":6166,"is":6167,"▁>":6168,"▁굴":6169,"▁컬":6170,"▁으로":6171,"♡♡":6172,"냐...":6173,"레인":6174,"면에서":6175,"미는":6176,"아요\n":6177,"자.\n":6178,"▁영화....\n":6179,"▁이은":6180,"▁보던":6181,"▁정우":6182,"▁너무도":6183,"▁감안":6184,"▁재밌어서":6185,"▁무너":6186,"드라마\n":6187,"▁자세":6188,"▁같습니다.":6189,"▁뭐지?":6190,"▁보는거":6191,"▁다시보고싶":6192,"▁신의":6193,"▁실력":6194,"▁살렸":6195,"▁액션,":6196,"▁극단":6197,"▁잼없":6198,"▁울리는":6199,"하나도":6200,"▁머리가":6201,"▁받은":6202,"▁언젠":6203,"▁50":6204,"▁아쉬움이":6205,"▁1편이":6206,"♥♥♥♥":6207,"▁흐르는":6208,"▁엄마가":6209,"▁으리":6210,"▁착각":6211,"▁같아요.":6212,"▁돋보이는":6213,"▁헤어":6214,"▁케이블에서":6215,"▁새벽에":6216,"▁이소룡":6217,"19":6218,"3년":6219,"le":6220,"공감":6221,"관에서":6222,"난다.\n":6223,"느껴":6224,"때매":6225,"보았":6226,"부로":6227,"선생":6228,"쓰고":6229,"아치":6230,"아저씨":6231,"으려고":6232,"이프":6233,"자나":6234,"전을":6235,"추억":6236,"포스터":6237,"함도":6238,"해지고":6239,"화이팅":6240,"▁그것도":6241,"는데도":6242,"▁하여":6243,"▁어째":6244,"으로만":6245,"▁대통령":6246,"▁진짜로":6247,"▁오브":6248,"▁생각도":6249,"▁별반":6250,"▁뭐하자":6251,"▁고맙":6252,"▁재미없다..":6253,"▁싶지":6254,"▁난잡":6255,"▁하나로":6256,"▁김혜":6257,"▁강한":6258,"▁위대":6259,"▁동양":6260,"▁화장":6261,"▁반전을":6262,"▁맞춰":6263,"▁모르겠다\n":6264,"▁제목만":6265,"▁디워":6266,"▁따뜻하고":6267,"▁C급":6268,"▁점수는":6269,"▁팬이":6270,"▁주제가":6271,"▁숨겨진":6272,"▁실화를":6273,"▁초딩때":6274,"▁잘못된":6275,"모르겠":6276,"▁두번째":6277,"▁흑인":6278,"최악의":6279,"▁잊혀지":6280,"▁폐지":6281,"▁영환데":6282,"▁할리우드":6283,"▁조니뎁":6284,"'\n":6285,"▁ᄅ":6286,"▁덤":6287,"것같은":6288,"드만":6289,"민이":6290,"시나리오":6291,"언제":6292,"이든":6293,"잼\n":6294,"진이":6295,"차별":6296,"하\n":6297,"한듯":6298,"했음.":6299,"▁아들이":6300,"▁재능":6301,"▁다섯":6302,"▁1인":6303,"▁마약":6304,"▁주지":6305,"▁개노잼":6306,"▁이런영화는":6307,"▁재미있음":6308,"▁사람도":6309,"▁예능":6310,"▁한국에서":6311,"▁연출은":6312,"▁두려":6313,"▁아이들과":6314,"▁여자는":6315,"재미도":6316,"▁마음으로":6317,"▁일본의":6318,"▁현실이":6319,"▁과학":6320,"▁보기에":6321,"스럽다.":6322,"▁열받":6323,"▁싸움":6324,"▁그렇지":6325,"▁언제봐도":6326,"시길\n":6327,"▁클래":6328,"▁여러번":6329,"▁집중이":6330,"▁단순히":6331,"▁불편한":6332,"▁부모님":6333,"▁클레멘타":6334,".0":6335,".1":6336,"▁떼":6337,"▁링":6338,"▁염":6339,"▁킹":6340,"간다.":6341,"느끼":6342,"다~\n":6343,"랜드":6344,"모로":6345,"분위":6346,"웃김":6347,"으려":6348,"인건":6349,"일의":6350,"잇는":6351,"전이":6352,"죠..":6353,"중반":6354,"중이":6355,"지면":6356,"테러":6357,"팔이":6358,"함...":6359,"▁이병":6360,"▁없게":6361,"▁사용":6362,"▁재미로":6363,"▁있음":6364,"▁안봐도":6365,"▁봤다면":6366,"▁생겼":6367,"▁배급":6368,"▁남긴":6369,"▁쓰고":6370,"▁중독":6371,"▁배우도":6372,"▁뭐니":6373,"????\n":6374,"▁실험":6375,"▁1점은":6376,"▁멋있는":6377,"▁이해할수":6378,"▁로빈":6379,"▁서양":6380,"▁현실적이":6381,"▁빠른":6382,"하지만,":6383,"스럽지":6384,"▁인생에":6385,"▁ᅳᅳ;\n":6386,"▁편안":6387,"▁떨어지고":6388,"▁희대의":6389,"▁터미네이터":6390,"재미있게":6391,"▁있을까?":6392,"▁다르게":6393,"▁익숙":6394,"▁혹시나":6395,"▁컴퓨터":6396,"▁R":6397,"▁갓":6398,"▁숙":6399,"살인":6400,"아...":6401,"오브":6402,"이여":6403,"잡을":6404,"적\n":6405,"조연":6406,"주기":6407,"판이":6408,"▁이보다":6409,"▁이뻐서":6410,"▁이토록":6411,"▁아놀":6412,"▁그동안":6413,"▁정보":6414,"▁하하하":6415,"▁좋다고":6416,"▁없네요":6417,"▁너무재밌":6418,"▁있겠":6419,"▁최고봉":6420,"▁않을까":6421,"▁개념":6422,"▁인형":6423,"▁배신":6424,"▁유발":6425,"▁중2":6426,"▁부르":6427,"▁저평가":6428,"▁재미없어요":6429,"▁시간에":6430,"라는게":6431,"▁멋지고":6432,"▁따위":6433,"▁기억나는":6434,"습니다...":6435,"▁일본은":6436,"▁매력있":6437,"▁높아서":6438,"▁새로":6439,"▁봐도봐도":6440,"▁없었다\n":6441,"▁판단":6442,"▁여러분":6443,"▁빵점":6444,"하지않고":6445,"▁어설프고":6446,"▁안맞는":6447,"as":6448,"▁땡":6449,"▁옹":6450,"간에":6451,"개가":6452,"미국":6453,"보내":6454,"불허":6455,"스케":6456,"식은":6457,"어색":6458,"으신":6459,"이름":6460,"자로":6461,"즈의":6462,"직한":6463,"쯧쯧":6464,"했었는데":6465,"희가":6466,"▁영화자체":6467,"▁이드라마":6468,"▁보내":6469,"▁하시":6470,"▁하다.\n":6471,"▁좋네요\n":6472,"▁사운드":6473,"▁진리":6474,"▁한방":6475,"▁안들":6476,"▁11":6477,"▁대가":6478,"▁개성":6479,"▁자랑":6480,"▁소피":6481,"▁드라마에":6482,";;;;\n":6483,"▁매니아":6484,"▁10점준":6485,"▁두근":6486,"▁들고":6487,"▁망치":6488,"건지...":6489,"내용은":6490,"▁네티즌":6491,"으나,":6492,"▁6점대":6493,"▁전쟁의":6494,"▁찾아볼":6495,"▁궁금해서":6496,"▁영상미가":6497,"▁여주인공이":6498,"▁어른이":6499,"▁ᄋᄋ\n":6500,"▁메이드":6501,"ovie":6502,"7년":6503,"▁벨":6504,"▁붕":6505,"▁헌":6506,"▁혁":6507,"는다\n":6508,"더더":6509,"말도":6510,"물로":6511,"버릴":6512,"버림":6513,"사와":6514,"어가는":6515,"엄청":6516,"자.":6517,"자면":6518,"자와":6519,"줄은":6520,"줄이야":6521,"티노":6522,"하균":6523,"하거나":6524,"▁재개봉":6525,"▁하품":6526,"▁어든":6527,"▁14":6528,"▁재밌습니다":6529,"▁기타":6530,"▁대신":6531,"▁최고.":6532,"▁최고!!\n":6533,"▁않고,":6534,"▁아니야":6535,"▁2번":6536,"▁재미없다고":6537,"▁반담":6538,"▁거북":6539,"▁마지막이":6540,"▁하나.":6541,"▁한국영화의":6542,"▁분들이":6543,"▁느낌은":6544,"배우의":6545,"▁망가":6546,"구나..":6547,"▁짜증이":6548,"▁프레":6549,"▁영화였습니다.\n":6550,"▁대박\n":6551,"▁달려":6552,"▁즐겨":6553,"▁담은":6554,"▁봐야하는":6555,"▁형님":6556,"▁만화책":6557,"▁사실을":6558,"▁폭발":6559,"▁폭풍":6560,"▁흑백":6561,"▁밀려":6562,"▁루즈":6563,"▁탈출":6564,"▁겉멋":6565,"▁마이너스":6566,"▁어우러":6567,"▁땅":6568,"▁뚱":6569,"▁엔":6570,"▁햇":6571,"군.\n":6572,"기법":6573,"도의":6574,"들,":6575,"들.\n":6576,"딩때":6577,"리한":6578,"마자":6579,"보긴":6580,"보이는":6581,"사에":6582,"성우":6583,"스,":6584,"시원":6585,"어의":6586,"었을":6587,"이고,":6588,"있네\n":6589,"할게":6590,"..?":6591,"▁이성":6592,"▁나레이션":6593,"▁없음.\n":6594,"▁어리":6595,"▁사상":6596,"▁사이코":6597,"▁한거":6598,"▁안나온":6599,"▁정말..":6600,"▁가고":6601,"▁봤습니다\n":6602,"▁평소":6603,"▁부럽":6604,"▁기대없이":6605,"▁액션을":6606,"▁극복":6607,"▁관련":6608,"▁공포물":6609,"▁현실과":6610,"▁힘내":6611,"▁이상하고":6612,"▁스릴도":6613,"▁짜증나고":6614,"▁정도면":6615,"이었던":6616,"▁인간은":6617,"▁적어도":6618,"▁열연":6619,"▁된다.":6620,"▁잔잔하게":6621,"▁잠이":6622,"▁느껴지":6623,"▁케릭터":6624,"것같아요":6625,"▁각색":6626,"▁양아치":6627,"▁시나리오가":6628,"▁환경":6629,"▁꿈꾸":6630,"▁얼굴이":6631,"▁맛이":6632,"▁압도":6633,"▁즐거웠":6634,"▁빛을":6635,"▁소중함을":6636,"극장에서":6637,"▁Good":6638,"▁결론은":6639,"▁컨셉":6640,".3":6641,"가면":6642,"귀여":6643,"데이":6644,"들끼리":6645,"받을":6646,"봤다.":6647,"살아":6648,"서도":6649,"엇는데":6650,"인지도":6651,"장의":6652,"점수":6653,"제대로":6654,"죠.\n":6655,"편을":6656,"하디":6657,"하러":6658,"해선":6659,"했습니다.":6660,"형제":6661,"..진짜":6662,"영화다\n":6663,"▁아우":6664,"▁만약":6665,"▁봤어요.":6666,"▁평균":6667,"▁무겁":6668,"▁오프닝":6669,"▁자본":6670,"▁못미":6671,"▁본건데":6672,"▁유행":6673,"▁우뢰매":6674,"▁부담":6675,"▁부부":6676,"▁내용인지":6677,"▁100점":6678,"▁만들어서":6679,"▁명복을":6680,"▁명불허":6681,"▁바다":6682,"▁없는게":6683,"▁있는지":6684,"▁로드":6685,"▁명작은":6686,"▁잼나":6687,"▁박수":6688,"이었다\n":6689,"▁집어":6690,"▁파괴":6691,"▁외로":6692,"▁공감할":6693,"▁달콤":6694,"▁가족이":6695,"▁목소리가":6696,"▁왜이러":6697,"▁유쾌하게":6698,";;;;;;;;":6699,"▁믿고보는":6700,"▁리얼리티":6701,"▁자극적인":6702,"▁가득한":6703,"▁라이언":6704,"▁후속작":6705,"▁쓸데없는":6706,"ad\n":6707,"▁오랫만에":6708,"▁뱀파이어":6709,"▁공짜로":6710,".ᄏ":6711,"CG":6712,"▁꿀":6713,"▁칠":6714,"▁들이":6715,"갈때":6716,"군.":6717,"년전에":6718,"니?\n":6719,"들한테":6720,"라노":6721,"란티노":6722,"린다\n":6723,"마이":6724,"무시":6725,"분은":6726,"불쌍":6727,"시가":6728,"아무리":6729,"임에도":6730,"잘봤":6731,"적으론":6732,"짐.":6733,"한마디":6734,"영화,":6735,"▁영화네요\n":6736,"▁영화인줄":6737,"▁이렇":6738,"▁이준":6739,"▁다보고":6740,"▁없으면":6741,"▁없다고":6742,"▁어떨":6743,"▁한다는":6744,"▁안어울":6745,"어요~\n":6746,"▁자동차":6747,"▁유럽":6748,"▁장동":6749,"▁장국영":6750,"▁재미있다\n":6751,"▁명장면":6752,"▁거품":6753,"▁원조":6754,"▁3번":6755,"▁할까":6756,"▁추리":6757,"▁김지":6758,"▁김치":6759,"▁모르겟":6760,"▁동시에":6761,"▁서울":6762,"▁과대":6763,"▁매력에":6764,"▁선물":6765,"▁낮아":6766,"▁인생이":6767,"나오고":6768,"▁호기":6769,"감독은":6770,"▁개봉한":6771,"▁삶이":6772,"▁담백":6773,"▁잊을수":6774,"할수있":6775,"▁세상이":6776,"▁이름이":6777,"▁살인마":6778,"▁알겠는데":6779,"▁내생애":6780,"▁늦게":6781,"▁가까운":6782,"▁흡입":6783,"▁인터넷":6784,"▁제이슨":6785,"▁못봐주":6786,"15":6787,"ck":6788,"ᅲ.":6789,"▁듭":6790,"▁품":6791,"▁~~":6792,"구가":6793,"든지":6794,"들...":6795,"따뜻":6796,"라...":6797,"범죄":6798,"비슷":6799,"상영":6800,"성기":6801,"소름":6802,"스와":6803,"여진":6804,"인들의":6805,"장애":6806,"존나":6807,"준호":6808,"중에서":6809,"해주고":6810,"▁아파":6811,"▁그것을":6812,"▁다세포":6813,"▁한개도":6814,"▁최소":6815,"▁만난":6816,"▁마무":6817,"▁생에":6818,"▁왜곡":6819,"까지도":6820,"▁일베":6821,"▁드라마의":6822,"▁부정":6823,"▁내용의":6824,"▁역량":6825,"ᄒᄒᄒᄒ":6826,"▁매미":6827,"▁액션과":6828,"▁좋았을텐데":6829,"▁최악이다":6830,"▁10점만점":6831,"▁아깝고":6832,"연기를":6833,"▁명작이다":6834,"▁아닌듯":6835,"0000":6836,"▁소재의":6837,"스럽다\n":6838,"스럽다.\n":6839,"▁전개와":6840,"지않았":6841,"▁프리":6842,"▁파격":6843,"▁케빈":6844,"것같다":6845,"▁미국의":6846,"▁당시에":6847,"▁책임":6848,"▁포스터만":6849,"▁설정이":6850,"▁낫다\n":6851,"▁불쌍한":6852,"▁걸작\n":6853,"▁흔들":6854,"▁허술한":6855,"▁ᄃᄃ\n":6856,"▁짐캐":6857,"▁잘생겼":6858,"▁전반적으로":6859,"개인적으로":6860,"▁널":6861,"▁냄새":6862,"끝나":6863,"높은":6864,"데체":6865,"라에":6866,"래도":6867,"리엄":6868,"맞는":6869,"먹은":6870,"상은":6871,"스톤":6872,"어...":6873,"였지만":6874,"였으면":6875,"오오":6876,"위원":6877,"인게":6878,"좋겠":6879,"준거":6880,"중훈":6881,"할만한":6882,"함..\n":6883,"▁아진짜":6884,"▁그것이":6885,"▁나무":6886,"▁나이가":6887,"▁다신":6888,"▁하며":6889,"▁하지마":6890,"........\n":6891,"▁기존":6892,"▁최고다.":6893,"▁이런류의":6894,"▁자기가":6895,"ᅲᅲᅲᅲ\n":6896,"▁볼려고":6897,"▁지루하다.\n":6898,"▁부탁":6899,"▁사람들에게":6900,"▁사람이라면":6901,"▁끝날때":6902,"▁재미없네":6903,"▁불안":6904,"▁불가능":6905,"▁의리":6906,"▁때마다":6907,"▁10점주는":6908,"▁돈내고":6909,"▁아무생각없이":6910,"▁보기싫":6911,"▁만들어낸":6912,"▁찾는":6913,"▁먹는":6914,"▁가족의":6915,"▁제목을":6916,"▁친구랑":6917,"▁시청자":6918,"▁어색하고":6919,"▁시대에":6920,"▁시대의":6921,"▁민폐":6922,"▁브래":6923,"▁죄송":6924,"▁있을까?\n":6925,"................................":6926,"▁어쩌면":6927,"▁벗어":6928,"▁잘만들었":6929,"▁초등학교":6930,"▁가능한":6931,"여운이":6932,"▁은근히":6933,"▁갠적으로":6934,"▁객관":6935,"▁짜집기":6936,",이":6937,"?!":6938,"od":6939,"▁V":6940,"▁년":6941,"▁웅":6942,"▁협":6943,"▁!!!\n":6944,"▁입니다.":6945,"길\n":6946,"나름":6947,"낮은":6948,"늦게":6949,"더맨":6950,"데..":6951,"도아니고":6952,"들로":6953,"림이":6954,"못한":6955,"미스":6956,"바람":6957,"법한":6958,"보지":6959,"스맨":6960,"쓰는":6961,"어이없":6962,"우의":6963,"위한":6964,"인거같":6965,"저리":6966,"쥬얼":6967,"질않":6968,"질질":6969,"치의":6970,"코믹":6971,"프리오":6972,"해줬":6973,"..정말":6974,"▁이동":6975,"▁이뻐":6976,"▁다있":6977,"▁최소한":6978,"▁안무서":6979,"▁정말...":6980,"▁만났":6981,"▁봤을까":6982,"어요!\n":6983,"▁말아야":6984,"▁알수":6985,"▁것에":6986,"▁뭐하는":6987,"▁공간":6988,"▁조화":6989,"▁내용에":6990,"▁바탕":6991,"▁도무지":6992,"▁할때":6993,"▁김태":6994,"▁김희":6995,"합니다..":6996,"▁별로고":6997,"▁강간":6998,"▁선정":6999,"▁정도가":7000,"▁대단하다":7001,"▁즐기":7002,"▁즐길":7003,"▁재밌었음":7004,"▁아쉽지만":7005,"▁담긴":7006,"▁천국":7007,"▁시작부터":7008,"라이언":7009,"▁왠만한":7010,"▁암걸":7011,"▁갖다":7012,"▁이것보단":7013,"아닌가":7014,"▁100%":7015,"▁블랙코미디":7016,"▁하나하나가":7017,"▁보시면":7018,"▁역겨운":7019,"▁스포츠":7020,"▁외계인":7021,"▁콜린":7022,"▁탁월":7023,"▁첩보":7024,"ow":7025,"▁액":7026,"▁탓":7027,"▁에서":7028,"▁드라":7029,"같고":7030,"같음":7031,"나간":7032,"나...\n":7033,"남기":7034,"노답":7035,"다!!":7036,"둥이":7037,"드려":7038,"라..":7039,"렸다":7040,"못해":7041,"보구":7042,"슨의":7043,"시다\n":7044,"신고\n":7045,"어버린":7046,"웨이":7047,"유리":7048,"의를":7049,"전의":7050,"좋게":7051,"주일":7052,"킬링":7053,"하니까":7054,"하냐?":7055,"하네요.\n":7056,"함께":7057,"▁영화일":7058,"▁영화임\n":7059,"▁보려":7060,"▁하다.":7061,"▁좋앗":7062,"▁없네\n":7063,"▁사무":7064,"▁내돈":7065,"▁진한":7066,"▁안보는게":7067,"▁가정":7068,"▁봤어요\n":7069,"▁무난":7070,"▁여친":7071,"▁않다\n":7072,"▁개나":7073,"▁개똥":7074,"드라마가":7075,"▁소화":7076,"▁알수있":7077,"▁일으":7078,"▁우연":7079,"▁만들다니":7080,"▁고뇌":7081,"▁고독":7082,"▁쓰레기.":7083,"▁예뻐":7084,"▁상징":7085,"▁바란":7086,"▁마지막회":7087,"▁죽이":7088,"▁세번":7089,"▁허허":7090,"▁따분":7091,"▁동네":7092,"습니다!\n":7093,"▁장면들이":7094,"▁요새":7095,"▁주인공들":7096,"▁울면서":7097,"▁유치해서":7098,"▁볼만함\n":7099,"▁빠지는":7100,"구나...":7101,"▁인생은":7102,"▁건지":7103,"▁적절한":7104,"▁4.4":7105,"▁억지감동":7106,"▁찾아서":7107,"▁하지만,":7108,"▁버려":7109,"▁버린":7110,"▁버리고":7111,"아니면":7112,"▁공감도":7113,"기도하고":7114,"▁독일":7115,"생각이":7116,"것같다\n":7117,"▁작가의":7118,"♥♥♥\n":7119,"▁길이":7120,"▁첨부터":7121,"▁배경이":7122,"▁포스터에":7123,"레이드":7124,"▁영화라니":7125,"▁블루":7126,"▁ᄏᄏᄏᄏᄏᄏᄏᄏᄏᄏᄏᄏᄏᄏᄏᄏ":7127,"▁교훈도":7128,"1점도":7129,"들아\n":7130,"▁황당한":7131,"▁영원한":7132,"▁뜬금없는":7133,"▁녹아":7134,"▁쏟아":7135,"▁어두운":7136,"▁혐오":7137,"2년":7138,"▁&":7139,"▁빙":7140,"▁털":7141,"가운":7142,"감과":7143,"같아":7144,"거리가":7145,"까지만":7146,"는다.\n":7147,"따\n":7148,"리나":7149,"모를":7150,"므로":7151,"민의":7152,"분들은":7153,"빠져":7154,"사실":7155,"야.":7156,"어.\n":7157,"위에":7158,"잖은":7159,"초에":7160,"카프리오":7161,"탈출":7162,"하더라":7163,"함...\n":7164,"해져":7165,"▁보단":7166,"▁정상":7167,"▁나았":7168,"너무너무":7169,"▁기회":7170,"▁수면":7171,"▁오우":7172,"▁인종":7173,"▁것들이":7174,"▁것이다.":7175,"▁장진":7176,"▁감독과":7177,"▁감독도":7178,"▁고양이":7179,"▁재미없다.\n":7180,"▁참...":7181,"▁웃었":7182,"^^*\n":7183,"▁예수":7184,"▁다시보고":7185,"▁시간때":7186,"▁시간아깝":7187,"▁싶었던":7188,"적이지":7189,"▁마지막엔":7190,"▁한국판":7191,"정도가":7192,"▁점이":7193,"▁아무도":7194,"▁ᅲᅲᅲ\n":7195,"▁반전에":7196,"▁절망":7197,"▁맞아":7198,"▁있었다.\n":7199,"▁실망이":7200,"▁준다.":7201,"▁알았다.":7202,"▁아쉽다.":7203,"▁조금은":7204,"▁홍상수":7205,"것같다.":7206,"▁보게된":7207,"▁라스트":7208,"▁끌고":7209,"▁읽고":7210,"▁전체적인":7211,"으면서도":7212,"모르고":7213,"▁빛나는":7214,"▁의도가":7215,"▁탄탄하고":7216,"▁헛웃음":7217,"▁몽환":7218,"▁이도저도":7219,"▁류승범":7220,"▁제시카":7221,"▁명불허전":7222,",3":7223,".,":7224,"nd":7225,"▁곱":7226,"▁님":7227,"▁밖":7228,"▁죠":7229,"▁입니다":7230,"▁합니다":7231,"가에":7232,"가장":7233,"간만에":7234,"같다":7235,"거에":7236,"구의":7237,"굿굿":7238,"그랬":7239,"기와":7240,"꺼면":7241,"니가":7242,"더군요.":7243,"던거":7244,"만도":7245,"무엇":7246,"발연기":7247,"번에":7248,"승전":7249,"신분들":7250,"안타":7251,"애들은":7252,"워즈":7253,"원은":7254,"죠?\n":7255,"진않":7256,"질이":7257,"파치노":7258,"프레":7259,"할수가":7260,"..너무":7261,"▁아담":7262,"▁있나":7263,"▁못본":7264,"▁재미있다.":7265,"▁재미있는데":7266,"▁끝나서":7267,"▁반대":7268,"▁또보고싶":7269,"▁짜릿":7270,"이다!\n":7271,"▁괜찮게":7272,"▁포인트":7273,"▁드디어":7274,"▁공포를":7275,"▁줄리":7276,"다니는":7277,"▁리즈":7278,"▁가슴아":7279,"스럽다":7280,"재밌음":7281,"▁만들어주":7282,"▁있었으면":7283,"니까?":7284,"▁9점대":7285,"▁받고":7286,"▁치는":7287,"▁재밋다":7288,"▁캐릭터들이":7289,"▁놀란":7290,"생각을":7291,"▁담담":7292,"▁잊고":7293,"▁잠들":7294,"▁요즘은":7295,"▁앞에":7296,"▁않았다.":7297,"라이즈":7298,"▁보게되":7299,"▁th":7300,"▁빨갱":7301,"▁깨알":7302,"▁인상적인":7303,"▁배경으로":7304,"▁이름을":7305,"▁키스":7306,"▁트랜":7307,"나온다":7308,"▁쓸쓸":7309,"▁아님\n":7310,"▁엑소":7311,"▁밤에":7312,"▁거지같은":7313,"▁선생님":7314,"b\n":7315,"ot":7316,"▁x":7317,"▁뚝":7318,"▁삭제":7319,"고생":7320,"광고":7321,"귀엽":7322,"나쁜":7323,"되게":7324,"리스트":7325,"못하는":7326,"박죽":7327,"보인":7328,"분의":7329,"분들이":7330,"선택":7331,"아노":7332,"오랜":7333,"왔는데":7334,"왕국":7335,"웃겨":7336,"을수가":7337,"적이라":7338,"전혀":7339,"조현":7340,"죽박죽":7341,"지부":7342,"찬란":7343,"치를":7344,"타지":7345,"편집":7346,"했으나":7347,"후에":7348,"희의":7349,"▁영화인가":7350,"▁그들이":7351,"▁보라고":7352,"...?":7353,"▁정당":7354,"▁다녀":7355,"하고는":7356,"▁재밌었던":7357,"▁진짜...":7358,"▁최고.\n":7359,"▁오는":7360,"▁배꼽":7361,"▁자아":7362,"▁뭐고":7363,"▁뭐..":7364,"▁사람들을":7365,"▁끝도":7366,"▁반영":7367,"▁느낌.\n":7368,"▁심장":7369,"▁드래곤":7370,"▁박중훈":7371,"▁ᅲᅲᅲ":7372,"▁빠졌":7373,"▁선사":7374,"▁정도는":7375,"▁피터":7376,"▁이제는":7377,"▁질리":7378,"▁무섭고":7379,"▁빼곤":7380,"▁깊게":7381,"▁보았던":7382,"▁빠져서":7383,"▁뛰어나":7384,"▁나올때":7385,"▁티비로":7386,"▁허무한":7387,"해주세요":7388,"▁든다.":7389,"▁창피":7390,"▁진지하게":7391,"▁요소가":7392,"▁풋풋한":7393,"▁아류작":7394,"▁설득력":7395,"▁화장실":7396,"▁이병헌":7397,"/\n":7398,"9년":7399,"TV":7400,"^-":7401,"dd":7402,"▁r":7403,"▁폰":7404,"▁합니다.\n":7405,"가가":7406,"감사":7407,"곳에":7408,"다르":7409,"도로":7410,"로맨":7411,"만족":7412,"맘에":7413,"비해":7414,"유.\n":7415,"자,":7416,"자리":7417,"체적":7418,"코메디":7419,"크레딧":7420,"트를":7421,"평론가":7422,"해본":7423,"해요.":7424,"했다..":7425,"했습니다":7426,"▁영화나":7427,"▁영화속":7428,"▁보낸":7429,"▁하정우":7430,"▁무거운":7431,"▁개콘":7432,"▁공중":7433,"▁2탄":7434,"▁10번":7435,"▁끝에":7436,"▁웃기는":7437,"▁기대가":7438,"▁좋았습니다.":7439,"▁있는거":7440,"▁후에":7441,"▁별로다\n":7442,"▁분량":7443,"▁동영상":7444,"▁음식":7445,"▁아이언":7446,"▁아이디어":7447,"▁단어":7448,"▁절제":7449,"▁만들어졌":7450,"▁추천하고":7451,"▁캐릭터를":7452,"▁베이":7453,"▁변화":7454,"▁좋겠다.\n":7455,"▁들어가":7456,"▁임팩트":7457,"▁보았는데":7458,"▁암울":7459,"리의리의":7460,"▁생각해보게":7461,"▁적당한":7462,"▁뜬금없이":7463,"▁던져":7464,"지못할":7465,"▁EBS":7466,"▁하이틴":7467,"아직도":7468,"0%":7469,"1년":7470,"8년":7471,"es":7472,"▁앙":7473,"기.":7474,"내지":7475,"더라고":7476,"라라":7477,"맞은":7478,"물론":7479,"물의":7480,"부의":7481,"수선":7482,"아누":7483,"얼마":7484,"었다는":7485,"역할":7486,"였고":7487,"있다.\n":7488,"지에":7489,"치도":7490,"타고":7491,"패스":7492,"하루":7493,"해.":7494,"▁이쁨":7495,"▁그들":7496,"▁하도":7497,"하고...":7498,"네요^^":7499,"▁가히":7500,"▁평화":7501,"▁전화":7502,"▁연기하는":7503,"▁무간":7504,"ᄏᄏᄏᄏᄏᄏ\n":7505,"▁말고는":7506,"▁말그대로":7507,"▁비호":7508,"▁드라마...":7509,"▁부끄럽":7510,"▁고어":7511,"▁예측":7512,"ᄒᄒᄒ":7513,"▁신하균":7514,"하지말":7515,"▁죽고":7516,"▁했다.\n":7517,"▁했더니":7518,"▁아깝다..":7519,"▁강동":7520,"▁명작.":7521,"정도의":7522,"▁망할":7523,"▁절로":7524,"▁짜증나게":7525,"▁머릿":7526,"▁필요없다":7527,"▁모습은":7528,"▁않은데":7529,"한테는":7530,"▁시작해서":7531,"▁형제":7532,"▁글을":7533,"▁뒤에":7534,"해야할":7535,"▁언제까지":7536,"▁들어간":7537,"▁보세요.\n":7538,"▁숨은":7539,"▁2편이":7540,"▁송강호":7541,"▁오글오글":7542,"▁잃은":7543,"시대에":7544,"▁봄\n":7545,"▁만점에":7546,"▁12세":7547,"al":7548,"ic":7549,"▁땐":7550,"▁족":7551,"가를":7552,"갔다":7553,"겠다고":7554,"경이":7555,"구요\n":7556,"그럼":7557,"그렇게":7558,"데미":7559,"됨.":7560,"롭고":7561,"루토":7562,"르소":7563,"말을":7564,"물.":7565,"살때":7566,"석규":7567,"성한":7568,"세\n":7569,"야지\n":7570,"었다고":7571,"원을":7572,"잖아요":7573,"힘들":7574,"▁이종":7575,"▁하...":7576,"▁어떠":7577,"▁있고,":7578,"▁있다니":7579,"▁한가":7580,"▁한순간":7581,"▁시종일":7582,"네요!":7583,"▁기괴":7584,"▁않음\n":7585,"▁소개":7586,"▁것만":7587,"▁재미있었는데":7588,"▁부활":7589,"▁부자연":7590,"▁뭐라고":7591,"▁2.2":7592,"▁명대사":7593,"▁사랑하고":7594,"▁참..":7595,"▁싶어서":7596,"▁마지막장면":7597,"인데...":7598,"▁멋지게":7599,"▁연출력이":7600,"▁따름":7601,"▁에효":7602,"▁이영화의":7603,"▁힘을":7604,"하기는":7605,"▁보기가":7606,"▁맞추":7607,"▁영상도":7608,"▁한번더":7609,"▁엄청나게":7610,"▁개봉당시":7611,"▁표현할":7612,"▁어디로":7613,"내용인지":7614,"▁베리":7615,"▁아쉬울":7616,"▁그렇지만":7617,"▁잠을":7618,"▁시리즈의":7619,"▁황정":7620,"▁임창":7621,"▁혼란":7622,"▁그리워":7623,"▁밑도":7624,"▁아버지의":7625,"▁개그맨":7626,"그러나":7627,"▁돋보인":7628,"▁뮤직":7629,"▁진지한":7630,"▁워낙":7631,"▁시도는":7632,"▁피해자":7633,"****":7634,"▁깔끔한":7635,"▁축구":7636,"▁맡은":7637,"▁감명깊게":7638,"▁칭찬":7639,"BC":7640,"▁덴":7641,"▁르":7642,"▁습":7643,"▁큐":7644,"간히":7645,"감정":7646,"것\n":7647,"것에":7648,"결국":7649,"네여\n":7650,"데\n":7651,"드워":7652,"들여":7653,"매이션":7654,"봤다\n":7655,"상에":7656,"씨도":7657,"유발":7658,"인에":7659,"잔인":7660,"졸작":7661,"중국":7662,"증이":7663,"지나":7664,"크루즈":7665,"할거":7666,"할뿐":7667,"했다면":7668,"행복":7669,"▁이별":7670,"▁이승":7671,"▁아만다":7672,"▁없나":7673,"▁너무좋":7674,"▁한시간":7675,"▁최고라고":7676,"▁말투":7677,"▁소통":7678,"▁우디":7679,"▁중학생":7680,"▁재미있음\n":7681,"▁부산":7682,"▁배우들을":7683,"▁끝을":7684,"▁사랑해요":7685,"▁봐라\n":7686,"▁바닥":7687,"▁불과":7688,"▁난리":7689,"▁넘넘":7690,"▁괜찬":7691,"습니다...\n":7692,"▁아이들의":7693,"▁공포가":7694,"▁박신":7695,"▁리암":7696,"▁빠지":7697,"▁맞지":7698,"재밌는":7699,"▁전개,":7700,"▁전개는":7701,"▁수준을":7702,"▁치유":7703,"▁연기력에":7704,"▁아니라,":7705,"▁긴장감을":7706,"▁않았던":7707,"▁디카프리오":7708,"▁타란티노":7709,"감동적이":7710,"▁to":7711,"▁역사에":7712,"▁아깝다!!!\n":7713,"▁왕조현":7714,"▁CG가":7715,"재밋게":7716,"▁당신이":7717,"▁안된다.":7718,",,,,,,,,":7719,"▁같아요\n":7720,"▁향연":7721,"▁다운받아서":7722,"▁그려낸":7723,"기억이":7724,"▁소름끼치는":7725,"▁형편없는":7726,"▁격투":7727,"am":7728,"ed":7729,"▁닿":7730,"▁섭":7731,"경찰":7732,"구라":7733,"나이트":7734,"녀석":7735,"는다.":7736,"답게":7737,"덕에":7738,"로\n":7739,"발견":7740,"상태":7741,"스텔":7742,"시기":7743,"시의":7744,"신도":7745,"없네":7746,"예진":7747,"위가":7748,"으러":7749,"잔잔":7750,"제를":7751,"지르":7752,"진다":7753,"트릭":7754,"포인트":7755,"해..":7756,"했네":7757,"▁영화!!!\n":7758,"▁이나":7759,"▁이지":7760,"▁나중":7761,"▁있긴":7762,"▁있어요":7763,"하고\n":7764,"▁한효":7765,"▁안좋아":7766,"▁가짜":7767,"▁기획":7768,"▁모욕":7769,"▁알파치노":7770,"▁본다":7771,"▁보고나니":7772,"▁일을":7773,"▁비쥬얼":7774,"▁지루하기":7775,"다는건":7776,"▁재미있네요":7777,"▁다시금":7778,"▁실감":7779,"▁원숭":7780,"인데\n":7781,"습니다!":7782,"▁아이들에게":7783,"정도는":7784,"▁만든영화":7785,"▁그런거":7786,"▁졸리":7787,"▁졸업":7788,"하나하나":7789,"하기에":7790,"▁절정":7791,"▁억울":7792,"▁건질":7793,"▁극장에":7794,"▁영화였다\n":7795,"▁영화였습니다.":7796,"▁캐릭터도":7797,"▁호불":7798,"주인공이":7799,"▁어디에":7800,"▁잼있어요":7801,"▁삶과":7802,"것같아":7803,"▁미국식":7804,"▁킬러":7805,"▁뒤죽박죽":7806,"▁살아있":7807,"▁무엇인가":7808,"▁장난아니":7809,"고싶은":7810,"거같아요":7811,"하네..":7812,"▁스타워즈":7813,"▁왠만":7814,"▁영화라서":7815,"▁더빙이":7816,"▁여러모로":7817,"▁보지마라":7818,"▁묘한":7819,"▁TV에서":7820,"▁능가":7821,"▁흘러가는":7822,"▁비추\n":7823,"▁미스캐스팅":7824,"▁밝혀":7825,"▁엘리":7826,"▁고등학교":7827,"▁엽기":7828,"▁아기자기":7829,"▁오로지":7830,"▁시종일관":7831,"ay":7832,"tt":7833,"ᅳ.ᅳ":7834,"▁획":7835,"▁힌":7836,"▁다\n":7837,"▁!!!":7838,"가의":7839,"감.":7840,"같아서":7841,"관을":7842,"기위해":7843,"네?":7844,"로그":7845,"롭게":7846,"먹을":7847,"미\n":7848,"미의":7849,"미친":7850,"봤음":7851,"비에":7852,"새록":7853,"스틱":7854,"슴\n":7855,"없다..":7856,"여기":7857,"영의":7858,"예술":7859,"요!":7860,"요~\n":7861,"으셨":7862,"이큰":7863,"있던":7864,"주행":7865,"준다.":7866,"차피":7867,"케이":7868,"티가":7869,"편의":7870,"한,":7871,"허무":7872,"▁영화냐":7873,"▁영화다..":7874,"▁영화보다가":7875,"▁보이지":7876,"▁보아도":7877,"...진짜":7878,"▁어딘":7879,"▁연상":7880,"▁한지":7881,"▁1등":7882,"▁가수":7883,"▁재밌네요\n":7884,"▁봤네요.":7885,"▁수록":7886,"▁말씀":7887,"▁생각만":7888,"▁미녀":7889,"▁우선":7890,"▁드라마였":7891,"▁재미있다.\n":7892,"▁재미있어요\n":7893,"▁10자":7894,"▁되돌아":7895,"▁봐라.":7896,"▁신인":7897,"▁원주":7898,"▁좋았음\n":7899,"▁도데체":7900,"▁의상":7901,"▁돈아깝":7902,"▁구성도":7903,"▁잼있는":7904,"▁이야기의":7905,"▁당장":7906,"▁요리":7907,"▁보여줄":7908,"▁망쳤":7909,"▁현실은":7910,"하기엔":7911,"▁없고\n":7912,"▁긴박":7913,"▁올레":7914,"▁실망\n":7915,"▁나온다":7916,"▁흥미를":7917,"▁표현이":7918,"던데\n":7919,"▁조금만":7920,"▁살아야":7921,"▁살아있는":7922,"▁세상에서":7923,"▁장난하나":7924,"▁역사상":7925,"▁오래전에":7926,"▁충격적인":7927,"▁순수하고":7928,"▁숨막":7929,"▁재미있었어요":7930,"▁키아누":7931,"노잼\n":7932,"▁상황을":7933,"잖아\n":7934,"▁직업":7935,"▁질질끌":7936,"▁movie":7937,"▁페이크":7938,"프로그램":7939,"▁아마추":7940,"▁쩌는":7941,"▁소장하고":7942,"▁닥치고":7943,"▁쩐다":7944,"▁뛰어넘는":7945,"▁김수현":7946,"▁브래드":7947,"▁바탕으로":7948,"▁ᄆ":7949,"가위":7950,"간다\n":7951,"대고":7952,"돈주고":7953,"동근":7954,"드먼":7955,"때도":7956,"목소리":7957,"버스":7958,"본색":7959,"비추":7960,"빼곤":7961,"선이":7962,"아이가":7963,"안돼":7964,"야..":7965,"에,":7966,"에요\n":7967,"요..\n":7968,"원에":7969,"이딴":7970,"일은":7971,"지....":7972,"집어":7973,"트는":7974,"▁영화이다.":7975,"▁영화임.":7976,"▁그가":7977,"▁보다니":7978,"▁나열":7979,"▁하드":7980,"▁하아":7981,"▁하다\n":7982,"▁있음.":7983,"▁한다고":7984,"▁시켜":7985,"▁대학":7986,"▁마찬":7987,"드라마는":7988,"▁생각합니다.":7989,"▁자고":7990,"▁스토리..":7991,"▁본것":7992,"▁본다.":7993,"▁유덕화":7994,"▁별거":7995,"▁것.\n":7996,"▁우린":7997,"▁지루하":7998,"▁조낸":7999,"▁감독,":8000,"▁애잔":8001,"▁사랑해":8002,"▁사랑스럽고":8003,"▁기대이하":8004,"▁액션씬":8005,"▁후하게":8006,"▁했다":8007,"▁나오는데":8008,"▁나오는거":8009,"▁최악.":8010,"▁극혐":8011,"▁1점이":8012,"▁로망":8013,"▁심한":8014,"▁이야기.\n":8015,"▁음..":8016,"▁에라이":8017,"▁아까워서":8018,"사람의":8019,"▁드니":8020,"▁단체":8021,"진짜\n":8022,"▁박보영":8023,"▁아무튼":8024,"▁없고..":8025,"▁음악,":8026,"▁필요가":8027,"▁90분":8028,"▁남는게":8029,"▁데스":8030,"▁않았지만":8031,"▁국어":8032,"▁1편에":8033,"▁장난치":8034,"▁부분은":8035,"▁힘들었":8036,"▁똑같이":8037,"▁성룡의":8038,"▁당신의":8039,"▁섬뜩":8040,"▁승리":8041,"▁그럴싸":8042,"▁오글거리는":8043,"▁풀어낸":8044,"▁나머지는":8045,"▁미소가":8046,"▁is":8047,"▁섬세한":8048,"★★★★":8049,"▁둘째치고":8050,"▁중2병":8051,"'의":8052,"gh":8053,"▁ᄂ":8054,"▁락":8055,"▁람":8056,"▁맙":8057,"▁옴":8058,"▁잉":8059,"▁........":8060,"각본":8061,"거의":8062,"겠네\n":8063,"기,":8064,"기종":8065,"네~":8066,"도에":8067,"되는데":8068,"때는":8069,"리언":8070,"보러":8071,"본다\n":8072,"분을":8073,"스카":8074,"실히":8075,"심에":8076,"아오":8077,"안에서":8078,"어떤":8079,"에로":8080,"을꺼":8081,"의식":8082,"일러":8083,"임...":8084,"있음":8085,"져야":8086,"진다\n":8087,"집에":8088,"트로":8089,"할뻔":8090,"흥미":8091,"영화에서":8092,"▁영화랑":8093,"▁이만한":8094,"▁그로":8095,"▁하겠":8096,"▁하기":8097,"▁하기엔":8098,"▁있음\n":8099,"▁시험":8100,"▁16":8101,"▁1회":8102,"▁스토":8103,"▁스피":8104,".........":8105,"▁봤었":8106,"▁평을":8107,"▁전도":8108,"▁마냥":8109,"▁모아":8110,"▁생각은":8111,"▁소유":8112,"▁감동,":8113,"▁비록":8114,"▁지루함을":8115,"▁지루함.":8116,"▁드라마로":8117,"▁공유":8118,"▁고문":8119,"▁보는것":8120,"▁다시보기":8121,"▁매번":8122,"▁기대하지":8123,"▁의사":8124,"▁하나는":8125,"▁넘어서":8126,"▁했는지":8127,"▁모르지만":8128,"▁캐릭":8129,"▁여자를":8130,"▁공포는":8131,"▁유치찬란":8132,"▁이상은":8133,"▁남자는":8134,"▁짜증났":8135,"▁방향":8136,"▁찍고":8137,"▁ᄏᄏᄏᄏᄏᄏ\n":8138,"▁손가락":8139,"▁레옹":8140,"▁대사도":8141,"▁싸우":8142,"▁재밌었다.":8143,"▁재밌었다\n":8144,"▁감동적이었":8145,"▁나와야":8146,"▁뻔한스토리":8147,"▁행복하게":8148,"▁무섭게":8149,"▁엔딩크레딧":8150,"▁몰입도도":8151,"▁민족":8152,"▁민주":8153,"▁별점이":8154,"하시고":8155,"군요.\n":8156,"ᄋᄋ\n":8157,"▁풍자":8158,"▁독특하고":8159,",,,,\n":8160,"▁의도는":8161,"하자면":8162,"▁누군지":8163,"▁:)\n":8164,"하고싶은":8165,"▁난해한":8166,"▁ᄌᄂ":8167,"▁두고두고":8168,"▁쉬운":8169,"▁납득":8170,"▁떡밥":8171,"▁박진감":8172,"준것들":8173,"▁평점조절":8174,"ost":8175,"~!!!\n":8176,"▁~~~~":8177,"▁입니다.\n":8178,"같다.":8179,"개를":8180,"구역":8181,"기.\n":8182,"께서":8183,"나라는":8184,"나가는":8185,"놈이":8186,"다리":8187,"든다":8188,"리면서":8189,"맞추":8190,"미화":8191,"믿고":8192,"바타":8193,"발이":8194,"본거":8195,"살이":8196,"세여":8197,"셔야":8198,"스레":8199,"싫어":8200,"어스":8201,"엇다":8202,"에다":8203,"움과":8204,"으리":8205,"이네요.":8206,"일까?":8207,"잡는":8208,"장에":8209,"저것":8210,"찬욱":8211,"채널":8212,"천원":8213,"태현":8214,"판을":8215,"표정":8216,"하네요..":8217,"한영화\n":8218,"했었":8219,"히고":8220,"▁영화이다.\n":8221,"▁아카":8222,"▁재방":8223,"▁재앙":8224,"▁어거지":8225,"▁연관":8226,"▁지옥":8227,"▁안좋":8228,"▁안무섭":8229,"▁스펙":8230,"▁수는":8231,"▁무의미":8232,"▁여신":8233,"▁개꿀잼":8234,"▁같고":8235,"▁같음":8236,"▁같습니다.\n":8237,"▁알아야":8238,"▁본영화":8239,"▁미션":8240,"▁우왕":8241,"▁뭐여":8242,"▁2는":8243,"▁끝날":8244,"▁쓰레기는":8245,"▁되야":8246,"▁상태":8247,"▁바이":8248,"▁이거보단":8249,"▁극중":8250,"부터는":8251,"▁두시간":8252,"!!!!!":8253,"▁들어서":8254,"습니다^^\n":8255,"▁아이유":8256,"▁줄수":8257,"었는데..":8258,"▁짱!\n":8259,"▁없고...":8260,"▁방해":8261,"재밌다":8262,"▁음악은":8263,"▁코미디\n":8264,"▁된다.\n":8265,"▁가족애":8266,"▁가족을":8267,"▁흥미로웠":8268,"던데..":8269,"▁아니라면":8270,"▁재밌었다":8271,"만큼이나":8272,"▁앞서":8273,"▁정신이":8274,"치고는":8275,"쓰레기쓰레기":8276,"지루하고":8277,"▁돌아보게":8278,"▁웃음을":8279,"▁브라":8280,"재미없다":8281,"▁괜찮았던":8282,"▁괜찮았는데":8283,"▁온갖":8284,"▁어울리지":8285,"▁자연스럽게":8286,"ᄏᄏᄏᄏᄏᄏᄏᄏᄏᄏᄏᄏᄏᄏᄏᄏᄏᄏᄏᄏᄏᄏᄏᄏᄏᄏᄏᄏᄏᄏᄏᄏ":8287,"▁제작비가":8288,"우리나라":8289,"very":8290,"▁이끌어":8291,"▁스파이더맨":8292,"시청률":8293,"(웃음)\n":8294,"▁4.44":8295,"1\n":8296,"<\n":8297,">>":8298,"bc":8299,"im":8300,"tv":8301,"▁멜":8302,"▁ᅮ\n":8303,"가...":8304,"가면서":8305,"극을":8306,"나??":8307,"대에":8308,"더욱":8309,"덩어리":8310,"도한":8311,"돈이":8312,"럽고":8313,"마리":8314,"사고":8315,"소\n":8316,"아리":8317,"알아":8318,"았지만":8319,"여자가":8320,"우스":8321,"원에서":8322,"을지":8323,"이,":8324,"이네요\n":8325,"인,":8326,"저냥":8327,"저런":8328,"타쿠":8329,"필버그":8330,"하늘":8331,"할것":8332,"▁보석":8333,"▁하하":8334,"▁좋을듯":8335,"▁없지":8336,"▁진수":8337,"▁지가":8338,"▁한동안":8339,"▁정말\n":8340,"▁오지":8341,"▁인류":8342,"▁비참":8343,"▁드라마도":8344,"▁작화":8345,"▁애초에":8346,"▁명연기":8347,"▁명성에":8348,"▁상큼":8349,"▁신이":8350,"▁원하는":8351,"▁살리지":8352,"▁난무":8353,"▁좋았음":8354,"▁도와":8355,"▁하나가":8356,"▁넘치":8357,"라는거":8358,"▁1점을":8359,"▁관점":8360,"▁관심이":8361,"▁아이디":8362,"인가요?":8363,"▁과정":8364,"▁매력적":8365,"▁절대로":8366,"▁방황":8367,"는지..":8368,"이었다":8369,"▁영상은":8370,"▁피아노":8371,"▁수준\n":8372,"장면도":8373,"▁놀래":8374,"▁준다":8375,"▁제목에":8376,"▁아쉽다":8377,"▁느껴질":8378,"평점은":8379,"▁니가":8380,"▁글고":8381,"▁좋겠다.":8382,"▁좋겠어요":8383,"▁점수준것들":8384,"부분은":8385,"▁잡아":8386,"▁태국":8387,"▁캐스팅이":8388,"작품\n":8389,"▁노잼\n":8390,"▁크리스찬":8391,"▁로맨틱코미디":8392,"▁알려주는":8393,"공포영화":8394,"▁ᄉᄇ\n":8395,"9999":8396,"▁조잡한":8397,"▁흉내":8398,"▁기발한":8399,"▁뭐하자는":8400,".8":8401,"cg":8402,"vs":8403,"ᅩᅩ":8404,"▁갱":8405,"가.":8406,"결혼":8407,"결말이":8408,"궁금":8409,"력에":8410,"리는데":8411,"물에":8412,"미를":8413,"바라":8414,"받아":8415,"병맛":8416,"사도":8417,"삼류":8418,"스코":8419,"승우":8420,"시다.":8421,"아지":8422,"야...":8423,"약한":8424,"어쩌":8425,"예요.":8426,"자꾸":8427,"졌다.":8428,"지섭":8429,"진행":8430,"질을":8431,"하실":8432,"하길래":8433,"한편":8434,"할줄":8435,"▁영화적":8436,"▁이라는":8437,"▁좋으나":8438,"▁없네요.":8439,"▁내취향":8440,"▁있으나":8441,"▁시끄":8442,"▁안보면":8443,"▁가시":8444,"▁가야":8445,"▁재밌어요.":8446,"▁봤음\n":8447,"▁마니":8448,"▁마법":8449,"▁연기의":8450,"▁여기에":8451,"▁잘했":8452,"▁않다":8453,"▁않음":8454,"▁오해":8455,"▁오리지":8456,"▁말은":8457,"▁스토리나":8458,"▁스토리로":8459,"▁스토리전개":8460,"▁본격":8461,"까지..":8462,"▁별한":8463,"▁우는":8464,"▁고양":8465,"▁쓰레기를":8466,"▁영구":8467,"▁좋아하지만":8468,"▁처절":8469,"▁이거보다":8470,"▁성인이":8471,"▁때가":8472,"▁별로..":8473,"▁짜리":8474,"▁명작.\n":8475,"▁이영화에":8476,"▁막상":8477,"▁주인공들이":8478,"▁설경":8479,"▁아닌가?":8480,"▁아무나":8481,"▁가장한":8482,"▁빠질":8483,"▁애니는":8484,"ᅮᅮᅮᅮ":8485,"▁짜증남":8486,"더라.\n":8487,"니까\n":8488,"▁받아야":8489,"▁재밋는":8490,"이상은":8491,"▁떨어뜨":8492,"▁시리즈를":8493,"▁보고싶은데":8494,"▁보게되는":8495,"▁뒤늦게":8496,"▁의미도":8497,"▁의미있는":8498,"▁길을":8499,"▁관객이":8500,"▁완벽하게":8501,"▁문제를":8502,"▁설정은":8503,"▁얘기를":8504,"▁충분한":8505,"▁198":8506,"▁사회적":8507,"▁ᄍᄍᄍ\n":8508,"▁자연스러운":8509,"▁놓치":8510,"▁안나옴":8511,"▁그럴듯":8512,"▁미스테":8513,"▁오랫동안":8514,"학년때":8515,"▁데이빗":8516,"▁파워레인":8517,"라에몽":8518,"'을":8519,"6년":8520,"▁쾌":8521,"가며":8522,"같다\n":8523,"개념":8524,"거다":8525,"광구":8526,"기술":8527,"끝나고":8528,"녀의":8529,"덕분에":8530,"데...":8531,"도..":8532,"돌려":8533,"동이":8534,"렸던":8535,"론의":8536,"리,":8537,"면이":8538,"명은":8539,"브리":8540,"생겼":8541,"어주":8542,"외로":8543,"을정도로":8544,"이..":8545,"인걸":8546,"인지는":8547,"장은":8548,"진실":8549,"진창":8550,"충격":8551,"평을":8552,"호러":8553,"영화제":8554,"영화다.":8555,"▁이모":8556,"▁보겠":8557,"▁어수선":8558,"▁감이":8559,"▁지극":8560,"▁지독":8561,"▁한석규":8562,"▁안됨\n":8563,"▁마다":8564,"▁마블":8565,"▁연기\n":8566,"▁모방":8567,"▁주온":8568,"▁최고최고":8569,"ᄏᄏᄏᄏᄏᄏᄏ\n":8570,"▁남성":8571,"▁본능":8572,"▁아니고,":8573,"▁재미있어요.":8574,"▁조지":8575,"▁만들수":8576,"▁감독에게":8577,"▁끝\n":8578,"▁되는데":8579,"▁웃는":8580,"▁시간도":8581,"▁상대":8582,"▁처음\n":8583,"▁눈으로":8584,"▁실사":8585,"▁실수":8586,"▁불법":8587,"▁의해":8588,"▁코스":8589,"▁때는":8590,"▁10점은":8591,"▁음모":8592,"▁아이를":8593,"정도\n":8594,"▁OO\n":8595,"▁빠순":8596,"▁음악을":8597,"▁모든것이":8598,"▁억지스럽고":8599,"▁억지스런":8600,"▁욕을":8601,"▁욕이":8602,"▁편하게":8603,"▁열라":8604,"▁찍는":8605,"▁크레딧":8606,"▁먹칠":8607,"이라는게":8608,"▁스릴러\n":8609,"▁제대로된":8610,"▁니네":8611,"▁니들이":8612,"▁느끼고":8613,"이런영화":8614,"거같다\n":8615,"▁분위기는":8616,"아까움\n":8617,"▁졸작.":8618,"▁뿐\n":8619,"▁뿐이다.\n":8620,"▁클로":8621,"▁꿈과":8622,"▁감사합니다":8623,"느낌이":8624,"▁듣기":8625,"▁2014년":8626,"추천\n":8627,"애니메이션":8628,"▁그림체":8629,"▁찬양":8630,"▁웃겨서":8631,"▁15세":8632,"▁산만하고":8633,"▁런닝타임":8634,"▁정신병자":8635,"▁고등학생":8636,"▁세월이":8637,"▁세련된":8638,"얼마나":8639,"1편":8640,"▁;":8641,"▁곤":8642,"▁벽":8643,"▁석":8644,"▁적이":8645,"감한":8646,"경을":8647,"고도":8648,"까말":8649,"내서":8650,"리즘":8651,"며,":8652,"못하고":8653,"버츠":8654,"베이":8655,"보던":8656,"봐라\n":8657,"부에":8658,"승헌":8659,"시킬":8660,"신기":8661,"어?":8662,"어..\n":8663,"에휴":8664,"예쁘":8665,"예요\n":8666,"있지만":8667,"찾아":8668,"탈리아":8669,"플린":8670,"햇는데":8671,"했어요\n":8672,"영화!":8673,"영화인줄":8674,"▁영화란":8675,"▁영화볼":8676,"...너무":8677,"▁정사":8678,"▁나루토":8679,"▁어서":8680,"▁사과":8681,"▁감성을":8682,"▁지는":8683,"▁시골":8684,"▁안가는":8685,"▁가만":8686,"▁대결":8687,"▁마시길":8688,"▁연기로":8689,"▁모니":8690,"▁생존":8691,"▁주관":8692,"▁최고입니다":8693,"▁소소":8694,"▁미학":8695,"▁일어나":8696,"▁비정":8697,"▁쓰러":8698,"▁드라마중":8699,"▁재미있어":8700,"▁재미있을":8701,"▁부러":8702,"▁그냥저냥":8703,"▁조차":8704,"▁되면":8705,"▁되었다.\n":8706,"▁좋아요.":8707,"▁신세":8708,"▁바라는":8709,"▁난다.":8710,"▁기대했던":8711,"▁도시":8712,"▁넘쳐":8713,"▁성형":8714,"▁몰라":8715,"▁이렇게까지":8716,"▁극본":8717,"▁강요":8718,"▁구조":8719,"!!!!!!\n":8720,"▁들게":8721,"▁에드워":8722,"▁포몬":8723,"▁귀찮":8724,"▁볼만함":8725,"▁현실적이고":8726,"▁과정이":8727,"▁걸로":8728,"▁애니매이션":8729,"구나.\n":8730,"▁가슴아프":8731,"▁정도\n":8732,"▁재밋엇":8733,"▁재밋음":8734,"▁재밋어요":8735,"▁추천합니다":8736,"▁호흡":8737,"생각으로":8738,"▁가족과":8739,"▁준비":8740,"스토리는":8741,"▁--":8742,"▁긴장감과":8743,"▁개인적인":8744,"▁니들":8745,"▁알바가":8746,"▁않았다.\n":8747,"▁나왔던":8748,"할수있는":8749,"▁첨으로":8750,"▁초반엔":8751,"▁입장":8752,"▁입장에서":8753,"▁귀여웠":8754,"▁채워":8755,"▁굳굳":8756,"하하하하":8757,"▁아버지가":8758,"▁안된다":8759,"▁벗어나":8760,"▁2014":8761,"▁쉽지":8762,"▁죽음을":8763,"▁오그라드는":8764,"▁상처를":8765,"이후로":8766,"▁니콜라스":8767,"▁우려먹":8768,"▁호불호가":8769,".c":8770,"44":8771,"et":8772,"▁롤":8773,"▁팅":8774,"▁텐데":8775,"▁합니다\n":8776,"가리":8777,"간다.\n":8778,"것보다":8779,"고한":8780,"깊은":8781,"나다":8782,"네....":8783,"년만에":8784,"달라고":8785,"라곤":8786,"릴때":8787,"번을":8788,"셨으면":8789,"스틴":8790,"아내":8791,"안됨":8792,"어른":8793,"어를":8794,"에다가":8795,"옛날":8796,"이들의":8797,"임..\n":8798,"임?\n":8799,"자도":8800,"죽이고":8801,"참고":8802,"철학":8803,"해가는":8804,"혜선":8805,"영화...\n":8806,"...?\n":8807,"▁정주행":8808,"▁다름":8809,"▁하네요":8810,"▁없던":8811,"▁감수":8812,"▁감성이":8813,"▁연습":8814,"▁있습니다.":8815,"▁한글":8816,"▁안보는":8817,"▁안봐서":8818,"▁1~":8819,"▁1개":8820,"▁대역":8821,"▁연기만":8822,"▁무식":8823,"▁잘한":8824,"▁최고다.\n":8825,"▁말하려는":8826,"드라마를":8827,"▁생각한다.\n":8828,"▁같네요":8829,"▁못했던":8830,"▁남의":8831,"▁감동이었":8832,"▁부드":8833,"▁뭐...":8834,"▁공룡":8835,"▁참여":8836,"▁반갑":8837,"▁웃을":8838,"▁다시봤는데":8839,"▁싶다면":8840,"▁신은":8841,"▁살았":8842,"▁마지막은":8843,"▁기대되":8844,"▁성의":8845,"▁했으나":8846,"라는걸":8847,"▁이해도":8848,"▁초월":8849,"▁우리에게":8850,"▁와서":8851,"▁포함":8852,"▁차승":8853,"▁차이":8854,"사람도":8855,"▁줄이야":8856,"▁박찬욱":8857,"▁몰입하게":8858,"인가..":8859,"▁속이":8860,"▁게스트":8861,"▁간단":8862,"▁적은":8863,"▁피식":8864,"▁새록":8865,"▁새삼":8866,"▁경악":8867,"▁캐릭터는":8868,"▁답이":8869,"▁영화에요":8870,"▁어디가":8871,"▁모습에":8872,"▁긴장감은":8873,"▁시리즈가":8874,"이없다":8875,"해야지":8876,"▁귀여워서":8877,"▁귀여워요":8878,"▁러셀":8879,"▁엔딩은":8880,"▁이딴게":8881,"▁애니메이션\n":8882,"▁책으로":8883,"▁영화라지만":8884,"▁군더더":8885,"▁커버":8886,"▁커서":8887,"▁영상미도":8888,"느낌\n":8889,"▁갖게":8890,"▁테이큰":8891,"그런데":8892,"▁틀림":8893,"모르게":8894,"10자":8895,"▁꺼버렸":8896,"▁이어지는":8897,"▁후반부에":8898,"▁영웅본색":8899,"▁완성도가":8900,"▁동화같은":8901,"▁전편보다":8902,"▁면이":8903,"▁남아있는":8904,"▁늙은":8905,"▁보고있는데":8906,"▁이하도":8907,"▁흥미롭게":8908,"▁슈퍼맨":8909,"▁거기다":8910,"▁심각하게":8911,"▁밋밋한":8912,"▁흉내내":8913,"▁화끈한":8914,"▁M창\n":8915,"▁아이언맨":8916,"3류":8917,"9점":8918,"@강추":8919,"ff":8920,"id":8921,"▁곡":8922,"▁탕":8923,"▁,,":8924,"갑자기":8925,"게다가":8926,"계를":8927,"구를":8928,"그나마":8929,"끄는":8930,"넘치는":8931,"누라":8932,"니..":8933,"동화":8934,"든다\n":8935,"들린":8936,"땜시":8937,"러스":8938,"만\n":8939,"맞고":8940,"명한":8941,"미안":8942,"방식":8943,"배는":8944,"버튼":8945,"보세요\n":8946,"복수":8947,"상한":8948,"소가":8949,"소리는":8950,"속을":8951,"스란":8952,"심한":8953,"아의":8954,"암튼":8955,"여배우":8956,"여주인공":8957,"위를":8958,"일에":8959,"있을":8960,"작은":8961,"좀비":8962,"지??":8963,"창시절":8964,"프리":8965,"하네.":8966,"혜교":8967,"▁영화들이":8968,"▁이중":8969,"▁아메":8970,"▁아....":8971,"▁그이상":8972,"▁보구":8973,"▁재탕":8974,"▁좋습니다.":8975,"▁좋고,":8976,"▁없어도":8977,"▁어중간":8978,"▁어차피":8979,"▁한정":8980,"▁한줄":8981,"▁최대":8982,"▁봤다..":8983,"▁전라도":8984,"어요..\n":8985,"▁오페":8986,"▁말밖에":8987,"▁소년":8988,"▁소품":8989,"▁소리가":8990,"▁남았":8991,"▁본건":8992,"▁미쳐":8993,"▁유승":8994,"▁아니잖아":8995,"▁비해서":8996,"▁우승":8997,"다는것":8998,"▁참나":8999,"▁되서":9000,"▁되는거":9001,"▁반응":9002,"▁웃다가":9003,"▁웃으며":9004,"▁거듭":9005,"▁시간과":9006,"▁시간은":9007,"▁매주":9008,"▁작품에":9009,"▁기대한":9010,"▁액션의":9011,"▁좋았어요\n":9012,"▁죽었":9013,"▁지금보면":9014,"▁김명":9015,"▁이게뭐":9016,"▁연출.":9017,"▁구경":9018,"▁따듯":9019,"▁괜찮고":9020,"▁여자들이":9021,"▁주인공들의":9022,"재미가":9023,"재미없는":9024,"▁점에서":9025,"하기가":9026,"이었음":9027,"▁전개에":9028,"▁파고":9029,"▁재밋고":9030,"▁영화였다":9031,"아니다":9032,"▁레오":9033,"▁믿기지":9034,"▁물어":9035,"▁남는다.\n":9036,"▁대사와":9037,"▁재밌었다.\n":9038,"▁삶은":9039,"▁만들었으면":9040,"▁잊지못할":9041,"▁봐야겠":9042,"▁앞에서":9043,"▁알바생":9044,"▁노래는":9045,"▁1편의":9046,"▁보고싶다":9047,"▁좋겠다\n":9048,"▁추억을":9049,"하네...":9050,"▁총체적":9051,"▁결국엔":9052,"▁결국은":9053,"▁캐스팅은":9054,"재미없음":9055,"▁색채":9056,"▁여주인공의":9057,"▁장르를":9058,"▁송승헌":9059,"▁이미지":9060,"▁상황이":9061,"▁아님.":9062,"▁좋아요.\n":9063,"▁권상":9064,"▁진행되는":9065,"▁홍콩영화":9066,"▁진실을":9067,"▁메세지":9068,"▁어설프게":9069,"▁A급":9070,"▁심리묘":9071,"▁돼지":9072,"▁거기서":9073,"▁빠져들게":9074,"▁앉아":9075,"긴장감":9076,"▁빨갱이":9077,"▁2.22":9078,"'라는":9079,"▁컷":9080,"▁펜":9081,"♡♥":9082,"가야":9083,"개의":9084,"구\n":9085,"구리":9086,"누가":9087,"두번":9088,"마르소":9089,"바닥":9090,"보려고":9091,"뿐..\n":9092,"에요.":9093,"영은":9094,"웃긴":9095,"자들은":9096,"저는":9097,"지라도":9098,"크로":9099,"평이":9100,"한텐":9101,"할듯":9102,"할순":9103,"희는":9104,"▁영화야":9105,"▁아바타":9106,"▁재치":9107,"는데.":9108,"▁하..":9109,"▁없다...":9110,"▁너무재미있":9111,"▁내시간":9112,"▁지경":9113,"▁지저":9114,"▁시체":9115,"네요....":9116,"▁기법":9117,"▁마녀":9118,"▁수사":9119,"▁모순":9120,"▁여유":9121,"▁잘안":9122,"▁않음.":9123,"▁오직":9124,"▁개망":9125,"▁말아":9126,"▁본듯한":9127,"▁유익":9128,"▁보고난":9129,"▁일찍":9130,"▁일주일":9131,"▁것\n":9132,"▁공연":9133,"▁내용전개":9134,"▁고증":9135,"▁재미없음.":9136,"▁해외":9137,"▁명배우":9138,"▁반도":9139,"▁반지의":9140,"▁예뻐서":9141,"▁좋아했던":9142,"▁매끄럽":9143,"▁불가":9144,"▁액션만":9145,"▁추구":9146,"▁죽어":9147,"▁죽일":9148,"세요.\n":9149,"▁위트":9150,"▁돈아까워":9151,"▁로마":9152,"▁화질":9153,"▁음향":9154,"▁기억을":9155,"다면,":9156,"▁꼭봐야":9157,"00원":9158,"었는데...":9159,"▁OOOO":9160,"▁애니를":9161,"▁원작은":9162,"▁만들어야":9163,"▁전개.":9164,"스러울":9165,"▁간지":9166,"▁적나라":9167,"▁욕심":9168,"▁올드":9169,"▁편의":9170,"떨어진":9171,"▁치료":9172,"▁버무":9173,"▁추천합니다\n":9174,"▁여운도":9175,"▁된다\n":9176,"▁손꼽":9177,"▁엉뚱":9178,"▁떨어짐":9179,"▁만들었다.":9180,"▁느껴지지":9181,"▁감동적이에요":9182,"▁수작.":9183,"▁좋겠다":9184,"▁초반에는":9185,"▁강추!\n":9186,"인줄알았":9187,"▁커녕":9188,"▁커피":9189,"▁불쌍해서":9190,"▁감사합니다.\n":9191,"▁번역":9192,"▁2편도":9193,"ᄋᄋᄋᄋ":9194,"▁딸이":9195,"▁인물들의":9196,"▁이것은":9197,"▁이것보다":9198,"그런지":9199,"▁킬링타임용으로도":9200,"▁낮은지":9201,"▁평론가들":9202,"▁영화인것":9203,"▁후반부로":9204,"▁메세지를":9205,"▁나머진":9206,"▁다니엘":9207,"▁과장된":9208,"▁아직까지도":9209,"▁러닝타임이":9210,"▁멘탈":9211,"▁픽션":9212,"▁낭만":9213,"스포머":9214,"▁아놀드":9215,"오랜만에":9216,"▁지극히":9217,"@강추@강추":9218,"▁껏":9219,"거같은데":9220,"것들이":9221,"것이다\n":9222,"것같은데":9223,"공주":9224,"귀신":9225,"나저":9226,"느냐":9227,"니스":9228,"다들":9229,"더럽게":9230,"도\n":9231,"때부터":9232,"려\n":9233,"로로":9234,"면을":9235,"받아서":9236,"방에서":9237,"보자":9238,"봄.":9239,"센스":9240,"스턴":9241,"실패":9242,"여러":9243,"요...\n":9244,"이지\n":9245,"임이":9246,"장센":9247,"제일":9248,"준다.\n":9249,"코드":9250,"쾌한":9251,"판으로":9252,"팬이":9253,"평생":9254,"폭력":9255,"하였":9256,"하의":9257,"했습니다.\n":9258,"형이":9259,"..영화":9260,"▁그에":9261,"▁보일":9262,"▁보지도":9263,"...아":9264,"▁나면":9265,"▁다이하":9266,"▁하네":9267,"▁하고,":9268,"▁없다...\n":9269,"▁너무좋아":9270,"▁내고":9271,"▁있겠지만":9272,"▁지키":9273,"▁17":9274,"▁정말정말":9275,"▁스필버그":9276,"▁재밌네요.":9277,"▁기적":9278,"▁대부":9279,"▁평론":9280,"▁마리":9281,"▁연기자들":9282,"▁생명":9283,"▁오유":9284,"▁이런것도":9285,"▁이런식으로":9286,"▁인권":9287,"▁못만들":9288,"▁유사":9289,"▁중의":9290,"▁공허":9291,"▁25":9292,"▁끝판":9293,"▁재미없어\n":9294,"▁되어야":9295,"▁좋아\n":9296,"▁노무":9297,"▁도라에몽":9298,"▁의견":9299,"▁할아버지":9300,"▁추가":9301,"▁처음이다":9302,"▁위안":9303,"▁느낌도":9304,"▁명작이다\n":9305,"▁구리":9306,"▁따스":9307,"▁여자애":9308,"▁유치원":9309,"하나?":9310,"▁소재만":9311,"다니...\n":9312,"▁누나":9313,"▁빠르":9314,"▁인간적으로":9315,"▁간간히":9316,"▁.....":9317,"▁열광":9318,"▁추천합니다.\n":9319,"▁야하지도":9320,"▁어디까지":9321,"▁제목은":9322,"▁국산":9323,"할수없는":9324,"고싶다":9325,"▁귀여움":9326,"▁인상적":9327,"인듯.":9328,"▁시대가":9329,"건가\n":9330,"건가?\n":9331,"쓰레기\n":9332,"▁왕가위":9333,"▁번을":9334,"▁잘봤습니다":9335,"▁잘봤습니다.":9336,"▁잘봤습니다\n":9337,"시키지":9338,"보기엔":9339,"▁시즌3":9340,"▁여배우의":9341,"중간에":9342,"시대의":9343,"▁의도를":9344,"▁회상":9345,"▁든다.\n":9346,"짜증나":9347,"▁엉망진창":9348,"▁바라보는":9349,"▁ost도":9350,"▁학창시절":9351,"▁아픔을":9352,"▁겨울왕국":9353,"▁옆에":9354,"▁영향을":9355,"▁소피마르소":9356,"▁10점만점에":9357,"킬링타임":9358,"▁비호감":9359,"▁한효주":9360,"il":9361,"~10점":9362,"▁낸":9363,"▁혈":9364,"간이":9365,"거워":9366,"것처럼":9367,"격이":9368,"구먼":9369,"구..":9370,"군..\n":9371,"극\n":9372,"나보다":9373,"니의":9374,"돌이":9375,"등장":9376,"때가":9377,"뜨고":9378,"랄한":9379,"러티브":9380,"만..":9381,"멋진":9382,"비는":9383,"수정":9384,"숙한":9385,"순수":9386,"스펜":9387,"씩이나":9388,"없게":9389,"올라":9390,"은영화":9391,"자인":9392,"작.\n":9393,"잘못":9394,"전은":9395,"졌다":9396,"지환":9397,"진의":9398,"천재":9399,"침\n":9400,"판에":9401,"펙트":9402,"하세요\n":9403,"▁영화찍":9404,"▁영화냐?":9405,"▁영화제목":9406,"▁이란":9407,"▁재방송":9408,"!!♥":9409,"▁정석":9410,"▁하니":9411,"▁없애":9412,"▁없다..\n":9413,"▁없어\n":9414,"▁지워":9415,"▁안녕":9416,"▁대학생":9417,"▁수십":9418,"▁생기":9419,"어요...":9420,"▁최고인":9421,"▁더러워":9422,"▁오인":9423,"▁배드":9424,"▁배울":9425,"▁자위":9426,"▁미술":9427,"▁미야":9428,"▁일일":9429,"▁것.":9430,"▁것과":9431,"▁드라마라고":9432,"▁중학교":9433,"▁공주":9434,"▁고인의":9435,"▁애가":9436,"▁명확":9437,"▁보는동안":9438,"▁좋아하시는":9439,"▁눈요":9440,"▁눈치":9441,"▁최고의영화":9442,"▁몰아":9443,"▁지금이나":9444,"▁최악이다.":9445,"▁아깝다...":9446,"▁별로..\n":9447,"▁이해불가":9448,"▁로멘":9449,"▁심사":9450,"▁심장이":9451,"▁엄정화":9452,"▁아닌듯\n":9453,"▁유치뽕":9454,"▁줄리아":9455,"▁줄거리가":9456,"▁박시":9457,"▁일본에서":9458,"었는데,":9459,"다니.":9460,"다니..\n":9461,"▁흥분":9462,"▁속았":9463,"▁빠지게":9464,"재밌고":9465,"▁순진":9466,"▁굿!\n":9467,"▁적극":9468,"▁문득":9469,"떨어지는":9470,"▁연기력과":9471,"▁된다":9472,"▁달리는":9473,"▁나온거":9474,"▁-\n":9475,"▁떨어져":9476,"▁담고":9477,"이란게":9478,"▁날아":9479,"▁목적":9480,"▁1편을":9481,"▁통해서":9482,"▁각각":9483,"할수도":9484,"▁세상의":9485,"▁만화가":9486,"▁우리나라의":9487,"▁패션":9488,"▁이딴거":9489,"▁시대적":9490,"▁당시엔":9491,"▁백인":9492,"▁주연의":9493,"▁브로":9494,"▁미친듯이":9495,"▁숨어":9496,"좋은데":9497,"▁감사합니다\n":9498,"▁하지말":9499,"▁하지원":9500,"▁영상미와":9501,"▁장르의":9502,"시키고":9503,"▁19금":9504,"▁흠잡을":9505,"▁관람객":9506,"▁tv에서":9507,"▁승부":9508,"▁흥미진진한":9509,"▁설명이":9510,"▁같아요.\n":9511,"▁한계를":9512,"▁웬만하면":9513,"마저도":9514,"▁이기적인":9515,"▁아련한":9516,"▁의문이":9517,"▁이따위로":9518,"▁믿을게":9519,"▁전율이":9520,"▁스페인":9521,"▁비행기":9522,"▁마무리가":9523,"▁김희선":9524,"▁원주율":9525,"▁국어책":9526,"▁에드워드":9527,"()":9528,",연출":9529,"8점":9530,"cn":9531,"~♥":9532,"▁란":9533,"가..":9534,"같아요":9535,"겠다..":9536,"겨운":9537,"기나":9538,"까봐":9539,"냐..\n":9540,"넘게":9541,"놈은":9542,"놈의":9543,"님을":9544,"두사":9545,"뒤에":9546,"란한":9547,"려도":9548,"려진":9549,"렸다.":9550,"볼때마다":9551,"성,":9552,"손가락":9553,"씀\n":9554,"양의":9555,"에대해":9556,"운데":9557,"워\n":9558,"원래":9559,"자막":9560,"재현":9561,"정보":9562,"줌.":9563,"줘도":9564,"즈가":9565,"지원":9566,"카메":9567,"프라이즈":9568,"하시길":9569,"할지":9570,"함으로":9571,"..그냥":9572,"▁영화같은":9573,"▁이를":9574,"▁이순":9575,"▁그들을":9576,"...영화":9577,"...그냥":9578,"▁정통":9579,"너무잘":9580,"▁하던":9581,"▁좋지":9582,"▁내세":9583,"▁지상":9584,"하고도":9585,"▁안나오는":9586,"▁만으로도":9587,"▁봤고":9588,"▁전지현":9589,"▁마구":9590,"▁연기한":9591,"▁모독":9592,"▁모호":9593,"▁최고임":9594,"▁최고..":9595,"▁않나":9596,"▁개같은":9597,"▁제왕":9598,"▁생각한":9599,"▁생각합니다.\n":9600,"▁못해서":9601,"▁못했다.":9602,"▁본적이":9603,"까지...":9604,"▁보고도":9605,"▁드라마!":9606,"▁중후반":9607,"▁부각":9608,"▁뭐랄까":9609,"▁사람에게":9610,"▁고작":9611,"▁애들도":9612,"▁쓰레기가":9613,"▁다시보게":9614,"▁신세계":9615,"▁없는거":9616,"▁기대안":9617,"▁처음이다.":9618,"▁처음이다\n":9619,"▁아깝다..\n":9620,"▁별로...\n":9621,"▁허나":9622,"▁허탈":9623,"이나,":9624,"▁초중반":9625,"▁돈으로":9626,"▁명작이라고":9627,"▁재밌게본":9628,"▁아이러":9629,"▁발음":9630,"사람을":9631,"필요한":9632,"▁유치함":9633,"▁박정":9634,"▁박평":9635,"▁일본인":9636,"▁표정이":9637,"▁망설":9638,"▁망했":9639,"지않게":9640,"▁피곤":9641,"▁8점은":9642,"▁외면":9643,"▁버리":9644,"▁된장":9645,"는거야":9646,"▁출발":9647,"▁나온다.":9648,"내용을":9649,"▁아쉬움\n":9650,"▁아쉬워요":9651,"▁봐야지":9652,"▁자체도":9653,"▁만화를":9654,"부분도":9655,"▁분위기를":9656,"쓰레기영화":9657,"그래픽":9658,"▁bad\n":9659,"▁첫번째":9660,"▁발연기에":9661,"▁갖춘":9662,"▁이것저것":9663,"▁어울리":9664,"▁더욱더":9665,"▁어쩌다":9666,"▁가치도":9667,"▁꺼져":9668,"▁향한":9669,"▁소리만":9670,"▁게임을":9671,"▁환상적인":9672,"마음이":9673,"▁엑스맨":9674,"▁농담":9675,"▁기가막":9676,"▁김민종":9677,"▁여태까지":9678,"000원":9679,"아름다운":9680,"▁이따구로":9681,"▁언젠가":9682,".ᄏ.ᄏ":9683,"▁트랜스포머":9684,"▁엑소시":9685,"'이":9686,"@\n":9687,"ᄉᄇ":9688,"▁j":9689,"▁측":9690,"감에":9691,"개\n":9692,"겟다\n":9693,"구는":9694,"군...":9695,"극의":9696,"남아":9697,"남을":9698,"는것도":9699,"더러":9700,"데라":9701,"됩니다":9702,"드림":9703,"들어서":9704,"라,":9705,"라지":9706,"많고":9707,"말고는":9708,"몰랐":9709,"문을":9710,"미도":9711,"볼수록":9712,"부모":9713,"빼고는":9714,"성룡":9715,"스도":9716,"실화":9717,"없는데":9718,"요??":9719,"움.":9720,"이냐?":9721,"인해":9722,"자식":9723,"작을":9724,"졌던":9725,"졌다\n":9726,"주지":9727,"죽여":9728,"줬으면":9729,"지우":9730,"지효":9731,"치않":9732,"했습니다\n":9733,"힘든":9734,"▁이다":9735,"▁이탈리아":9736,"▁그시절":9737,"▁나을":9738,"▁하던데":9739,"▁좋네요.":9740,"▁없으니":9741,"▁어마":9742,"▁내일":9743,"▁연주":9744,"▁시점":9745,"▁재밌습니다.":9746,"▁봤음.":9747,"하는것도":9748,"▁잘만":9749,"▁더더욱":9750,"▁평점왜":9751,"▁배가":9752,"~~^^\n":9753,"▁생각나게":9754,"▁같다..":9755,"▁못주":9756,"▁못따라":9757,"▁남친":9758,"▁남기는":9759,"▁본인":9760,"▁미치는":9761,"▁지루함이":9762,"▁드라마,":9763,"▁작가는":9764,"▁고질":9765,"▁애로":9766,"▁애절":9767,"▁재미없을":9768,"▁결과는":9769,"▁거장":9770,"▁좋은영화\n":9771,"▁신고":9772,"▁신화":9773,"▁좋았고,":9774,"▁몰락":9775,"▁아깝다는":9776,"▁이해못":9777,"▁돈은":9778,"▁이야기에":9779,"▁재밌게봤는데":9780,"▁들러":9781,"습니다~":9782,"▁아이고":9783,"▁에릭":9784,"▁이영화보고":9785,"▁졸았":9786,"..........":9787,".........\n":9788,"구나..\n":9789,"▁원작과":9790,"▁ᄒᄒᄒᄒ\n":9791,"▁인생에서":9792,"▁않는다":9793,"▁40분":9794,"▁하고싶":9795,"▁욕만":9796,"▁찾기":9797,"▁버릴":9798,"▁추천해":9799,"▁코미디는":9800,"▁대사는":9801,"평점을":9802,"▁의미없는":9803,"▁뭘까":9804,"▁이해가안":9805,"▁빨간":9806,"▁초반부터":9807,"▁흐지부":9808,"▁보았습니다.":9809,"▁터지는":9810,"▁보지마세요\n":9811,"▁색깔":9812,"▁CG는":9813,"▁197":9814,"▁사회의":9815,"▁안된다.\n":9816,"▁MBC":9817,"▁봄.":9818,"▁훈훈하고":9819,"▁카메론":9820,"▁법정":9821,"▁깜놀":9822,"▁메세지가":9823,"▁우울한":9824,"▁짱짱맨":9825,"▁미래를":9826,"▁샤론":9827,"▁월드":9828,"▁싫어하는":9829,"▁모자란":9830,"▁it":9831,"▁톰크루즈":9832,"▁퇴보":9833,"▁떠오르는":9834,"▁엠마":9835,"▁줘도":9836,"▁빈약한":9837,"▁컬트":9838,"▁장동건":9839,"▁매미OO":9840,"▁오우삼":9841,"▁드래곤볼":9842,"▁무간도":9843,"▁덴젤":9844,"ttp":9845,"▁아마추어":9846,"▁새록새록":9847,"22":9848,"://":9849,"ce":9850,"na":9851,"▁롱":9852,"▁춘":9853,"▁틴":9854,"▁는데":9855,"▁in":9856,"감.\n":9857,"갔는데":9858,"개연":9859,"걸까?":9860,"군...\n":9861,"기보단":9862,"꼬마":9863,"끝내":9864,"나싶":9865,"내요\n":9866,"네용":9867,"네이버":9868,"노출":9869,"돈으로":9870,"동을":9871,"랑은":9872,"문의":9873,"물은":9874,"봅니다":9875,"삼\n":9876,"서트":9877,"소장":9878,"스에서":9879,"슬리":9880,"신선":9881,"실력":9882,"어마":9883,"어이":9884,"었다..":9885,"었음.":9886,"에이":9887,"였다면":9888,"오로":9889,"왔던":9890,"요한":9891,"웠다":9892,"웠다.":9893,"율이":9894,"이긴":9895,"이시":9896,"일단":9897,"저기":9898,"전문":9899,"전체":9900,"주는데":9901,"진은":9902,"집에서":9903,"통수":9904,"트라":9905,"특집":9906,"특유의":9907,"히히":9908,"▁영화계":9909,"▁영화내내":9910,"▁아,":9911,"▁정준":9912,"▁나고":9913,"▁하긴":9914,"▁사로":9915,"▁재미만":9916,"▁지지":9917,"지만\n":9918,"▁한대":9919,"▁한예":9920,"▁안겨":9921,"▁만날":9922,"▁가을":9923,"▁봤다는":9924,"▁마틴":9925,"▁마라.":9926,"▁연기.":9927,"▁모양":9928,"▁최고!!":9929,"▁생각했던":9930,"▁자리":9931,"▁같음\n":9932,"까지.":9933,"▁미장센":9934,"▁유령":9935,"▁감동.":9936,"▁지루하지않":9937,"▁중년":9938,"▁배우와":9939,"▁사람과":9940,"▁사람마다":9941,"▁조기종":9942,"▁10년전":9943,"▁끝은":9944,"▁재미없다..\n":9945,"▁참을":9946,"▁영광":9947,"입니다...":9948,"▁노튼":9949,"▁작품이다.":9950,"▁살리":9951,"하지말고":9952,"▁도움이":9953,"▁성적":9954,"▁때의":9955,"▁김선":9956,"▁또봐도":9957,"▁10점짜리":9958,"▁극찬":9959,"▁강하게":9960,"▁돈과":9961,"▁돈벌":9962,"▁연출을":9963,"▁분장":9964,"▁구지":9965,"▁아이들은":9966,"▁에바":9967,"▁만든다.":9968,"▁꼭보세요":9969,"▁귀신이":9970,"▁드문":9971,"▁단역":9972,"▁공포영화가":9973,"▁무슨말이":9974,"...........\n":9975,"▁서정":9976,"▁현실감":9977,"▁다른건":9978,"▁이상으로":9979,"▁남자를":9980,"구나...\n":9981,"재밌어":9982,"▁영상,":9983,"▁인간들":9984,"▁많은것을":9985,"▁집단":9986,"▁한번씩":9987,"▁8.5":9988,"▁캐릭터의":9989,"▁손예진":9990,"스트라":9991,"▁개봉을":9992,"▁믿기":9993,"▁알았다":9994,"▁알았다.\n":9995,"▁함부로":9996,"▁카피":9997,"▁어설퍼":9998,"▁절대보지마":9999,"▁수작.\n":10000,"▁무섭다":10001,"▁사실이":10002,"▁낚인":10003,"▁낚여서":10004,"▁문제는":10005,"해요.\n":10006,"▁아름답다.\n":10007,"▁설정과":10008,"▁보지마셈":10009,"▁따라가":10010,"▁괴수":10011,"▁읽는":10012,"▁잘봤습니다.\n":10013,"▁굉장한":10014,"거야\n":10015,"▁평가를":10016,"▁여배우가":10017,"▁지루함의":10018,"▁2012":10019,"▁불륜을":10020,"▁아빠가":10021,"▁오글거려서":10022,"▁인상깊게":10023,"이해가":10024,"▁의외의":10025,"▁할말을":10026,"▁다큐멘터":10027,"▁불쾌한":10028,"▁윌리스":10029,"▁30대":10030,"▁편견을":10031,"세상에":10032,"▁이정재":10033,"▁수고하셨":10034,"▁ᅲ.ᅲ":10035,"▁ᅲ.ᅲ\n":10036,"▁best":10037,"▁ᄇᄉ":10038,"▁클래식":10039,"한마디로":10040,"▁탁월한":10041,"▁어떠한":10042,"▁람보":10043,"▁군더더기":10044,"'가":10045,"ct":10046,"ᅲᅮ":10047,"ᅲᅮ\n":10048,"▁값":10049,"▁닌":10050,"▁듬":10051,"▁왓":10052,"▁톱":10053,"▁;\n":10054,"▁;;;":10055,"▁쯧쯧":10056,"▁very":10057,"건지\n":10058,"금보":10059,"누구":10060,"닝맨":10061,"다코":10062,"대화":10063,"두근":10064,"듣고":10065,"러워서":10066,"림을":10067,"버리지":10068,"볼수":10069,"봐\n":10070,"부한":10071,"사에서":10072,"상욱":10073,"서방":10074,"설마":10075,"성으로":10076,"스피":10077,"심의":10078,"아,":10079,"아~":10080,"아들":10081,"아침":10082,"앞에":10083,"어질":10084,"여.":10085,"연의":10086,"오\n":10087,"올려":10088,"왔다":10089,"유머":10090,"이들이":10091,"졌으면":10092,"중한":10093,"진다.":10094,"진다.\n":10095,"집니다.":10096,"치만":10097,"케팅":10098,"토퍼":10099,"파서":10100,"필름":10101,"하든":10102,"하리":10103,"하이":10104,"하더니":10105,"허허":10106,"혀서":10107,"화면":10108,"..ᅲᅲ":10109,"..ᄏᄏ\n":10110,"▁영화제":10111,"▁영화감독":10112,"▁이전":10113,"▁그를":10114,"▁그와":10115,"▁그외":10116,"▁보아":10117,"▁재현":10118,"▁나을듯":10119,"▁어케":10120,"▁사망":10121,"▁내리":10122,"▁재미나게":10123,"▁있어도":10124,"▁지하":10125,"하고.":10126,"▁한가지":10127,"네요!\n":10128,"▁안됐":10129,"▁안좋은":10130,"▁1탄":10131,"▁가깝":10132,"▁가난":10133,"▁가해":10134,"▁기록":10135,"▁무색":10136,"▁최고...":10137,"▁평점도":10138,"▁볼것":10139,"▁일관":10140,"▁별하나":10141,"▁장소":10142,"▁장혁":10143,"▁우롱":10144,"▁많다.":10145,"▁재미있어서":10146,"▁재미있었다.":10147,"▁완성":10148,"▁저게":10149,"리고싶":10150,"▁해라":10151,"▁되었다.":10152,"▁상당한":10153,"▁싶으면":10154,"▁노골":10155,"▁작품의":10156,"▁좋았습니다\n":10157,"▁코드":10158,"▁하나.\n":10159,"▁처음이":10160,"▁나오기":10161,"▁김윤":10162,"▁또라이":10163,"▁10점.":10164,"▁별로다":10165,"이나오":10166,"▁관대":10167,"▁관심을":10168,"▁돈만":10169,"▁돈낭비":10170,"▁구멍":10171,"▁구분":10172,"▁들여":10173,"▁들어도":10174,"이다!":10175,"▁에러":10176,"▁차태현":10177,"▁주인공을":10178,"▁드물":10179,"을까..":10180,"▁볼만한데":10181,"▁현실에":10182,"▁매력은":10183,"▁있었고":10184,"▁머야":10185,"▁머리를":10186,"▁하고싶은":10187,"▁경의를":10188,"▁ᄏᄏᄏᄏᄏᄏ":10189,"▁약한":10190,"▁믿는":10191,"▁엉터리":10192,"▁표현해":10193,"▁등록":10194,"▁아니라서":10195,"▁대사를":10196,"▁재밌었음\n":10197,"▁잼있다":10198,"봤는데..":10199,"▁베트":10200,"▁아까운영화":10201,"▁나와도":10202,"감동도":10203,"▁황금":10204,"▁용기":10205,"▁답답해서":10206,"▁시나리오도":10207,"▁힘들게":10208,"▁잡는":10209,"▁환장":10210,"▁종합":10211,"▁개인적으로는":10212,"▁뿐.\n":10213,"▁태권":10214,"▁역사적":10215,"▁아름답다.":10216,"▁0점을":10217,"▁웃음과":10218,"▁멋있고":10219,"▁주제는":10220,"▁낫다.":10221,"▁낫다.\n":10222,"▁영화중에서":10223,"좋은영화":10224,"▁ᅲ_":10225,"▁잘봤어요":10226,"수준\n":10227,"▁알게된":10228,"▁귀엽다":10229,"▁오글거리":10230,"▁킬링타임용도":10231,"버렸다.":10232,"▁듣는":10233,"▁감성팔이":10234,"▁갔다":10235,"▁찬사를":10236,"작가님":10237,"▁면에서":10238,"▁학살":10239,"▁뜨거운":10240,"눈물이":10241,"▁끊임":10242,"▁굿굿\n":10243,"▁일어날":10244,"▁십점":10245,"▁20년전":10246,"▁징징":10247,"▁윌리엄":10248,"▁닮았":10249,"▁쥐어":10250,"▁특이한":10251,"ove":10252,"▁말아먹은":10253,"▁최초의":10254,"▁심오한":10255,"▁정확히":10256,"▁부끄러운":10257,"▁쥬라기":10258,"▁겉멋만":10259,"▁과대평가":10260,"▁수면제":10261,"▁시간때우기":10262,"▁가슴아픈":10263,"▁마찬가지":10264,"!!♥!!♥":10265,",스토리":10266,".7":10267,".9":10268,"34":10269,"ion":10270,"ᄅᄅ":10271,"▁겹":10272,"▁엇":10273,"▁욱":10274,"▁콤":10275,"▁혜":10276,"감상":10277,"강에":10278,"것들":10279,"겠습니다.\n":10280,"곳이":10281,"곳에서":10282,"공부":10283,"군이":10284,"권택":10285,"나무":10286,"나타":10287,"남.":10288,"내려":10289,"냐...\n":10290,"녀가":10291,"놀이":10292,"놓는":10293,"달라":10294,"덜덜":10295,"디가":10296,"리칸":10297,"리트":10298,"못보":10299,"밑에":10300,"본다.":10301,"살에":10302,"성\n":10303,"시나":10304,"앞에서":10305,"어어":10306,"언이":10307,"없고,":10308,"였음\n":10309,"일으":10310,"자키":10311,"전달":10312,"절로":10313,"주제":10314,"줄거리":10315,"진희":10316,"치기":10317,"크의":10318,"하냐?\n":10319,"해.\n":10320,"했지":10321,"히어로":10322,"▁영화^^\n":10323,"▁이자":10324,"▁아끼":10325,"▁그는":10326,"▁보라":10327,"▁정이":10328,"▁나니":10329,"▁하던가":10330,"▁연인":10331,"▁있습니다.\n":10332,"▁지배":10333,"▁1개도":10334,"▁마스터":10335,"▁무대":10336,"▁모성애":10337,"▁최고에요":10338,"▁않아도":10339,"~~!!\n":10340,"▁같네요.":10341,"▁남기고":10342,"▁유혹":10343,"▁아니지만,":10344,"▁드라마!\n":10345,"▁부르는":10346,"▁뭐냐?":10347,"▁뭐지?\n":10348,"▁고소":10349,"▁저러":10350,"▁저지":10351,"▁쓰레기..":10352,"▁사랑,":10353,"▁사랑으로":10354,"▁되어서":10355,"▁예산":10356,"▁시간아까워":10357,"▁상실":10358,"▁바꾼":10359,"▁불행":10360,"하지\n":10361,"▁난다.\n":10362,"▁좋았습니다.\n":10363,"▁의한":10364,"▁넘는":10365,"▁성경":10366,"▁성찰":10367,"▁죽기전에":10368,"▁했다\n":10369,"▁최악.\n":10370,"▁별로임":10371,"▁느낌..":10372,"▁명작!\n":10373,"▁구혜선":10374,"▁기억될":10375,"▁들지":10376,"정도면":10377,"▁장면과":10378,"▁졸잼":10379,"▁존잼":10380,"▁일본이":10381,"▁일본영화는":10382,"▁볼만했는데":10383,"▁소재에":10384,"하기까지":10385,"▁속은":10386,"▁원작소설":10387,"▁간직":10388,"더라..":10389,"▁필요없다.":10390,"▁4편":10391,"▁억지스럽":10392,"▁편인데":10393,"▁받아서":10394,"▁찍을":10395,"▁추천!\n":10396,"▁경계":10397,"▁크로":10398,"▁공감을":10399,"▁흥미로":10400,"▁잔잔하지만":10401,"▁남는건":10402,"▁재밌었어요\n":10403,"어야지":10404,"▁잠수":10405,"▁날려":10406,"▁어린아이":10407,"▁무서울":10408,"▁허접하고":10409,"▁재미가없":10410,"▁전쟁영화":10411,"▁슬프다.":10412,"▁임청":10413,"▁당시에는":10414,"▁캐스팅도":10415,"주의를":10416,"▁너희":10417,"▁비교하면":10418,"▁ᅳ\n":10419,"▁어이없고":10420,"▁몇번이나":10421,"▁까는":10422,"▁안된다\n":10423,"▁놓은":10424,"▁참고로":10425,"▁과거를":10426,"▁분명히":10427,"▁친일":10428,"----":10429,"▁중반부터":10430,"▁아프리카":10431,"▁얻어":10432,"▁메시지":10433,"▁메시지가":10434,"▁아까워\n":10435,"▁시원한":10436,"▁어렸을적":10437,"▁사기꾼":10438,"▁퀄리티가":10439,"▁그지같은":10440,"▁가까이":10441,"▁영화라는게":10442,"▁대표적인":10443,"나옴\n":10444,"▁고마운":10445,"▁한번쯤은":10446,"▁엽문":10447,"▁타이틀":10448,"▁사투리":10449,"▁다크나이트":10450,"▁혁명":10451,"▁흡입력":10452,"▁다세포소녀":10453,"▁짐캐리":10454,"▁정당화":10455,"▁임창정":10456,".com":10457,"나저나":10458,"▁끝판왕":10459,"ttp://":10460,"'는":10461,",연기":10462,".6":10463,"200":10464,"30분":10465,"ch":10466,"op":10467,"ve":10468,"▁떄":10469,"▁숭":10470,"▁~~~":10471,"걸이":10472,"구구":10473,"기준":10474,"나쁘":10475,"니버스":10476,"당하는":10477,"대전":10478,"더스":10479,"도없는":10480,"든다.":10481,"라지만":10482,"래셔":10483,"려니":10484,"리다가":10485,"맹랑":10486,"보며":10487,"본영화":10488,"볼만한":10489,"볼수있":10490,"봤으면":10491,"빠지는":10492,"뻔\n":10493,"시스":10494,"앞으로":10495,"어느":10496,"연애":10497,"영웅":10498,"요,":10499,"요!\n":10500,"이미":10501,"자에":10502,"저예산":10503,"졌다.\n":10504,"증을":10505,"집니다":10506,"짓을":10507,"쳐도":10508,"초딩":10509,"틀러":10510,"하더라도":10511,"함만":10512,"했다가":10513,"형사":10514,"호의":10515,"▁영화본":10516,"▁이영":10517,"▁보이고":10518,"▁나참":10519,"▁나가는":10520,"▁없어요":10521,"▁어고":10522,"▁감옥":10523,"▁있네":10524,"▁있으니":10525,"▁최대의":10526,"▁안했는데":10527,"▁만나는":10528,"에서만":10529,"에서야":10530,"▁기승전":10531,"▁대실망":10532,"▁전락":10533,"▁연기...":10534,"▁모티브":10535,"▁잘살":10536,"▁주먹":10537,"▁않으면":10538,"ᄏᄏᄏᄏᄏᄏ":10539,"▁인지":10540,"▁못살":10541,"▁소지섭":10542,"▁본듯":10543,"▁아니라는":10544,"▁일탈":10545,"▁별기대":10546,"▁부디":10547,"▁사람만":10548,"▁조아":10549,"▁고딩":10550,"▁고스란":10551,"▁명성을":10552,"▁상어":10553,"▁싶었는데":10554,"▁작품중":10555,"적이다":10556,"▁난생":10557,"▁도중에":10558,"▁의지":10559,"▁1점주는":10560,"▁강조":10561,"▁연출\n":10562,"▁기억나":10563,"이다!!\n":10564,"▁발레":10565,"▁발상":10566,"▁요약":10567,"▁차마":10568,"재미는":10569,"▁마음속에":10570,"▁울었던":10571,"▁유치하다\n":10572,"을까...":10573,"하나로":10574,"▁점은":10575,"▁서서":10576,"▁결말.":10577,"▁결말까지":10578,"▁매력있는":10579,"▁남자라면":10580,"▁절반":10581,"▁애니\n":10582,"▁전개\n":10583,"▁머가":10584,"지않아":10585,"▁피라":10586,"▁찾을":10587,"▁뭔가가":10588,"▁7.5":10589,"▁7광구":10590,"▁캐릭터와":10591,"▁ᄏᄏᄏᄏᄏᄏᄏ\n":10592,"장면을":10593,"▁출현":10594,"▁대단히":10595,"▁대단하다\n":10596,"▁교회":10597,"▁없었다":10598,"▁부족하고":10599,"▁홍진":10600,"▁웃기다":10601,"▁정신나간":10602,"것같다.\n":10603,"▁무섭지":10604,"▁답답해":10605,"▁토끼":10606,"▁부분을":10607,"▁배경과":10608,"▁분위기도":10609,"▁분위기에":10610,"▁다큐를":10611,"▁총격":10612,"▁총알":10613,"oooo":10614,"건가요?":10615,"▁아름답다\n":10616,"▁주연배우":10617,"▁몸을":10618,"▁지나친":10619,"▁잔인하고":10620,"▁엄마의":10621,"▁나올까":10622,"▁상상력이":10623,"▁똥을":10624,"▁영상미는":10625,"▁똑바로":10626,"▁송혜교":10627,"▁등장하는":10628,"▁휴먼":10629,"▁혼자서":10630,"시대를":10631,"기대하고":10632,"▁예쁘게":10633,"▁왔는데":10634,"조차도":10635,"▁창의":10636,"▁초등학교때":10637,"▁알려준":10638,"▁사라진":10639,"▁골때":10640,"▁오글거림":10641,"▁오글거리고":10642,"▁ᄃᄃᄃ\n":10643,"▁촌스럽":10644,"▁짐승":10645,"▁철학적인":10646,"▁접근":10647,"▁춤추":10648,"▁러브라인":10649,"▁취향이":10650,"▁역할을":10651,"나올때":10652,"▁3편은":10653,"하지마라":10654,"bb\n":10655,"티비에서":10656,"▁소름돋는":10657,"줄알았는데":10658,"▁태어난":10659,"▁통쾌한":10660,"▁납치":10661,"▁가져다":10662,"▁센스":10663,"▁못생겼":10664,"▁베드신":10665,"▁정우성":10666,"▁클레멘타인":10667,"▁인종차별":10668,"▁공중파":10669,"▁절제된":10670,"▁원숭이":10671,"까말까":10672,"▁오인혜":10673,"'를":10674,",.\n":10675,"1위":10676,"10년":10677,"ore":10678,"▁롯":10679,"▁며":10680,"▁밍":10681,"▁빗":10682,"▁져":10683,"▁즈":10684,"▁츠":10685,"▁함\n":10686,"▁♥\n":10687,"가게":10688,"가네":10689,"겠지\n":10690,"겨울":10691,"괴담":10692,"군..":10693,"그저":10694,"남주":10695,"눈이":10696,"린트":10697,"마냥":10698,"매우":10699,"명화":10700,"물.\n":10701,"미니":10702,"바리":10703,"버전":10704,"별루":10705,"보소":10706,"봐요":10707,"상실":10708,"슬퍼":10709,"시다.\n":10710,"싱턴":10711,"어설":10712,"역을":10713,"예고":10714,"완벽":10715,"왜곡":10716,"우\n":10717,"음?":10718,"이기에":10719,"일리언":10720,"있으면":10721,"작에":10722,"저링":10723,"저질":10724,"지네요":10725,"카이":10726,"타는":10727,"통에":10728,"트리":10729,"판타지":10730,"플렉":10731,"함?":10732,"해?":10733,"향이":10734,"▁영화?":10735,"▁영화에서는":10736,"▁영화예요":10737,"▁이겨":10738,"▁이범":10739,"▁이외":10740,"▁이태":10741,"▁그대":10742,"▁정리":10743,"▁나비":10744,"▁하셨":10745,"▁없네요\n":10746,"▁어벤":10747,"▁어의":10748,"▁너무재밋":10749,"▁내는":10750,"▁있지만,":10751,"▁최하":10752,"▁최후":10753,"▁시사":10754,"▁1분":10755,"▁봤는지":10756,"▁수치":10757,"▁주는거":10758,"▁배워":10759,"▁생각났":10760,"▁스토리지만":10761,"▁남발":10762,"▁느슨":10763,"▁아니지":10764,"▁아니다..":10765,"▁일생":10766,"▁비롯":10767,"▁비중":10768,"▁비하":10769,"▁것들을":10770,"▁우스":10771,"▁우아":10772,"▁지루하기만":10773,"▁중학교때":10774,"▁내용,":10775,"▁만들기":10776,"▁웃게":10777,"▁예쁨":10778,"보고나서":10779,"입니다..\n":10780,"▁매혹":10781,"다고?":10782,"▁불면":10783,"▁작품이라":10784,"▁300":10785,"▁좋았습니다":10786,"▁도는":10787,"▁코드가":10788,"▁할배":10789,"▁할수있":10790,"▁넘어가":10791,"▁때도":10792,"▁김영":10793,"▁극한":10794,"▁허구":10795,"▁아이와":10796,"▁마음의":10797,"▁울었어요":10798,"▁공포도":10799,"▁볼만하다\n":10800,"▁현실적으로":10801,"▁반전의":10802,"▁스릴이":10803,"▁인간적인":10804,"지마세요":10805,"▁건가":10806,"▁듯..":10807,"▁듯...":10808,"▁파이":10809,"▁캐릭터,":10810,"▁ᄏᄏᄏᄏᄏᄏᄏ":10811,"▁된다는":10812,"▁놀랬":10813,"▁믿지":10814,"▁엉덩":10815,"▁잔잔하면서도":10816,"▁만들었다.\n":10817,"▁없었으면":10818,"ᄃᄃᄃᄃ":10819,"▁노래를":10820,"▁이유로":10821,"▁티가":10822,"▁글로":10823,"▁60년대":10824,"▁행복을":10825,"▁사실적으로":10826,"▁용두사":10827,"▁부분에서":10828,"거같다":10829,"거같아":10830,"▁전쟁을":10831,"부분에":10832,"▁OOO\n":10833,"▁애니메이션이":10834,"▁설정에":10835,"지루한":10836,"▁백배":10837,"▁몸이":10838,"▁히로":10839,"▁집중도":10840,"▁The":10841,"이거나":10842,"▁색감":10843,"▁여기저기":10844,"▁이쁘게":10845,"▁읽은":10846,"▁송지효":10847,"▁다음으로":10848,"다시봐도":10849,"거야?":10850,"▁구성,":10851,"▁구성과":10852,"▁이번에":10853,"▁머리에":10854,"▁보여준다.":10855,"▁운명":10856,"▁예고편이":10857,"▁짧게":10858,"▁선택한":10859,"▁내인생최고의":10860,"▁전편의":10861,"인간의":10862,"▁예고편만":10863,"▁다가온":10864,"▁메시지를":10865,"▁자유를":10866,"▁넘어선":10867,"▁외국인":10868,"▁아침에":10869,"▁흐름이":10870,"▁신경쓰":10871,"▁받아들이":10872,"▁뉴욕":10873,"bs에서":10874,"▁복잡한":10875,"▁당연한":10876,"▁팀버튼":10877,"▁틈이":10878,"▁봐줄만":10879,"▁손색이":10880,"▁팍팍":10881,"▁꿈꾸는":10882,"▁뚝뚝":10883,"▁뮤직비디오":10884,"▁파워레인저":10885,"▁다이하드":10886,"▁미야자키":10887,".이":10888,".ᅮ\n":10889,"el":10890,"est":10891,"▁깝":10892,"▁셀":10893,"▁훌":10894,"▁다.":10895,"가진":10896,"거는":10897,"것이다.":10898,"국의":10899,"군의":10900,"남길":10901,"냐.\n":10902,"누군":10903,"니다..\n":10904,"다를":10905,"달아":10906,"도와":10907,"들리":10908,"등등":10909,"때의":10910,"라를":10911,"라마":10912,"리타":10913,"리지만":10914,"마는":10915,"맛이":10916,"멋대로":10917,"배속으로":10918,"볼려고":10919,"봤네요":10920,"부턴":10921,"불륜":10922,"생이":10923,"서린":10924,"시네":10925,"씨를":10926,"어머니":10927,"여야":10928,"역의":10929,"왔으면":10930,"웃겼":10931,"원도":10932,"으라고":10933,"은,":10934,"을뿐":10935,"음에도":10936,"중독":10937,"챙겨":10938,"할정도로":10939,"해석":10940,"했나":10941,"했고,":10942,"했지만,":10943,"현준":10944,"효진":10945,"..그리고":10946,"▁영화들은":10947,"▁영화이다\n":10948,"▁영화계의":10949,"▁이라":10950,"▁이혼":10951,"▁이스트":10952,"▁아가":10953,"▁그들은":10954,"...ᅲᅲ\n":10955,"...그리고":10956,"너무나":10957,"▁어떻":10958,"▁정말재미있":10959,"▁가상":10960,"▁재밌음.":10961,"▁기념":10962,"▁무관":10963,"▁여왕":10964,"▁잘봣":10965,"▁잘하":10966,"▁주상욱":10967,"▁개소리":10968,"▁왜?":10969,"▁같네요\n":10970,"▁미니":10971,"▁미키":10972,"▁쓰렉":10973,"▁것만으로도":10974,"▁장미":10975,"▁2차":10976,"▁조심":10977,"▁조정":10978,"▁조조":10979,"▁만들려고":10980,"▁저거":10981,"▁사랑\n":10982,"▁사랑도":10983,"▁좋아하고":10984,"▁좋아한다면":10985,"▁신념":10986,"▁신민":10987,"▁불후의":10988,"적이다.":10989,"▁원피스":10990,"OOOO":10991,"▁3d":10992,"▁3시간":10993,"▁기대도":10994,"▁기대에":10995,"▁액션에":10996,"▁도입":10997,"▁의학":10998,"▁넘은":10999,"▁추락":11000,"▁죽기":11001,"▁김강":11002,"▁최악이":11003,"합니다..\n":11004,"합니다...":11005,"▁또는":11006,"▁강호":11007,"▁돈도":11008,"▁분이":11009,"▁명작이다.":11010,"▁구역":11011,"▁심히":11012,"▁심리를":11013,"▁장면만":11014,"▁차별":11015,"▁단언":11016,"▁아닌것":11017,"▁공포영화는":11018,"▁서프라이즈":11019,"▁볼만하다":11020,"▁결말에":11021,"▁속의":11022,"▁뻔히":11023,"▁애니가":11024,"▁낮추":11025,"▁높다.":11026,"▁솔직한":11027,"▁버전":11028,"▁5점대":11029,"장면에서":11030,"▁나온다\n":11031,"▁나온다고":11032,"스토리\n":11033,"건지..\n":11034,"건지...\n":11035,"▁싸울":11036,"▁제목과":11037,"▁재밌었고":11038,"▁막장으로":11039,"▁중간부터":11040,"▁은은":11041,"▁은퇴":11042,"▁타락":11043,"▁복선":11044,"▁아니고...":11045,"▁안되서":11046,"▁장난하냐":11047,"▁변호":11048,"▁산만한":11049,"▁양동근":11050,"▁관객들":11051,"▁배경도":11052,"▁범인이":11053,"▁임권택":11054,"▁예술영화":11055,"▁맘이":11056,"▁영화라면":11057,"▁돌아오":11058,"▁웃음만":11059,"▁충격을":11060,"▁주제도":11061,"▁주제에":11062,"▁엄마랑":11063,"▁군인":11064,"▁별점을":11065,"▁흘렸":11066,"▁이쁘다\n":11067,"▁이정도로":11068,"이네...":11069,"수준이":11070,"▁알게해준":11071,"▁인물의":11072,"▁높은지":11073,"▁허무하게":11074,"을텐데\n":11075,"봐야지":11076,"▁구성은":11077,"▁잃어버린":11078,"▁흑역사":11079,"음악도":11080,"▁어이없어서":11081,"▁감독님의":11082,"▁밀어":11083,"▁성우가":11084,"▁ᄒᄃᄃ":11085,"▁즐겁고":11086,"▁돌려줘":11087,"기억에":11088,"▁와닿는":11089,"▁증명":11090,"▁아까움.":11091,"▁그럼에도":11092,"▁모자라":11093,"▁흥미롭고":11094,"▁채널돌":11095,"가능한":11096,"▁활용":11097,"▁인터뷰":11098,"▁쪽팔":11099,"▁냉정":11100,"▁섞어":11101,"▁13구역":11102,"▁움직이는":11103,"▁검색해":11104,"▁유지태":11105,"▁21세기":11106,"2점부터":11107,"▁자본주의":11108,"라노말":11109,"▁듭니다.\n":11110,"▁일베충":11111,"▁곱씹":11112,"▁강동원":11113,"▁아카데미":11114,"▁신세경":11115,"▁고스란히":11116,")이":11117,",그":11118,"1개":11119,"90년대":11120,"~7":11121,"▁놔":11122,"▁멸":11123,"▁칸":11124,"▁??":11125,"▁~~\n":11126,"같음\n":11127,"거라고":11128,"급의":11129,"기업":11130,"꺼야":11131,"니다...":11132,"대중":11133,"데로":11134,"들러":11135,"들보다":11136,"로가":11137,"름\n":11138,"먼저":11139,"미래":11140,"박이":11141,"별점":11142,"봤다가":11143,"부러":11144,"비아":11145,"비홍":11146,"빠졌":11147,"사나":11148,"성탈출":11149,"스티":11150,"스페":11151,"시도":11152,"시를":11153,"않고":11154,"었습니다.":11155,"었는지":11156,"에..":11157,"올리":11158,"워요\n":11159,"유쾌":11160,"음에":11161,"잘만들":11162,"줄\n":11163,"지다":11164,"질때":11165,"차이":11166,"크가":11167,"할려고":11168,"해줄":11169,"했더니":11170,"홍보":11171,"흐름":11172,"영화지만":11173,"▁영화판":11174,"▁이경":11175,"▁이랬":11176,"▁이완":11177,"▁보진":11178,"...이런":11179,"▁정화":11180,"▁나누":11181,"▁나뿐":11182,"▁나아":11183,"▁하려는":11184,"▁좋더라":11185,"▁어떡":11186,"▁지적":11187,"▁지들끼리":11188,"▁한테":11189,"▁시끄럽":11190,"▁1,":11191,"▁11점":11192,"에서나":11193,"▁기차":11194,"▁마을":11195,"▁연기..":11196,"▁여튼":11197,"▁주목":11198,"▁최고라는":11199,"▁말만":11200,"▁말하면":11201,"▁말해주는":11202,"▁생각함\n":11203,"▁같지만":11204,"▁못했다.\n":11205,"▁알렉":11206,"▁보고왔":11207,"▁보고있는":11208,"▁감동적으로":11209,"▁일요일":11210,"▁것인가":11211,"▁우익":11212,"▁드라마..\n":11213,"▁많다\n":11214,"▁재미있다고":11215,"▁재미있었던":11216,"▁부른":11217,"▁배우분들":11218,"▁사람들도":11219,"▁내용\n":11220,"▁고찰":11221,"▁저주":11222,"▁쓰레기다":11223,"액션이":11224,"▁좋아하지":11225,"▁바가":11226,"▁노동":11227,"▁노력이":11228,"▁도통":11229,"▁할아버":11230,"▁김재":11231,"▁김현":11232,"▁별로.":11233,"▁1점준":11234,"▁멋잇":11235,"▁강지환":11236,"▁위에":11237,"연기잘":11238,"▁두말":11239,"▁이야기도":11240,"▁기억도":11241,"▁에너":11242,"▁와~":11243,"▁차이가":11244,"▁특징":11245,"▁존내":11246,"▁박해":11247,"▁서스펜":11248,"▁현실의":11249,"시간낭비":11250,"▁이상을":11251,"▁짱!":11252,"▁뻔뻔":11253,"▁뻔해서":11254,"▁없고.":11255,"스러워서":11256,"▁듯..\n":11257,"▁억지설정":11258,"▁ᅳᅳ;":11259,"▁재밋는데":11260,"▁딱딱":11261,"▁경제":11262,"▁코미디가":11263,"▁공감가는":11264,"▁달고":11265,"▁레드":11266,"▁가족영화":11267,"▁알았더니":11268,"▁물건":11269,"▁물고":11270,"▁물씬":11271,"▁남는다.":11272,"▁잼있음":11273,"어야할":11274,"▁스릴러가":11275,"▁스릴러를":11276,"▁개인의":11277,"▁천만":11278,"▁정신을":11279,"▁정신차":11280,"▁나름의":11281,"▁않았으면":11282,"▁국제":11283,"▁수작이":11284,"▁아니고..":11285,"▁무서움":11286,"▁무서워서":11287,"▁초반부":11288,"▁관객에게":11289,"부분에서":11290,"인듯..":11291,"▁시나리오,":11292,"▁시나리오를":11293,"▁낚이지":11294,"▁슬프지만":11295,"▁임신":11296,"▁보았다.":11297,"▁태어나":11298,"▁클라이":11299,"▁얘기가":11300,"▁on":11301,"▁풀어나":11302,"▁그만좀":11303,"▁상상을":11304,"▁비교가":11305,"▁똑똑":11306,"▁네이버평점":11307,"▁2000년대":11308,"▁존재하는":11309,"▁허무맹랑":11310,"▁에로영화":11311,"음악이":11312,"▁권력":11313,"▁누구에게":11314,"▁빛이":11315,"▁2점\n":11316,"▁상영관":11317,"▁가치를":11318,"▁운동":11319,"▁왔다":11320,"▁몰랐는데":11321,"▁먹먹한":11322,"//\n":11323,"▁안타까울":11324,"▁덕에":11325,"▁복수극":11326,"--\n":11327,"▁전작의":11328,"▁놀라울":11329,"강추\n":11330,"▁퍼즐":11331,"▁논리":11332,"모습을":11333,"▁증말":11334,"▁취향은":11335,"로서의":11336,"▁가끔씩":11337,"▁푸른":11338,"▁어린이용":11339,"▁이연걸의":11340,"▁20년이":11341,"이유가":11342,"이유는":11343,"▁닥터":11344,"ᅲᅲᅲᅲᅲᅲᅲᅲᅲᅲᅲᅲᅲᅲᅲᅲ":11345,"zzzz":11346,"▁더럽고":11347,"▁조용히":11348,"▁일깨워주는":11349,"▁영화자체는":11350,"▁어우러진":11351,"ᅲ.ᅲ\n":11352,"안타까":11353,"▁큐브":11354,"▁어마어마":11355,"파서블":11356,"▁베트남":11357,"14":11358,"18":11359,"10분":11360,"4점":11361,"5분":11362,"~^^":11363,"▁`":11364,"▁ᄃ":11365,"▁ᅵ":11366,"▁규":11367,"▁입니다\n":11368,"♡♡\n":11369,"걸\n":11370,"과정":11371,"구석":11372,"국민":11373,"국이":11374,"그자체":11375,"긴했지만":11376,"남은":11377,"네....\n":11378,"놈들이":11379,"대도":11380,"데,":11381,"데?":11382,"디션":11383,"마트":11384,"맞춘":11385,"맹이":11386,"바가":11387,"보일":11388,"볼일":11389,"봤을":11390,"블랙":11391,"사,":11392,"선수":11393,"수고":11394,"안의":11395,"안되고":11396,"어는":11397,"어...\n":11398,"없을":11399,"예능":11400,"요미":11401,"요!!":11402,"요^^\n":11403,"울었":11404,"으시":11405,"을지도":11406,"음,":11407,"일라":11408,"입고":11409,"재가":11410,"조아":11411,"진정한":11412,"책임":11413,"체를":11414,"쳤던":11415,"틱한":11416,"피아":11417,"하지는":11418,"할만":11419,"함!\n":11420,"해놓고":11421,"희씨":11422,"▁영화네요.\n":11423,"▁이들이":11424,"▁그레이":11425,"▁보느니":11426,"▁재료":11427,"▁재발견":11428,"▁나발":11429,"▁다는":11430,"▁다케":11431,"▁하다니":11432,"▁하려고":11433,"▁좋습니다.\n":11434,"▁없습니다.":11435,"▁내러티브":11436,"▁재미,":11437,"▁한개":11438,"▁1년":11439,"▁스업":11440,"▁재밌기만":11441,"▁기쁨":11442,"▁기회가":11443,"▁전세계":11444,"▁수백":11445,"▁모여":11446,"▁생략":11447,"▁잘표현":11448,"▁주옥":11449,"▁않네요.":11450,"▁배려":11451,"▁생각해서":11452,"▁스토리.\n":11453,"▁우습":11454,"▁부를":11455,"▁배우,":11456,"▁배우만":11457,"▁역쉬":11458,"▁끝냈":11459,"▁저리":11460,"▁저희":11461,"▁저절로":11462,"▁재미없다...":11463,"▁되도":11464,"▁반감":11465,"▁매트릭":11466,"▁싶지만":11467,"▁신데라":11468,"▁바랬":11469,"▁원표":11470,"▁기대되는":11471,"▁죽을때":11472,"▁후한":11473,"같은거":11474,"▁하는건":11475,"▁1점짜리":11476,"▁초기":11477,"▁두명":11478,"▁잼나요":11479,"▁우리들의":11480,"▁만든다.\n":11481,"재미있는":11482,"▁울어":11483,"▁유치해":11484,"▁현실성이":11485,"▁다른거":11486,"▁과정을":11487,"▁보기에도":11488,"▁정도.":11489,"▁인간들이":11490,"▁간첩":11491,"▁수준은":11492,"▁치고는":11493,"▁언급":11494,"▁열린":11495,"▁믿어":11496,"던데...":11497,"▁남는다\n":11498,"▁대사들이":11499,"▁조금씩":11500,"▁스릴러물":11501,"▁데려":11502,"▁삼가":11503,"▁보고싶다\n":11504,"▁복수를":11505,"▁무엇이":11506,"▁장난감":11507,"▁만화는":11508,"▁싫다":11509,"▁싫은":11510,"고싶다\n":11511,"▁시나리오에":11512,"▁식스":11513,"▁오늘도":11514,"들에게는":11515,"▁클린트":11516,"▁ocn":11517,"▁빠져드는":11518,"▁괴롭":11519,"▁철저":11520,"▁감동도없고":11521,"이건뭐":11522,"수준의":11523,"아이돌":11524,"▁성룡이":11525,"머니즘":11526,"▁온몸":11527,"▁세계관":11528,"을듯.":11529,"▁어른들이":11530,"을수도":11531,"▁각본,":11532,"▁어쩌라고":11533,"▁누구도":11534,"▁꿀잼\n":11535,"▁씨네":11536,"▁해도해도":11537,"으며,":11538,"▁그때의":11539,"▁지금까지도":11540,"▁희망이":11541,"▁느꼈다.":11542,"▁영화임.\n":11543,"▁요소를":11544,"▁청춘의":11545,"▁스케일이":11546,"▁잘생기고":11547,"모습이":11548,"새끼들":11549,"로서는":11550,"마음에":11551,"▁시선으로":11552,"▁말이필요없는":11553,"▁징그러":11554,"▁컨저링":11555,"▁스티브":11556,"▁무언가를":11557,"▁찝찝한":11558,"▁불러일으":11559,"▁새롭게":11560,"▁비현실적인":11561,"▁멘붕":11562,"▁쏘우":11563,"▁인디아나":11564,"▁한숨만":11565,"▁김혜수":11566,"▁오리지널":11567,"▁별한개도":11568,"▁설경구":11569,"▁권상우":11570,"▁조기종영":11571,")가":11572,")의":11573,"21":11574,"3점":11575,"OST":11576,"og":11577,"▁]":11578,"▁퓨":11579,"가수":11580,"갑니다":11581,"같다.\n":11582,"겁니다":11583,"고은":11584,"관련":11585,"교육":11586,"근석":11587,"기보다":11588,"기라도":11589,"김\n":11590,"까.":11591,"나를":11592,"나만":11593,"나왓":11594,"네,":11595,"네~\n":11596,"놈들은":11597,"느와르":11598,"능한":11599,"드러":11600,"드문":11601,"론이":11602,"리쉬":11603,"만듬":11604,"모르는":11605,"미녀":11606,"본게":11607,"봤더니":11608,"부탁":11609,"브라":11610,"비스":11611,"빨고":11612,"뿐만":11613,"사한":11614,"상도":11615,"성공":11616,"소를":11617,"아닐":11618,"아줌마":11619,"안나오":11620,"앗는데":11621,"어보이":11622,"엇음":11623,"여?":11624,"영씨":11625,"오르는":11626,"우면":11627,"웃기고":11628,"월드":11629,"으세요":11630,"음의":11631,"임...\n":11632,"있다면":11633,"작이라":11634,"전히":11635,"점점":11636,"정서":11637,"조위":11638,"좋음":11639,"좋다\n":11640,"주세요\n":11641,"짜는":11642,"쩐다":11643,"치면":11644,"타령":11645,"판은":11646,"하십":11647,"하라는":11648,"하군\n":11649,"하려면":11650,"한것도":11651,"화는":11652,"회의":11653,"훨씬":11654,"..?\n":11655,"▁영화지":11656,"▁이재":11657,"▁아야":11658,"▁재평가":11659,"▁정재":11660,"▁하세요":11661,"▁좋다..":11662,"▁없네.":11663,"▁없다는게":11664,"▁너무좋았":11665,"▁사토":11666,"▁지니":11667,"▁지나서":11668,"지만.":11669,"▁한수":11670,"▁시스":11671,"▁정말재밌":11672,"▁스무":11673,"▁만세":11674,"▁진짜진짜":11675,"▁마초":11676,"하는영화":11677,"▁무얼":11678,"▁잘해서":11679,"▁잘보고":11680,"어요^^\n":11681,"▁최고임\n":11682,"▁오타쿠":11683,"▁인가":11684,"▁배틀":11685,"▁말에":11686,"▁생각하며":11687,"▁남고":11688,"▁알수없는":11689,"▁느리고":11690,"▁아니였":11691,"▁감동받았":11692,"이라는거":11693,"▁장나라":11694,"▁많았던":11695,"▁부조":11696,"▁그냥..":11697,"▁공존":11698,"▁28":11699,"▁내용으로":11700,"▁고발":11701,"▁저기":11702,"▁재미없네\n":11703,"▁해보":11704,"▁웃길":11705,"▁예매":11706,"▁예의":11707,"▁봐주":11708,"▁거울":11709,"▁거창":11710,"▁신나게":11711,"▁눈과":11712,"▁이거는":11713,"▁노예":11714,"▁불친":11715,"▁이건좀":11716,"▁이건진짜":11717,"▁난국":11718,"▁기대는":11719,"▁좋았음.\n":11720,"▁있는게":11721,"▁지금껏":11722,"▁김소":11723,"▁김정":11724,"▁별로인":11725,"▁1점주기도":11726,"▁명작입니다":11727,"▁동료":11728,"▁캐리":11729,"▁우리나라는":11730,"▁당최":11731,"▁에일리언":11732,"▁장면의":11733,"▁아까웠던":11734,"▁차분":11735,"▁슬래셔":11736,"▁울게":11737,"▁졸면서":11738,"가는게":11739,"▁힘드":11740,"▁소재,":11741,"▁ᅲᅲᅲᅲ\n":11742,"▁다른영화":11743,"인가...":11744,"▁속아서":11745,"▁OO같은":11746,"▁빠짐":11747,"ᅮᅮᅮ":11748,"인지...":11749,"▁맞춘":11750,"▁계획":11751,"▁높이":11752,"▁충무":11753,"이었지만":11754,"▁만들어준":11755,"▁영상으로":11756,"▁몇개":11757,"▁90년":11758,"▁굿~\n":11759,"▁모든것을":11760,"▁ᅳᅳ;;":11761,"▁수준이하":11762,"▁욕나오":11763,"▁올라가":11764,"▁열정이":11765,"▁영화였어요.":11766,"▁호소":11767,"▁된거":11768,"▁대단하다.":11769,"▁엉엉":11770,"했는데..":11771,"▁악플":11772,"▁기분\n":11773,"▁기분좋게":11774,"만큼의":11775,"이라고는":11776,"▁보다보다":11777,"▁케이트":11778,"▁천사":11779,"▁왜이런":11780,"▁각자의":11781,"감동\n":11782,"감동적인":11783,"▁세상은":11784,"▁변신":11785,"▁빼앗":11786,"합니다!\n":11787,"▁패턴":11788,"▁영화관에":11789,"▁흐르":11790,"▁총을":11791,"▁슬프다\n":11792,"구만...\n":11793,"▁종영":11794,"▁뿐만":11795,"▁클라라":11796,"▁강추!!\n":11797,"▁더빙은":11798,"▁터져":11799,"▁낫다":11800,"▁채플린":11801,"말이필요":11802,"▁맛깔":11803,"▁맛에":11804,"▁sh":11805,"▁인물들":11806,"▁인물이":11807,"▁ᄏᄏᄏᄏᄏᄏᄏᄏ\n":11808,"▁이후에":11809,"▁여배우들":11810,"▁삼류영화":11811,"▁혹성탈출":11812,"▁기다렸":11813,"▁이번엔":11814,"▁묘하게":11815,"▁극장판은":11816,"▁상영관이":11817,"▁밀라":11818,"▁꺼내":11819,"▁만점을":11820,"▁향해":11821,"▁잘만들어진":11822,"▁시절의":11823,"▁창조":11824,"▁망작\n":11825,"▁묻혀":11826,"▁검은":11827,"▁사라져":11828,"▁메세지는":11829,"▁유머가":11830,"▁플레이":11831,"▁멀리":11832,"▁전작에":11833,"▁철학적":11834,"▁던지는":11835,"▁어찌나":11836,"재밌게봤":11837,"▁웬만한":11838,"▁심심해서":11839,"▁증거":11840,"▁남주가":11841,"▁섹시한":11842,"▁리뷰를":11843,"▁소름끼친":11844,"▁깔끔하고":11845,"▁아침드라마":11846,"아님\n":11847,"▁미치도록":11848,"▁인터스텔":11849,"▁잊을수가":11850,"나왔으면":11851,"▁말았어야":11852,"▁깜짝놀":11853,"가슴이":11854,"▁아닙니다.":11855,"▁감흥이":11856,"▁찰리":11857,"▁아동용":11858,"▁오로라":11859,"▁작위적인":11860,"▁M창있네\n":11861,"▁감정이입이":11862,"▁댄스":11863,"▁KBS":11864,"▁묻어나는":11865,"▁저급한":11866,"▁적절히":11867,"▁자세히":11868,"▁두근두근":11869,"위원회":11870,"▁몽환적인":11871,"▁그들만의":11872,"▁섭외":11873,"▁비정상":11874,"▁구역질":11875,"!?":11876,".-":11877,"2편":11878,"if":11879,"ᄂ\n":11880,"ᄉ\n":11881,"ᄏ1":11882,"▁겠":11883,"▁놨":11884,"▁!!!!":11885,"가치":11886,"개로":11887,"거리고":11888,"것이다.\n":11889,"괜히":11890,"구,":11891,"금을":11892,"날이":11893,"남편":11894,"낮아서":11895,"내기":11896,"넣은":11897,"네유.":11898,"는지도":11899,"님과":11900,"당하고":11901,"데터":11902,"독립":11903,"됨.\n":11904,"됩니다.\n":11905,"랄까?":11906,"만,":11907,"맞추기":11908,"모가":11909,"묘하게":11910,"무니":11911,"반복":11912,"방법":11913,"방의":11914,"보길":11915,"보라":11916,"보비":11917,"보잡":11918,"보느니":11919,"볼수있는":11920,"분명":11921,"뻔했":11922,"선의":11923,"센트":11924,"수밖에":11925,"슈퍼":11926,"심은":11927,"씨와":11928,"아.":11929,"어난":11930,"없네\n":11931,"었다면":11932,"연한":11933,"올때":11934,"유혼":11935,"으으":11936,"은혜":11937,"이되":11938,"이뻐":11939,"이한":11940,"이영화는":11941,"인권":11942,"인상":11943,"인척":11944,"있네":11945,"제는":11946,"존재":11947,"주를":11948,"죽이는":11949,"준이":11950,"지식":11951,"쩌는":11952,"키스":11953,"타클":11954,"피는":11955,"피를":11956,"하곤":11957,"하단":11958,"할듯\n":11959,"해피":11960,"했다...":11961,"훈이":11962,"▁이선":11963,"▁재수":11964,"▁없었는데":11965,"▁없나?":11966,"▁사전":11967,"▁사다코":11968,"▁내겐":11969,"▁진솔":11970,"▁연장":11971,"▁있다는게":11972,"▁있는데,":11973,"▁한없이":11974,"▁최저":11975,"▁안봐":11976,"▁안젤":11977,"▁스칼":11978,"▁만나서":11979,"▁만나고":11980,"▁가라":11981,"▁재밌당":11982,"▁재밌다..":11983,"▁재밌지도":11984,"▁재밌어\n":11985,"▁대비":11986,"▁대책":11987,"▁봤다...":11988,"▁봤었던":11989,"▁마마":11990,"▁마케팅":11991,"▁여주의":11992,"▁잘나가":11993,"▁주세요":11994,"▁않겠":11995,"▁오오":11996,"▁오토":11997,"▁개독":11998,"▁개발":11999,"▁생각에":12000,"▁같지":12001,"▁같습니다":12002,"▁소리지":12003,"▁남매":12004,"▁알수가":12005,"▁알겠지만":12006,"▁느린":12007,"▁미개":12008,"▁유부":12009,"▁아니란":12010,"▁볼줄":12011,"이라곤":12012,"▁장르는":12013,"▁지루하지만":12014,"▁사람으로":12015,"▁조여":12016,"▁조인":12017,"▁저것도":12018,"▁좀..":12019,"▁해놓고":12020,"▁되었는데":12021,"▁결합":12022,"액션은":12023,"▁좋아지는":12024,"입니다...\n":12025,"다고생각":12026,"▁노는":12027,"적이지만":12028,"적이지도":12029,"▁3분":12030,"▁할거":12031,"▁넘기":12032,"▁한국어":12033,"▁한국영화가":12034,"▁나오게":12035,"▁최악이다\n":12036,"▁또보고":12037,"▁10점도":12038,"▁이해하고":12039,"▁강아지":12040,"▁돈아까":12041,"연기에":12042,"▁연출의":12043,"▁로렌":12044,"되는거":12045,"▁괜찮음\n":12046,"▁아이의":12047,"주는게":12048,"▁여자들의":12049,"재미잇":12050,"▁드리":12051,"▁아닌거":12052,"▁공포영화를":12053,"▁박지":12054,"하나\n":12055,"▁과잉":12056,"▁과도한":12057,"▁보기전":12058,"▁속도":12059,"▁남자와":12060,"▁남자들이":12061,"▁솔까":12062,"▁눈물흘":12063,"▁계기가":12064,"스러움\n":12065,"▁수준.":12066,"▁수준급":12067,"▁치열":12068,"▁70":12069,"▁버금":12070,"▁최악의영화":12071,"했는데,":12072,"▁모습과":12073,"▁기분만":12074,"▁막장이":12075,"▁데미":12076,"▁제작된":12077,"▁어설픔":12078,"▁시작은":12079,"▁보게됐":12080,"▁따뜻하게":12081,"▁영화로서":12082,"▁아니고\n":12083,"▁60":12084,"이런거":12085,"♥♥♥":12086,"고싶어":12087,"▁첨에":12088,"▁힘들다\n":12089,"▁팬이라면":12090,"▁잡고":12091,"▁식으로":12092,"▁둘의":12093,"▁스타일이":12094,"▁환불":12095,"▁뿐이다.":12096,"▁역사왜곡":12097,"▁포스터는":12098,"지루함":12099,"▁멋있다":12100,"▁보지마세요.":12101,"재미없어":12102,"▁이름값":12103,"기만하고":12104,"이야기\n":12105,"▁이쁘다":12106,"▁실화라니":12107,"▁비교해":12108,"▁so":12109,"하하하":12110,"▁사회에":12111,"▁직장":12112,"▁예상치":12113,"을듯.\n":12114,"▁흑흑":12115,"▁좀비영화":12116,"▁크리스토퍼":12117,"▁화면이":12118,"▁흠..":12119,"▁씨발":12120,"▁있어보이":12121,"이라니...":12122,"▁분위기와":12123,"▁me":12124,"▁놈들은":12125,"최악\n":12126,"▁편집이":12127,"해진다.\n":12128,"▁끝내주":12129,"▁느꼈던":12130,"▁별루\n":12131,"▁서로를":12132,"▁메세지도":12133,"▁화이팅!\n":12134,"▁이연희":12135,"▁샤를":12136,"▁한계가":12137,"▁붙여":12138,"▁미소를":12139,"▁군대에서":12140,"▁아까움.\n":12141,"▁OST가":12142,"▁쩔어":12143,"▁깔끔하게":12144,"▁분노가":12145,"▁재난영화":12146,"▁작품성은":12147,"드립니다.\n":12148,"▁잇는":12149,"▁사이에서":12150,"▁끄는":12151,"▁런닝맨":12152,"▁심각한":12153,"▁보인다.\n":12154,"▁다니는":12155,"▁드립니다.\n":12156,"▁슬퍼서":12157,"▁http://":12158,"▁아쉬웠지만":12159,"▁무척이나":12160,"▁낳은":12161,"▁못생긴":12162,"▁담아낸":12163,"▁최초로":12164,"▁잔혹한":12165,"▁거부감이":12166,"▁위험한":12167,"▁가르쳐":12168,"▁별반개도":12169,"▁달콤한":12170,"▁못봐주겠":12171,"▁사무라이":12172,"▁헛웃음만":12173,"^-^":12174,"▁아이러니":12175,"▁엑소시스트":12176,"▁흐지부지":12177,"'s":12178,"+\n":12179,"13":12180,"2가":12181,"2는":12182,"6점":12183,"^_":12184,"hh":12185,"ld":12186,"un":12187,"▁낼":12188,"▁쯤":12189,"▁st":12190,"가니":12191,"가자":12192,"구조":12193,"그린":12194,"근한":12195,"까..":12196,"나.\n":12197,"난다..":12198,"내면":12199,"동네":12200,"된거":12201,"든가":12202,"등록":12203,"디로":12204,"디젤":12205,"때메":12206,"렸다\n":12207,"로봇":12208,"르의":12209,"린거":12210,"림.\n":12211,"마치":12212,"만...":12213,"맞게":12214,"먹었":12215,"명도":12216,"뭐냐":12217,"바탕":12218,"부르":12219,"비교":12220,"비를":12221,"빼면":12222,"뿐.\n":12223,"사라":12224,"셉션":12225,"속이":12226,"수님":12227,"수로":12228,"수에":12229,"순위":12230,"스라":12231,"슬픈":12232,"시라":12233,"시티":12234,"씬에서":12235,"않는":12236,"았음":12237,"앞으로도":12238,"야야":12239,"었어요\n":12240,"연은":12241,"왜이리":12242,"요~~":12243,"용도":12244,"윌리스":12245,"으려는":12246,"이쁨":12247,"인드":12248,"인으로":12249,"장님":12250,"좋음\n":12251,"죠??":12252,"지로":12253,"짐.\n":12254,"차원":12255,"태웅":12256,"편인데":12257,"하느라":12258,"한심":12259,"할정도":12260,"햇다":12261,"현이":12262,"홀로":12263,"화\n":12264,"히게":12265,"..ᄏᄏ":12266,"▁영화평":12267,"▁영화자체가":12268,"▁이념":12269,"▁아.":12270,"▁아시아":12271,"▁보신":12272,"▁보였":12273,"▁보자고":12274,"▁나왓":12275,"▁다리":12276,"▁하네요\n":12277,"▁좋음.":12278,"▁내놓":12279,"▁지들":12280,"▁지대로":12281,"▁안에서":12282,"▁안하는데":12283,"▁1빠":12284,"▁가관":12285,"▁기도":12286,"▁전성기":12287,"▁진짜.":12288,"▁마라\n":12289,"▁마누라":12290,"▁연기까지":12291,"▁무기":12292,"▁여지":12293,"▁여진":12294,"▁최고라":12295,"▁않아요":12296,"▁더한":12297,"▁개잼":12298,"▁말자":12299,"▁말해서":12300,"드라마.":12301,"드라마로":12302,"▁못된":12303,"▁소림":12304,"▁소방":12305,"▁본다.\n":12306,"▁미리":12307,"▁미이라":12308,"▁일대":12309,"▁일상을":12310,"▁별다른":12311,"▁별볼일":12312,"▁비유":12313,"▁장편":12314,"▁지루하지않고":12315,"▁중세":12316,"▁2가":12317,"▁조직":12318,"▁쓰레기로":12319,"▁쓰레기라고":12320,"▁사랑이란":12321,"▁웃지":12322,"ᄒᄒᄒᄒ\n":12323,"▁거대한":12324,"▁좋아하게":12325,"▁시간의":12326,"▁상투":12327,"▁신현준":12328,"▁처참":12329,"▁원맨":12330,"▁난다\n":12331,"▁3,":12332,"▁3개":12333,"▁액션\n":12334,"▁액션신":12335,"▁좋았음.":12336,"▁도덕":12337,"▁코엔":12338,"▁하나만":12339,"▁김동":12340,"▁김성":12341,"▁김구라":12342,"ᅳᅳ;\n":12343,"▁허전":12344,"▁이해하지":12345,"▁강제":12346,"▁강혜":12347,"▁초능력":12348,"하다!\n":12349,"▁구라":12350,"▁우리네":12351,"▁들었다.":12352,"▁장면,":12353,"주는거":12354,"리는거":12355,"▁차지":12356,"재미없고":12357,"▁마음은":12358,"▁아닌,":12359,"▁울었다":12360,"▁졸려서":12361,"▁존중":12362,"▁이상도":12363,"▁짱이":12364,"▁보기도":12365,"▁걸린":12366,"▁뻔하지만":12367,"▁스릴있고":12368,"인지..":12369,"▁맞게":12370,"▁정도껏":12371,"▁전개되는":12372,"▁인간을":12373,"▁인간들은":12374,"▁음악에":12375,"▁돌고":12376,"▁돌이":12377,"▁건강":12378,"▁98":12379,"▁아름다웠던":12380,"▁한번은":12381,"▁욕먹":12382,"▁영화였어요":12383,"▁5개":12384,"▁캐릭터들":12385,"▁코미디도":12386,"▁코미디영화":12387,"▁공감되는":12388,"▁나온다.\n":12389,"▁레즈":12390,"▁질투":12391,"▁막장의":12392,"▁개인적으론":12393,"▁메가":12394,"▁니다.\n":12395,"ᄃᄃᄃ\n":12396,"▁날로":12397,"▁홍금보":12398,"▁않았다\n":12399,"▁시작\n":12400,"▁의미는":12401,"▁출연하는":12402,"▁희한":12403,"▁보면서도":12404,"▁싫다.\n":12405,"▁황홀":12406,"▁시청자를":12407,"사랑을":12408,"▁토니":12409,"▁관객의":12410,"▁우리나라에":12411,"▁깊이가":12412,"좋아요\n":12413,"▁시나리오는":12414,"▁힘들다.\n":12415,"▁식의":12416,"▁슬프게":12417,"해요~":12418,"▁주제로":12419,"▁옛날영화":12420,"▁너네":12421,"▁너는":12422,"▁라스":12423,"▁감사합니다.":12424,"보기싫":12425,"ery":12426,"▁상황에":12427,"▁훈남":12428,"▁다운로드":12429,"모르겟":12430,"10\n":12431,"▁뭐야?":12432,"▁휴머니즘":12433,"▁빨리감":12434,"▁살인을":12435,"하지않은":12436,"▁진행이":12437,"별로\n":12438,"▁어려울":12439,"10점\n":12440,"해진다.":12441,"▁과거의":12442,"▁이리도":12443,"▁범죄자":12444,"▁갔는데":12445,"▁그래픽은":12446,"▁그래픽이":12447,"▁흘러가":12448,"▁팔아먹":12449,"▁스타일의":12450,"▁ost가":12451,"▁촌스러운":12452,"이에요\n":12453,"▁촬영기법":12454,"▁0.5":12455,"▁해주세요":12456,"▁남아있":12457,"▁15분":12458,"▁안나오고":12459,"반전이":12460,"▁심심한":12461,"▁와닿지":12462,"▁wh":12463,"▁레이싱":12464,"▁침묵":12465,"▁형편없":12466,"그렇고":12467,"▁말할것도":12468,"▁뇌가":12469,"▁좋아할만한":12470,"▁드립니다.":12471,"▁떠오른":12472,"▁픽사":12473,"????????????????":12474,"신분들은":12475,"▁묵직한":12476,"▁몬스터":12477,"▁바랍니다.\n":12478,"▁다를게":12479,"▁록키":12480,"▁배급사":12481,"▁객관적으로":12482,"▁황정민":12483,"▁리암니":12484,"▁브래드피":12485,"ght":12486,"▁코스프레":12487,"♡♥♡♥":12488,"->":12489,".그":12490,".\"\"\"\n":12491,"1은":12492,"2\n":12493,"50":12494,"5점":12495,"80년대":12496,"ra":12497,"ul":12498,"ᅩ\n":12499,"▁덩":12500,"▁슴":12501,"▁줘서":12502,"가루":12503,"교훈":12504,"근래":12505,"기때문에":12506,"깜짝":12507,"남자가":12508,"냈다.":12509,"너의":12510,"눈에":12511,"는디":12512,"다보니":12513,"대충":12514,"되면서":12515,"렬한":12516,"메오":12517,"몰라도":12518,"무가":12519,"문이":12520,"미와":12521,"바른":12522,"밖엔":12523,"베리":12524,"불가\n":12525,"상과":12526,"세이":12527,"소나":12528,"슨은":12529,"시\n":12530,"아들이":12531,"았으면":12532,"야오":12533,"어쩔":12534,"엉망":12535,"여름":12536,"오고":12537,"우니":12538,"우면서도":12539,"운이":12540,"워커":12541,"웠다\n":12542,"웠다.\n":12543,"위해서":12544,"이번":12545,"이면서":12546,"작정":12547,"적일":12548,"점수는":12549,"제왕":12550,"좋아서":12551,"죠...":12552,"죠..\n":12553,"줄알":12554,"질만":12555,"책을":12556,"치도록":12557,"코의":12558,"키드먼":12559,"트에":12560,"하가":12561,"하라고":12562,"하자\n":12563,"할수록":12564,"항상":12565,"해줘서":12566,"했네요":12567,"했어도":12568,"행을":12569,"..ᅲᅲ\n":12570,"영화나":12571,"▁영화면":12572,"▁영화좀":12573,"▁영화네요..":12574,"▁보이지만":12575,"▁재주":12576,"▁나이트":12577,"▁다같이":12578,"▁없네요.\n":12579,"▁없나요?":12580,"▁어정":12581,"▁너무높":12582,"▁너무재밌어요":12583,"▁진보":12584,"▁있습니다":12585,"▁지도":12586,"▁지어":12587,"▁한사람":12588,"▁시민":12589,"▁안고":12590,"▁안봄":12591,"▁1\n":12592,"▁재밌긴":12593,"▁봤네요\n":12594,"▁전환":12595,"▁마츠":12596,"▁마세요\n":12597,"▁수애":12598,"▁주려고":12599,"▁평점좀":12600,"ᄏᄏᄏᄏᄏᄏᄏ":12601,"▁오만":12602,"▁인기가":12603,"▁생각해도":12604,"▁같기도":12605,"▁못보고":12606,"▁본다\n":12607,"▁미달":12608,"▁미성":12609,"▁미칠":12610,"▁볼꺼":12611,"▁볼수가":12612,"▁비난":12613,"▁비중이":12614,"▁것이다\n":12615,"▁지루하다..":12616,"▁드라마보다":12617,"▁드라마!!\n":12618,"▁재미있네요\n":12619,"▁재미있었다":12620,"▁배우로":12621,"▁23":12622,"▁만들기도":12623,"▁고급":12624,"▁고래":12625,"▁고려":12626,"▁고백":12627,"다.....":12628,"▁좀...":12629,"▁쓰레기...":12630,"▁사랑스런":12631,"▁되겠":12632,"▁되었다\n":12633,"▁영활":12634,"▁시간아까운":12635,"▁상식":12636,"▁매년":12637,"▁매회":12638,"▁싶어요":12639,"▁신나는":12640,"▁실컷":12641,"▁불필요한":12642,"▁작품..":12643,"▁작품성이":12644,"적이다\n":12645,"▁마지막의":12646,"▁마지막으로":12647,"▁있는것도":12648,"▁한국은":12649,"▁후기":12650,"▁후덜덜":12651,"▁했어야":12652,"▁하는것":12653,"▁김하늘":12654,"▁아깝다...\n":12655,"▁별로...":12656,"▁1점.\n":12657,"▁이해는":12658,"▁명작이라":12659,"▁명작이다.\n":12660,"▁동일":12661,"▁이야기와":12662,"▁아이도":12663,"▁에반":12664,"▁에이리":12665,"배우들도":12666,"▁발생":12667,"▁발휘":12668,"▁그런가?":12669,"▁와이프":12670,"▁주인공도":12671,"▁보여서":12672,"▁울었다.":12673,"▁유치하지만":12674,"▁표본":12675,"하나의":12676,"었는데\n":12677,"▁서극":12678,"▁ᅲᅲᅲᅲ":12679,"▁몰입을":12680,"▁몰입하면서":12681,"▁보기는":12682,"▁속터":12683,"▁반전.":12684,"▁반전과":12685,"▁얼른":12686,"▁낮네":12687,"▁게리":12688,"▁건너":12689,"▁ᅳᅳ;;\n":12690,"▁욕하는":12691,"▁찾고":12692,"▁파악":12693,"▁파라노말":12694,"▁열자":12695,"▁7점이":12696,"▁외에는":12697,"▁경우":12698,"▁영화였는데":12699,"▁호텔":12700,"▁된다고":12701,"▁출신":12702,"▁나온다는":12703,"▁개봉하는":12704,"▁믿겨":12705,"▁이걸보고":12706,"▁어떻게든":12707,"▁악몽":12708,"▁등이":12709,"▁잔잔하면서":12710,"스토리를":12711,"이라는걸":12712,"▁->":12713,"▁떨어졌":12714,"▁잠든":12715,"▁니들은":12716,"▁알바들이":12717,"▁날라":12718,"▁날이":12719,"훌륭한":12720,"▁웃기지":12721,"▁미국이":12722,"▁미국판":12723,"▁목사":12724,"▁각자":12725,"▁20세기":12726,"▁6살":12727,"▁좋겠네요":12728,"▁갑작":12729,"▁언제쯤":12730,"▁토요":12731,"▁초반의":12732,"▁우리나라에서":12733,"▁배경은":12734,"▁청년":12735,"▁졸작.\n":12736,"▁뛰쳐":12737,"▁암이":12738,"지루해":12739,"하며,":12740,"▁터지":12741,"▁잔인하게":12742,"▁따라한":12743,"▁중국의":12744,"▁알고보니":12745,"▁약간은":12746,"▁재미있었음":12747,"▁CGV":12748,"▁흔히":12749,"▁아님.\n":12750,"▁그리운":12751,"아닌데":12752,"▁같은데..":12753,"▁세계를":12754,"▁잃고":12755,"1점준것":12756,"▁슈렉":12757,"▁흠...":12758,"▁놓친":12759,"▁영화인거":12760,"▁나이에":12761,"▁and":12762,"▁자극하는":12763,"지금도":12764,"▁넣어":12765,"▁넣은":12766,"이하도":12767,"▁가볍고":12768,"▁오글거려":12769,"어진다\n":12770,"▁멋지다\n":12771,"▁신기한":12772,"▁허술하고":12773,"▁노력한":12774,"▁2시간이":12775,"▁만큼은":12776,"▁가득찬":12777,"▁재밌게봤어요":12778,"▁잘생긴":12779,"▁나에게는":12780,"▁씬은":12781,"무서운":12782,"▁실패한":12783,"▁곳에서":12784,"아아아":12785,"▁할말이없":12786,"▁시원하게":12787,"▁일어나는":12788,"드립니다":12789,"▁10년전에":12790,"▁오그라들":12791,"티비로":12792,"▁보러갔":12793,"▁말이필요없":12794,"▁씁쓸한":12795,"▁체험":12796,"▁보인다\n":12797,"▁생생하게":12798,"▁드립니다\n":12799,"▁닮은":12800,"▁망쳐놓":12801,"▁느껴진다.\n":12802,"▁치밀한":12803,"▁찌질한":12804,"▁새롭고":12805,"▁히어로물":12806,"몰입도":12807,"▁봅니다.":12808,"▁볼거리가":12809,"▁강력추천":12810,"▁지났지만":12811,"▁미스터리":12812,"ent":12813,"▁충실한":12814,"▁무료로":12815,"▁목숨을":12816,"▁이은주":12817,"분위기":12818,"▁못미치는":12819,"▁로드무비":12820,"▁끝날때까지":12821,"▁이동욱":12822,"▁김태희":12823,"▁리즈시절":12824,"▁깨알같은":12825,"리의리의리의리의":12826,"▁EBS에서":12827,"▁나중엔":12828,"▁왠만해선":12829,"▁어딘가":12830,"▁페이크다큐":12831,"▁전도연":12832,"▁차승원":12833,"▁아메리칸":12834,"▁한정된":12835,"▁박평식":12836,"▁한예슬":12837,".com/":12838,"▁김강우":12839,",김":12840,"56":12841,">_":12842,"CN":12843,"XX":12844,"all":12845,"ill":12846,"o\n":12847,"▁려":12848,"▁렷":12849,"▁음\n":12850,"▁//":12851,"▁re":12852,"간지":12853,"갔으면":12854,"거다\n":12855,"건강에":12856,"국주의":12857,"그게":12858,"그녀":12859,"글자":12860,"기보다는":12861,"기분이":12862,"깊게":12863,"납니다.":12864,"났던":12865,"났다\n":12866,"되길":12867,"드림\n":12868,"레드":12869,"려요":12870,"론은":12871,"리어":12872,"리온":12873,"마가":12874,"마른":12875,"마무리":12876,"매니아":12877,"물도":12878,"밀리":12879,"밖에는":12880,"보시길":12881,"본방":12882,"블루":12883,"사극":12884,"사냥":12885,"사진":12886,"상으로":12887,"새벽":12888,"세한":12889,"스.":12890,"아담":12891,"야...\n":12892,"없지만":12893,"역에":12894,"오히려":12895,"우치":12896,"우주연":12897,"유미":12898,"음ᄏᄏ\n":12899,"인\n":12900,"인트가":12901,"임파서블":12902,"있나":12903,"자신":12904,"저렇게":12905,"져\n":12906,"주에":12907,"짱!\n":12908,"찍는":12909,"초등":12910,"크리스":12911,"타르":12912,"트\n":12913,"트와":12914,"파괴":12915,"하구만":12916,"할꺼":12917,"했어요.":12918,"행크":12919,"헤헤":12920,"현재":12921,"영화만":12922,"영화라는":12923,"영화관에서":12924,"▁영화^^":12925,"▁이가":12926,"▁이질":12927,"▁이작품":12928,"▁아리":12929,"▁그것은":12930,"▁보소":12931,"▁재회":12932,"▁나한테":12933,"▁나홀로":12934,"▁하자":12935,"▁하....":12936,"▁좋습니다":12937,"▁사막":12938,"▁감당":12939,"▁있으":12940,"▁지존":12941,"▁한결":12942,"▁한달":12943,"▁한표":12944,"▁한장면":12945,"▁최곱":12946,"▁안목":12947,"▁1이":12948,"▁만듬":12949,"▁가식":12950,"▁기사":12951,"▁대략":12952,"▁대로":12953,"▁대변":12954,"▁대형":12955,"▁봤다고":12956,"▁평은":12957,"▁전국":12958,"▁마주":12959,"▁연기파":12960,"▁여고":12961,"▁생겨서":12962,"▁잘하네요":12963,"▁최고입니다\n":12964,"▁않음.\n":12965,"▁오류":12966,"▁오르":12967,"▁제미":12968,"▁제법":12969,"▁인한":12970,"▁말해":12971,"▁생각하지":12972,"▁생각하는데":12973,"▁자는":12974,"▁같네요.\n":12975,"▁못볼":12976,"▁못봤":12977,"▁못하게":12978,"▁못함\n":12979,"▁못만든":12980,"▁미루":12981,"▁미흡":12982,"▁유오":12983,"▁보고,":12984,"▁보고서":12985,"▁감동받":12986,"▁일방":12987,"▁비틀":12988,"▁부여":12989,"▁뭐지..":12990,"▁조쉬":12991,"해서는":12992,"▁10개":12993,"▁고현":12994,"▁애를":12995,"▁재미없다는":12996,"▁해줄":12997,"▁쓰레기.\n":12998,"▁참다":12999,"▁반가":13000,"▁웃어야":13001,"▁싶게":13002,"▁신앙":13003,"▁눈부":13004,"▁원빈":13005,"▁이건아니":13006,"▁난다":13007,"▁3대":13008,"▁3부작":13009,"▁액션.":13010,"▁액션으로":13011,"▁하나님":13012,"▁넘겨":13013,"▁추악한":13014,"없는영화":13015,"에게도":13016,"▁10점.\n":13017,"▁극과":13018,"▁연출한":13019,"▁느낌이다.":13020,"▁구매":13021,"▁동방":13022,"▁아이들을":13023,"배우도":13024,"▁요구":13025,"▁만든것":13026,"▁귀에":13027,"▁단점":13028,"▁일본식":13029,"하나?\n":13030,"▁서민":13031,"▁현실\n":13032,"인가.":13033,"보는거":13034,"▁눈물도":13035,"▁높다":13036,"이었다는":13037,"재밌다\n":13038,"▁만들어라":13039,"▁머냐":13040,"지마라\n":13041,"▁모르겠음.":13042,"▁순정":13043,"▁99":13044,"▁굿.":13045,"▁적응":13046,"▁피어":13047,"▁듯...\n":13048,"메이징":13049,"▁문근":13050,"▁욕나온":13051,"▁파이팅":13052,"▁재밋다\n":13053,"▁뭔가를":13054,"▁찍지":13055,"▁5번":13056,"▁연기력,":13057,"▁크루즈":13058,"▁실망한":13059,"▁배우들만":13060,"주인공의":13061,"▁교차":13062,"만들어도":13063,"▁잔잔하니":13064,"▁함.":13065,"▁즐기는":13066,"이지.":13067,"냐??\n":13068,"만큼도":13069,"▁감동적이다":13070,"▁훌륭하고":13071,"▁될듯":13072,"▁싫다\n":13073,"▁무섭다\n":13074,"▁황비홍":13075,"▁길고":13076,"▁토이":13077,"▁전쟁이":13078,"좋아하는데":13079,"▁배경을":13080,"▁흐른":13081,"▁슬프다":13082,"▁좋고\n":13083,"▁진정으로":13084,"▁클라스":13085,"▁꿈이":13086,"▁브레이":13087,"▁몸에":13088,"▁충격이":13089,"▁터무니":13090,"▁어느새":13091,"재미없다\n":13092,"▁투표":13093,"하시면":13094,"▁얼굴도":13095,"▁재미있었고":13096,"▁흔적이":13097,"▁갖추":13098,"보게되":13099,"다시보고싶":13100,"▁전부다":13101,"▁영화인데도":13102,"▁높은거":13103,"▁했는데,":13104,"▁몇번이고":13105,"▁각본과":13106,"▁듣보잡":13107,"▁필수":13108,"이라니\n":13109,"▁순간이":13110,"▁리얼하게":13111,"▁안타깝다\n":13112,"▁든다\n":13113,"▁my":13114,"▁놈들이":13115,"▁그래픽도":13116,"▁알려주":13117,"▁깜찍":13118,"▁멋지다":13119,"▁전편에":13120,"▁ᄒᄃᄃ\n":13121,"▁관계를":13122,"▁화이팅\n":13123,"▁전문성우":13124,"▁여성의":13125,"▁아프고":13126,"▁류의":13127,"▁나라를":13128,"▁시간낭비\n":13129,"▁짱짱\n":13130,"알바들":13131,"▁중간중간에":13132,"▁슬픔이":13133,"▁썩은":13134,"ant":13135,"▁쌍욕":13136,"▁쌍팔":13137,"▁고통을":13138,"▁연기자들의":13139,"▁느껴진다.":13140,"▁3D로":13141,"▁방법이":13142,"▁어지간":13143,"▁어지럽":13144,"▁봤을땐":13145,"▁지겨운":13146,"▁지겨워":13147,"▁떠올리게":13148,"▁기준으로":13149,"어디서":13150,"이쁘고":13151,"(웃음)":13152,"▁어째서":13153,"▁프레디":13154,"▁냄새가":13155,"^-^\n":13156,"로맨스":13157,"▁졸업작품":13158,"▁능가하는":13159,"▁드니로":13160,"▁단체로":13161,"▁무의미한":13162,"▁미스테리":13163,"▁심사위원":13164,"▁사로잡":13165,"▁임청하":13166,"▁어벤져":13167,"▁이스트우드":13168,"▁나발이고":13169,"▁원맨쇼":13170,"▁에이리언":13171,"30":13172,"good":13173,"▁닐":13174,"▁래":13175,"▁킨":13176,"▁레기":13177,"▁녀석":13178,"가기":13179,"가라":13180,"간다는":13181,"걸린":13182,"걸까?\n":13183,"겁게":13184,"것이다":13185,"게도":13186,"경은":13187,"그때":13188,"글고":13189,"기동":13190,"기면":13191,"나머":13192,"날의":13193,"날로그":13194,"남겨":13195,"냈다.\n":13196,"녀유혼":13197,"대사가":13198,"더이상":13199,"동석":13200,"동엽":13201,"되었다.":13202,"된다는":13203,"둘이":13204,"뒤로":13205,"라!":13206,"란다":13207,"랑이":13208,"래?":13209,"러브":13210,"려나":13211,"려한":13212,"력도":13213,"로이":13214,"릴게":13215,"만나":13216,"만옥":13217,"만하고":13218,"말은":13219,"모토":13220,"뭔지":13221,"미.":13222,"바보":13223,"보지말":13224,"복이":13225,"볼때":13226,"봅니다.":13227,"뿐인":13228,"생긴":13229,"생의":13230,"선물":13231,"성있는":13232,"써서":13233,"씬도":13234,"아자":13235,"안가":13236,"안나":13237,"았고":13238,"야겠":13239,"없다..\n":13240,"없음.":13241,"엇던":13242,"역으로":13243,"왠지":13244,"우우":13245,"우울":13246,"운의":13247,"웠지만":13248,"음!\n":13249,"이니까":13250,"이영화를":13251,"입견":13252,"입장":13253,"잇고":13254,"있어요":13255,"전설":13256,"제의":13257,"죽을":13258,"즈는":13259,"질에":13260,"짱!":13261,"척하는":13262,"청춘":13263,"타이":13264,"틈이":13265,"피니":13266,"필드":13267,"하던가":13268,"할까?":13269,"해질":13270,"해버린":13271,"해놓은":13272,"했어":13273,"했음.\n":13274,"혹한":13275,"훈훈":13276,"영화다.\n":13277,"▁영화고":13278,"▁영화니까":13279,"▁영화!!!":13280,"▁영화일뿐":13281,"▁아시":13282,"▁아키":13283,"▁아들과":13284,"▁보실":13285,"▁나네요":13286,"▁다듬":13287,"▁하차":13288,"▁없다면":13289,"▁어깨":13290,"▁어렷":13291,"▁어려서":13292,"▁너무낮":13293,"▁사형":13294,"▁재미\n":13295,"▁지우":13296,"▁한건":13297,"▁최선을":13298,"▁안봤는데":13299,"▁1도":13300,"▁가미":13301,"▁가질":13302,"▁재밌습니다\n":13303,"▁전무":13304,"▁전통":13305,"▁마사":13306,"▁마크":13307,"▁잘된":13308,"▁최고!!!\n":13309,"▁않는데":13310,"▁오마":13311,"▁인데":13312,"▁말할수":13313,"▁말하려":13314,"▁자제":13315,"▁소년의":13316,"▁스토리...":13317,"▁스토리라인":13318,"▁남편이":13319,"▁유리":13320,"▁아니었으면":13321,"▁감동..":13322,"▁일점도":13323,"▁쓰나":13324,"▁것,":13325,"▁것인지":13326,"▁것처럼":13327,"▁지루해\n":13328,"▁드라마입니다.":13329,"▁많지만":13330,"▁중에서도":13331,"▁중딩때":13332,"▁부자":13333,"▁뭐\n":13334,"▁24":13335,"▁2년":13336,"▁조승우":13337,"▁내용.":13338,"▁내용전개가":13339,"▁1000":13340,"▁10자\n":13341,"▁완소":13342,"▁고은":13343,"▁고정":13344,"▁저의":13345,"▁애정":13346,"▁애절한":13347,"▁재미없다...\n":13348,"▁해적":13349,"▁해라\n":13350,"▁명곡":13351,"▁사랑합니다":13352,"▁보는듯":13353,"▁거대":13354,"▁거리가":13355,"▁시간아깝다\n":13356,"▁살릴":13357,"▁없는것":13358,"▁이건머":13359,"▁좋았어요.":13360,"▁의존":13361,"▁넘친":13362,"▁성유리":13363,"▁추잡":13364,"▁죽어서":13365,"▁몰라서":13366,"▁한국형":13367,"없는게":13368,"▁후진":13369,"▁했을":13370,"▁했다면":13371,"같은영화":13372,"▁나오는지":13373,"▁김보":13374,"▁최악이다.\n":13375,"▁이게왜":13376,"▁극적인":13377,"ᅳᅳ;;\n":13378,"▁초콜":13379,"▁로긴":13380,"하다,":13381,"하다....":13382,"▁두개":13383,"▁느낌..\n":13384,"▁화해":13385,"▁심은":13386,"▁기억은":13387,"습니다~\n":13388,"▁당당":13389,"▁당하는":13390,"▁장면에":13391,"▁차가운":13392,"사람만":13393,"▁드폰":13394,"▁단조":13395,"▁공포영화\n":13396,"▁공포영화의":13397,"▁줄은":13398,"하나는":13399,"▁서인":13400,"▁보면볼수록":13401,"▁짱이다":13402,"▁남자들의":13403,"▁낮지?":13404,"▁맞추기":13405,"▁만들어놨":13406,"▁솔직하게":13407,"더라구요.":13408,"▁건축":13409,"▁아름다움을":13410,"▁문학":13411,"▁욕나오는":13412,"▁프렌":13413,"▁80":13414,"▁편이":13415,"▁파란":13416,"▁파트":13417,"▁모두다":13418,"▁외화":13419,"▁외로운":13420,"▁경이":13421,"▁캐릭터에":13422,"▁캐릭터들의":13423,"▁크고":13424,"▁코미디를":13425,"▁된게":13426,"장면만":13427,"▁긴장을":13428,"▁독백":13429,"▁달아":13430,"친구가":13431,"▁악의":13432,"▁야이":13433,"▁함정":13434,"▁대사,":13435,"▁아쉽긴":13436,"▁아쉽네요":13437,"▁아쉬워":13438,"▁스릴러.":13439,"▁스릴러의":13440,"▁기분좋은":13441,"▁데작":13442,"것같아서":13443,"▁노래만":13444,"▁미국에서":13445,"▁나왔는데":13446,"▁1편도":13447,"할수밖에":13448,"▁복수가":13449,"▁될수":13450,"▁감정의":13451,"▁출연료":13452,"감동을":13453,"이야?":13454,"▁산드라":13455,"▁갑갑":13456,"▁만화영화":13457,"▁친구들":13458,"▁행복해지는":13459,"▁양산":13460,"하네..\n":13461,"▁완벽히":13462,"▁엔딩곡":13463,"▁시나리오와":13464,"▁영화관가서":13465,"▁헐크":13466,"▁태양":13467,"▁클라":13468,"▁코믹한":13469,"▁꿈에":13470,"▁캐스팅에":13471,"▁주연으로":13472,"▁돌아가는":13473,"▁웃음도":13474,"▁엄마와":13475,"▁숨이":13476,"이야기가":13477,"▁후반에":13478,"▁후반으로":13479,"▁여주인공은":13480,"▁CG도":13481,"▁키워":13482,"군요..":13483,"▁죄를":13484,"▁맛을":13485,"▁트라":13486,"▁초딩이":13487,"▁취급":13488,"나요??":13489,"▁화려하고":13490,"▁존재가":13491,"▁훈련":13492,"거야?\n":13493,"▁있을까\n":13494,"▁ᅳ,.":13495,"버렸다\n":13496,"▁각본이":13497,"▁확실한":13498,"▁금방":13499,"▁그녀는":13500,"▁크리스틴":13501,"▁끝나지":13502,"▁성우를":13503,"▁2015년":13504,"▁평론가들은":13505,"▁관람불가":13506,"영화중에서":13507,"▁창작":13508,"▁짧아서":13509,"▁가는줄":13510,"▁안나와서":13511,"▁미화하는":13512,"작가가":13513,"▁무서운거":13514,"▁나쁘진":13515,"▁3점\n":13516,"▁흘러도":13517,"▁스타일리쉬":13518,"▁아닌가?\n":13519,"▁아오이":13520,"▁나라의":13521,"지못한":13522,"▁러브스토리":13523,"가족이":13524,"▁OST도":13525,"▁시선을":13526,"▁결론이":13527,"▁안봤으면":13528,"▁분노의":13529,"▁녹화":13530,"▁후속편":13531,"▁싸이코패스":13532,"보여주는":13533,"오글거":13534,"▁눈빛이":13535,"▁찡한":13536,"▁지구를":13537,"▁마이너스는":13538,"▁무언가가":13539,"▁어머니의":13540,"▁로그인하게":13541,"▁떨어진다\n":13542,"▁해리슨":13543,"▁달달한":13544,"▁인내심을":13545,"▁가면갈수록":13546,"▁데이먼":13547,"▁영혼을":13548,"▁화끈하게":13549,"▁주말에":13550,"▁no":13551,"▁됨.":13552,"▁저평가된":13553,"▁옹호":13554,"ᅲ.ᅲ":13555,"▁암울한":13556,"잔잔한":13557,"▁획을":13558,"▁김명민":13559,"▁지저분":13560,"▁적나라하게":13561,"▁유치뽕짝":13562,"▁샤론스톤":13563,"▁지하철":13564,"▁피라냐":13565,"),":13566,"2의":13567,":)\n":13568,"e\n":13569,"s\n":13570,"ᅮᅲ":13571,"▁릴":13572,"▁으면":13573,"▁!!!!\n":13574,"▁^\n":13575,"▁vs":13576,"것.":13577,"게이":13578,"결이":13579,"고에":13580,"굳굳":13581,"권을":13582,"급이":13583,"급영화":13584,"기스":13585,"길이":13586,"끄고":13587,"끌고":13588,"난이":13589,"났다":13590,"내\n":13591,"놔서":13592,"단이":13593,"달러":13594,"대서":13595,"더의":13596,"도못":13597,"도전":13598,"됩니다.":13599,"드벤":13600,"들...\n":13601,"디에":13602,"라..\n":13603,"래야":13604,"리네":13605,"망이":13606,"망한":13607,"멸의":13608,"무라":13609,"뮤지컬":13610,"민서":13611,"반도":13612,"보이고":13613,"봤자":13614,"비판":13615,"뿐.":13616,"수작":13617,"슬픔":13618,"싶다":13619,"아마":13620,"안습":13621,"야의":13622,"야.\n":13623,"야?\n":13624,"약간":13625,"없었":13626,"오버":13627,"올린":13628,"용이":13629,"위에서":13630,"음....":13631,"이이":13632,"인한":13633,"일도":13634,"일때":13635,"일체":13636,"임!\n":13637,"입은":13638,"잊혀":13639,"자랑":13640,"전거":13641,"전기":13642,"져요":13643,"조절":13644,"조한":13645,"좋겟":13646,"좋앗":13647,"중\n":13648,"중인":13649,"증에":13650,"지와":13651,"지....\n":13652,"천국":13653,"카시":13654,"태규":13655,"터짐":13656,"테이크":13657,"텔링":13658,"팬더":13659,"프랑스":13660,"하듯":13661,"하트":13662,"하냐\n":13663,"할께":13664,"할말":13665,"햇던":13666,"했을까":13667,"행이":13668,"헌터":13669,"현우":13670,"호화":13671,"홍콩":13672,"흥행":13673,"..;;\n":13674,"영화!!\n":13675,"▁영화~~":13676,"▁이룬":13677,"▁이슈":13678,"▁이주":13679,"▁이만큼":13680,"▁아랫":13681,"▁아들의":13682,"▁아날로그":13683,"▁그땐":13684,"▁그은":13685,"▁그리스":13686,"▁보물":13687,"▁재해석":13688,"...ᄏᄏ":13689,"▁정답":13690,"▁나간":13691,"▁나빠":13692,"▁하필":13693,"▁없나?\n":13694,"▁어야":13695,"▁어줍":13696,"▁어진":13697,"▁내스타일":13698,"▁있네요":13699,"▁최대한":13700,"▁안죽":13701,"▁1.":13702,"▁1화":13703,"▁스마트":13704,"▁가게":13705,"▁대리":13706,"▁전성":13707,"▁무거":13708,"▁무삭제":13709,"▁무책임":13710,"▁잘한다":13711,"▁주면":13712,"▁더러":13713,"▁개떡":13714,"▁제정신":13715,"▁인식":13716,"▁말하지":13717,"드라마..":13718,"▁자존":13719,"▁못지":13720,"▁못함":13721,"▁못하지만":13722,"▁소리를":13723,"▁알아서":13724,"▁알면서도":13725,"▁본인이":13726,"▁미군":13727,"▁볼껄":13728,"▁감동으로":13729,"▁별이":13730,"▁쓰레":13731,"▁지루\n":13732,"다는..":13733,"▁부인":13734,"▁뭐임":13735,"▁역을":13736,"▁역작":13737,"▁역활":13738,"▁100분":13739,"▁만들다":13740,"▁만들었던":13741,"▁고로":13742,"▁재미없어요\n":13743,"▁재미없었던":13744,"▁재미없음.\n":13745,"▁참...\n":13746,"▁되새":13747,"▁거침":13748,"▁좋아라":13749,"▁싶네요\n":13750,"▁신들린":13751,"▁눈만":13752,"▁실존":13753,"▁실종":13754,"▁불꽃":13755,"▁불사":13756,"다가도":13757,"▁작품,":13758,"▁작품이다.\n":13759,"적이다.\n":13760,"▁살기":13761,"▁난감":13762,"▁넘버":13763,"▁때론":13764,"▁몰래":13765,"▁한국에":13766,"▁후유":13767,"▁후에도":13768,"▁했다는":13769,"▁현빈":13770,"인데.":13771,"▁괜춘":13772,"▁최악이었":13773,"에게서":13774,"▁세트":13775,"▁위하여":13776,"▁연출로":13777,"▁연출에":13778,"▁로보":13779,"▁느낌?":13780,"▁구로":13781,"▁구원":13782,"▁따른":13783,"▁동정":13784,"▁동참":13785,"▁동호":13786,"▁잼써":13787,"▁이야기...":13788,"▁이야기..\n":13789,"!!!!!!":13790,"▁기억하는":13791,"▁들을":13792,"▁괜찮아":13793,"▁엄태웅":13794,"▁발랄":13795,"▁졸려":13796,"▁박영":13797,"▁망했는지":13798,"▁무슨내용인지":13799,"..........\n":13800,"▁볼만\n":13801,"▁결말\n":13802,"▁이상해":13803,"▁보기드문":13804,"▁속편이":13805,"▁선수":13806,"▁선전":13807,"▁애니로":13808,"▁가슴찡":13809,"▁없고...\n":13810,"▁낮춰":13811,"하지만..":13812,"▁방식":13813,"는지\n":13814,"▁영상을":13815,"▁음악의":13816,"▁몇년이":13817,"▁간절":13818,"▁간다\n":13819,"▁모르겠네요":13820,"▁건데":13821,"▁극장서":13822,"▁필요는":13823,"▁9점은":13824,"나오는거":13825,"▁파리":13826,"▁치명":13827,"▁모두에게":13828,"▁7점은":13829,"▁추천.\n":13830,"▁갈아":13831,"▁코미디.":13832,"▁코미디.\n":13833,"▁실망스러운":13834,"▁개봉했을때":13835,"생각하게":13836,"▁어디선":13837,"▁알았다\n":13838,"▁싸우고":13839,"▁모습도":13840,"▁아쉽고":13841,"▁아쉽네요\n":13842,"▁자체를":13843,"▁시리즈\n":13844,"▁데드":13845,"▁데려다":13846,"▁메리":13847,"▁없었지만":13848,"▁부족하다.":13849,"▁않았다":13850,"▁않았는데":13851,"▁디아":13852,"▁타짜":13853,"▁삼국":13854,"▁보고싶어":13855,"▁뒤집어":13856,"▁사실에":13857,"▁사실적인":13858,"거같음":13859,"▁양조위":13860,"▁잡은":13861,"▁졸작이":13862,"▁보았다":13863,"▁역사의":13864,"▁애니메이션은":13865,"▁설정,":13866,"▁후회하지":13867,"▁더빙도":13868,"▁잔인하지도":13869,"▁재밌어요~":13870,"▁라면":13871,"▁철없는":13872,"▁이정도는":13873,"▁ᅲᅮ\n":13874,"▁장르에":13875,"▁2005년":13876,"▁쳐도":13877,"▁인물들이":13878,"▁교훈이":13879,"▁이후의":13880,"▁평가가":13881,"▁사회를":13882,"▁혹평":13883,"▁ᄍᄍᄍ":13884,"10자\n":13885,"▁......":13886,"▁당신을":13887,"▁기다리고":13888,"▁봤어요.\n":13889,"라니..":13890,"▁OCN":13891,"▁아버지를":13892,"-_-;;\n":13893,"-_-;\n":13894,"▁지루함.\n":13895,"▁영화다운":13896,"▁불편하고":13897,"▁운운":13898,"▁흥행에":13899,"남자의":13900,"▁TV로":13901,"▁이런영화에":13902,"▁리얼한":13903,"▁안타깝고":13904,"▁영화인듯\n":13905,"▁급전개":13906,"▁분위기의":13907,"▁참신하고":13908,"▁먹먹해지는":13909,"해진다\n":13910,"▁끝내주는":13911,"▁쓴거":13912,"지금까지":13913,"▁끼어":13914,"명작\n":13915,"▁바보가":13916,"▁완성도는":13917,"▁요소는":13918,"실망\n":13919,"▁화이팅!!\n":13920,"▁이러니":13921,"▁이러한":13922,"▁2시간동안":13923,"▁사건을":13924,"▁사건의":13925,"▁행동이":13926,"▁다가오는":13927,"▁환상의":13928,"일뿐\n":13929,"소재로":13930,"안되게":13931,"▁일어난":13932,"▁톰행크":13933,"▁상상력을":13934,"▁흐름을":13935,"▁스케일도":13936,"▁활약":13937,"▁이루어":13938,"▁시시한":13939,"▁좌파":13940,"▁나옴\n":13941,"▁외계인이":13942,"▁뽑아":13943,"▁빡쳐서":13944,"주고싶은":13945,"▁줌\n":13946,"▁18\n":13947,"~~~~~~~~~~~~~~~~":13948,"▁어처구니가":13949,"▁조선족":13950,"▁민망한":13951,"영환데":13952,"▁탐욕":13953,"▁죽을뻔":13954,"▁아닙니다":13955,"아무튼":13956,"▁볼거리도":13957,"▁내면의":13958,"▁택시":13959,"▁극단적인":13960,"▁ᄅᄋ":13961,"▁힘내세요":13962,"▁집어넣":13963,"▁Very":13964,"남기는데":13965,"▁담담하게":13966,"▁다녀온":13967,"▁한순간도":13968,"▁납득이":13969,"▁영구와":13970,"▁가만히":13971,"~♥~♥":13972,"naver":13973,"▁끊임없이":13974,"▁서서히":13975,"▁롯데":13976,"▁강호동":13977,"▁단언컨":13978,"▁주옥같은":13979,"'에":13980,"78":13981,"`\n":13982,"a\n":13983,"ak":13984,"ig":13985,"ight":13986,"um":13987,"▁균":13988,"▁삭":13989,"▁슨":13990,"▁졌":13991,"▁쳤":13992,"▁니까":13993,"▁???":13994,"▁;;;\n":13995,"감각":13996,"감으로":13997,"개판":13998,"걸고":13999,"게된":14000,"계상":14001,"고를":14002,"구난":14003,"구로":14004,"국가":14005,"그레이드":14006,"금이":14007,"급으로":14008,"껴서":14009,"끝에":14010,"나잇":14011,"나요\n":14012,"남녀":14013,"네!":14014,"니발":14015,"단의":14016,"대표":14017,"됬는데":14018,"래\n":14019,"레미":14020,"려야":14021,"령이":14022,"로선":14023,"루니":14024,"르지":14025,"리.":14026,"리브":14027,"리얼":14028,"리우드":14029,"만원":14030,"말에":14031,"맨이":14032,"메다":14033,"몸매":14034,"뭐가":14035,"미드":14036,"바다":14037,"방을":14038,"버림\n":14039,"별한":14040,"본사람":14041,"볼까":14042,"분히":14043,"비\n":14044,"비하":14045,"사로":14046,"산이":14047,"수한":14048,"쉽게":14049,"스랑":14050,"스탈":14051,"스파":14052,"시노":14053,"심과":14054,"아씨":14055,"안된":14056,"안쓰":14057,"어렵":14058,"없네요":14059,"없으면":14060,"엇다\n":14061,"엉성":14062,"에효":14063,"여도":14064,"예전에":14065,"왔지만":14066,"우이":14067,"위로":14068,"인표":14069,"인들은":14070,"일세":14071,"일수도":14072,"있었던":14073,"자마자":14074,"점에":14075,"정씨":14076,"졸라":14077,"주로":14078,"주변":14079,"진지":14080,"집중":14081,"집니다.\n":14082,"짓게":14083,"짱!!\n":14084,"쪽으로":14085,"차가":14086,"코가":14087,"키의":14088,"틀어":14089,"프트":14090,"한다..":14091,"했네\n":14092,"희를":14093,"..ᄏ\n":14094,"영화~\n":14095,"▁영화네":14096,"▁영화보":14097,"▁영화이다":14098,"▁영화처럼":14099,"▁이슬":14100,"▁이웃":14101,"▁이라고":14102,"▁이전에":14103,"▁아~~":14104,"▁아들을":14105,"▁그딴":14106,"▁보셈":14107,"▁보장":14108,"▁보호":14109,"▁재수없":14110,"...ᄏ\n":14111,"...^^\n":14112,"▁정부":14113,"▁하네요.":14114,"▁하기에는":14115,"▁없음..":14116,"▁어쩐":14117,"▁어메이징":14118,"▁사나":14119,"▁사춘":14120,"▁진주":14121,"▁진화":14122,"▁재미지":14123,"▁연계":14124,"▁지속":14125,"▁지식":14126,"▁지원":14127,"▁지친":14128,"▁한물":14129,"▁한다면":14130,"▁시기":14131,"▁시바":14132,"네요~~":14133,"▁안다":14134,"▁안가고":14135,"▁안성기":14136,"▁1%":14137,"▁1억":14138,"▁스며":14139,"▁스톤":14140,"▁스파":14141,"▁재밌네\n":14142,"▁기는":14143,"▁기막":14144,"▁봤으니":14145,"▁마시":14146,"하는영화\n":14147,"▁수식":14148,"▁수정":14149,"▁수퍼":14150,"▁무덤":14151,"▁주원":14152,"▁배운":14153,"▁생각되":14154,"▁생각지도":14155,"▁생각합니다\n":14156,"▁왜저":14157,"▁자라":14158,"▁같다..\n":14159,"▁알리":14160,"▁미사":14161,"▁일드":14162,"▁비명":14163,"▁비비":14164,"▁장만옥":14165,"▁지루했다.":14166,"▁지루했다.\n":14167,"▁지루하지도":14168,"▁지루하다고":14169,"▁재미있습니다":14170,"▁배우고":14171,"▁2%":14172,"▁조재현":14173,"▁10여":14174,"▁끝으로":14175,"▁고3":14176,"▁애썼":14177,"▁해학":14178,"▁쓰레기들":14179,"▁사랑..":14180,"▁사랑하게":14181,"▁사랑한다":14182,"▁보는줄":14183,"▁거리":14184,"▁좋은거":14185,"▁좋아하면":14186,"▁싶네요.\n":14187,"▁눈뜨고":14188,"▁작품도":14189,"▁작품으로":14190,"적이며":14191,"지는게":14192,"▁3일":14193,"▁3탄":14194,"▁완전한":14195,"▁좋았어요.\n":14196,"▁도박":14197,"▁하나를":14198,"▁할까?":14199,"▁넘치고":14200,"▁성괴":14201,"▁때부터":14202,"▁나오네":14203,"▁별로.\n":14204,"▁허영":14205,"▁돈아까운":14206,"연기,":14207,"▁구하기":14208,"▁따듯한":14209,"▁동감":14210,"▁동심을":14211,"▁심어":14212,"▁심하다":14213,"▁음....":14214,"▁캐서린":14215,"▁당하고":14216,"▁아이리스":14217,"▁에니":14218,"배우는":14219,"▁이영화에서":14220,"▁여자와":14221,"▁그런건":14222,"▁와이어":14223,"▁차원이":14224,"▁귀가":14225,"▁존1":14226,"▁일본애니":14227,"............":14228,"▁아무래도":14229,"▁몰입감이":14230,"▁리플":14231,"▁과한":14232,"▁속지":14233,"▁매력\n":14234,"▁걸레":14235,"▁스릴은":14236,"▁짜증난다":14237,"▁원작보다":14238,"▁맞은":14239,"▁방식이":14240,"▁계시":14241,"▁정도.\n":14242,"▁높다\n":14243,"재밌음\n":14244,"▁음악만":14245,"▁있었다\n":14246,"▁몇일":14247,"▁몇안되는":14248,"▁돌리도":14249,"더라...\n":14250,"▁건진":14251,"▁피가":14252,"▁하고...":14253,"나오면":14254,"▁언어":14255,"▁모두를":14256,"▁외엔":14257,"▁버리는":14258,"▁500":14259,"▁캐릭터들도":14260,"▁연기력을":14261,"▁코미디로":14262,"▁대박이다":14263,"▁독창":14264,"▁개봉하지":14265,"▁배우들로":14266,"▁계속해서":14267,"▁표현을":14268,"던데..\n":14269,"▁잔잔히":14270,"▁영화에선":14271,"▁함.\n":14272,"이상실":14273,"▁잼있네요":14274,"▁네가":14275,"▁메인":14276,"▁없었고":14277,"▁없었음\n":14278,"▁없었다면":14279,"▁보다보면":14280,"이란걸":14281,"▁정신건강에":14282,"▁제작한":14283,"▁1편과":14284,"▁왜이럼":14285,"▁통한":14286,"▁각인":14287,"▁못한다\n":14288,"▁못한다.\n":14289,"▁감정선":14290,"감동이":14291,"▁안되는데":14292,"▁싫어서":14293,"▁친구를":14294,"좋아해서":14295,"인듯.\n":14296,"▁팬이라서":14297,"▁헐...":14298,"▁큰일":14299,"해요..":14300,"▁책도":14301,"▁몰입도는":14302,"▁암살":14303,"▁돌아온":14304,"▁멋있게":14305,"▁히트":14306,"▁더빙을":14307,"들과는":14308,"▁엄마는":14309,"▁채우":14310,"▁색다":14311,"하겠지만":14312,"▁느낌이랄까":14313,"▁이름으로":14314,"▁비슷하게":14315,"▁재미있었다.\n":14316,"▁실화라고":14317,"▁실화라는":14318,"▁흔해":14319,"▁트루":14320,"▁벌어":14321,"▁느낄수있":14322,"▁19세":14323,"▁다음에":14324,"▁이미지가":14325,"▁허무하고":14326,"▁자연스럽고":14327,"▁잃지":14328,"▁봤어요~":14329,"▁에로틱":14330,"▁상영시간":14331,"▁슈스케":14332,"하자마자":14333,"▁회사":14334,"▁MC":14335,"▁아닐까?\n":14336,"▁써도":14337,"▁됐다.":14338,"▁안타깝다.\n":14339,"▁몰랐다.":14340,"▁mbc":14341,"▁맥라이언":14342,"▁승화":14343,"▁그때는":14344,"▁흥미진진하고":14345,"▁안타까움":14346,"▁미안하지만":14347,"대박\n":14348,"▁연출력도":14349,"▁완성도를":14350,"▁대한민국의":14351,"▁죽음의":14352,"▁플래":14353,"▁나라가":14354,"▁정치적":14355,"▁인상깊은":14356,"▁심심할때":14357,"▁러브라":14358,"마음을":14359,"일까\n":14360,"▁역할이":14361,"▁엑스트라":14362,"▁슬픔을":14363,"▁밝은":14364,"▁용서가":14365,"▁짠한":14366,"▁보시길\n":14367,"▁소녀의":14368,"보여주":14369,"▁꼽을":14370,"▁풋풋하고":14371,"▁연결이":14372,"▁니콜키드먼":14373,"괜찮은":14374,"▁폴워커":14375,"▁영화보는내내":14376,"▁망쳐놨":14377,"▁고마워":14378,"▁비현실적":14379,"▁초등학생때":14380,"▁스크린으로":14381,"로써는":14382,"▁옥의":14383,"▁됩니다\n":14384,"▁위로가":14385,"하고자하는":14386,"▁최민수":14387,"▁유아용":14388,"▁여자친구랑":14389,"▁브루스윌리스":14390,"▁잊혀지지않는":14391,"▁프레데터":14392,"▁어리석":14393,"비슷한":14394,"안타깝":14395,"▁기괴한":14396,"▁박신양":14397,"▁숨막히는":14398,"▁스펙타클":14399,"▁이모양":14400,"▁어중간한":14401,"▁눈요기":14402,"▁닌자":14403,"일라잇":14404,"ᄏ1ᄏ1":14405,"▁강혜정":14406,"?!\n":14407,"ast":14408,"ain":14409,"ee":14410,"lt":14411,"ᄅ\n":14412,"▁ᅡ":14413,"▁롭":14414,"▁믹":14415,"▁쟁":14416,"▁다.\n":14417,"가요":14418,"같애":14419,"겁고":14420,"것만으로도":14421,"게스트":14422,"경의":14423,"계에":14424,"공의":14425,"공이":14426,"괴물":14427,"그림":14428,"그의":14429,"그것도":14430,"끝도":14431,"끼고":14432,"낄낄":14433,"남긴":14434,"노\n":14435,"느님":14436,"다이":14437,"단순":14438,"대본":14439,"대장":14440,"더군요\n":14441,"동물":14442,"되나":14443,"되야":14444,"되어야":14445,"드리고":14446,"따름":14447,"때까지":14448,"라!\n":14449,"랍시고":14450,"레쉬":14451,"렸는데":14452,"로게":14453,"로버츠":14454,"리화":14455,"마에":14456,"마의":14457,"만해도":14458,"맛에":14459,"맨날":14460,"몇번":14461,"모루":14462,"모자":14463,"무어":14464,"물고":14465,"바뀌":14466,"방에":14467,"버려서":14468,"볼게":14469,"봅니다\n":14470,"봤네":14471,"부부":14472,"분들도":14473,"비의":14474,"사\n":14475,"사기":14476,"상식":14477,"설레":14478,"설명":14479,"순례":14480,"스파이":14481,"시로":14482,"시장":14483,"시지":14484,"실한":14485,"씁쓸":14486,"아역":14487,"안보":14488,"알려":14489,"애기":14490,"애를":14491,"야만":14492,"어?\n":14493,"없다고":14494,"었습니다":14495,"엔틴":14496,"외국":14497,"우와":14498,"우리가":14499,"운동":14500,"으라면":14501,"은이":14502,"일지":14503,"일까?\n":14504,"있어야":14505,"자유":14506,"자들을":14507,"적도":14508,"져도":14509,"죽고":14510,"줄알고":14511,"중요":14512,"즈를":14513,"지던":14514,"진씨":14515,"짝퉁":14516,"착한":14517,"총사":14518,"탄탄":14519,"탈리":14520,"테니":14521,"테스크":14522,"투자":14523,"파는":14524,"판타":14525,"편에":14526,"평범":14527,"풀이":14528,"하잖아":14529,"한다..\n":14530,"햇지만":14531,"회를":14532,"회부터":14533,"휴\n":14534,"..ᅲ":14535,"..이런":14536,"▁영화다..\n":14537,"▁영화들을":14538,"▁영화만들":14539,"▁영화보면":14540,"▁이길":14541,"▁이문":14542,"▁아!":14543,"▁아웃":14544,"▁아일":14545,"▁그나저나":14546,"▁나갈":14547,"▁하니까":14548,"▁하시는":14549,"▁좋겟":14550,"▁없냐":14551,"▁없을까":14552,"▁어드벤":14553,"▁너무지루":14554,"▁내보내":14555,"▁재미난":14556,"▁있네요\n":14557,"▁지브리":14558,"▁한때":14559,"▁최진실":14560,"▁안감":14561,"▁안의":14562,"▁안질":14563,"▁안드로":14564,"▁스탈":14565,"....이":14566,"▁가리":14567,"▁가위":14568,"▁가졌":14569,"에서,":14570,"▁대다":14571,"▁봤네요.\n":14572,"▁봤음.\n":14573,"▁평정":14574,"▁연기나":14575,"▁무려":14576,"▁무성":14577,"▁여주는":14578,"▁여실히":14579,"▁생겨":14580,"▁생뚱":14581,"▁잘난":14582,"▁주체":14583,"습니까?":14584,"▁평점만":14585,"▁오드리":14586,"▁제한":14587,"▁이런데":14588,"▁인공":14589,"▁인연":14590,"▁인셉션":14591,"▁인피니":14592,"▁생각합니다":14593,"▁왜봤":14594,"▁자격":14595,"▁같다는":14596,"▁못만드":14597,"▁소문":14598,"▁소외":14599,"▁알앗":14600,"▁알지":14601,"▁알수있는":14602,"▁본후":14603,"▁본질을":14604,"▁유역":14605,"▁볼땐":14606,"▁감동...":14607,"▁별1":14608,"▁별론":14609,"▁별을":14610,"▁별하나도":14611,"이라지만":14612,"▁비급":14613,"▁비추천":14614,"▁것들":14615,"▁것으로":14616,"▁장치":14617,"▁드라마에서":14618,"▁많다":14619,"▁중고":14620,"▁중구난":14621,"▁재미있습니다.\n":14622,"▁그냥...":14623,"▁사람으로서":14624,"▁2개":14625,"▁조디":14626,"▁조명":14627,"▁조커":14628,"▁내용이나":14629,"▁역부족":14630,"▁끝남":14631,"▁고수":14632,"▁재미없네요":14633,"▁재미없음..":14634,"▁쓰레기도":14635,"▁쓰레기영화.":14636,"▁명예":14637,"▁되길":14638,"▁반짝":14639,"▁보는듯한":14640,"▁웃다":14641,"^^;\n":14642,"▁봐라.\n":14643,"액션도":14644,"▁좋아했":14645,"▁시간아깝다":14646,"▁시간여행":14647,"▁싶다는":14648,"▁싶어지는":14649,"▁신뢰":14650,"▁신부":14651,"▁처절한":14652,"다고해서":14653,"▁불만":14654,"▁작품..\n":14655,"▁작품이었":14656,"▁작품이라고":14657,"▁원망":14658,"▁원초":14659,"▁3명":14660,"▁기대하면서":14661,"▁액션씬이":14662,"▁성숙":14663,"▁때리고":14664,"▁처음본다":14665,"▁몰려":14666,"▁한국이":14667,"▁했을까":14668,"▁나오면서":14669,"▁아깝네":14670,"▁극을":14671,"▁극의":14672,"▁별로다.":14673,"▁강시":14674,"▁강철":14675,"▁관리":14676,"▁초라":14677,"연기와":14678,"▁연출.\n":14679,"▁분석":14680,"▁로버츠":14681,"▁짜여진":14682,"▁명작...":14683,"▁명작입니다.":14684,"▁이야기로":14685,"!!!!!!!\n":14686,"!!!!!!!!\n":14687,"▁뭔내용":14688,"▁아이들도":14689,"▁그래두":14690,"▁여자들은":14691,"▁발톱":14692,"▁와....":14693,"▁포스":14694,"▁주인공과":14695,"사람들의":14696,"▁마음속":14697,"▁줄거리는":14698,"▁박한":14699,"▁일본판":14700,"▁망치는":14701,"▁볼만하던데":14702,"▁현실성도":14703,"▁리스트":14704,"▁속상":14705,"▁걸어":14706,"▁선교":14707,"▁선배":14708,"▁선입견":14709,"▁절라":14710,"▁짜증남\n":14711,"▁모르겠는데":14712,"▁모르겠음\n":14713,"▁굿!!\n":14714,"▁아름다워":14715,"▁근육":14716,"▁파멸":14717,"▁치우":14718,"▁재밋네요":14719,"▁언론":14720,"▁모두들":14721,"▁7번":14722,"▁버티":14723,"▁5점이":14724,"▁크리":14725,"▁실망.":14726,"▁공감은":14727,"▁대박!":14728,"▁된다면":14729,"을때가":14730,"▁먹을":14731,"▁대단하다.\n":14732,"▁가족끼리":14733,"▁질문":14734,"▁흥미가":14735,"▁악평":14736,"최고!\n":14737,"▁카타르":14738,"▁베낀":14739,"▁만들었다":14740,"▁진심\n":14741,"▁시리즈로":14742,"▁떠난":14743,"▁케이지":14744,"▁천녀유혼":14745,"▁웃기긴":14746,"▁노래와":14747,"▁미국에":14748,"▁목표":14749,"▁디자":14750,"▁통찰":14751,"▁못한다":14752,"▁못한다.":14753,"▁글구":14754,"▁그러면":14755,"▁복제":14756,"▁될거":14757,"▁될것":14758,"▁싶은건지":14759,"▁출연자":14760,"▁느끼지":14761,"감동적이고":14762,"~~~~~\n":14763,"▁특히나":14764,"▁장난이":14765,"거같다.":14766,"거같음\n":14767,"▁초반은":14768,"인듯...":14769,"한데,":14770,"▁배경,":14771,"▁팬티":14772,"▁둘러":14773,"구만..":14774,"▁보았지만":14775,"▁당시의":14776,"▁애니메이션을":14777,"▁예술을":14778,"▁0점도":14779,"▁후회안":14780,"▁오래오래":14781,"▁돌아가고":14782,"▁어느것":14783,"▁따라서":14784,"▁불쌍하다":14785,"▁풀었":14786,"▁광팬":14787,"▁괴로":14788,"▁라디오":14789,"▁돋는":14790,"▁왕따":14791,"▁걸작.":14792,"▁얼굴만":14793,"▁얼굴을":14794,"▁로맨스를":14795,"▁철저히":14796,"군요...":14797,"재밋다":14798,"▁흔하디":14799,"노잼노잼":14800,"▁벌어지는":14801,"▁2000년":14802,"그런가":14803,"▁판타지를":14804,"▁보니깐":14805,"▁압축":14806,"▁안된다는":14807,"▁빈디젤":14808,"▁보여준다.\n":14809,"▁즐거움":14810,"▁2점부터":14811,"▁보여주지":14812,"▁그녀가":14813,"▁운명을":14814,"▁필모":14815,"▁감성적인":14816,"▁돋보였던":14817,"▁개연성은":14818,"▁알겠으나":14819,"▁안타깝다.":14820,"▁능력이":14821,"▁엉망이고":14822,"줘야지":14823,"▁놈이":14824,"▁최고였다.":14825,"▁안나와":14826,"처음부터":14827,"▁전설이":14828,"▁법칙":14829,"▁느꼈다.\n":14830,"▁그림이":14831,"작가의":14832,"▁바보로":14833,"▁신기할":14834,"▁관계가":14835,"▁중반부":14836,"이에요.":14837,"▁남아돌":14838,"▁아마도":14839,"▁예전의":14840,"▁웬만":14841,"▁메시지는":14842,"▁늙어":14843,"▁늙었":14844,"▁속편은":14845,"▁씬이":14846,"▁하루종일":14847,"▁꾸준":14848,"소재를":14849,"▁cg가":14850,"지말자":14851,"결말도":14852,"▁굿굿굿":14853,"▁괴물이":14854,"▁밝고":14855,"명이서":14856,"▁밥먹":14857,"▁어릴적에":14858,"▁나타난":14859,"▁칼로":14860,"▁놀랍다.\n":14861,"▁설레는":14862,"▁뇌리에":14863,"▁조잡하고":14864,"▁선생님이":14865,"▁났다.":14866,"▁윌스":14867,"▁농락":14868,"▁아픔이":14869,"▁뉴스":14870,"▁생생한":14871,"▁뒤로갈수록":14872,"▁주변에":14873,"하진않":14874,"▁인내심":14875,"ome":14876,"▁love":14877,"아무것도":14878,"출연진":14879,"요소가":14880,"▁이민기":14881,"▁무리수":14882,"▁신비로운":14883,"▁다루는":14884,"▁디테일한":14885,"▁하늘을":14886,"▁최민식":14887,"▁줍니다.":14888,"바이벌":14889,"▁앞뒤가":14890,"▁끔찍한":14891,"▁담겨있는":14892,"▁빵터짐":14893,"▁ᅳ.ᅳ\n":14894,"▁다시보고싶은":14895,"▁옹박":14896,"▁140":14897,"▁기타노":14898,"▁이성재":14899,"▁평소에":14900,"▁이종석":14901,"▁르네":14902,"▁이나영":14903,"▁엽기적인":14904,"▁모니터":14905,"▁손꼽히는":14906,"▁로멘틱":14907,"카메라":14908,"▁이순신":14909,"▁잠수함":14910,"▁이범수":14911,"▁엉덩이":14912,"▁쌍팔년도":14913,"▁초콜릿":14914,"3\n":14915,"3편":14916,"40":14917,"><\n":14918,"@@":14919,"EC":14920,"^.":14921,"_=":14922,"th":14923,"uck":14924,"ww":14925,"▁닫":14926,"▁므":14927,"▁뷰":14928,"▁앗":14929,"▁쩜":14930,"▁................":14931,"▁됨\n":14932,"★\n":14933,"가도":14934,"같지":14935,"거지?":14936,"걸작":14937,"검색":14938,"겁니다.":14939,"겠음":14940,"겠는데":14941,"겠음\n":14942,"겠지만,":14943,"겠지?\n":14944,"관리":14945,"관에":14946,"그닥":14947,"끝이":14948,"너스":14949,"네ᄏᄏ":14950,"노무":14951,"노키":14952,"느낀":14953,"니잼":14954,"다메":14955,"닫는":14956,"답니다":14957,"대신":14958,"더블":14959,"동일":14960,"등을":14961,"락이":14962,"란의":14963,"래원":14964,"력과":14965,"론을":14966,"르르":14967,"릴뻔":14968,"메세":14969,"면도":14970,"무협":14971,"민을":14972,"받아야":14973,"밤에":14974,"버렷":14975,"보네":14976,"보다\n":14977,"본다.\n":14978,"본건데":14979,"볼타":14980,"봤음\n":14981,"부대":14982,"부림":14983,"분열":14984,"분장":14985,"브로":14986,"사상":14987,"살짝":14988,"상관":14989,"세번":14990,"스오":14991,"스토":14992,"슬링":14993,"시윤":14994,"신경":14995,"싶다\n":14996,"애들도":14997,"어든":14998,"없구":14999,"없어\n":15000,"엇어요":15001,"여친":15002,"예상":15003,"왜이래":15004,"유천":15005,"의사":15006,"이즈":15007,"이드라마":15008,"이기도":15009,"인기":15010,"일듯":15011,"일로":15012,"잉\n":15013,"잘하고":15014,"장창":15015,"졌음":15016,"조의":15017,"주\n":15018,"주니":15019,"지겹":15020,"지난":15021,"지지않는":15022,"차고":15023,"처리":15024,"최강":15025,"침을":15026,"팩트가":15027,"포장":15028,"한이":15029,"할머니":15030,"해...":15031,"해..\n":15032,"해라.":15033,"했다..\n":15034,"흐흐":15035,"..아":15036,"영화같":15037,"영화....":15038,"영화임\n":15039,"▁영화냐?\n":15040,"▁영화~!\n":15041,"▁이와":15042,"▁이지만":15043,"▁이감독":15044,"▁이것을":15045,"▁아따":15046,"▁그중":15047,"▁보시는":15048,"▁정글":15049,"▁나게":15050,"▁나나":15051,"▁나같은":15052,"▁나혼자":15053,"▁다문화":15054,"▁하지마라":15055,"▁하야오":15056,"▁좋네":15057,"▁좋다!\n":15058,"▁없구":15059,"▁어거":15060,"▁너무하네":15061,"▁내리는":15062,"▁내평점":15063,"▁진하게":15064,"▁재미업":15065,"▁있네요.":15066,"▁있기에":15067,"▁있겠지":15068,"▁지리":15069,"▁지민":15070,"▁한쪽":15071,"▁한건지":15072,"▁최종":15073,"▁시키는":15074,"네요,":15075,"▁안간":15076,"▁안전":15077,"▁만만":15078,"▁만원":15079,"▁가치는":15080,"▁가운데":15081,"▁재밌지":15082,"▁대하여":15083,"▁봤네":15084,"▁봤는대":15085,"▁마땅":15086,"▁마세요.":15087,"▁무작정":15088,"▁모야":15089,"▁잘라":15090,"▁잘보았":15091,"어요?":15092,"▁않습니다.":15093,"습니당":15094,"▁평점낮":15095,"▁평점높":15096,"▁오다":15097,"▁오덕":15098,"▁오른":15099,"▁개빡":15100,"▁제공":15101,"▁이런쓰레기":15102,"▁인과":15103,"▁배슬":15104,"▁말해준":15105,"▁말하려고":15106,"~~!!":15107,"~~!\n":15108,"▁생각과":15109,"▁왜만들었":15110,"▁자매":15111,"▁같음.":15112,"▁못되는":15113,"▁못했지만":15114,"▁소오":15115,"▁스토리..\n":15116,"▁스토리텔링":15117,"▁알고싶":15118,"▁본영화중":15119,"▁본시리즈":15120,"▁유전":15121,"▁아니다...\n":15122,"▁아니었음":15123,"▁보고또":15124,"하게되는":15125,"▁쓰지":15126,"▁장근석":15127,"▁우마":15128,"▁우월":15129,"▁드라마인데":15130,"▁많지":15131,"▁작살":15132,"▁작업":15133,"▁작작":15134,"▁작정":15135,"▁중심":15136,"▁재미있네요.":15137,"▁재미있던데":15138,"▁뭐...\n":15139,"▁뭐냐\n":15140,"▁공개":15141,"▁2번째":15142,"▁조악한":15143,"▁감독\n":15144,"▁끝.":15145,"▁고릴":15146,"▁고향":15147,"▁고딩때":15148,"▁저딴":15149,"▁해냈":15150,"▁해줘서":15151,"▁다시보면":15152,"▁거리는":15153,"▁좋아하네요":15154,"▁싶다..":15155,"▁신성":15156,"▁바꿀":15157,"▁바래":15158,"▁실력이":15159,"▁불멸의":15160,"▁봤는데\n":15161,"▁봤는데.":15162,"▁봤는데....":15163,"하지.":15164,"▁3번째":15165,"▁기대해":15166,"▁있는것":15167,"▁의아":15168,"▁할것":15169,"▁때우기":15170,"▁죽어도":15171,"▁처음보는":15172,"▁한국식":15173,"▁지금보니":15174,"▁나오니":15175,"▁김규":15176,"▁김창":15177,"▁최악..":15178,"▁또다시":15179,"▁10점!\n":15180,"▁아깝다!\n":15181,"▁별로임\n":15182,"▁강예":15183,"▁관점에서":15184,"▁분신":15185,"▁구할":15186,"▁구리고":15187,"▁따지":15188,"▁심장을":15189,"▁잼났":15190,"▁들려":15191,"▁들었다.\n":15192,"▁당할순":15193,"▁드게":15194,"▁특집":15195,"▁울려":15196,"▁졸립":15197,"을까...\n":15198,"▁무슨생각으로":15199,"...........":15200,"▁서세":15201,"▁볼만했":15202,"▁볼만합니다":15203,"하기에는":15204,"▁흥해라":15205,"▁과감":15206,"▁짱구":15207,"▁짱!!\n":15208,"▁선율":15209,"▁남자들":15210,"▁짜증나\n":15211,"▁짜증난다\n":15212,"▁낮다":15213,"▁눈물나":15214,"이었다면":15215,"▁인생영화":15216,"재밌는데":15217,"▁만들어내는":15218,"▁전개를":15219,"지않을":15220,"▁모르겠다..":15221,"▁한번보고":15222,"▁적합":15223,"▁피디":15224,"▁하고..":15225,"▁욕하면서":15226,"▁찾았":15227,"▁파헤":15228,"▁치곤":15229,"▁외치":15230,"▁찍어도":15231,"▁경쟁":15232,"▁영화였습니다":15233,"▁영화였습니다\n":15234,"▁5~":15235,"▁실망을":15236,"▁실망스럽":15237,"▁대박.":15238,"▁대박나":15239,"▁손오":15240,"스트너":15241,"▁약을":15242,"▁약빨고":15243,"▁놀랄":15244,"▁먹은":15245,"▁믿음":15246,"▁질러":15247,"▁질이":15248,"최고!":15249,"▁제목도":15250,"▁베르":15251,"▁만들었다면":15252,"▁조금더":15253,"▁조금이라도":15254,"평점에":15255,"▁만드는게":15256,"▁웃기기도":15257,"▁미국은":15258,"▁이유없이":15259,"▁형태":15260,"▁그러니":15261,"▁그러니까":15262,"▁훌륭하다.":15263,"▁살아갈":15264,"▁수작이다.":15265,"기를\n":15266,"▁6.5":15267,"이런영화가":15268,"▁싫다.":15269,"▁친구와":15270,"▁무섭다고":15271,"▁빼놓":15272,"▁빨아":15273,"부분만":15274,"▁잡을":15275,"▁총질":15276,"▁오늘은":15277,"▁들어가는":15278,"▁예술가":15279,"▁예술이":15280,"▁책이":15281,"▁브라이언":15282,"▁히틀러":15283,"▁주제곡":15284,"들과의":15285,"▁잔인하기만":15286,"▁재밌어요!":15287,"▁색감이":15288,"▁광해":15289,"▁이름만":15290,"▁하지말고":15291,"느낌.":15292,"▁여주인공도":15293,"▁티비에":15294,"재밋음":15295,"▁괜찮았다.":15296,"▁트와":15297,"▁네이버는":15298,"▁네이버에서":15299,"▁2004년":15300,"▁2003년":15301,"▁196":15302,"이였다":15303,"이였다.":15304,"이였는데":15305,"▁ᄏᄏᄏᄏᄏᄏᄏᄏᄏ\n":15306,"▁ᄏᄏᄏᄏᄏᄏᄏᄏᄏᄏᄏᄏᄏᄏᄏᄏᄏᄏᄏᄏᄏᄏᄏᄏ":15307,"▁틀리":15308,"▁어울릴":15309,"모르겠다":15310,"분들께":15311,"▁에로물":15312,"라니...":15313,"▁압박":15314,"▁어쩌라는":15315,"▁지루함과":15316,"▁감독님이":15317,"▁해야하나":15318,"하자는":15319,"▁놓칠":15320,"▁빌리":15321,"▁됐는데":15322,"사회의":15323,"▁급하게":15324,"▁몰랐다":15325,"▁av":15326,"▁good!\n":15327,"시리즈중":15328,"▁짧지만":15329,"▁놈들":15330,"▁안나올":15331,"▁9점\n":15332,"▁미안하다":15333,"▁줄거리도":15334,"▁줄거리에":15335,"▁합쳐":15336,"▁친절":15337,"▁골든":15338,"해라.\n":15339,"▁멋지다.\n":15340,"▁풀어가는":15341,"▁ᄃᄃᄃ":15342,"▁촌스럽고":15343,"▁노출이":15344,"▁얻은":15345,"▁미래의":15346,"▁샤말":15347,"극장판":15348,"▁밑에분":15349,"만으로는":15350,"▁하루하루":15351,"▁낚였다":15352,"소재는":15353,"▁cg도":15354,"▁지루하다..\n":15355,"▁압권\n":15356,"▁나타나":15357,"bbbb":15358,"드립니다\n":15359,"▁포장한":15360,"▁썩어":15361,"▁징그":15362,"그렇다고":15363,"▁등장인물들이":15364,"▁해피엔딩으로":15365,"캐릭터가":15366,"▁죽여버리고":15367,"▁꽃보다":15368,"▁아버지와":15369,"▁보인다.":15370,"▁발견한":15371,"▁18세":15372,"보고있는데":15373,"▁콘서트":15374,"▁신파극":15375,"원작을":15376,"▁영혼이":15377,"▁타이밍":15378,"▁튀어":15379,"뻔한스토리":15380,"▁PD":15381,"▁장애인":15382,"▁기대이상으로":15383,"▁부끄러":15384,"▁부실한":15385,"▁언니가":15386,"▁서부극":15387,"▁하여금":15388,"▁잊혀지지가":15389,"▁열받아서":15390,"▁익숙한":15391,"▁새로울":15392,"▁Good\n":15393,"▁역량이":15394,"▁불가능한":15395,"▁기회를":15396,"▁아담들러":15397,"▁피터팬":15398,"더라고요":15399,"▁습작":15400,"▁올레티비":15401,"▁1회부터":15402,"▁미션임파서블":15403,"▁놀래키":15404,"99999999":15405,"▁먹칠을":15406,"▁매끄럽지":15407,"▁노무현":15408,"▁유치원생":15409,"▁각각의":15410,"▁이자벨":15411,"▁친일파":15412,"▁11점을":15413,"▁ocn에서":15414,"▁충무로":15415,"▁어디선가":15416,".T":15417,"0-":15418,"3D":15419,"7년도":15420,"80":15421,"SF":15422,"ap":15423,"gt":15424,"ir":15425,"us":15426,"▁렁":15427,"▁렌":15428,"▁펑":15429,"▁험":15430,"가끔":15431,"가는데":15432,"각기동":15433,"갖고":15434,"개뿔":15435,"거\n":15436,"것인지":15437,"광수":15438,"국을":15439,"군데":15440,"그럴":15441,"그지":15442,"급\n":15443,"기리":15444,"기전":15445,"길바":15446,"꺼라":15447,"났다.":15448,"내시간":15449,"닥터":15450,"단지":15451,"달리는":15452,"대결":15453,"데기":15454,"데리고":15455,"드\n":15456,"들인":15457,"들때문에":15458,"듯,":15459,"딩이":15460,"라는데":15461,"라...\n":15462,"란이":15463,"럽다":15464,"레터":15465,"리암":15466,"맞아":15467,"맥스":15468,"멋있":15469,"모양":15470,"물어":15471,"미남":15472,"배가":15473,"보려":15474,"보라고":15475,"보자\n":15476,"봤다..":15477,"부일체":15478,"분들의":15479,"비행":15480,"뿐...\n":15481,"색이":15482,"생크":15483,"성.":15484,"소문":15485,"수,":15486,"쉬는":15487,"시즘":15488,"신과":15489,"쏘는":15490,"쓰래":15491,"씬을":15492,"아픈":15493,"양반":15494,"어려":15495,"없지":15496,"었어":15497,"었습니다.\n":15498,"에비해":15499,"역이":15500,"연습":15501,"열자":15502,"열심히":15503,"오른":15504,"온다.":15505,"온다\n":15506,"요원":15507,"우면서":15508,"울고":15509,"으려다":15510,"을것같":15511,"일지도":15512,"자신을":15513,"잔데":15514,"적,":15515,"점으로":15516,"점수를":15517,"정신이":15518,"줘요":15519,"지상":15520,"집니다\n":15521,"짜고":15522,"찍은":15523,"천포":15524,"쳤다":15525,"출신":15526,"카의":15527,"코드가":15528,"터지는":15529,"페이지":15530,"편도":15531,"포스":15532,"폭행":15533,"피가":15534,"피의":15535,"한가":15536,"함!":15537,"현지":15538,"형을":15539,"호\n":15540,"호는":15541,"흑흑":15542,"힐링":15543,"..뭐":15544,"..그래도":15545,"영화와":15546,"영화!!":15547,"영화라니":15548,"▁영화까지":15549,"▁영화다...\n":15550,"▁영화이지만":15551,"▁이면":15552,"▁이시":15553,"▁아자":15554,"▁아시는":15555,"▁그걸로":15556,"▁재연":15557,"▁재일":15558,"▁나갔":15559,"▁나을듯\n":15560,"는데...\n":15561,"▁다죽":15562,"▁좋으":15563,"▁좋다..\n":15564,"▁좋네요.\n":15565,"▁좋음.\n":15566,"▁없습니다.\n":15567,"▁없지만,":15568,"▁어필":15569,"▁어정한":15570,"▁너무잘":15571,"▁사정":15572,"▁사소한":15573,"▁감싸":15574,"▁있다..":15575,"▁지날":15576,"▁지내":15577,"▁지네":15578,"▁지능":15579,"하고있":15580,"▁안티":15581,"▁안간다.":15582,"▁가지게":15583,"에서부터":15584,"▁재밌네요.\n":15585,"▁재밌음.\n":15586,"▁기반":15587,"▁대구":15588,"▁대여":15589,"▁봤어도":15590,"▁봤으나":15591,"▁전범":15592,"▁수영":15593,"▁무뇌":15594,"▁무방":15595,"▁모래":15596,"▁모처럼":15597,"▁여고생":15598,"▁잘해":15599,"▁잘하시":15600,"어요!!":15601,"어요^^":15602,"▁주셔서":15603,"▁평점테러":15604,"▁오~":15605,"▁오줌":15606,"▁개성이":15607,"▁개짜증":15608,"▁배웠":15609,"▁배제":15610,"▁말대로":15611,"▁생각밖에":15612,"▁자료":15613,"▁같다...":15614,"▁못잡":15615,"▁못하":15616,"▁못함.":15617,"▁소비":15618,"▁남김":15619,"▁남네요\n":15620,"▁알맹":15621,"까지가":15622,"▁미워":15623,"▁유니":15624,"▁볼걸":15625,"▁볼거리는":15626,"▁감동에":15627,"▁일제":15628,"이라이트":15629,"▁비가":15630,"▁비오는":15631,"▁장기":15632,"▁우베":15633,"▁우정이":15634,"▁드라마~":15635,"▁드라마!!":15636,"▁드라마...\n":15637,"▁그냥\n":15638,"▁뭐든":15639,"▁뭐하냐":15640,"▁뭐하러":15641,"▁공격":15642,"보다니":15643,"▁2도":15644,"▁조롱":15645,"▁고집":15646,"▁애쓴":15647,"▁해병":15648,"▁쓰레기다.":15649,"▁쓰레기다\n":15650,"▁쓰레기다.\n":15651,"▁사랑.":15652,"▁사랑할":15653,"▁참....":15654,"▁되는지":15655,"▁반항":15656,"▁보는사람":15657,"▁좋아하":15658,"▁좋아했는데":15659,"▁상당":15660,"▁싶네요":15661,"▁신동엽":15662,"▁눈감":15663,"▁눈은":15664,"▁작품들":15665,"▁없는,":15666,"▁최고의드라마":15667,"▁기대보다":15668,"▁의식":15669,"▁성지":15670,"▁추상":15671,"▁처음이었":15672,"▁몰고":15673,"▁했다고":15674,"▁했지만,":15675,"▁나오다니":15676,"▁김남길":15677,"▁이게뭐야":15678,"▁아깝네요":15679,"이나마":15680,"▁멋짐":15681,"▁초점을":15682,"▁초호화":15683,"▁연출이나":15684,"▁분은":15685,"▁짜고":15686,"▁두뇌":15687,"▁두서":15688,"▁명작중의":15689,"▁동의":15690,"▁잼씀":15691,"▁뭔내용인지":15692,"▁들었다\n":15693,"▁괜찮다":15694,"▁괜찮을":15695,"▁에혀":15696,"배우를":15697,"▁요란":15698,"리는게":15699,"▁포커":15700,"재미도없고":15701,"▁귀한":15702,"▁드리고":15703,"것도아니고":15704,"▁울뻔":15705,"▁공포의":15706,"진짜..":15707,"▁박용":15708,"▁박철":15709,"ᄏᄏᄏᄏᄏᄏᄏᄏᄏ\n":15710,".............\n":15711,"▁서사":15712,"▁볼만은":15713,"▁볼만해요":15714,"▁현실에서":15715,"하기만한":15716,"다니고":15717,"▁과하게":15718,"▁속아":15719,"▁반전까지":15720,"▁매력도":15721,"▁빠르고":15722,"▁빠르게":15723,"▁말이되":15724,"▁걸렸":15725,"ᅮᅮᅮ\n":15726,"▁스릴감":15727,"▁가슴으로":15728,"는지...":15729,"이었으면":15730,"▁인간에":15731,"▁있었다":15732,"지마라.":15733,"▁집안":15734,"▁극장개봉":15735,"▁굿!":15736,"▁모든면에서":15737,"▁한번에":15738,"처럼,":15739,"▁아직은":15740,"▁근거":15741,"▁수준도":15742,"▁욕할":15743,"▁욕하고":15744,"▁전혀없는":15745,"▁재밋음\n":15746,"▁7~":15747,"했던거":15748,"▁갈릴":15749,"▁여운과":15750,"▁코미디의":15751,"▁실망스러웠":15752,"▁호강":15753,"▁독재":15754,"▁손을":15755,"▁놀람":15756,"만들고":15757,"▁표현된":15758,"▁표현하는":15759,"던데...\n":15760,"▁야마":15761,"▁야쿠":15762,"최고다":15763,"▁제목부터":15764,"▁잼있다\n":15765,"봤는데도":15766,"봤는데...":15767,"▁나오는게":15768,"▁베일":15769,"▁만들었나":15770,"▁스릴러도":15771,"▁기분나쁜":15772,"▁잠재":15773,"▁자체\n":15774,"▁자체의":15775,"입니다!\n":15776,"▁개인적":15777,"▁니다\n":15778,"▁보다도":15779,"▁부족\n":15780,"▁웃기려고":15781,"▁디지":15782,"▁나왔음":15783,"▁국뽕":15784,"ᄍᄍᄍ\n":15785,"▁보고싶다.\n":15786,"▁못한게":15787,"거리며":15788,"▁느끼는게":15789,"▁여운이남는":15790,"▁뭘말":15791,"▁변명":15792,"▁변함":15793,"▁갑니다.\n":15794,"해야만":15795,"▁친구들이랑":15796,"▁무섭지도않고":15797,"♥♥♥♥\n":15798,"▁용기를":15799,"▁시청자가":15800,"▁토르":15801,"▁양반":15802,"▁입고":15803,"▁추억돋":15804,"▁추억에":15805,"▁깨우":15806,"▁전쟁에":15807,"▁엔딩까지":15808,"▁힘들어":15809,"▁들어오":15810,"▁들어왔":15811,"구만.":15812,"▁종결":15813,"▁종북":15814,"▁임수정":15815,"▁임팩트가":15816,"▁보았습니다.\n":15817,"시길..\n":15818,"▁클리":15819,"건가..":15820,"▁몰입도를":15821,"▁백만":15822,"▁킬링타임도":15823,"▁오래전":15824,"▁or":15825,"▁재밌어요.\n":15826,"▁궁금하게":15827,"▁빠져들어":15828,"재미없음\n":15829,"▁너도":15830,"이야기를":15831,"▁로맨스도":15832,"자체도":15833,"▁잘봤어요\n":15834,"▁단순하고":15835,"▁늘어지는":15836,"▁딸을":15837,"했지만..":15838,"▁쳐다":15839,"아이들이":15840,"▁상황과":15841,"보고싶다":15842,"보고싶은":15843,"▁킬링타임용\n":15844,"▁어울려":15845,"▁소설의":15846,"▁영화인데,":15847,"▁같은데...":15848,"▁다르겠지만":15849,"▁했는데...":15850,"▁예상되는":15851,"을듯...\n":15852,"을텐데...":15853,"▁윤아":15854,"▁윤제":15855,"버렸다.\n":15856,"▁까메오":15857,"▁잃어":15858,"▁잃었":15859,"▁멜로영화":15860,"▁어쩌고":15861,"▁금지":15862,"▁금치":15863,"▁어이없게":15864,"▁그녀를":15865,"▁크리스마":15866,"▁해야지":15867,"▁생각해보면":15868,"▁만점\n":15869,"▁중요한건":15870,"▁개연성없는":15871,"▁잘만들었다":15872,"▁급급":15873,"▁몰랐던":15874,"▁엉망인":15875,"▁망작.":15876,"▁과거에":15877,"▁최고였다\n":15878,"▁미안해":15879,"연출이":15880,"▁힘든데":15881,"▁법한":15882,"▁사라지고":15883,"▁바라며":15884,"▁현재의":15885,"▁적당\n":15886,"▁노력은":15887,"▁유머와":15888,"▁바람피":15889,"▁탈을":15890,"▁면도":15891,"▁사건이":15892,"▁퍼펙트":15893,"▁춤을":15894,"▁다가오":15895,"▁어렵게":15896,"▁AV":15897,"▁딴짓":15898,"▁시선이":15899,"▁안봤지만":15900,"▁헛소리":15901,"▁슈퍼액션":15902,"드립니다.":15903,"무비\n":15904,"티비티":15905,"▁말이필요없다":15906,"▁포기한":15907,"▁해피엔딩이":15908,"▁흡사":15909,"▁이때까지":15910,"▁아픔과":15911,"▁섬세하고":15912,"▁좌절":15913,"▁밋밋하고":15914,"▁쵝오\n":15915,"▁나옴.":15916,"▁ebs에서":15917,"▁ᄋ\n":15918,"▁슬퍼요":15919,"▁분들께":15920,"노래도":15921,"▁줌.":15922,"▁놀랐다.":15923,"▁쿠바":15924,"▁쿠엔틴":15925,"▁달달하고":15926,"▁최강의":15927,"▁조용한":15928,"▁투자한":15929,"▁봤을때는":15930,"▁봉태규":15931,"▁1,2,3":15932,"▁8점대는":15933,"▁야동을":15934,"▁kbs":15935,"▁싶을정도로":15936,"▁떠올랐":15937,"▁됩니다.":15938,"▁됩니다.\n":15939,"▁테러리스트":15940,"아름다":15941,"▁40대":15942,"▁up":15943,"▁효민":15944,"▁드림스":15945,"▁하여간":15946,"▁주지훈":15947,"▁한방에":15948,"00000000":15949,"▁암걸리는":15950,"▁콜린퍼":15951,"▁밖에는":15952,"▁쓸쓸한":15953,"▁획기":15954,"▁질질끌고":15955,"★★★★★★★★":15956,"▁옴니버스":15957,"▁민주주의":15958,"채널에서":15959,"▁아이디어가":15960,"▁내취향은":15961,"@강추@강추@강추@강추":15962,"▁오유에서":15963,"▁지상파":15964,"개연성":15965,"▁쥬라기공":15966,"▁며칠":15967,"▁신민아":15968,"▁이선균":15969,"▁샤를리즈":15970,"▁여고괴담":15971,"▁어벤져스":15972,"스오피스":15973,",..":15974,",음악":15975,"1,2":15976,"3년도":15977,"7점":15978,"8년도":15979,"==":15980,"bl":15981,"gm":15982,"ust":15983,"xx":15984,"ᅮᅲ\n":15985,"▁*":15986,"▁z":15987,"▁ᄍ":15988,"▁껴":15989,"▁칙":15990,"▁,,,":15991,"▁님들":15992,"가치가":15993,"거임\n":15994,"거에요":15995,"게리온":15996,"고만":15997,"고어":15998,"길.\n":15999,"나은":16000,"내인생":16001,"넘치고":16002,"년을":16003,"는가\n":16004,"당신":16005,"대기":16006,"대에서":16007,"데가":16008,"됩니다\n":16009,"두개":16010,"둘다":16011,"드래곤":16012,"떄문에":16013,"력은":16014,"렸다.\n":16015,"리던":16016,"리뷰":16017,"먹어":16018,"모로우":16019,"뭉클":16020,"미달":16021,"박하고":16022,"받지":16023,"보셈":16024,"불편":16025,"블록":16026,"블리":16027,"비밀":16028,"빠지고":16029,"뿐..":16030,"삶을":16031,"상처":16032,"새로운":16033,"서로":16034,"선징":16035,"성만":16036,"세트":16037,"수\n":16038,"수종":16039,"시걸":16040,"식상":16041,"심심":16042,"앤더":16043,"어나서":16044,"어이가":16045,"엉\n":16046,"에의":16047,"여..":16048,"연결":16049,"연씨":16050,"였을":16051,"영원":16052,"온다":16053,"욕이":16054,"용으로도":16055,"우월":16056,"유루":16057,"으므로":16058,"음....\n":16059,"이요":16060,"이젠":16061,"이어서":16062,"이것도":16063,"이지만,":16064,"인것같":16065,"일텐데":16066,"자극":16067,"자매":16068,"자살":16069,"자신이":16070,"장하는":16071,"잼잇":16072,"정\n":16073,"종교":16074,"주도":16075,"주려고":16076,"죽은":16077,"줬는데":16078,"지구":16079,"지노":16080,"지라":16081,"진한":16082,"쯤은":16083,"천만":16084,"츠의":16085,"코비":16086,"크래":16087,"클럽":16088,"탐정":16089,"토가":16090,"통쾌":16091,"폐지":16092,"포기":16093,"포드":16094,"하도":16095,"하려다":16096,"한건지":16097,"해낸":16098,"했네요.":16099,"했다...\n":16100,"했었던":16101,"확인":16102,"황당":16103,"영화네요":16104,"▁영화,,":16105,"▁영화~~\n":16106,"▁영화평점":16107,"▁영화보단":16108,"▁영화보다는":16109,"▁영화인가?":16110,"▁영화한편":16111,"▁이고":16112,"▁이명":16113,"▁이브":16114,"▁이장":16115,"▁이다.":16116,"▁이스라":16117,"▁그레":16118,"▁그후":16119,"▁그이하도":16120,"▁보아야":16121,"▁정점":16122,"▁정적인":16123,"▁나른":16124,"는데..\n":16125,"▁좋구":16126,"▁좋다는":16127,"▁좋으면":16128,"▁없어요.":16129,"▁없잖아":16130,"▁어을까":16131,"▁사례":16132,"▁사서":16133,"▁사장":16134,"▁진수를":16135,"▁재미까지":16136,"▁있다가":16137,"▁있어요.":16138,"▁있음.\n":16139,"▁지껄":16140,"▁지닌":16141,"▁한게":16142,"▁시킨":16143,"▁안남":16144,"▁안달":16145,"▁안성":16146,"▁1은":16147,"▁스러":16148,"....너무":16149,"▁기원":16150,"▁대기업":16151,"▁봤네\n":16152,"▁봤건만":16153,"▁진짜..\n":16154,"▁마련":16155,"▁마르":16156,"▁마피아":16157,"▁연기들이":16158,"▁연기들도":16159,"▁수위":16160,"▁수호":16161,"▁무표정":16162,"▁무개념":16163,"▁모건":16164,"▁여군":16165,"▁여동생":16166,"▁주의":16167,"▁최고다..":16168,"▁최고!!!":16169,"▁최고입니다.":16170,"▁평점올":16171,"▁평점10점":16172,"▁이런류":16173,"▁인줄":16174,"▁배두":16175,"▁말인가":16176,"▁생각날":16177,"▁생각안":16178,"▁생각함.":16179,"▁생각한다":16180,"▁왜냐":16181,"▁왜들":16182,"▁왜그러":16183,"▁못했다\n":16184,"▁스토리만":16185,"▁남이":16186,"▁남지":16187,"▁남한":16188,"▁남주인공":16189,"▁남아도":16190,"▁알만":16191,"▁알겠다":16192,"▁본드":16193,"▁본다는":16194,"▁느려":16195,"▁유준":16196,"▁아니다..\n":16197,"▁볼까말까":16198,"▁감동까지":16199,"▁비긴":16200,"▁쓰면":16201,"▁것들은":16202,"▁지루했던":16203,"▁지루하네":16204,"▁중심으로":16205,"▁재미있습니다.":16206,"▁부성애":16207,"▁배우에":16208,"▁조은":16209,"▁감독.":16210,"▁감독이나":16211,"▁끝.\n":16212,"▁고고":16213,"▁고루":16214,"▁고쳐":16215,"▁저건":16216,"▁저격":16217,"▁애한":16218,"▁해운":16219,"▁해보고":16220,"▁명량":16221,"▁되버린":16222,"▁거친":16223,"라고\n":16224,"▁싶다..\n":16225,"▁노인":16226,"▁작품!\n":16227,"▁작품인데":16228,"▁액션영화\n":16229,"▁도움":16230,"▁성질":16231,"▁처음이다.\n":16232,"▁후려":16233,"▁했었는데":16234,"▁나오네요":16235,"▁10점주":16236,"▁세번째":16237,"적으로도":16238,"▁허비":16239,"▁관찰":16240,"연기.":16241,"연기자":16242,"▁두가지":16243,"▁느낌...\n":16244,"▁구석이":16245,"▁동경":16246,"▁동원":16247,"▁기억하고":16248,"되는게":16249,"▁우리를":16250,"▁우리와":16251,"▁우리집":16252,"습니다!!\n":16253,"습니다^^":16254,"▁당할":16255,"▁에디":16256,"▁에스":16257,"▁발암":16258,"▁만든건지":16259,"▁그런게":16260,"▁그런대로":16261,"▁아까워요":16262,"▁포스가":16263,"▁꼭봐라":16264,"▁차인표":16265,"▁주인공인":16266,"▁귀요미":16267,"▁설정도":16268,"▁슬로우":16269,"▁유치하기":16270,"▁유치함.":16271,"▁유치하긴":16272,"▁일본영화가":16273,"............\n":16274,"▁점도":16275,"▁서글":16276,"▁서영":16277,"▁서유":16278,"▁결말의":16279,"▁다른사람":16280,"▁누워":16281,"인가요":16282,"▁반전,":16283,"▁걸려":16284,"▁절묘한":16285,"▁짜증날":16286,"▁원작도":16287,"▁맞고":16288,"▁긴급":16289,"▁계단":16290,"▁충족":16291,"▁만들어주세요":16292,"스러움이":16293,"지않음":16294,"▁간다.\n":16295,"더라..\n":16296,"▁건달":16297,"▁굿~":16298,"▁적어":16299,"▁피로":16300,"▁4점대":16301,"▁새드":16302,"정말로":16303,"▁근본":16304,"▁욕설":16305,"▁욕심이":16306,"▁8점이":16307,"▁올만에":16308,"떨어지":16309,"▁치면":16310,"▁외에":16311,"▁경기":16312,"▁영화였음":16313,"▁영화였음\n":16314,"▁먹어":16315,"▁대단하다고":16316,"생각해":16317,"던데.":16318,"▁영화에요.":16319,"▁남는다":16320,"▁대사에":16321,"최고최고":16322,"이지?":16323,"이지..":16324,"▁제목처럼":16325,"이상한":16326,"▁잼있고":16327,"▁내용이지만":16328,"▁조금이나마":16329,"▁스릴러는":16330,"▁기분나":16331,"▁잠만":16332,"▁긴장감,":16333,"▁자체로":16334,"▁메릴":16335,"▁요즘엔":16336,"▁날카":16337,"▁웃기네":16338,"▁않았고":16339,"▁나왔을":16340,"▁나왔다.":16341,"▁타는":16342,"▁시작한":16343,"▁각성":16344,"▁나와는":16345,"▁영화라고..":16346,"▁감정표현":16347,"감동적":16348,"기를...\n":16349,"▁희극":16350,"▁안되게":16351,"▁변하는":16352,"▁좋겠네요\n":16353,"▁산타":16354,"▁갑니다":16355,"▁만화\n":16356,"▁용의":16357,"사랑하는":16358,"▁빨려":16359,"합니다^^\n":16360,"▁봤던건데":16361,"하네...\n":16362,"▁청소":16363,"▁힘들다.":16364,"▁분위기만":16365,"▁이딴영화":16366,"▁이딴영화가":16367,"▁환타지":16368,"구만...":16369,"▁찾아가는":16370,"▁종종":16371,"▁뿐...\n":16372,"▁뿐이고":16373,"▁보세요..":16374,"보니깐":16375,"▁포스터를":16376,"▁\"\"\"이":16377,"작품이":16378,"▁얘네":16379,"▁지나가":16380,"▁폭파":16381,"▁낫겠":16382,"▁낫다고":16383,"▁궁금하다.\n":16384,"▁별점은":16385,"재미있어":16386,"▁Th":16387,"꿀잼\n":16388,"▁나올수":16389,"▁나올법한":16390,"▁말도안돼":16391,"▁끌리는":16392,"▁얼굴에":16393,"▁비슷해서":16394,"▁영상미에":16395,"▁재미있었습니다.":16396,"▁첫장면":16397,"▁사람들에겐":16398,"▁비교도":16399,"▁괜찮았고":16400,"▁죄책":16401,"▁발연기가":16402,"이네...\n":16403,"▁sm":16404,"▁벌레":16405,"▁네이버에":16406,"▁알게되":16407,"▁딸의":16408,"▁ᄏᄏᄏᄏᄏᄏᄏᄏᄏᄏ":16409,"▁ᄏᄏᄏᄏᄏᄏᄏᄏᄏᄏᄏ\n":16410,"▁테스트":16411,"▁c급":16412,"▁있을까.":16413,"구요.\n":16414,"▁소설이":16415,"▁다르다":16416,"을텐데..":16417,"1점준거":16418,"기대를":16419,"을수있는":16420,"▁묘사가":16421,"▁즐거워":16422,"던가.":16423,"▁예쁘다":16424,"▁벗고":16425,"▁끝나면":16426,"▁생각해볼":16427,"▁회복":16428,"▁흥행을":16429,"▁향수를":16430,"▁아닐까?":16431,"이라니..":16432,"하지않는":16433,"▁순간순간":16434,"▁댓글알바":16435,"▁나이를":16436,"▁시절을":16437,"▁시절이":16438,"만이쁨":16439,"▁-_-;;":16440,"▁이리저리":16441,"영상미":16442,"연출,":16443,"▁줄거리를":16444,"▁물론이고":16445,"▁재밌는데\n":16446,"▁설명은":16447,"▁결혼하고":16448,"▁있다는걸":16449,"▁미화시킨":16450,"▁사라졌":16451,"▁덕후":16452,"▁SF영화":16453,"▁워킹":16454,"▁진실은":16455,"▁이러면":16456,"▁천재적인":16457,"▁놀라게":16458,"▁짓을":16459,"▁접한":16460,"▁행동을":16461,"▁어렵다.":16462,"▁웬지":16463,"▁4점\n":16464,"▁곳에":16465,"아아아아":16466,"▁내생의":16467,"결말은":16468,"▁연예인이":16469,"▁악역이":16470,"▁안본다\n":16471,"▁그럭저럭\n":16472,"▁나타내":16473,"제목이":16474,"한국영화":16475,"보지마세요":16476,"▁싸이코패":16477,"▁쇼생크":16478,"▁채널을":16479,"▁꼽히는":16480,"▁미치지":16481,"▁이루는":16482,"▁지겹다\n":16483,"▁섬세하게":16484,"▁시사회로":16485,"▁좌빨":16486,"▁좌좀":16487,"▁일반인":16488,"▁고등학교때":16489,"▁아까웠다!!!\n":16490,"▁견자단이":16491,"소설을":16492,"▁외모가":16493,"▁줌.\n":16494,"▁반복되는":16495,"▁치밀하고":16496,"▁노답\n":16497,"▁^-":16498,"▁엠비":16499,"▁이용해":16500,"슬프고":16501,"▁DVD로":16502,"역사상":16503,"▁강력한":16504,"▁몇년전에":16505,",.,.,.,.":16506,"OOO기":16507,"▁여름에":16508,"▁제외하면":16509,"▁21세":16510,"▁홀로":16511,"▁안쓰는데":16512,"▁열정과":16513,"죽는줄알았":16514,"▁근래에":16515,"▁담겨져":16516,"▁이수근":16517,"▁편안하게":16518,"▁개성있는":16519,"▁로드리게":16520,"▁어떨까":16521,"▁기존의":16522,"▁블루레이":16523,"▁녹아있는":16524,"무엇보다":16525,"▁아기자기한":16526,"케이블":16527,"▁맙소":16528,"▁그로테스크":16529,"▁앞서간":16530,"▁보석같은":16531,"▁난무하는":16532,"영화제에서":16533,"▁지독한":16534,"▁클로즈":16535,"▁소소하게":16536,"▁엉뚱한":16537,"~10점주는":16538,"미니즘":16539,"▁은은한":16540,"▁누구에게나":16541,"▁식스센스":16542,"▁안젤리나":16543,"▁버금가는":16544,"▁미성년":16545,"본방사수":16546,"▁이슬람":16547,"▁중구난방":16548,"▁트와일라잇":16549,"선징악":16550,"▁이스라엘":16551,".?":16552,"3분":16553,">\n":16554,"?ᄏᄏ":16555,"▁@":16556,"▁껄":16557,"▁댓":16558,"▁았":16559,"▁큼":16560,"▁적인":16561,"▁♡\n":16562,"▁낄낄":16563,"같네":16564,"개막장":16565,"거니":16566,"겁니다.\n":16567,"겠지..":16568,"겠지.":16569,"경,":16570,"고...\n":16571,"구성이":16572,"급.":16573,"기발":16574,"까.\n":16575,"꿈을":16576,"끝날때":16577,"날에":16578,"남친":16579,"냐....":16580,"년간":16581,"노소":16582,"느꼈":16583,"니당":16584,"니를":16585,"니콜":16586,"니다...\n":16587,"다섯":16588,"더군":16589,"데요":16590,"동영상":16591,"된다고":16592,"드럽게":16593,"들게":16594,"들..\n":16595,"등이":16596,"디스":16597,"뜬금":16598,"락을":16599,"레알":16600,"류가":16601,"림..":16602,"마\n":16603,"마를":16604,"만난":16605,"만세":16606,"만..\n":16607,"망\n":16608,"매일":16609,"모니":16610,"모도":16611,"못함":16612,"무한":16613,"물가":16614,"뭐지":16615,"바꿔":16616,"범이":16617,"법을":16618,"변화":16619,"병이":16620,"보세요.":16621,"봣다":16622,"봤을때":16623,"브이":16624,"사투":16625,"산으로":16626,"생명":16627,"서를":16628,"선정":16629,"설정이":16630,"성형":16631,"세대":16632,"세월":16633,"소린":16634,"소서":16635,"시각":16636,"시디어":16637,"실에서":16638,"심\n":16639,"십시오":16640,"애씨":16641,"애의":16642,"어쩜":16643,"없나":16644,"엇지만":16645,"에\n":16646,"여...":16647,"였습니다\n":16648,"옥빈":16649,"온다.\n":16650,"완성도":16651,"왜케":16652,"외엔":16653,"우석":16654,"우성":16655,"웠음\n":16656,"음과":16657,"응원":16658,"이더":16659,"이었는데":16660,"인들에게":16661,"일드":16662,"있다는":16663,"자에게":16664,"정돈":16665,"제국":16666,"조선":16667,"주혁":16668,"줌.\n":16669,"중심":16670,"지~":16671,"지경":16672,"지면서":16673,"진부":16674,"짜리는":16675,"짝짝":16676,"차게":16677,"차이가":16678,"천히":16679,"축구":16680,"콜세":16681,"쿠삭":16682,"타\n":16683,"탄생":16684,"통을":16685,"투성이":16686,"튼의":16687,"포트":16688,"폰으로":16689,"하...":16690,"하라\n":16691,"하셔서":16692,"해...\n":16693,"햇다\n":16694,"했어야":16695,"했어\n":16696,"했나?":16697,"환의":16698,"황후":16699,"회까지":16700,"흘러":16701,"영화인지":16702,"영화보면서":16703,"▁영화내용":16704,"▁영화사에":16705,"▁이뿌":16706,"▁이서":16707,"▁이기는":16708,"▁아냐":16709,"▁그정도":16710,"▁보수":16711,"▁보편":16712,"▁보라는":16713,"▁보시고":16714,"▁재벌":16715,"...이건":16716,"▁나지":16717,"▁나라는":16718,"▁하였":16719,"▁하이라이트":16720,"▁좋습니다\n":16721,"▁없네..":16722,"▁사나이":16723,"▁진자":16724,"▁있어요\n":16725,"▁있을때":16726,"▁있나?":16727,"▁지역":16728,"으로,":16729,"▁최후의":16730,"▁안믿":16731,"▁안정":16732,"▁안들어":16733,"▁안보는데":16734,"▁정말..\n":16735,"▁정말....":16736,"▁스럽":16737,"▁스턴":16738,"▁가문의":16739,"▁재밌는거":16740,"▁기어":16741,"▁기절":16742,"▁대립":16743,"▁전파":16744,"▁진짜...\n":16745,"▁마술":16746,"▁마동석":16747,"▁마모루":16748,"하는걸":16749,"하는건지":16750,"▁수목":16751,"▁수술":16752,"▁수습":16753,"▁무명":16754,"▁무모":16755,"▁무튼":16756,"▁무리가":16757,"어요...\n":16758,"▁최고,":16759,"▁최고~\n":16760,"▁않다는":16761,"▁평점너무":16762,"▁오리":16763,"▁오디션":16764,"▁개가":16765,"▁제레미":16766,"▁인위":16767,"드라마의":16768,"~~^^":16769,"▁생각하니":16770,"▁생각한다면":16771,"▁자의":16772,"▁자기만":16773,"▁자리를":16774,"▁못알아":16775,"▁남겼":16776,"▁남들이":16777,"▁남네요.":16778,"▁남동생":16779,"▁미묘한":16780,"▁유대":16781,"▁아니더라도":16782,"▁볼까":16783,"▁감동감동":16784,"▁일은":16785,"▁비둘":16786,"▁비포":16787,"▁것의":16788,"▁장선":16789,"▁장인":16790,"▁장점":16791,"▁지루했다\n":16792,"▁지루하긴":16793,"▁지루하기도":16794,"▁드라마중에":16795,"▁드라마에요":16796,"▁작렬":16797,"▁부재":16798,"▁뭐?":16799,"▁공산":16800,"▁조미":16801,"▁조성":16802,"▁조한":16803,"▁내용없는":16804,"▁감독아":16805,"▁고만":16806,"▁애는":16807,"리고,":16808,"▁해라.":16809,"▁명절":16810,"▁참\n":16811,"▁참혹":16812,"▁되네요.":16813,"▁반개":16814,"▁반면":16815,"▁반의":16816,"▁보는건":16817,"▁매끄":16818,"라고?":16819,"▁싶습니다.":16820,"▁싶네요.":16821,"▁눈도":16822,"▁바램":16823,"▁바치는":16824,"▁이거\n":16825,"▁노다메":16826,"▁작품입니다.":16827,"OOD":16828,"하지?":16829,"▁기대하게":16830,"▁기대하며":16831,"▁좋았는데...":16832,"▁의지가":16833,"▁하나?":16834,"▁하나경":16835,"▁하나씩":16836,"▁할지":16837,"▁처음이네":16838,"▁한국영화를":16839,"▁지금이":16840,"▁나오지만":16841,"▁나오길래":16842,"▁김상":16843,"▁김정은":16844,"▁극대화":16845,"▁허준":16846,"▁1점준다\n":16847,"▁강남":16848,"▁강박":16849,"▁돈에":16850,"▁로로":16851,"▁두렵":16852,"▁두분":16853,"▁느낌과":16854,"▁느낌으로":16855,"▁명작이네요":16856,"▁동급":16857,"▁잼난":16858,"▁잼없음":16859,"▁이야기,":16860,"▁기억속에":16861,"▁뭔데":16862,"▁우리도":16863,"이다!!":16864,"▁괜찮음":16865,"▁괜찮다고":16866,"지도,":16867,"▁여자애가":16868,"▁만든다\n":16869,"▁막힌":16870,"▁막무가":16871,"▁주인공으로":16872,"▁단어가":16873,"▁슬플":16874,"필요가":16875,"▁유치하게":16876,"▁유치하다":16877,"▁졸린":16878,"▁존스":16879,"▁줄줄":16880,"▁박힌":16881,"▁박유천":16882,"ᄏᄏᄏᄏᄏᄏᄏᄏ\n":16883,"▁망상":16884,"▁점을":16885,"▁서른":16886,"▁서태":16887,"▁볼만하고":16888,"▁볼만하다.\n":16889,"▁리부":16890,"▁리브":16891,"▁누굴":16892,"▁보면,":16893,"▁짱나":16894,"▁매력과":16895,"▁매력적이고":16896,"▁말이안":16897,"▁짜증\n":16898,"▁짜증난":16899,"▁짜증난다.":16900,"▁원작인":16901,"▁솔찍":16902,"▁눈물샘":16903,"▁눈물나는":16904,"▁맞나":16905,"▁높고":16906,"이었고":16907,"▁전개로":16908,"▁있었으나":16909,"▁간다.":16910,"▁모르겠으나":16911,"니까?\n":16912,"▁필요도":16913,"▁필요없음":16914,"▁한번만":16915,"정말\n":16916,"▁하고자":16917,"▁편히":16918,"▁파치노":16919,"▁재밋어":16920,"▁언더":16921,"▁행운":16922,"▁이제그만":16923,"▁찍어서":16924,"▁추천해주고":16925,"▁호감":16926,"▁호평":16927,"▁호화":16928,"감독과":16929,"▁놀라고":16930,"▁먹었":16931,"▁나온게":16932,"▁배우들과":16933,"▁대단하":16934,"생각하고":16935,"생각보다":16936,"생각나서":16937,"▁가족은":16938,"▁재미있게봤":16939,"했는데...":16940,"▁물리":16941,"이지.\n":16942,"이지나도":16943,"▁제목으로":16944,"▁아쉽네요.":16945,"▁떨어져서":16946,"▁않고\n":16947,"▁느껴야":16948,"▁느껴져서":16949,"▁네이":16950,"▁데이트":16951,"▁떠들":16952,"▁부족하다":16953,"▁부족함이":16954,"이란..":16955,"▁내용도없고":16956,"▁아까운영화\n":16957,"▁정신없이":16958,"▁정신세계":16959,"▁이유도":16960,"▁목적이":16961,"▁목소리는":16962,"▁디비":16963,"▁나왔다":16964,"▁타입":16965,"▁시작된":16966,"▁형성":16967,"▁형식":16968,"▁1편보단":16969,"▁삼각":16970,"▁킬빌":16971,"▁글래":16972,"▁그러고":16973,"▁훌륭하다":16974,"▁훌륭하다.\n":16975,"이없어서":16976,"▁뒤돌아":16977,"▁따뜻해":16978,"▁감정에":16979,"▁영화로만":16980,"▁영화로써":16981,"▁20여":16982,"▁나도모르게":16983,"▁뭘까?":16984,"▁안되겠":16985,"▁장난하냐?":16986,"▁변질":16987,"이런걸":16988,"▁친구에게":16989,"▁행복은":16990,"▁사실은":16991,"▁용가리":16992,"▁답답하다":16993,"▁시청율":16994,"▁토할뻔":16995,"▁부분에":16996,"▁없이도":16997,"▁자신에게":16998,"▁양키":16999,"▁입을":17000,"▁관객은":17001,"하네.\n":17002,"▁엔딩도":17003,"▁어색해서":17004,"▁어색하지":17005,"▁팬이라":17006,"▁잡다":17007,"▁다큐의":17008,"▁뿐.":17009,"▁태극":17010,"▁역사는":17011,"▁코믹도":17012,"▁아름답다":17013,"▁캐스팅,":17014,"▁설정을":17015,"▁후회할":17016,"▁민간":17017,"▁브금":17018,"주의에":17019,"▁지나가는":17020,"▁히스":17021,"▁히치":17022,"▁보지말고":17023,"▁터짐":17024,"▁집중하게":17025,"▁채민서":17026,"▁빠져든":17027,"▁먼지":17028,"▁순수하게":17029,"▁순수함을":17030,"▁투성이":17031,"▁중국영화":17032,"▁끌려":17033,"전개도":17034,"▁걸작을":17035,"▁걸작이":17036,"▁걸작.\n":17037,"▁똥칠":17038,"느낌의":17039,"▁재미있었어요\n":17040,"▁B급영화":17041,"▁키드먼":17042,"▁맛있는":17043,"▁전체를":17044,"▁비디오용":17045,"이였다.\n":17046,"▁영화,\n":17047,"▁꼬아":17048,"▁꼬라지":17049,"▁ᄏᄏᄏᄏᄏᄏᄏᄏᄏ":17050,"▁상황에서":17051,"▁좋은데,":17052,"▁좋은데..":17053,"▁풍부한":17054,"▁평가할":17055,"▁애들용":17056,"▁애들한테":17057,"할때마다":17058,"1010":17059,"▁자연의":17060,"▁뭐야\n":17061,"봐야지\n":17062,"▁겁나게":17063,"▁기다리는":17064,"▁각본을":17065,"▁질질끄는":17066,"▁누구를":17067,"▁확실하게":17068,"던가\n":17069,"▁금성":17070,"▁금요일":17071,"▁화면도":17072,"었음..\n":17073,"해주세요\n":17074,"▁씨리즈":17075,"▁감성에":17076,"▁써야":17077,"▁관람가":17078,"▁TV판":17079,"좋았던":17080,"▁프랑스영화":17081,"▁안타깝다":17082,"▁안타깝지만":17083,"▁든다":17084,"▁맥어보이":17085,"▁먹먹하고":17086,"시리즈는":17087,"▁흥미진진하게":17088,"▁찌푸":17089,"지금은":17090,"▁진지하고":17091,"▁견디":17092,"▁후반부는":17093,"▁갔다가":17094,"▁내인생에":17095,"▁그럴듯한":17096,"▁골라":17097,"▁대작\n":17098,"▁유머러스":17099,"▁촌스럽지":17100,"▁멀한":17101,"▁전작을":17102,"▁그려진":17103,"▁우울하고":17104,"▁만큼의":17105,"▁해주길래":17106,"▁뜬금포":17107,"▁철학이":17108,"▁학원":17109,"▁어찌보면":17110,"▁얻을":17111,"▁감동적임":17112,"▁별로였다.":17113,
[...]
